02
09
00
18
16
11
22
20
13
17
03
31
0a
1e
17
18
14
0c
18
f9
1c
0e
ee
17
fd
03
10
08
09
02
10
15
1c
1d
12
10
0a
14
12
f0
0f
19
06
23
0f
06
04
1a
1f
0f
0c
2c
1a
16
05
1e
fc
13
26
1d
29
16
19
1e
fa
20
05
f6
1e
23
19
16
f6
17
01
1e
1b
0a
18
02
f0
23
f8
0b
1c
f9
ef
12
0d
0a
0d
28
fe
1e
24
26
18
03
08
17
24
03
ef
12
04
ee
1b
1b
f7
14
e8
0a
0f
06
0b
fb
1e
1f
13
16
f8
e3
fa
13
fb
00
1a
f0
1a
18
0a
0a
0b
22
24
0f
16
16
07
03
12
1c
11
1a
03
1b
12
fd
3a
0b
0e
17
1f
2e
ff
11
1c
11
02
1c
0f
4f
0a
01
2b
1b
23
08
18
11
fd
15
0d
0a
12
04
18
11
fd
1d
f6
e6
21
fb
0b
f9
00
0d
11
03
1b
1c
f0
0a
19
22
11
1d
0b
0d
f7
19
f2
17
10
ed
1a
1a
17
0f
1d
2a
18
15
21
20
11
51
08
0b
05
25
12
10
2f
e0
1b
0c
22
02
fe
14
03
18
0b
f1
1d
f5
fe
01
07
06
fe
f2
0c
16
0f
fc
14
29
18
eb
25
1c
19
f9
0b
11
06
19
21
08
f8
1c
16
1f
02
1b
17
0b
f7
0d
09
20
13
f3
fe
20
24
10
fd
1e
fd
14
08
10
18
1a
fb
f7
04
06
ef
0a
1b
09
f7
18
14
1a
01
16
24
0b
19
f9
20
1d
09
f8
1b
13
13
23
f9
0a
06
1a
0e
28
11
09
f4
f9
fe
0c
13
1a
18
00
1e
1e
1a
fd
16
0d
1e
0a
16
01
21
0f
0c
f1
f9
22
28
14
15
ff
1b
f7
16
07
1e
08
24
ef
fb
04
0a
24
19
23
01
15
1e
0d
13
09
1a
ee
1a
08
1c
0f
ee
0b
14
1f
06
14
f4
09
f5
0e
17
17
fe
e4
0d
05
0a
ed
d7
25
1a
2d
0d
fc
12
16
0f
0d
1a
07
fa
15
ee
fc
18
0b
11
16
12
04
1b
1a
26
02
dd
1b
21
12
11
0b
24
fb
1c
05
16
23
08
e7
0c
1e
0a
03
18
21
18
16
f0
14
fd
18
87
1e
0c
09
13
18
05
19
17
28
06
fe
1b
03
0f
01
fc
10
23
ed
13
04
1a
1a
0b
00
19
09
21
19
1b
24
19
fe
05
17
0b
1d
fe
e3
1b
19
0f
1b
0f
1f
03
1c
1a
08
05
19
02
ec
12
1e
12
0e
1a
ff
20
f4
0d
15
10
0e
fe
0d
18
0f
13
07
1d
e2
27
10
10
0a
22
17
0b
19
15
21
e3
10
0e
06
e1
0e
18
15
1a
1d
2b
13
1b
f1
f1
23
06
15
01
06
fd
1c
1b
1d
16
00
27
19
19
08
04
10
12
12
19
1d
0b
f9
1d
17
2e
23
16
13
2c
08
0a
1b
ea
19
21
1b
1c
08
f1
04
0f
fa
17
0d
0a
ff
17
1a
12
fd
1b
f5
15
10
fa
fb
09
fd
16
fc
18
ec
23
1a
0c
09
0d
03
0d
2b
02
e9
1a
04
12
14
07
f6
03
05
f9
fa
0d
17
0f
34
23
15
1c
f0
21
0e
0f
09
0a
1b
fe
00
08
19
14
1f
17
13
05
ed
10
e8
01
e1
1b
08
3f
f6
12
0d
f6
10
11
17
fa
16
f3
2a
f1
1b
e6
d5
03
0e
12
17
2c
0a
12
1b
e0
22
fe
0f
f9
f7
0f
14
00
e2
0b
18
07
15
fd
01
2f
10
21
11
ee
23
18
1b
2e
f1
ef
1f
f5
1a
1f
15
ed
20
02
0a
2a
10
11
18
12
0b
1b
0c
1f
0d
18
20
f6
ed
19
06
1a
0e
0f
17
0f
10
22
02
1b
18
1a
1a
20
0b
1e
f4
f9
22
1c
06
02
05
10
12
0b
02
fc
e3
21
ec
17
13
03
13
12
ff
10
1c
1f
fd
06
28
07
0f
1c
00
e8
03
06
1d
21
2a
0a
13
09
fe
fe
0e
05
02
1f
15
ee
0a
0f
1b
10
f8
1c
1a
17
fd
1d
12
19
14
f7
1d
1f
e9
ef
11
1c
0a
1e
f9
20
20
16
1b
21
ea
04
00
02
01
09
17
f4
02
03
0e
17
14
1a
1d
07
24
ee
e8
1d
2a
0e
08
23
07
20
0c
15
15
f2
0a
12
07
1d
fe
18
07
1b
09
08
1f
12
0e
0c
15
07
03
20
ee
14
1b
24
13
ff
13
16
f2
14
08
0a
0e
15
03
14
32
19
11
21
10
0e
12
22
1d
e6
13
11
04
09
0c
0c
ec
fd
03
e7
1c
17
19
f5
0d
0f
fb
03
06
18
17
02
08
02
22
19
0f
f6
1c
15
16
ff
1a
e4
00
0c
12
e3
1e
01
f6
12
24
56
30
17
f0
1d
28
03
21
f3
1e
16
0e
f8
08
17
d6
23
00
15
01
0a
08
11
06
1a
03
14
18
11
0b
15
14
12
0b
19
13
0d
1a
19
0b
f8
1d
ed
1a
f8
1a
0f
fc
08
14
09
09
28
13
09
f7
22
00
ff
29
de
f3
17
fe
ee
1d
1f
28
1b
fc
0c
14
10
16
1b
1e
f6
04
f3
01
05
ff
19
12
2d
fe
16
ec
02
10
f1
07
24
03
fe
19
0a
04
07
1e
07
0c
11
3f
25
f1
0a
11
12
1f
09
09
07
08
0c
20
f6
0e
04
0f
12
1c
f4
07
0d
07
0c
1a
12
0f
12
1c
02
eb
e3
16
27
21
f6
e7
06
29
02
11
0e
1b
1d
07
15
11
06
fb
06
1a
0d
03
23
19
1a
16
04
fd
25
09
2a
1b
27
34
18
f5
04
11
02
fb
0f
f5
07
1f
16
00
38
ff
11
16
e7
fb
0d
fa
f0
19
15
15
0e
15
12
1f
11
00
11
03
f0
22
06
13
fa
06
fd
fd
f4
1d
