00
f9
0e
fb
00
e8
06
0b
02
fc
03
ff
0c
f2
06
ef
17
0a
fe
ec
f3
0b
fb
02
0d
fc
fd
0b
02
07
f7
f0
0d
00
f7
09
ff
02
05
06
0c
f6
f2
12
0d
0b
fe
02
fb
fc
03
f7
02
f9
0a
0c
06
fe
f2
0c
ff
08
0b
02
ea
00
0a
fa
eb
00
e7
fc
02
f1
04
f8
04
16
f7
e5
05
fc
09
02
0a
14
08
fa
fc
f8
04
09
00
14
1e
f6
f7
fa
17
01
06
fe
fa
0b
03
f8
fb
eb
01
f6
04
ee
f4
f9
f6
f6
fd
fd
05
ff
07
0b
11
fc
0a
04
ea
fd
07
07
0b
0b
fa
0b
fc
fc
03
ff
f9
08
f0
08
ed
fb
f7
ec
fd
01
07
03
02
f7
f7
f6
02
f8
fe
09
ef
00
f8
03
06
ff
05
f7
0d
0b
03
f8
0c
ff
f9
0f
01
f3
fc
f8
f6
f2
fb
ed
ff
03
02
07
ee
06
fe
0d
06
f6
09
fb
f5
e5
f8
04
fd
05
0c
07
f8
f5
01
0e
ff
e7
0c
1e
01
fb
06
0b
02
15
00
fe
0a
f0
02
fa
06
03
f0
02
ff
02
ff
f6
07
04
0e
0b
f4
ff
fb
18
f9
ea
02
0e
fa
f2
0a
fa
09
fd
f1
ee
03
01
f8
02
f4
12
ea
00
02
08
03
0e
f4
08
e1
f7
06
0f
fa
f5
0d
fe
ef
06
0d
07
f8
04
f6
ff
f9
f5
ff
fe
06
03
19
01
0f
f0
e7
f8
13
f8
1a
fb
06
08
f6
fb
16
07
ec
05
ea
02
0f
04
00
f6
04
fb
04
01
06
04
06
fd
ee
f9
ff
fd
ff
f9
06
ff
f6
04
04
08
0c
f5
0e
f9
fe
07
07
fb
e5
05
03
0b
20
ee
ef
11
06
00
0e
f8
fd
0e
08
05
f7
03
0c
ff
14
fc
0a
fd
f9
00
ff
ff
0a
01
f0
f7
f8
ee
06
fb
04
f8
fe
06
f9
06
fd
0b
fc
00
01
03
f8
13
f5
0e
0c
01
fe
fb
fd
08
0d
0b
fc
16
0e
0c
fb
03
0a
0d
ff
03
01
f9
01
06
ff
fe
f5
03
fc
f3
00
12
fb
fa
e6
00
ff
00
e0
04
fa
01
f8
fd
06
fa
fd
f7
12
fd
05
08
0a
04
fc
18
06
00
0e
09
f2
fa
f8
f4
01
04
04
fe
fc
07
00
f9
0d
fe
f8
ed
fa
00
00
19
f9
0b
e2
0c
04
fe
fe
ea
ff
fc
e3
04
03
10
f5
ff
fe
f7
eb
fb
f1
02
04
07
fb
fc
fd
fc
00
f7
fa
02
0d
f7
01
03
01
f9
eb
0f
fe
fd
fa
0b
13
fb
0c
e4
f9
06
ee
fd
03
12
08
0d
17
0a
07
08
f9
ea
02
0f
07
f5
0b
f6
fa
e8
ee
fd
15
f5
08
05
04
0f
f9
fb
07
fb
f9
01
09
19
fd
05
ed
f5
09
f9
06
0a
00
fc
0a
f3
f7
f6
08
02
00
f9
0c
11
f4
f2
f5
04
f6
06
08
00
fd
f8
01
0e
f0
01
fd
14
fd
07
fa
0c
f1
1f
06
17
f9
0e
f7
07
0a
05
08
03
fa
fe
06
01
f4
f5
05
f6
e6
14
03
f7
0b
13
fe
0f
06
fc
03
04
0b
ee
f6
0a
29
ef
03
fb
0e
0b
06
02
09
1d
ec
fd
03
ef
20
0e
00
fb
fc
11
e7
01
00
05
0a
0a
f7
15
0c
07
0f
f6
f6
12
0f
f5
01
0b
01
01
f9
0a
f8
08
fe
fd
04
1b
0a
03
06
f0
0a
ed
f7
03
f5
f9
05
fc
db
11
19
f9
fa
fa
0f
02
f5
09
f2
08
ea
0d
fd
fc
03
04
ff
08
ff
fe
09
f3
fe
0b
19
11
00
0a
f0
03
fd
0e
06
ff
dc
fc
05
f7
04
05
f3
02
f4
1a
f0
f5
1a
19
fe
f5
f5
03
f9
0f
12
0d
10
f1
06
0e
05
ec
fa
0d
14
18
02
fd
04
10
ff
e5
ec
02
fa
ff
0d
fd
fe
09
ff
13
fb
02
04
04
02
fc
f5
1b
ff
f2
0b
15
f8
ed
f2
0c
f9
11
03
05
00
ed
f2
03
04
fd
e4
10
0a
eb
0e
00
f5
f3
0f
02
ea
f3
09
fd
0e
17
03
f0
05
f9
00
01
f2
01
05
fc
21
ee
0d
06
02
0e
11
f8
0b
f5
e9
09
15
f7
0b
16
fe
fb
0e
fd
f9
ef
fe
f6
02
09
00
e7
ff
00
fb
f4
e4
10
f0
fa
04
1a
ff
1b
0e
08
04
11
f6
0b
ec
ef
fb
e1
01
ff
f6
11
07
0f
0c
fb
07
fd
ff
04
f9
fb
09
f7
fb
09
f0
0b
fb
fd
f1
e7
e5
fe
f5
05
ea
f6
ec
fe
05
f5
f8
00
fa
ec
fc
fc
fc
13
1b
f8
05
da
f0
fe
f7
12
f4
15
fa
07
0f
04
03
f9
03
07
ef
f3
14
06
ff
fb
fe
05
1a
0d
fc
02
fc
04
09
01
f9
f9
f5
11
03
10
10
0b
fe
fb
15
01
f9
fe
f7
0a
04
08
ff
03
fa
07
fa
ff
ff
05
f0
f6
fe
08
f8
0f
fb
01
ee
f0
fd
06
f6
0c
f7
fc
f1
00
fc
ec
10
f7
f9
0b
08
f3
03
fa
fd
0b
01
01
16
02
ff
01
f1
0d
fc
f9
fb
f5
fc
ef
f9
04
00
02
08
14
f1
f4
e6
fc
f7
fb
1b
f7
04
0e
0f
fe
f7
f5
01
05
07
f5
fa
f3
f7
04
0f
f3
fe
f8
f8
0e
05
01
01
0f
f5
01
0b
00
00
ff
01
06
0b
11
fc
08
01
02
fe
fe
03
01
fb
04
07
f8
0c
02
1e
f6
ff
f4
d8
02
f8
ea
ea
0b
f3
f7
00
e6
06
08
f0
f9
fe
fe
ff
0f
f4
04
02
ff
06
f6
0d
e1
0d
fc
07
05
fb
09
ed
fb
00
fa
02
05
07
ff
0e
03
0f
ed
01
fd
08
fe
02
1b
0b
fc
fa
fa
0b
ff
09
ec
0a
f9
fe
02
ee
23
02
f6
00
21
e9
ed
0d
fc
f1
07
fd
18
09
f8
fd
0b
ef
10
f3
ef
f9
01
08
fa
0c
01
db
e7
0d
12
f8
08
0b
fe
0b
00
0e
02
04
07
0e
0d
f7
00
fa
00
01
fd
04
19
0f
fc
fd
16
ed
f9
f9
06
09
12
00
01
dd
fc
00
09
06
1b
01
f6
10
00
02
16
00
ff
02
ec
1d
fe
00
0e
00
05
1a
f2
ec
f1
fd
f2
0d
0f
fd
11
11
05
1f
ff
f5
01
ed
0c
fa
07
f2
f5
00
ec
f1
0b
0c
f9
fb
f1
f5
ff
01
0b
04
05
0d
ec
00
f7
f9
fe
f8
f9
ee
03
02
f5
01
f1
fa
f3
01
fd
fa
0a
ee
02
04
0b
0c
00
fa
01
02
0d
ed
0c
04
15
01
f5
ec
f9
f1
02
fc
fd
0c
03
05
fa
f9
f4
08
f1
f7
05
f7
01
01
07
02
0c
09
0c
16
e8
15
ea
f4
fc
0e
fd
03
09
f2
f6
00
00
04
f5
fe
f3
03
01
12
ee
0b
06
01
0f
f8
f2
fd
10
02
ff
03
0c
fd
f4
f1
02
10
03
f4
f7
f1
fe
05
ff
0f
f3
ff
06
fd
03
06
02
fc
fb
01
13
f5
0e
fa
ff
10
f9
02
fc
14
fc
0c
0a
01
18
f7
13
fe
22
0b
ff
f9
05
09
0c
fb
00
f4
06
f6
09
0d
08
0d
f6
fb
05
fa
0e
ff
10
f8
fd
f8
f5
02
fd
04
0b
fe
05
ea
0b
05
06
fc
0e
ff
0c
01
f5
f8
ea
f8
0b
fd
fe
fd
07
03
05
f0
f9
04
fe
05
02
f7
00
fc
fd
02
07
04
ff
fa
f9
f3
00
fc
00
13
ea
f8
03
0a
03
e7
07
f9
09
19
f8
f1
08
d8
0d
00
04
05
03
00
06
0b
f2
f5
fc
07
15
ff
f4
0a
fe
ff
ff
f9
08
04
fa
16
04
f9
f9
ff
f1
04
fd
ec
15
f0
13
05
f1
fd
ed
04
ec
fc
0a
fd
fe
1b
f2
07
ed
fb
02
15
00
02
06
fa
00
0b
19
14
08
00
df
f9
11
ff
06
ff
eb
f2
fc
f9
fa
02
fd
fa
fb
12
fc
18
fa
fc
04
05
e4
00
f4
f1
0c
02
ed
f3
fb
fb
ff
eb
ff
05
eb
17
f6
0c
fd
fe
45
f3
0e
06
f2
22
fe
1a
fb
ef
f7
fc
f9
06
03
f8
f7
ea
1e
f8
fd
05
f7
fc
09
fe
f9
f2
fc
e7
fd
0c
00
fa
f0
1b
fd
02
fc
e7
03
fc
fb
f8
f3
fb
f7
fe
f3
0f
15
03
f7
09
0e
f4
e8
fe
1e
f8
07
04
04
d8
f6
03
03
10
ee
ff
06
07
03
fd
0e
f4
fd
e5
01
0a
f6
fc
12
ee
08
f3
06
0e
12
0a
f4
ec
06
03
f8
fc
f6
ff
09
11
08
fd
f7
f4
05
f3
f0
0c
ff
08
08
02
f5
14
02
ff
f3
06
09
fd
f2
ff
0c
0d
ef
04
17
0b
fd
ff
fe
ee
ff
11
eb
05
06
08
08
0b
03
0c
13
10
05
f5
f1
fa
03
f7
fc
f9
f9
03
01
05
08
02
09
fc
00
ff
01
0b
07
0d
fb
fe
05
05
f3
f9
07
06
02
f8
09
01
03
01
0e
06
05
0d
03
12
03
0f
0c
02
fe
f8
12
ef
ee
08
20
0a
02
0c
03
06
fb
03
f4
1a
03
0d
18
e3
03
fa
ff
fc
ee
12
ee
19
02
05
f4
06
ef
04
14
fe
fc
f6
fd
ea
06
02
00
04
fe
ff
0f
fc
1e
02
ff
05
05
07
ec
06
02
f7
09
fc
fe
07
04
10
04
fc
ec
01
fd
02
02
04
00
fb
03
01
0b
fd
0d
f7
fa
f3
12
14
1c
f0
13
05
09
ff
08
00
12
f6
fe
f1
f9
11
08
03
0a
f9
f9
06
f8
0e
fc
09
f2
f8
ff
04
f8
00
f2
09
f5
04
01
f8
fd
ee
fc
fe
0d
07
fe
08
fe
05
f8
02
08
ed
06
01
f6
fc
ef
01
ff
05
10
00
ef
08
0d
02
f6
e2
09
04
fd
ff
09
fd
03
ff
04
ee
06
0a
f8
ef
01
f2
08
07
f7
00
04
fc
0e
f1
ec
0b
02
1b
0d
e7
0d
11
00
03
00
ff
f9
fa
10
02
f4
03
f9
03
10
07
fd
fd
f5
08
06
05
09
e2
0c
f9
00
f2
0d
e8
f7
f3
fc
02
02
00
0a
10
05
0c
04
f8
11
01
ff
ff
03
fc
02
11
f7
e9
04
11
0a
ed
11
f9
0d
fd
f7
10
fe
05
01
fa
0b
fe
0b
ff
ff
01
02
fe
06
fc
fe
04
fe
0a
f6
08
fc
07
fa
05
ff
f4
0c
06
08
0f
01
21
eb
fb
e1
0e
10
03
fd
1f
06
08
eb
07
08
f4
f9
07
04
02
f9
0c
ef
fb
de
ff
ff
f8
ec
f8
fe
f3
02
01
f5
f4
f2
05
03
f7
0a
fa
0c
fc
02
f7
ff
0b
fa
02
0b
f8
fe
0d
fc
0d
ef
07
fb
fb
fe
0a
f0
09
fc
0c
ff
04
03
0d
01
fb
0a
fd
02
ec
f6
01
07
f2
07
0b
1a
05
fb
00
fd
df
09
f7
ff
03
0b
05
05
fd
0f
0d
fd
ed
fd
f8
0a
10
e6
07
0b
ff
ff
f7
0f
05
f3
fa
f1
0b
04
fe
03
16
fb
12
06
14
fc
0f
fc
06
f0
f9
f9
06
00
fa
ef
0a
e9
0c
06
02
fe
f7
fb
05
f9
00
f3
01
12
02
fe
fb
ed
f7
17
fb
fd
fd
ec
f9
fd
06
03
e9
f9
ef
fb
05
f1
ff
07
03
01
eb
f9
f4
f8
fd
13
0c
00
ff
f7
f5
fe
08
f0
fe
00
0e
0e
e4
f7
05
e9
fd
fa
02
ff
16
11
1d
10
ff
ea
0f
0c
05
f6
0a
f9
fe
fe
ed
03
f9
f0
10
fa
fe
05
0d
fb
10
06
fd
01
ee
fe
fb
f0
fc
ff
0e
1a
fe
f4
06
00
de
03
06
0c
0c
fd
13
00
09
f2
f3
f8
14
0d
f6
f3
e9
1a
f8
0a
19
ed
11
08
f4
f4
07
02
03
fe
ee
fb
0e
10
07
18
09
06
01
09
f6
f2
fb
fd
fc
13
f3
d0
10
f4
f5
0c
f6
ee
ff
0b
ef
f6
e7
e3
00
05
f7
05
00
f5
06
f3
14
0f
03
fb
10
04
00
f6
f8
06
ec
04
23
1d
08
fd
09
0c
e0
d7
02
08
05
01
02
08
01
ff
05
02
fd
06
fd
f8
e9
f0
f7
03
0e
ec
e2
f3
fb
0d
e4
03
e7
f4
15
f3
3e
1c
fa
fe
0c
f3
01
fa
03
13
04
07
08
00
0b
fa
0b
22
fb
07
fb
fb
f5
05
16
00
1d
0a
00
fe
ed
02
fd
0a
ec
fe
fc
e5
03
f2
0f
f8
e7
fc
16
06
fb
f4
f9
05
03
0e
0d
0f
f0
0e
f4
ef
e6
01
06
fc
11
fc
fd
04
fe
f7
fd
ea
fa
f3
ec
07
1e
f6
11
fd
f4
f6
02
03
13
fc
fe
f6
f2
ef
07
fe
08
0d
fd
fe
fe
f0
07
fa
f9
f8
fd
05
f4
03
00
fd
f9
f2
fd
f8
fd
f9
fe
09
fc
00
08
fc
fc
02
09
06
0f
fc
07
02
fb
fd
ef
06
07
06
07
0e
06
05
ef
01
01
03
f3
fd
09
ff
01
f9
0f
f6
0b
04
f8
0d
07
f6
f3
fa
f3
ed
0d
fb
0b
01
04
f2
f4
f6
fe
f2
00
f8
00
f4
0a
02
04
f5
00
09
14
f5
08
05
fa
fb
01
ff
12
fb
16
08
12
f0
f0
01
f6
f2
fe
0d
fb
fd
09
01
07
07
04
fe
fb
fd
00
ff
00
11
f7
f9
fe
fd
fd
04
fd
f6
0c
f9
04
fd
01
ec
f7
f9
ff
01
fb
0d
04
f8
f0
03
0b
fb
f8
fd
11
00
ff
0d
0c
01
fd
fe
01
fb
06
fb
07
fe
09
01
ff
04
f4
05
fd
fc
fb
ed
f7
fe
13
0b
04
f9
0e
ff
fa
f3
ff
f2
01
ec
0d
02
f0
f4
07
fc
0b
02
0a
14
fa
f3
04
ea
ff
ee
dc
08
0c
0c
f5
00
fa
07
fb
01
03
07
08
ff
05
f8
fa
fc
fc
eb
06
fd
05
f9
fd
f6
09
04
f2
ff
fe
07
00
00
fa
fd
e6
ff
fd
08
08
0c
f7
fd
04
01
ed
f6
00
04
ff
0e
02
fe
fd
fd
01
f9
09
fe
f5
f3
fd
f2
fe
02
fd
06
0c
fe
fa
02
0d
fd
f7
fb
03
08
fe
0a
ff
fc
09
01
0d
0c
f8
f1
fe
e7
02
f6
ff
02
ff
f5
0b
05
fc
04
01
07
e0
e8
0b
04
f8
eb
09
0a
03
00
fd
13
ff
0b
f4
14
07
04
0b
ec
0a
e2
00
21
ff
0c
01
ea
f7
09
0f
0c
01
f6
00
08
00
f9
fb
08
0e
02
01
0e
08
f6
15
f5
04
01
fa
01
08
0a
03
f1
07
04
fb
19
ff
08
0c
0b
fe
17
fa
f9
05
fc
f4
11
f7
ff
f9
fa
ee
ff
04
dd
1a
04
ec
e1
ee
ec
ee
14
02
ee
0d
01
ee
ff
00
0a
fe
04
fa
07
10
fa
fb
03
06
14
0a
f5
0f
20
0e
fc
fe
02
01
e5
f3
0e
fd
e9
03
fd
f5
0c
f8
16
f2
00
eb
95
02
00
01
fc
00
fc
9c
04
15
18
05
fc
f1
0d
03
1d
17
dd
09
04
02
0c
01
f9
07
07
16
05
00
06
e8
18
0d
1f
fb
01
04
e5
fa
fa
0a
04
f6
00
fe
01
e8
fe
13
03
22
00
09
ff
f8
10
f5
e5
ff
0a
f8
ea
49
fd
f5
fb
f9
2f
13
00
f5
05
eb
07
05
04
fd
03
02
fc
0b
f8
19
12
05
f4
0c
02
fe
fa
fb
fd
18
02
26
18
00
f8
f9
ed
08
00
1c
ff
f1
02
f7
f6
ed
04
fa
ff
0a
00
f5
2e
01
01
f4
fe
07
06
05
1d
fd
da
f5
01
00
04
02
f4
f8
ef
09
01
fa
0a
f7
02
07
05
03
09
0a
08
01
fc
0e
f9
fc
f4
04
06
01
f0
04
10
00
02
08
f9
0d
05
08
f3
10
00
00
ff
e3
00
e9
fe
fa
0c
03
0e
07
0a
05
01
06
01
f6
12
f1
03
05
05
fc
04
05
f2
fb
fc
f6
fa
02
07
f8
f8
0e
f3
06
02
03
ed
f5
06
0d
f8
04
fd
17
06
0f
0d
10
06
fe
00
01
f2
05
f7
f7
fc
f8
fb
e9
07
07
f2
05
10
10
fc
0b
fc
0e
06
ef
fe
07
fd
0c
06
0e
16
0a
f0
f8
04
fc
f9
e8
0c
fe
02
f7
fc
f2
01
ea
0b
fa
05
06
02
01
01
01
ef
ee
ff
0a
e5
03
f7
0d
06
fb
00
fa
01
f9
04
fc
15
f3
03
06
ed
fb
fd
ff
03
02
0b
05
fe
f8
f7
fe
f9
07
09
01
0c
06
fc
f6
fe
0f
fe
0a
f8
f0
04
09
fb
06
ea
f8
0b
fa
f5
02
05
02
fa
f2
04
07
fb
0a
0f
0c
05
15
e8
00
e1
01
fe
f7
e5
ff
05
0c
f3
01
f9
f9
03
f3
06
0b
02
ea
05
f5
f7
0f
04
fa
08
fc
03
f6
f0
00
12
17
07
f5
03
02
fa
f5
08
f9
24
09
0a
02
06
0b
fa
17
05
fd
f5
ef
f0
fd
08
05
09
e2
07
07
f2
fb
fc
e0
fe
fd
0d
fa
f7
fc
11
03
00
02
00
f5
fc
fc
0b
08
13
fb
07
0b
fd
f3
ff
f0
03
fa
fc
f1
11
09
fa
f8
fb
f1
fa
fc
f7
02
06
f2
eb
fc
fe
f5
10
fb
0b
05
f5
19
03
0d
0b
f9
0f
ff
ff
fa
0d
04
f4
02
19
0a
02
f3
fb
f5
03
f4
01
eb
fc
ef
09
fd
09
fd
f5
fc
fe
1f
fd
0a
f6
00
fb
fe
ff
ef
0c
ff
05
fd
08
04
01
06
00
fc
0a
03
02
07
f9
ef
10
fe
f0
0a
10
fe
f0
03
08
07
18
01
1b
0c
08
e3
06
f1
f5
05
01
f8
0a
f5
09
0d
0b
0b
fa
09
ff
0c
ee
fd
f3
ff
fb
07
01
04
0a
02
03
f7
02
fa
f7
07
05
0a
f4
07
f1
ee
0b
f1
ff
ee
fb
fc
01
f6
06
00
00
f4
00
02
14
00
f7
f7
fa
fb
f4
05
0c
02
fd
ff
ec
06
04
10
0f
ff
02
f8
00
f3
05
03
fc
0f
f2
09
fd
fd
02
f1
fe
f7
0b
ea
0c
03
17
0b
f5
fb
05
fe
e7
fd
fb
0b
03
fa
12
ff
04
0a
f1
f4
f9
f5
10
f8
00
fc
f0
f5
0a
01
fb
03
ff
12
0a
08
01
f7
f4
08
04
fe
fe
06
0f
fb
00
14
15
07
05
fb
06
f0
f6
00
07
17
f4
0d
fc
19
f2
ef
f6
fc
01
ff
f8
fc
fb
00
07
08
1a
09
f3
f6
f7
f8
fa
03
04
ff
f4
0b
fc
00
f7
f6
10
f5
e0
ff
f8
fd
fa
03
03
05
14
ff
01
04
f5
f6
02
fb
f1
fc
f2
01
fa
03
02
03
01
04
12
09
03
01
f5
0e
0b
ea
04
e9
fb
f6
fc
fe
f9
fb
fa
fa
fb
f6
fe
01
fb
03
f0
0a
03
fd
03
f5
f8
f3
d8
05
08
fa
12
0e
f7
f8
fa
09
0b
10
fd
01
02
f6
fd
02
14
f6
09
07
ef
fe
ff
11
f6
02
1b
00
ef
0b
ff
04
06
10
00
f9
09
f6
02
fd
08
f8
05
fc
f8
03
fe
01
f2
06
0a
06
0a
10
ee
f6
fc
fd
00
0c
0a
0b
05
01
f8
f4
f4
12
0c
fe
ee
f5
e8
f2
01
05
fb
02
f1
f6
f1
03
fc
02
00
f5
07
fb
16
fb
fe
ec
03
06
ef
f0
f3
f4
02
f8
f0
09
02
12
f2
f7
00
f7
0a
f9
f9
f9
13
ff
fd
fe
ec
13
13
01
06
0c
1d
03
00
01
ee
0e
fe
f5
02
0d
0b
01
ff
0f
04
06
05
fe
f5
0c
f4
03
05
fa
01
03
01
00
ff
fa
07
02
fd
03
04
05
fc
07
0a
01
09
fb
06
f8
0c
f0
06
05
04
11
12
ec
f2
0b
11
11
1a
01
0a
00
fe
fc
ee
04
09
06
f8
fe
09
1e
03
05
ff
f9
fa
0d
01
0c
fd
f7
e6
13
11
f0
03
0e
f7
03
f6
01
ff
13
00
f5
05
03
04
04
08
f3
0b
fa
0c
08
03
f7
00
fa
09
0b
0a
08
09
11
05
f9
f5
fe
fc
f1
02
07
f7
00
03
fe
ff
03
08
00
02
04
fe
0a
00
fa
ec
01
f9
fc
02
fb
01
0c
00
fa
f2
08
fa
fe
04
fa
17
03
0c
f5
02
0b
01
f8
04
12
f9
04
00
04
fd
eb
0c
05
05
eb
0d
fb
f6
08
f5
08
08
06
f7
f8
f8
04
f8
00
f8
e0
ff
08
0e
01
04
0e
f8
0c
03
0c
f8
f9
0e
0b
e8
07
06
14
fb
f7
f7
fc
0d
08
fc
00
07
0e
f5
f1
0a
fd
01
22
ff
00
fd
09
f7
04
10
fb
0c
03
00
e7
f5
00
ec
f8
fa
fe
fe
f9
ff
04
0a
05
13
14
08
02
fd
f4
f9
0d
06
e6
f4
05
04
e3
03
ff
0e
fc
f7
07
05
06
04
15
fb
16
15
06
f7
08
0a
e5
15
ff
11
f8
ff
0b
fc
08
01
fe
ff
ff
fd
fd
f3
f9
fd
f9
09
fa
10
0a
fc
0d
0d
04
fc
ff
fe
19
04
02
fc
ec
f4
10
01
03
fe
04
15
00
12
f1
f9
06
05
0e
fb
fe
f2
f9
fd
02
0b
f3
f6
06
fc
f0
01
08
02
f1
04
ff
f1
01
f1
0f
f8
00
02
01
fb
0d
fe
f3
e2
fb
09
fd
fa
06
00
fb
fa
ff
fa
0e
06
03
01
00
0c
03
07
ee
0b
fa
ff
ff
0f
ff
10
0b
12
fa
05
f0
fb
11
01
0f
f3
f5
f9
00
05
e4
f2
11
00
fd
01
02
fc
f4
02
02
10
fb
0f
fc
07
1c
05
f4
00
fe
f9
0f
ff
1e
05
08
09
ef
fe
06
fc
01
fb
0e
ee
07
10
05
fe
07
05
08
f4
05
1b
fb
16
04
f9
ec
ff
05
01
02
0a
04
f5
fb
15
02
0e
0b
f9
04
0d
1e
e8
02
f3
fd
ec
fe
16
09
09
00
08
fa
07
01
06
00
01
ff
f5
f9
12
fc
fe
00
01
f4
07
0b
0f
0c
01
1d
02
10
ee
fc
04
00
02
f9
ff
0f
fb
09
1b
fb
fd
fe
ef
f9
07
03
0b
11
fc
f9
f5
ff
02
fd
0d
1c
f0
00
f8
00
03
01
f2
f8
01
0c
f5
06
09
01
03
00
05
09
01
0a
f9
0f
f5
f9
fb
f9
f7
03
07
05
f0
f3
09
06
01
ea
08
09
fc
02
fc
f9
fe
fa
06
ee
ff
0d
f8
fe
04
fe
fa
f7
0a
03
01
ff
f1
00
07
0c
f3
0c
fe
00
04
f4
00
f6
f8
fe
0b
e7
ff
f6
19
fe
02
fb
02
fa
0b
06
f1
f6
0a
fb
f8
f0
00
0f
15
f2
03
f0
03
10
07
fd
ea
f2
fa
f1
fa
fa
f8
f2
fc
0d
f9
f4
f2
fb
10
04
0f
fe
14
fc
f8
fb
01
ff
fc
07
01
f4
02
0a
20
05
08
f1
03
09
0b
f6
09
ec
f9
06
f6
f8
f5
fe
f5
f7
07
ee
0f
e7
fe
03
fd
09
12
0f
ff
0a
fe
0c
ff
ff
f0
02
0a
ea
f5
e7
01
fb
f7
12
02
fc
07
f7
03
f3
fd
fe
0d
0b
f7
f7
10
f7
fd
f1
fb
fc
12
0e
f0
06
fa
06
fd
05
17
f3
0d
0b
04
0b
f4
ec
fb
f9
0a
0a
03
05
0f
eb
0b
08
02
04
09
f6
f8
06
f9
09
ef
02
01
ff
08
f6
f0
fc
fe
01
13
fb
fc
00
f1
e8
06
f9
fd
fd
f6
03
06
08
ff
f3
fd
06
04
fe
01
0e
0b
f2
10
f0
0b
f6
03
fa
09
06
05
fb
05
fb
00
14
f6
08
fa
03
02
07
01
f9
f2
05
00
0f
0b
f9
ff
04
0c
0e
0a
01
fe
0c
0d
09
ef
08
fd
14
f6
fc
e5
00
fc
09
10
00
ef
f8
00
01
08
f5
f7
07
01
ed
e5
12
07
08
0c
00
f5
02
f6
0d
07
01
05
ee
01
03
11
09
e9
f7
0b
00
04
fd
02
f2
fd
f6
fd
f9
fc
0a
13
fe
fe
f5
0c
11
fc
05
01
0f
01
f9
ff
09
15
fe
0d
06
f4
f1
11
05
07
0f
02
03
04
f3
06
f2
12
09
10
fc
07
fc
00
f9
04
07
f8
fb
0a
04
f1
04
f7
16
0b
01
07
f8
fc
08
08
04
fb
f3
fe
ff
f9
ff
f4
ec
ec
ff
f5
f3
08
f2
e3
ea
f7
05
09
fc
f4
f9
06
f7
0e
f5
f6
0d
07
1a
f9
fc
f9
0d
04
01
0e
fe
f3
03
fc
06
01
03
0b
f3
fc
f6
07
ea
fa
f7
06
03
02
00
f9
f7
13
f9
05
f6
fd
0f
0f
00
04
03
04
f5
05
fd
04
0f
e7
fd
fe
f3
f4
f9
04
04
0a
f8
01
f9
f8
f0
ff
0c
11
fe
f4
04
ff
09
f9
01
08
10
10
04
0b
f7
f2
ee
f1
03
e9
06
f5
ee
fc
f2
fa
fe
f1
08
07
0a
f7
fc
08
13
fc
13
f7
0c
0c
1c
fc
f9
08
fc
ff
07
f7
ef
06
17
f6
fd
01
ec
fe
04
04
ff
02
f9
01
15
03
f5
04
01
fb
f7
f1
19
00
f0
0c
f6
fb
09
ff
03
0e
00
f6
f7
04
02
14
f5
f1
e4
f5
05
13
f6
06
eb
02
ea
f7
2a
ff
07
00
04
ff
e4
0b
21
1c
02
fd
fb
fe
fb
fa
09
02
f8
12
f3
14
04
f9
0a
09
f3
12
f6
13
f0
f9
00
00
0f
19
0b
1e
f5
ff
fa
fe
fd
e6
11
18
ea
ec
0c
15
fa
f1
e9
f5
18
05
08
ff
0a
06
f6
06
f4
ff
fb
fd
0e
fa
05
f9
05
0c
f5
ef
08
07
00
f6
ff
e3
1c
ff
e9
08
0c
13
07
03
0b
06
24
05
04
fb
fb
22
0a
fc
1c
f3
e8
f9
0f
ff
07
11
18
f6
03
ff
17
1d
0b
f5
03
03
17
f7
05
0d
fc
ec
24
ea
f9
07
f6
04
ff
fc
e4
01
f9
ea
08
fc
fd
02
02
00
02
0b
fc
09
f6
01
fe
10
fc
0a
f4
01
0b
0f
fe
e8
03
e8
05
fb
fa
f5
f4
05
e4
ec
03
ff
fe
f7
d8
f6
10
05
0c
03
03
04
07
10
14
05
f2
f6
f3
07
e2
f8
fe
e5
07
fe
01
f9
02
ff
ed
0c
f5
04
ec
f6
f9
03
f9
fa
ff
fd
f0
09
ff
03
00
e8
06
f8
1c
0e
0a
f7
07
f3
05
0c
01
fd
d8
f1
03
02
fa
fd
fe
05
f6
f7
fc
00
0f
05
f8
0a
f3
02
10
09
0b
f1
fd
fd
01
f9
f9
f6
fc
ff
f1
f2
0a
ff
03
06
fc
fa
fb
06
07
f9
fc
fe
0d
02
0b
02
f9
05
fe
03
00
02
09
06
10
10
03
09
0b
f9
02
f8
09
08
fa
0e
02
0a
f2
00
0b
03
f6
00
fd
f7
fd
01
07
f3
ff
13
f3
ff
03
16
0b
09
00
00
f6
01
09
ef
03
11
09
0b
f5
06
f5
05
f3
f4
00
0b
0c
02
f6
ff
f9
fa
fe
0e
f5
04
fc
00
fe
0c
ff
0a
f4
0d
f1
fe
f1
fd
0c
07
07
f6
ea
fb
fd
01
16
0c
06
ff
21
09
ff
f3
fe
ff
e9
0c
f3
eb
f5
fa
f9
04
f2
ff
f6
09
04
07
0b
fb
f5
07
03
05
08
02
1b
12
fc
0b
fb
07
fe
0d
00
fa
fb
fb
00
fc
0f
03
ff
f6
ff
f1
05
0a
0c
05
10
f4
ee
05
fd
07
04
0c
fe
02
f3
03
06
f7
f2
04
08
0d
03
f9
11
04
fc
13
10
f5
f1
12
09
fe
0a
f6
09
0a
f2
06
0e
fc
ee
07
f3
01
03
10
00
f5
f6
0c
ff
f6
04
fd
fd
09
ec
fe
0f
06
0a
fe
04
fa
fe
f4
f0
00
01
06
10
10
05
03
f9
e5
f4
f1
f6
fb
ee
f7
07
fd
00
fe
0a
fa
e8
08
03
fa
f2
01
f9
05
10
f9
0a
06
09
01
ff
ef
f7
04
f9
f7
00
ed
01
fa
f9
0b
07
00
ee
0b
0a
ff
01
27
0a
0a
f8
fe
02
05
0b
f7
01
fe
ff
f8
0b
07
00
02
02
f2
f4
00
0d
ff
fd
f8
03
17
08
0f
0f
f7
00
f7
07
02
0a
fe
ef
fe
10
0c
06
fe
0f
04
fc
06
09
02
02
e4
0a
f1
10
02
08
f9
ff
fe
11
ea
fd
16
10
05
fc
fb
fd
04
f7
0a
ff
07
fd
11
ed
03
05
13
05
f4
00
f9
0d
02
f9
16
0c
0c
02
10
07
f6
f1
0b
01
07
ff
fb
09
08
fe
f4
05
01
07
f9
08
09
f9
ff
05
fe
fc
ff
14
e7
fd
f8
ff
05
f3
f5
f9
04
00
14
fc
fe
fe
00
09
0e
04
03
02
ff
01
03
ff
ee
07
dd
09
05
01
0b
10
03
fe
08
01
08
10
04
f4
fa
0b
fa
fd
01
f3
0a
01
fa
00
f8
fa
ff
f4
fd
09
ff
f9
06
05
0c
07
04
f8
05
f0
09
05
fb
f6
08
ff
06
11
fc
f2
0f
ef
07
fd
09
fc
ff
f1
10
0a
00
07
fe
f8
05
0a
fb
10
fb
08
03
05
03
10
0a
fe
08
e9
fe
02
ee
1b
02
fc
fc
04
03
04
0b
0b
de
fb
08
fa
07
f3
10
02
fd
0b
f2
0a
0d
17
07
0e
20
eb
03
fd
ee
f4
02
04
f7
f0
02
01
ea
f5
07
04
10
ff
01
15
02
fd
f1
0a
ee
f3
05
fe
0f
f3
10
f6
09
09
0c
07
0b
07
0d
05
f8
1a
fa
18
11
06
03
0c
0a
04
0d
f2
fe
07
fe
f3
ee
04
f9
e8
14
e8
00
fe
03
fe
f5
04
0b
05
f8
ea
f9
e3
03
f3
fc
04
f1
0b
ff
07
fd
f9
11
f3
0b
17
01
f7
0c
f4
09
00
07
04
00
fd
13
0a
06
fc
f4
08
fc
f5
08
f4
01
05
f5
ec
17
06
ee
06
06
01
f6
ee
0c
02
08
09
0e
04
ef
01
f8
00
03
f5
ff
f2
ff
fa
f9
f4
eb
02
0c
ff
f5
07
fb
e9
0d
03
fb
10
f7
0e
fa
09
09
fe
05
fa
0b
fc
fb
15
02
02
f9
14
03
fe
11
14
fc
fa
fd
03
08
f2
de
00
01
f9
f1
fc
16
06
12
03
fa
09
16
f4
f1
03
fa
0c
06
04
ed
fc
fb
f5
f4
fc
ff
08
0b
17
00
02
0b
04
00
f7
06
f7
f2
03
06
fb
fc
f8
fc
09
07
02
ea
06
0c
06
f6
f7
01
f8
02
f1
02
14
06
04
02
13
09
17
e4
f4
fe
06
06
f3
08
ed
08
03
02
f5
0b
f8
fe
0c
f8
03
fd
fe
17
fa
fa
00
0c
07
0e
07
fb
0a
00
0b
f2
06
ee
03
f2
08
f7
04
0c
fe
f8
ea
0d
f8
06
fd
06
fd
06
fc
07
03
fe
f6
07
f8
01
f6
09
1a
f8
06
f8
03
00
0e
f2
e7
fd
05
0c
fe
0a
f4
08
fb
10
00
03
09
f8
0a
04
09
f2
f2
f4
03
f8
f0
09
0d
0f
f8
02
0f
f7
f9
02
05
05
fd
f7
04
fd
f9
fc
03
fc
fb
fb
fb
f5
fe
05
04
02
05
07
fa
05
05
f9
05
fb
07
10
f2
f0
f4
09
fe
fb
00
f9
fc
fe
f8
ee
fc
0b
fd
06
03
eb
fe
0a
07
05
00
06
fc
06
ff
fc
f9
0b
14
02
eb
12
fc
09
fe
ff
fe
fa
09
f1
05
f9
11
ff
1c
0a
03
f7
01
f5
fe
09
e7
fd
f1
fc
02
fd
0b
fd
fa
00
f0
04
0b
01
04
ef
fd
0b
0b
1e
0c
0b
0c
f6
01
0b
0e
f9
03
f1
06
ff
fb
f0
ed
f0
00
ff
ec
0c
f6
0c
f9
08
f7
ff
0c
08
e8
fb
14
05
f1
f3
10
00
f6
0f
03
fd
01
0b
ed
09
02
fe
ff
f8
03
07
03
0f
fb
f4
04
01
04
0f
f5
fa
02
f6
f1
00
f5
ff
f5
fc
02
00
10
fd
fc
03
02
0d
03
fa
fe
0a
fa
04
e7
0f
17
fe
11
0c
01
0a
07
00
01
ff
02
fc
f1
0a
f6
05
02
f6
e6
08
03
0a
f9
00
01
0c
fe
f5
f7
fe
f1
f3
08
0b
06
00
fc
05
03
fa
03
0f
fb
0f
fa
fb
f2
0c
0f
fd
f8
f8
f5
01
fd
01
f7
09
01
fa
f1
07
ef
04
1a
05
f9
f9
12
0b
fd
01
f8
05
16
fc
06
fa
0f
16
00
fa
03
0c
11
02
03
f9
f4
01
08
09
f7
fc
09
0f
ff
f8
0c
01
e0
0e
08
15
07
ff
ed
fc
0b
04
04
f9
ff
05
11
fd
06
07
01
f5
0e
0d
f6
e8
fd
1e
f5
ef
0c
0d
fd
10
0b
01
ff
f5
fd
fc
fa
fa
00
ff
fa
f8
f1
f4
08
f5
11
ef
00
f9
14
fd
01
f8
f7
f5
04
ff
fb
03
16
00
fa
f7
0e
dd
02
08
09
09
06
fe
09
fa
fb
00
f1
f9
05
03
00
ee
f9
fb
fc
f5
04
fb
fe
01
03
06
ff
f2
f7
0f
0a
02
ec
06
0b
f2
fc
00
f8
02
fe
f3
0b
05
07
f0
fa
0a
14
0d
05
08
05
13
15
f9
02
fa
f9
05
10
fb
ff
f1
f5
0c
fd
f0
f7
f7
04
ea
01
fc
fd
f5
ff
03
fc
0a
03
01
03
fe
09
f8
0f
05
04
12
ee
00
01
fe
13
f7
0b
ff
04
0f
03
19
fb
07
f4
fc
fc
ed
14
0c
fd
f0
f2
fe
10
10
10
fe
01
01
01
07
f0
fa
fe
04
14
01
01
fb
fd
e6
05
0a
18
f3
fe
01
f0
fe
18
0d
03
07
0c
fd
0b
05
01
0a
f2
0b
06
02
08
06
07
00
07
01
fa
fa
e6
ff
11
f7
fb
08
fe
e7
03
18
e4
0a
0b
07
f5
02
01
fe
f8
02
23
10
05
f9
19
05
fc
f9
06
fa
00
f7
00
0a
f7
fe
ee
fe
04
13
f3
f3
0b
fc
00
f9
f4
0d
fc
fe
13
0c
08
f1
14
fe
02
11
f8
0f
fa
17
02
f8
f8
ff
f3
f3
02
f4
04
fc
0b
07
f1
03
df
06
0e
02
02
05
ee
fe
d9
09
fd
00
fe
07
f7
ed
f2
00
eb
00
08
01
07
ff
ff
ff
fe
06
ff
ff
f4
0c
f2
fa
f8
f7
ef
00
04
f6
0b
fb
12
f8
f9
05
08
fd
00
f9
fd
04
15
fd
02
fa
f9
df
e7
1f
12
0f
04
0d
f9
fe
fc
fe
19
05
f8
f9
0c
f6
05
f6
ee
f4
02
01
14
fe
11
fd
06
f9
fa
f7
e8
12
f1
10
f5
f7
00
0f
f6
02
26
11
02
ed
ff
f9
fe
24
fa
f4
02
fd
06
ef
13
0b
fe
f6
f9
ff
0e
f2
fe
ff
fa
f2
00
ff
04
0b
fe
09
ff
0d
fb
f2
fe
03
fa
e9
00
e8
06
04
04
fc
01
f2
0c
fe
f9
fb
0f
fd
0a
fe
f8
08
01
0e
0e
14
f5
05
0a
12
fa
ff
f4
08
ef
01
0c
0f
00
f4
f6
fb
01
fb
ef
01
f9
f3
fb
fb
f4
fb
f2
00
13
fd
14
12
18
08
10
17
f8
ff
e8
fc
05
0b
0e
1a
ed
e8
07
02
02
09
f6
0e
ff
ff
07
01
f8
0b
11
0b
13
f7
ff
ff
fb
fa
00
ea
0b
f1
fb
12
fa
fa
f6
04
fa
04
f6
fa
02
fb
05
07
f4
f4
fa
fc
f4
f1
05
f6
0e
11
f8
eb
00
02
f4
fd
0a
fe
07
0a
07
ff
14
f8
0a
fd
0f
00
fc
f2
04
01
fa
05
f1
f9
06
e8
02
03
15
f3
fe
e2
0f
f7
15
ff
0b
f5
fb
0e
1d
37
fa
fa
fa
ff
00
05
fc
09
06
10
eb
f9
f0
f2
fb
fc
ea
fd
fd
fe
03
f5
11
09
f3
f0
f3
06
fa
fc
02
f5
06
0c
f9
fc
fe
0a
ed
01
fb
02
16
03
f8
fa
f0
fb
fe
0d
ee
ee
01
f6
ef
0f
f5
0e
15
04
fc
ff
f6
fc
ff
0e
f2
08
f7
02
f5
fd
0e
08
00
02
ee
07
0d
00
fb
ee
f4
06
fc
ed
0d
f6
fc
fa
0e
04
11
05
f7
0e
02
f2
0d
fc
f2
02
0f
f4
eb
f5
06
00
fc
f8
ff
f3
ff
ed
00
fd
f0
f7
06
fa
fa
03
f5
f3
f9
fb
03
09
f5
f9
f5
01
01
fc
04
fd
07
fe
f3
ea
0a
f2
f4
02
09
06
ef
fc
fd
04
fc
fc
00
03
ee
05
fc
f6
f1
f4
f0
fa
fa
f9
17
f3
02
f5
f2
11
17
f5
07
ff
07
01
07
e6
eb
12
0b
fe
05
f3
00
05
0b
f3
03
04
05
1f
f9
f4
01
1f
0e
04
f5
fc
15
09
0d
fe
fc
f7
fc
04
ff
fc
07
f2
13
f6
0f
f5
fb
ff
f6
0f
0a
f5
06
e3
f8
0c
fe
fd
08
fb
f2
fe
00
f3
fd
fd
18
f1
07
ff
04
f8
f7
03
02
01
00
f5
08
f6
fd
02
13
01
f5
f9
f0
08
ef
fd
02
14
fe
ef
fa
08
fe
09
f2
10
f7
0d
04
08
ed
fd
0f
17
0a
01
fc
04
04
ff
12
06
03
ff
f5
fb
0d
04
ee
f7
f3
08
ed
0b
fa
09
ff
0a
f9
06
f4
03
ff
13
f6
f7
01
f0
f7
02
fe
f0
fe
1b
ea
16
f2
f3
1c
f8
f4
05
fc
14
1e
fe
07
fa
f5
01
f3
1a
03
14
0b
00
f6
f2
08
0e
e1
04
f3
01
fb
01
03
f9
04
f2
07
00
05
ff
05
13
10
ff
0e
09
0b
00
ff
09
0a
fe
04
f3
ee
0f
e8
fb
0d
13
0a
fc
0b
f6
f8
1c
f1
06
10
ff
09
07
ee
08
1c
fb
ff
07
03
fd
fa
09
06
0c
ff
fa
01
f3
fc
04
f7
03
eb
f3
ff
ff
f6
f1
08
f2
0d
03
09
05
0f
05
f6
02
06
f5
16
08
12
f6
f0
e5
11
16
fc
05
04
f6
09
03
06
fe
f9
fc
02
ed
ec
ff
fe
ef
fd
fd
04
16
f3
f5
0e
fc
07
fb
f3
fb
fa
07
fe
f1
09
eb
fd
04
ff
10
fd
f4
ff
05
01
f4
05
fd
02
f0
01
02
0d
01
03
f4
08
f1
0b
08
08
0a
fe
18
f9
f5
f6
f7
0c
11
fd
fe
0d
f3
ff
00
ff
fc
fe
f9
03
05
07
f7
fe
fb
09
fc
04
06
ff
f9
01
fe
f9
13
fd
06
fc
0c
05
08
fd
02
f8
09
ff
02
01
fc
fe
14
fe
f7
07
00
0d
f7
07
ff
fa
f6
0b
0c
fa
fa
03
fb
0b
00
10
f9
fa
ff
f6
02
08
05
05
04
00
07
11
07
fb
fe
0f
17
ee
02
06
03
09
fc
06
01
0b
fc
1e
fc
fc
fc
f6
ff
fa
0e
f6
fa
06
f2
f6
f6
f9
f6
f3
f1
ef
fc
f8
0a
ef
f7
06
fd
03
06
e8
ff
14
f5
fc
fb
fe
08
00
01
ff
fa
08
05
05
0b
fa
f9
01
04
0c
ff
ff
fd
02
f8
07
0c
fe
06
0e
0c
05
ff
04
03
fe
fd
03
f9
fa
f5
06
00
fb
0a
06
03
0a
fd
06
09
f2
0d
10
00
fe
07
fa
0b
00
04
01
0b
03
09
08
f5
ff
0d
07
fc
fb
02
13
10
10
11
e8
f5
06
04
0c
f8
0c
f7
03
11
0d
fc
0e
06
eb
f5
1a
fc
f6
02
ff
f6
0a
12
0e
ff
fe
f7
04
f6
f6
fd
08
f6
02
fc
01
fe
fc
fc
0a
0e
fa
0a
f8
fa
fc
ec
fc
01
02
f1
03
ff
fd
11
0c
ee
00
06
fc
ee
07
e5
f8
fc
0c
f7
fa
03
fd
06
04
f2
04
0f
02
0d
08
fa
ee
f0
fb
0f
fa
15
1f
07
fa
fe
00
05
f2
09
06
f2
03
fe
f6
fb
02
fc
03
fa
f8
fe
ed
06
05
08
0f
fb
06
f6
f9
eb
1b
ec
f7
04
06
0a
03
fc
fe
08
01
02
04
f2
08
01
e7
03
05
08
13
00
fa
f4
00
f0
05
f6
09
f7
e0
fe
1a
06
06
0e
fb
fd
06
0e
12
f7
0a
f2
12
fc
05
04
f7
00
01
11
f4
ff
04
02
fa
e6
01
fb
f2
fe
08
03
ff
12
01
f2
fe
0f
08
0b
f5
01
03
03
1a
f8
e1
f7
fd
02
fc
0e
11
00
08
ff
f6
f5
f7
f9
04
f5
07
12
02
fd
f9
f5
fe
fd
14
ee
fc
07
e6
f9
09
06
03
f8
fd
f6
fe
0c
ee
f7
16
0e
07
fa
02
00
f4
f9
f3
0a
f4
03
fa
0e
04
12
00
06
03
07
04
04
f1
fe
f7
0b
08
03
fc
f3
fc
fa
fd
03
13
fd
05
17
21
03
f1
ff
f5
ef
f5
01
f8
fb
f5
08
f7
07
ff
0b
0a
06
f9
01
fe
f5
01
fd
f1
08
fb
fe
06
03
ff
ef
05
fe
06
13
01
05
fc
f3
e8
08
03
05
03
0a
07
04
06
f6
f3
f7
e2
09
fb
f7
06
fd
f7
08
02
04
0b
0b
00
0d
0b
fa
0e
f3
02
02
e9
f6
f8
04
fb
03
fe
fb
fe
f5
fb
fe
fb
03
01
fe
f7
03
ff
0e
ff
04
fb
18
f9
f0
fd
f5
fc
f9
07
ff
f9
fa
00
02
01
fa
08
fb
f9
09
03
01
fe
02
f7
0b
fd
f7
0b
03
05
03
06
f9
fb
fa
08
01
ef
05
05
00
fc
ed
02
ff
fe
fe
ed
ff
08
f5
ff
05
08
f2
ff
00
08
07
fc
01
03
ed
fe
06
0b
04
01
02
08
fa
05
f0
fa
fb
f7
0a
ff
03
f5
f6
ff
06
04
04
f4
1d
fc
07
01
07
ee
f7
1a
ff
f6
09
00
01
fd
00
fe
ef
ec
09
00
01
e8
0b
00
09
10
04
e9
15
fd
0a
f0
0c
06
fa
07
06
fb
0b
fc
0b
04
05
03
03
01
f8
09
06
04
00
eb
08
05
06
08
02
0d
fd
f8
10
01
fe
ee
09
e8
03
fd
f7
08
fe
07
0a
fc
07
fe
00
00
f2
05
04
f1
0c
f8
f0
06
f4
ed
05
ff
0c
f0
fc
08
00
06
00
f4
f7
02
fb
f5
f4
07
09
ee
03
ff
06
0c
03
fa
01
f7
06
fc
f5
02
ee
07
f5
f1
09
e6
fa
05
ff
f4
ed
03
0c
fb
f3
07
07
07
06
f5
ff
fa
03
ff
0b
0e
00
0a
f0
f2
0c
0a
01
05
fd
fc
fb
13
f3
10
fe
f2
00
0a
02
00
08
f9
fe
0f
f8
14
0f
fd
fa
e8
08
09
04
00
05
fd
ef
fb
07
f2
f9
05
fe
0a
f3
06
05
fa
21
f5
f2
f8
fb
f2
fd
1e
fe
07
f1
01
f2
fa
f9
fe
02
ee
06
07
fb
00
09
01
0a
10
fc
04
01
0a
f8
0e
03
fc
05
11
fd
f4
05
00
03
01
0e
01
03
06
08
fb
03
08
03
f8
f8
fc
ff
ff
0a
16
13
07
0a
fe
07
e8
fa
11
02
fb
03
fd
f1
01
03
fa
03
f3
03
12
00
1a
f8
0a
f1
04
16
fe
06
f4
17
f9
01
02
fa
fa
fd
fb
0e
fb
04
00
fb
03
02
fc
ff
03
03
f9
ff
fe
ff
02
0c
07
05
f8
f8
07
0a
fa
ed
02
f1
08
f8
09
0e
fd
07
fa
f5
09
07
00
04
f8
0f
1d
fe
0e
05
03
07
04
02
f3
0d
f8
05
09
11
fe
0e
f0
f5
fc
fe
02
ff
09
0f
07
09
fd
14
08
10
07
07
fc
09
ff
f5
e6
04
00
07
02
26
ec
f3
05
01
03
fa
05
f7
ef
ee
f8
0d
12
12
fb
03
02
f9
eb
03
0d
fc
03
0a
fb
f7
05
f7
f8
12
fd
02
f2
f0
ff
06
f3
fd
14
08
01
07
0f
08
f6
fc
12
fb
04
03
ef
07
06
fd
04
06
ee
fb
f7
03
15
f6
0b
f5
f8
fa
04
fc
05
fd
0e
0b
14
00
05
02
08
03
f2
06
f5
f8
02
1d
07
09
07
f9
f7
18
fe
02
00
0b
ec
02
f2
0f
0b
0e
08
ea
f1
01
de
f7
00
01
f8
ef
fe
fd
09
f4
08
ea
fc
f7
05
fe
f2
13
04
fe
f6
ea
eb
f1
00
18
fe
04
0b
05
ff
fe
ef
06
10
fc
f2
ff
ee
f3
f3
fd
0d
f4
06
1c
f1
fa
e2
fb
04
17
06
04
07
16
08
09
09
f8
05
f9
0e
0b
ed
0b
f7
fc
fb
05
f6
0f
04
fd
ee
08
0c
f7
04
fa
0e
00
00
fb
ff
f7
fd
f5
0b
11
f9
f9
e3
03
05
0b
fd
08
04
01
1d
0c
e6
fb
01
e3
0f
f2
0d
04
fa
f3
02
01
06
fe
03
ed
fa
14
f6
04
f7
fa
08
01
06
f7
05
03
fd
f1
01
07
02
f8
10
fe
04
0b
02
fd
f4
00
0b
f7
f3
0b
00
18
ed
02
fa
09
04
02
f7
03
f7
f3
05
ff
14
04
ee
fa
fe
03
f2
08
0e
ea
07
0b
f4
07
01
fb
fe
ff
f6
f0
03
f4
f4
f5
ec
ea
f2
10
0c
ff
07
03
01
f0
f2
ff
00
f3
fd
09
0b
f7
fe
ff
04
ff
fb
02
04
05
fc
ee
fb
f6
0a
0e
f8
0b
f1
0d
fd
f9
03
fe
fa
0e
fd
00
0f
09
04
f8
fe
06
fb
f9
05
00
0c
f9
0a
f9
05
fc
f3
12
04
f4
0d
f0
f9
12
09
01
01
fe
01
ff
05
06
12
0c
0d
05
19
f0
04
08
ff
00
f3
10
0c
02
f9
f7
0a
08
14
f0
0d
f7
e7
06
04
fb
0d
fb
fd
fc
0d
f1
05
f0
f8
05
f4
ef
00
fb
0e
00
08
f4
02
0c
fd
f5
f7
f9
03
ff
fe
00
05
04
16
10
01
fb
fc
0d
f1
0a
f8
0e
06
02
f5
05
fc
f2
fb
f9
0c
01
f9
f9
fa
08
0a
ee
f0
f8
f0
05
01
ee
fb
15
fd
01
01
fc
0b
ff
fc
04
fb
09
0f
f6
f2
06
13
f6
f5
05
09
02
ee
fb
ea
05
fa
f8
f9
fb
0b
0d
f4
f4
01
00
06
09
fd
04
09
f8
00
03
fc
02
05
fe
04
fd
f6
00
0e
fa
03
ff
fc
06
fc
11
10
04
02
fd
04
fe
ff
f9
fe
f9
fd
fb
23
ee
f9
03
08
f2
eb
0b
02
03
0b
05
09
02
01
e9
07
1b
ff
fd
fb
01
f9
0d
0f
04
13
18
fc
04
00
ed
fc
fe
fb
00
0c
fa
fe
e8
f7
f8
f3
09
02
f4
ff
fa
f5
fd
f8
fe
0d
2a
03
f4
09
0c
20
02
0d
e5
f6
23
f9
0e
ff
12
09
11
0c
08
ff
0c
18
f7
0e
06
01
00
0b
08
f9
ee
00
ee
f1
07
fb
ef
02
0a
06
f5
14
f9
03
f0
05
04
e3
e4
06
07
06
07
09
12
fb
ff
ea
e2
f7
f2
04
11
06
03
ff
18
fb
24
0d
f8
f7
06
ee
f6
16
f9
0f
0a
f1
14
fb
0d
14
02
01
02
f9
07
ef
fe
f2
fe
10
08
14
1e
f4
f8
0c
f2
f3
fc
f0
ef
f7
ea
f9
03
05
fa
f3
06
05
00
f9
06
01
0c
ff
fd
04
00
f8
14
03
e8
05
0e
f9
ff
00
ff
ec
0e
0e
04
f3
ff
03
00
02
02
f7
f0
05
0f
04
04
f7
f7
0d
0d
0d
08
fb
f2
fa
fc
05
06
04
05
11
06
f7
fb
0a
ff
f5
fe
03
0a
fc
01
06
fa
fd
f5
e0
f9
00
05
06
0d
0a
ff
0c
07
0c
fb
ef
0c
ef
02
09
07
f7
07
f5
fa
12
fa
fb
14
06
05
de
02
08
18
0c
00
08
f9
ff
04
0a
09
f7
04
0c
f9
ff
1b
ef
f8
f6
f0
06
02
00
0a
10
01
e8
fe
07
04
fb
03
f9
06
ee
fc
fd
ff
04
11
0a
0d
07
00
fb
0c
f7
09
fc
02
ff
26
03
f5
0d
f6
fd
f3
14
00
0c
00
f7
04
0d
00
ec
f6
0a
06
07
f6
f6
02
f8
fa
f6
02
fc
fe
f2
fc
fd
05
17
03
0d
03
f7
f7
ef
0f
00
09
00
01
fc
fc
05
fd
07
07
0b
f5
01
0a
01
09
09
f1
0c
0c
03
04
f9
f5
ee
03
05
01
f5
f3
fc
fc
f7
fe
05
fb
fc
17
ff
f9
07
05
fc
14
01
fe
04
01
13
03
f4
fa
03
f1
f7
ee
10
02
ff
10
03
ff
08
f6
06
02
07
f6
07
00
fe
18
eb
0c
09
00
f8
0c
fb
fe
fe
03
ff
f8
13
ff
06
0f
f1
f8
f6
ff
fa
1b
fb
05
fa
fa
03
fb
fb
f1
f4
f5
0b
00
15
fa
0e
06
fd
05
fd
f5
04
07
00
08
fe
f5
fb
fc
fb
f9
ff
f8
08
0e
f9
ff
fc
11
f7
02
12
01
0a
f2
07
03
0f
f6
f8
f8
06
09
fa
fb
03
f7
fa
17
f2
15
06
fb
ef
f1
f5
08
f5
02
f7
ff
12
f7
03
0d
f0
11
e8
0a
e6
02
fe
fc
06
f3
0d
07
f2
20
04
fa
0f
ff
f9
f4
f4
0c
01
f7
01
08
14
ef
01
04
09
fa
06
03
03
01
06
06
07
fc
0c
f9
05
ff
0b
fb
f2
05
fd
ea
02
15
00
04
fe
f2
fb
f3
01
fd
07
0a
00
f5
06
f6
03
0d
01
04
11
16
f7
fc
00
0a
f9
02
f7
0f
ff
fc
02
16
04
fd
03
02
f1
0f
0a
00
fb
f9
22
e5
f9
fd
03
f5
f2
ef
00
06
00
f3
06
07
0e
eb
0e
e9
03
f2
05
f7
f9
0c
f6
f9
e2
00
fe
10
05
00
fd
d7
01
fb
04
f0
fd
eb
07
f2
fa
f6
f3
00
08
ff
f2
fd
f7
f0
1b
f7
02
03
fe
17
03
e0
14
01
15
08
f6
12
f9
14
09
f8
12
f8
fe
f8
08
ef
fa
0a
07
03
01
ff
10
f7
fd
05
07
ef
f4
f9
ea
0d
15
0f
10
06
ec
f2
ef
11
f8
04
0a
f4
06
0a
f4
03
fd
01
0c
17
02
01
04
0f
ec
f8
f3
08
f1
fe
19
ff
fc
02
05
ff
ff
06
ed
ed
fc
fd
04
fd
fd
01
00
f8
0d
f8
06
17
0b
00
08
f5
ff
06
fb
0c
fb
0a
fe
06
01
05
fb
f3
f1
ff
fd
05
12
06
00
f5
03
10
e9
0d
04
f3
fa
e1
fe
05
e3
fb
fe
fc
03
03
12
f9
08
fa
f9
0e
fd
07
03
0d
f7
06
fa
03
07
ff
f5
fb
ff
f1
fd
fe
10
e4
fe
f2
ff
2e
00
fc
03
e9
fa
08
00
f2
0c
fa
02
00
04
ff
26
08
11
d9
f7
12
0f
06
f5
09
fa
1c
03
06
0b
0a
10
0b
09
01
e5
f4
07
06
07
fd
14
02
09
04
0b
0c
00
ff
fd
05
fb
06
f3
05
0a
01
02
00
01
f9
f0
0b
f9
f1
fe
fa
16
10
13
05
0a
fa
07
04
fa
f5
f2
f3
fe
fb
05
ff
0a
01
12
f4
f4
f8
07
02
fc
f9
05
0e
fe
05
01
f8
f1
06
0f
fc
05
f9
f7
fb
04
07
00
fe
09
06
0c
ff
fc
16
02
ee
02
f5
ff
ff
f6
ff
0a
fa
0d
fe
06
ee
fc
17
00
20
03
fb
fc
16
fa
fe
fd
0a
01
06
f3
02
f9
f3
ff
f8
02
f0
0c
f9
09
0d
05
f8
14
fc
04
fa
ec
06
10
fa
02
f1
ff
02
f3
f1
05
f4
ed
fc
f3
fe
05
01
0c
0d
ff
03
04
13
fc
fb
fe
0a
1f
fe
0c
f6
fe
1f
ff
fb
f1
04
05
10
f0
f8
04
05
0b
04
09
01
f1
12
ef
f9
f8
ee
01
00
03
f9
02
01
f6
12
fc
ee
f6
01
fd
10
14
fa
ed
04
08
f7
fa
f3
f1
ff
0f
ed
07
02
08
07
ff
ff
06
fa
0f
11
f4
08
03
05
03
f1
ef
fe
f4
f9
ff
e5
f1
e6
f9
0e
fa
fe
eb
11
ee
00
fe
0c
17
ed
fb
0e
fe
14
fa
14
04
09
fd
0d
0c
fd
f5
0b
ff
04
02
10
fb
0a
ee
07
f8
08
06
08
f0
e4
fb
fe
fc
0c
f9
04
01
f1
15
03
03
fd
f7
f6
fe
f5
ec
0d
0a
05
05
0d
f7
fa
06
10
02
10
eb
fb
f3
0a
ff
0a
04
05
1a
0a
10
f3
fe
ed
0e
fb
fc
f5
0a
ff
00
00
15
f4
ff
ff
13
05
fd
e5
0c
f4
fb
f1
fd
f6
00
f7
fa
f3
f6
f4
fb
04
f5
f2
04
fe
f5
19
07
02
fd
17
fb
fa
f8
0d
fa
06
0c
ff
fe
f5
f7
0d
fa
07
fa
f7
13
01
0b
fc
f8
03
07
fc
0d
fe
0d
05
00
10
0a
ec
ee
f8
ff
f8
ef
fd
ee
0d
fe
01
f0
00
f7
02
06
11
f3
f1
00
0a
00
fb
ff
fc
f9
04
02
fa
05
06
e4
03
f6
02
ef
f0
f7
fa
f3
fd
f8
f4
fb
00
fd
00
fb
fb
0f
ff
ed
0c
09
00
f5
ff
f9
03
03
00
ee
fc
fe
fb
fd
ec
fb
08
0c
0d
12
00
f4
f2
fd
0b
09
fc
f7
04
fd
03
03
f5
ff
fb
ee
08
fa
f6
02
f4
13
07
04
06
03
0b
08
f4
ff
ee
09
0b
00
0d
1f
07
09
0e
0c
f2
fc
18
04
ff
03
f2
05
03
fe
05
ea
00
fb
01
fc
05
f5
12
f1
0b
f6
00
04
01
f7
f5
09
f6
0f
f9
e4
01
02
f5
e9
15
06
fc
09
f1
09
ef
f2
15
0b
ff
03
02
f6
01
f5
ee
fc
06
e2
f2
00
f8
01
03
05
03
02
fb
1d
f7
fb
06
09
12
ee
0c
04
04
02
13
f8
ff
0a
fe
fe
fb
0c
fe
fd
04
04
11
14
03
02
02
ff
18
fb
06
f4
0e
0e
02
09
06
0a
01
07
02
fc
f5
fe
02
f0
09
f4
06
07
0e
04
f7
f1
f4
0d
04
f4
f5
f7
fd
fa
06
f8
07
f9
0c
01
f6
1a
f7
09
09
15
08
08
01
0c
fc
fa
08
f5
0c
00
f1
0d
05
fe
09
f8
08
03
ec
fd
02
f0
0d
00
f2
fb
f4
f2
fd
14
f7
03
f4
ed
01
09
f5
0a
03
fb
f8
04
06
f9
f5
fc
00
f2
fd
fc
23
0b
f8
fc
00
f7
fb
08
19
05
08
05
01
fb
02
eb
fe
06
01
f4
09
fd
ff
10
04
00
08
07
06
09
12
f7
fd
f2
f9
02
0e
f6
fb
ff
07
f2
fa
f5
fd
04
ea
01
09
f9
14
ed
05
fe
ef
f8
f1
f9
f6
f8
00
e9
11
fa
01
f4
f1
ff
fd
fd
f2
f7
f4
fc
0f
0c
fe
fa
fb
02
01
0e
f0
00
fd
0b
fc
0e
f5
f9
f0
0a
04
ff
e1
0a
05
09
0a
00
18
0e
ff
fe
f6
02
fa
f3
03
fd
12
f6
00
03
09
06
01
f2
f0
f2
0c
f7
f7
00
fe
00
f8
01
ff
fc
0f
0d
f5
04
08
09
04
fc
0a
fb
fe
fb
00
fc
02
01
fa
fd
f8
02
03
0a
0c
10
fc
f1
0b
fb
f8
f3
13
07
02
01
f4
03
f7
00
06
ff
16
f2
f5
f7
f7
03
03
f5
fd
06
f5
08
00
fd
f2
f5
04
f4
fa
f9
0b
01
02
04
f3
06
f1
08
0d
fb
ea
fc
f1
0c
0f
01
02
05
f9
fb
09
07
04
fb
ee
0c
f7
ef
07
fe
08
f8
fa
fe
f9
f6
fe
fb
eb
fb
fb
0d
14
19
06
f8
05
0c
f2
fe
00
02
00
0c
f4
08
05
ef
07
f7
f7
02
ee
05
07
03
02
f6
ff
05
00
01
05
07
fb
0a
0e
07
fc
fc
05
f7
0d
fc
00
f3
1a
18
0d
08
09
00
04
fd
04
eb
f6
f5
09
0f
fc
ef
04
06
ff
eb
fd
ff
fc
0c
10
0c
08
f7
fe
01
04
04
01
12
01
fa
10
f1
f1
05
df
14
f6
01
0b
f9
0d
06
03
f6
05
f9
f8
e3
00
02
05
09
fa
ef
0e
0a
f9
03
ee
08
02
fb
05
09
03
08
f7
fe
f7
f0
f9
07
08
f9
f8
fc
0f
02
ff
02
08
f7
02
0b
04
0c
ff
0a
08
10
0f
fa
ff
0b
16
fb
fd
0a
06
02
03
f9
12
07
02
11
06
ff
0c
f2
ff
fa
fe
08
01
f9
0b
08
05
f8
f8
0f
fb
02
fb
f6
ff
12
02
ff
04
fb
ef
03
f9
00
05
07
fd
06
07
05
07
09
13
f3
06
fe
fa
fb
ef
0c
17
00
02
fa
fd
fd
06
f5
04
f4
13
04
fa
0c
fa
10
04
f2
11
ff
0a
01
fe
f9
fe
f9
fe
0c
00
ed
f3
fd
fa
04
0c
fd
01
02
15
00
03
f7
fe
00
02
f6
fe
10
f7
0b
05
dd
16
fc
f7
fa
07
06
00
06
01
ff
07
ee
03
fd
fc
0c
03
0a
fe
03
fd
0b
04
05
06
fc
fd
f9
ff
ff
f9
f9
02
03
03
ee
f6
fd
0b
03
03
f7
03
f5
0d
07
ef
05
f4
ff
09
fc
0e
14
fa
f7
00
03
04
02
0a
f8
fd
06
01
f8
fa
f9
08
fb
09
f3
13
08
fa
f5
0f
fb
03
fd
04
0d
f2
ff
ff
06
0d
fd
fe
0d
03
15
07
f4
00
f7
02
01
e0
02
f8
01
02
11
04
f4
05
02
f4
fd
01
08
fe
13
05
fc
fa
0a
ff
eb
fb
ff
ed
f1
f3
f9
0f
0b
05
06
f1
f0
0c
e4
fb
02
12
03
02
05
ea
fe
ef
03
01
f9
e9
fa
f9
f8
02
00
06
07
f6
03
f2
f8
07
ff
f0
0c
ef
13
f4
0c
04
e7
04
f5
fb
06
05
00
01
f0
fb
ff
0c
f1
0f
00
11
06
f2
16
03
00
f2
27
f6
fa
fe
06
05
12
ea
fa
ee
f4
00
0a
f4
f3
06
f6
02
f7
f0
05
fb
fb
f8
f3
0a
0a
f7
f7
0a
09
ee
00
fc
fd
08
06
f7
fb
01
f4
ee
03
fb
fb
04
05
ff
06
fb
00
01
00
f9
fc
12
00
f8
09
fc
fe
08
0d
08
fb
ee
f9
05
0b
fc
10
1b
0c
f9
e7
fb
fe
16
f8
f3
13
15
e4
14
f6
ec
15
03
fc
f9
12
ed
00
15
0a
0f
fb
04
0f
fd
07
f7
0c
10
d4
06
01
f2
ff
00
f6
fc
fa
10
fe
fc
00
09
f4
ff
07
03
04
06
f9
07
06
f7
02
06
08
ff
f9
14
df
f4
fb
0c
06
1e
01
05
f9
03
0e
06
f9
02
f4
07
01
02
f0
f8
0a
f7
e9
05
fb
f8
f9
14
fb
06
0e
0d
ee
f9
0d
fe
ef
ea
fe
f4
f7
ff
10
f5
e5
f7
ed
0e
0b
ed
12
e9
ff
fa
e9
01
0b
11
05
f7
f7
0e
fe
02
fb
0e
fb
09
f4
f0
0f
f3
1b
0d
04
08
02
0b
03
f8
fd
f1
06
ea
01
f1
ec
fe
f6
0b
03
fa
02
03
e9
0a
f3
f7
00
f9
fc
f8
f6
f7
f6
10
fc
fe
02
0f
fb
fa
fd
fe
f8
f2
10
00
fc
06
fd
15
fa
03
fa
fe
02
07
0d
02
05
f7
f1
f6
03
16
18
0d
f7
08
08
f3
0b
ed
f6
0e
f0
06
01
fb
fe
0e
02
f8
f1
14
f7
ef
09
ec
02
ff
13
fd
fa
ff
09
08
fb
05
f1
03
13
12
08
f4
05
12
f9
fa
fa
0a
f7
e4
1b
f2
0d
0f
fe
f0
fd
fa
f2
05
01
f7
06
17
09
ef
08
fe
0a
f5
fe
04
0e
ff
12
fd
f5
fc
0e
07
09
f5
f0
03
f5
06
f3
f7
0c
fd
05
05
ee
00
fc
f8
ff
00
fb
fb
ec
01
ff
f9
ee
f6
f9
f7
05
04
01
06
fd
eb
13
00
17
e6
f4
08
0b
f8
05
f2
fa
03
0c
02
e9
06
04
09
0f
05
fb
fa
f3
0e
12
f6
05
07
fd
09
fa
08
04
04
fd
02
f8
e7
06
02
18
fd
02
09
02
fc
07
07
f8
07
f9
07
ff
fe
ef
00
ff
01
fe
01
0b
fe
02
03
fd
f5
10
03
00
02
fc
06
08
f7
fa
f0
fd
18
15
0e
ed
fb
09
03
12
0e
f4
1c
06
0b
0a
f6
f4
0d
05
0a
ff
f0
03
01
e7
03
01
17
05
02
03
07
0b
f5
03
fa
0d
0b
04
00
00
fb
f7
04
ef
02
07
05
fa
01
08
0d
02
ea
f5
05
f2
eb
f8
08
03
06
01
fc
ea
fa
09
03
eb
09
00
04
fe
f5
e8
ef
23
f6
12
0d
03
ff
f0
f6
fb
f4
07
05
ff
ff
1a
09
e4
00
01
05
fc
f8
f3
fa
ff
fa
fe
f5
0a
fe
f9
14
f8
10
ea
02
f9
06
e5
16
ff
00
fe
0d
09
eb
05
fe
e7
e8
0c
09
f3
0d
28
f8
e3
13
f8
fd
02
f3
f8
fa
0e
f3
1a
e4
0c
02
f7
00
fa
06
fa
f7
fd
05
00
05
03
09
01
f9
f9
f5
f6
f7
0d
fd
fa
0b
f7
fa
fc
09
06
05
fc
12
ff
fd
0f
02
f4
0d
07
02
02
ef
fd
db
00
0f
e5
e7
d6
f9
08
0e
fd
02
fc
0b
ee
06
01
ef
09
f1
00
fe
e8
17
01
f3
f9
02
f2
ee
f4
12
fc
ff
fe
f4
02
fe
fc
03
06
f2
0b
fd
fd
03
0d
03
09
03
fc
ed
04
00
02
f5
06
fc
07
ff
f8
00
0c
f1
fe
f6
fe
fe
f2
fa
fd
e9
f7
fc
ff
00
ee
01
0e
fc
fb
ff
08
fc
fe
fd
fd
fb
11
f4
08
fa
12
f7
f1
07
fc
f2
01
13
01
13
f1
f1
f9
f1
0a
0e
07
03
fe
ff
00
08
05
07
f4
fa
fa
0a
13
05
0e
09
03
00
fa
fd
e9
f9
02
ed
fa
fa
07
fe
f8
03
01
05
f7
f6
13
f3
ff
03
0b
fe
18
f4
06
11
fe
fd
0e
fa
fe
00
fa
1f
fa
f5
0d
09
1c
fe
f2
05
fc
00
f9
05
ff
02
00
fd
0c
02
04
f4
00
1e
0b
f8
fd
07
02
09
02
f1
0d
fd
f8
10
01
e7
05
fc
f5
01
fc
02
03
05
fa
f3
10
f5
0a
05
ed
ec
ff
f7
0a
0c
04
1a
f0
ff
08
03
fd
0b
00
15
f6
11
09
f6
ee
ef
fd
14
18
f4
f1
f5
0b
f4
fa
04
fd
04
fd
ff
f6
f6
ef
f3
01
f7
ef
fb
f8
05
fc
f7
f7
fc
fb
f5
09
ef
f6
16
f8
17
f3
fa
fc
e9
0b
0b
10
f9
0a
e9
18
02
fc
06
fc
1d
0b
fc
f3
fc
02
12
00
0a
08
f0
09
05
00
04
04
fd
05
fd
01
fd
08
0b
ff
05
fb
fb
03
06
01
f5
08
10
1a
11
05
f4
ff
ff
fb
00
02
ea
f3
06
04
01
05
f6
15
05
fe
f7
10
ef
0f
fd
f3
01
ed
00
0a
fe
08
06
01
0a
01
05
0b
f2
df
14
03
fb
08
fc
05
ff
0d
ec
08
fc
03
ff
05
07
12
01
00
f1
fb
0e
17
ed
00
08
fd
03
05
01
00
01
05
f6
f8
09
e8
07
15
fe
11
07
f1
f6
f1
0d
f8
0a
f3
0e
01
f6
10
f1
0e
1a
02
f7
05
e2
0a
09
10
ff
03
1c
09
fd
08
f6
fd
fc
f5
0e
f6
ff
05
0d
f8
01
f9
00
11
ed
e6
11
04
f2
08
f7
03
07
04
06
f4
06
04
fa
fc
f3
f3
f7
04
04
01
22
17
fc
f8
0b
fa
fa
1c
0f
04
f0
1d
fa
06
0c
05
fe
04
f3
fc
09
05
f1
03
fd
0f
0a
10
01
04
fa
ef
02
11
0d
e7
fd
fb
f9
fc
09
06
02
0a
f0
fd
fd
09
03
fb
04
0b
13
01
f7
f9
fd
fb
06
07
0c
0b
fc
04
04
f4
fd
fe
f9
ea
f9
ed
fb
13
f8
0a
fe
fe
ff
03
02
ea
07
fb
ee
fb
ef
11
01
05
01
1b
12
f8
0c
e7
fa
09
fd
fe
fb
fc
ef
f6
f7
f8
03
09
05
00
f8
04
00
0f
0e
f5
0b
00
05
fe
fc
0a
fc
ff
13
0c
10
05
06
fd
fb
05
0d
06
fa
0b
fe
fb
03
08
04
00
0c
f7
01
06
0f
f9
06
00
0a
04
ff
fe
08
08
f6
ff
f9
05
f5
09
07
ed
08
fe
00
f6
02
04
f6
f6
fc
04
fc
fd
fb
06
15
0c
fc
f9
0a
0e
05
fb
14
fe
00
03
11
0f
07
06
fa
07
fc
ed
03
fc
f8
0a
01
03
0c
f2
f4
08
01
06
10
01
06
01
0e
01
0b
0a
eb
09
f7
07
ef
f8
09
f5
f8
ff
00
09
fd
04
06
fe
07
06
03
fd
0f
0f
fd
0b
20
04
01
04
03
fd
0e
0c
f8
00
f6
f4
00
0e
fb
ec
00
0a
01
02
fb
03
f6
ff
00
f9
03
f4
ff
0f
f8
fd
f3
f8
f8
06
00
fb
fc
f9
f6
ff
ff
f0
f5
14
f7
08
0b
fd
fb
0a
f0
09
0c
f8
07
fc
fe
19
00
f7
f3
fd
f6
02
ff
f7
03
09
0b
0e
11
0c
f6
fb
fa
06
f9
ea
f0
e8
fd
0d
0a
f7
ff
e6
05
ed
02
07
03
f9
e5
0c
f8
0b
03
17
19
07
12
04
0c
03
ef
ed
01
01
ff
fe
e6
09
f2
12
f0
e1
0d
ee
ff
10
f5
ff
f2
eb
f9
ff
00
01
00
03
05
19
02
01
16
0f
11
00
03
fc
00
ff
05
ff
00
f8
01
ff
f6
02
fd
fa
0e
fe
04
03
05
e6
f1
ea
09
05
f7
ed
03
09
fa
ee
fd
0a
11
12
0d
fb
03
f6
f4
fd
02
fb
0e
ef
01
01
f9
fe
05
04
f0
0c
ef
fc
f9
f5
fa
07
04
0b
0a
ec
15
07
f1
0e
01
00
f7
06
01
f3
f7
f7
08
00
00
ee
02
06
08
05
0d
0a
02
f1
06
f8
f9
e1
fa
f6
fd
fa
04
0a
e7
fe
0e
02
fd
fd
fe
08
03
00
03
f9
02
09
05
fc
08
09
ff
f2
02
f0
27
07
f2
f7
03
fd
00
e6
f9
f2
02
e6
ee
19
fe
fc
08
0c
e8
02
01
04
fd
05
fc
f8
d6
08
18
fd
05
1d
02
00
06
fe
1a
0e
02
18
04
15
f2
f3
1d
f7
fd
fa
01
f6
07
09
17
00
fd
08
f2
ee
05
05
fe
fb
0a
fc
fc
f6
f1
0b
01
fb
04
f9
03
05
fd
13
2d
02
0d
07
1b
0c
fa
ef
04
f8
f3
07
ff
17
0b
09
f8
fd
09
f5
f6
03
00
0e
04
ec
ea
04
09
f4
05
fe
fa
ff
24
01
00
f6
10
09
09
f8
03
03
f1
fa
fd
fd
f7
19
06
f2
fa
0c
07
06
0c
07
fb
f6
02
05
08
f3
13
09
04
11
f6
0d
13
0d
0e
06
0b
0a
0b
28
fb
fa
00
02
12
01
e8
fe
f3
07
08
03
fa
01
fa
09
0d
e4
15
e1
03
05
fb
00
05
f6
07
10
10
09
0e
fd
fa
fe
05
f8
fa
03
04
0c
05
03
02
06
07
f3
07
08
09
f1
f6
19
04
01
00
fc
01
fd
fc
09
fa
0c
16
ff
fb
f2
00
06
07
0e
fe
f6
f6
ff
0f
0c
fc
12
f4
f9
fd
04
04
fd
e9
ff
06
03
f7
07
0c
05
f9
00
ec
09
01
fd
15
0e
07
06
fb
09
01
e9
12
ef
fd
f7
e6
00
fc
02
18
fe
06
fa
01
11
fc
13
f7
e6
f4
e8
ff
fc
ef
fc
e9
f3
08
f2
07
fa
f8
02
17
fe
f1
03
01
04
fe
0b
fe
15
e4
f9
fe
01
e9
09
0e
f7
09
05
0e
ea
f2
fa
ee
f5
06
02
fb
fc
04
00
03
fa
15
f9
fb
fc
04
04
14
ff
ff
fe
f5
09
05
fd
fb
17
01
ef
08
fc
f3
fa
fb
f4
08
f1
0c
04
03
f6
02
02
f6
01
fa
ef
0c
0e
e8
16
fc
f7
0a
0a
05
fe
fe
01
04
05
01
fd
0b
fb
fd
e3
f9
08
22
05
ec
f9
e1
fe
10
f9
e7
f4
fb
04
0a
14
07
03
fc
00
0d
01
02
02
04
fa
fc
f9
08
ff
10
10
f1
00
f5
fb
06
f9
fc
f9
02
07
15
0a
00
fb
fb
07
01
16
0d
0a
ff
17
ff
fc
f3
f8
f1
00
01
05
f4
09
08
07
0e
05
ff
fe
f8
11
fc
fe
dc
f3
09
05
01
05
07
e9
ed
f2
0f
ef
05
fa
0c
fd
04
f0
05
fc
f3
00
0c
ff
f6
ef
0b
06
ff
fd
f8
0e
0f
01
fc
20
05
05
ee
08
05
01
12
0c
00
f5
ff
fb
fe
fd
f8
00
06
07
0e
e2
04
f1
02
f1
0b
05
f4
04
f9
09
04
01
01
05
fb
10
04
09
f8
f9
0e
11
ee
fa
fd
02
00
00
ff
00
d7
06
06
fd
03
00
fe
fb
05
0b
07
f1
fe
08
ef
09
f3
f9
fd
0a
28
01
0f
08
01
06
fc
ef
0a
03
f5
09
f7
05
0c
ff
f0
f7
00
02
f8
0e
02
f7
11
f8
03
f5
16
01
ec
09
00
01
ef
f6
fb
f5
fe
fe
1c
fe
fa
e4
13
ef
fd
ff
f6
00
fb
fb
fe
01
f4
02
03
f7
f2
06
f2
f3
fc
ff
01
f9
11
09
fd
fa
f8
02
08
fb
05
0d
ee
06
fa
09
f6
03
f5
01
fb
04
06
07
10
fe
05
09
ff
ff
0b
01
06
03
f7
fa
f3
07
fa
fa
08
13
02
05
f7
f6
05
00
0e
1e
02
05
0a
f6
ff
08
f8
f5
02
f8
fc
f2
0d
f7
09
00
f7
10
09
f6
0c
11
f7
f7
13
f1
fb
fb
fc
ff
10
f7
0b
0e
f9
06
02
16
fe
e9
fa
08
03
11
f0
f9
01
09
09
02
f7
04
fb
fc
ff
f1
fb
09
04
f8
13
03
07
29
f8
02
0f
fe
01
fa
02
02
fd
10
f2
09
fd
06
0e
f9
f6
00
08
07
fc
01
ff
01
09
f3
04
fa
e8
07
0b
fe
15
f4
03
e1
00
fb
08
1b
ee
fd
04
e2
fc
02
ef
08
ff
fa
0f
05
14
10
1f
07
04
ee
f0
08
fa
ff
ff
04
04
0d
fa
08
0e
fe
f9
0c
f6
0e
f7
e6
02
03
f7
ee
f8
00
01
12
fe
f2
f6
f5
fc
fe
f5
fd
06
f6
f9
ec
f7
fd
06
00
fe
ff
f7
fe
f1
f4
f8
f9
03
f7
ee
0a
02
1c
03
02
03
fe
f9
03
fa
02
10
fb
03
f5
ec
0e
fd
fb
02
07
fa
fc
0a
f5
ef
02
f4
0a
fa
00
0f
f8
0e
0f
02
f9
05
0b
01
0c
f5
01
00
e9
f3
f2
0b
ff
f2
e5
fd
11
f8
13
07
09
03
05
fb
e9
07
fc
07
fd
fd
fc
01
fb
e6
05
02
08
f0
f7
15
fb
05
fd
ff
f3
fe
ec
ef
fc
02
03
00
13
fe
fd
f9
fc
01
f8
0d
00
06
dd
f2
18
f7
00
fe
01
0a
02
f3
04
ef
06
fa
fa
04
13
0d
03
fc
1c
f7
0b
fd
13
0d
f7
07
1a
0d
f6
fc
07
fd
ff
f9
08
0c
fa
fa
fb
fe
fd
f9
0e
fe
00
f5
06
08
fd
fa
fb
fe
fc
ff
ea
f0
04
00
ff
08
08
06
05
ec
08
f6
fc
01
03
fc
0f
02
f4
f9
fa
ff
00
0e
0e
00
fd
f2
ff
fd
0c
21
fd
fd
ff
10
13
13
0a
ff
04
01
fd
ef
ff
0e
0b
05
04
15
fc
f0
17
0b
02
fe
02
f3
ef
0c
06
fb
f3
00
0d
11
0e
04
06
f9
fa
03
fb
05
00
e8
fc
08
f2
07
08
08
f2
0d
02
08
04
f6
fa
06
05
03
03
08
dd
e8
00
fa
21
07
01
f6
11
ff
0a
19
f4
fb
02
fc
f2
fa
0c
fe
fb
ff
fa
f5
f8
05
f9
f9
04
f9
07
05
e9
0d
0a
0b
04
00
03
fc
12
02
12
fa
ff
09
03
f0
fe
ff
fe
08
fe
1a
00
ff
ec
0d
00
fa
fc
eb
e8
f8
11
00
07
06
08
ff
fb
f7
02
fb
fb
fa
06
ff
0c
00
f8
f7
04
f4
ff
24
ff
0c
f5
00
04
07
fc
ff
f9
05
02
03
fb
f9
e4
f7
fa
06
0d
0d
09
09
04
f0
fd
e7
fe
f7
06
f8
00
00
f6
0e
1e
f9
07
eb
ec
10
03
08
0e
f1
12
fd
fe
f6
e2
f5
07
f3
0d
f9
f5
00
01
f4
07
fd
02
05
08
fc
07
ff
01
ee
f4
ff
09
fe
02
f5
0e
06
f7
fe
e3
f8
05
f5
fa
fe
12
04
01
10
fb
fe
09
00
fa
e6
f3
07
00
03
00
07
08
07
f0
02
0e
0a
ee
09
e8
04
04
f6
f8
f0
f7
f8
f6
f2
f7
f3
ed
fb
0c
ff
0f
fe
02
f5
04
fd
f0
ef
fb
14
05
04
ec
fd
fc
fa
09
12
01
0d
0e
0c
f7
05
fd
f5
ed
ff
17
fb
fe
f9
ff
00
f7
09
fe
0d
09
09
f6
f5
f6
0d
fa
fc
03
0a
05
fd
04
10
fb
ef
02
ff
14
04
0c
06
ea
f1
f9
15
f5
0b
f5
02
f9
fc
fb
e7
08
ff
09
03
fb
01
07
fc
01
f5
07
f7
04
03
e7
fa
f9
fb
04
13
10
e8
f1
03
10
04
0c
fd
0d
05
e5
0e
ee
fb
04
fa
f7
fa
f6
06
f3
0a
fb
ee
04
0b
0e
0b
04
f5
08
11
04
f5
02
ff
f7
0e
fe
f6
f0
04
fb
f6
fe
ff
f7
03
04
0c
fa
01
f4
f2
fc
01
04
fb
03
02
0a
0d
f6
f0
fe
0a
03
02
06
0b
f7
fe
00
05
06
e9
03
ef
1b
f6
f3
02
07
02
00
05
fd
ff
0f
0e
05
0c
06
fb
fc
ec
f5
06
02
04
fd
f1
f3
f8
f5
06
fa
fd
03
ee
0c
02
05
ff
04
fa
e9
fa
f5
05
f8
03
06
02
f9
00
f3
fb
ff
05
fb
f4
06
03
09
08
07
04
01
f2
f7
09
0e
12
ee
fe
03
f6
f4
02
00
02
fe
f9
f1
0d
07
f1
0d
fa
f6
06
ec
f8
02
0f
0e
01
15
df
01
f5
0e
02
0e
f7
00
fc
08
00
06
f6
eb
06
03
fe
06
10
fb
f1
06
f8
fd
f7
fe
07
08
0c
0a
f6
0f
04
f7
0e
e7
05
fe
f7
03
fe
f1
fb
f5
00
02
fc
0c
15
1f
fb
fa
09
f0
15
0a
e9
08
ed
f3
02
f5
fe
fc
fb
02
f9
02
fd
f4
0b
0b
08
fb
fe
fa
21
03
00
f8
ff
fc
f7
f0
e5
f8
19
0c
03
10
f0
0c
09
fa
1c
f1
03
f3
eb
00
0e
e6
0a
08
fb
ee
01
fa
ff
05
ec
07
f7
0f
f8
11
ff
08
fa
f3
fc
01
e9
00
0b
f6
ff
13
f1
f6
fe
f2
f9
03
01
f9
fb
0a
fe
f6
fd
f3
f1
09
fd
01
f9
f8
0a
0a
ff
0c
00
0c
02
03
04
04
e5
02
0e
02
12
f9
ef
f4
09
09
fa
ff
fb
01
0e
fe
01
fb
fe
04
fc
00
fc
0c
0a
07
fd
0e
f0
02
10
f9
06
04
f4
fb
10
fd
01
fa
f7
f7
f8
12
f5
fc
00
fa
08
15
fd
fc
f4
03
05
10
0e
f1
02
f8
f8
fd
17
02
02
fb
07
20
03
fe
fe
f4
f0
04
fe
0d
08
04
fd
06
02
00
fc
13
f6
02
0a
d8
f5
fa
19
06
0d
12
0c
f8
f2
fb
0a
0e
fb
03
0e
f5
08
07
f0
09
0b
f2
09
ed
01
ff
f6
01
f6
08
f7
06
ff
eb
0a
fa
fb
fb
f3
fc
01
f7
fa
fb
06
ff
0f
00
fb
17
0c
f9
fc
fb
01
fc
f6
00
00
fe
08
14
03
01
0d
f8
08
f1
0d
06
fd
04
fb
0a
f5
f7
04
03
fe
fd
f9
f4
f6
f0
08
17
05
f7
01
0d
f5
ed
f9
09
f1
f8
07
0e
00
03
07
ff
f8
0a
04
05
07
fa
f5
fc
0f
fd
f4
06
fd
06
00
03
02
fe
05
fd
09
0c
09
04
0d
ff
f6
05
00
fd
1c
1f
00
f6
15
0b
13
00
0c
09
f9
14
f0
0b
09
f9
0b
f8
04
00
06
00
f9
f4
10
1c
02
f9
06
f4
0d
f6
ff
f7
02
05
05
00
05
fa
f3
00
dc
f5
08
0b
f1
0b
17
06
f8
05
0f
19
f5
fe
06
fe
00
ff
00
fe
09
fb
f2
03
16
00
fb
08
14
04
f5
0e
03
fa
f8
02
ec
fb
07
04
fb
f0
f7
ef
fe
06
f8
fa
fb
f5
09
fa
0a
02
ee
17
f6
e8
00
09
01
08
ff
f6
f8
f7
f5
0e
06
ea
01
06
ef
00
fc
0c
00
08
01
0f
f1
0b
05
14
fa
00
fe
f6
0a
ff
f6
f6
fb
0b
fd
fe
02
03
06
02
04
ff
fd
08
f6
fd
07
ec
06
f7
03
0e
08
f6
07
f4
03
0b
fe
f1
01
fd
f1
ff
fb
06
e7
05
04
f6
03
f5
f6
fd
f1
07
06
fa
00
ff
fe
fb
fe
f6
03
e5
f4
07
07
eb
fe
03
fc
01
ed
f3
17
08
0b
f0
02
02
08
fe
f9
0c
02
0f
03
fa
03
03
00
f7
04
09
f7
0c
01
f9
07
05
06
04
ed
0d
ff
ff
01
f8
f6
03
fb
fa
05
00
ff
03
09
0e
fd
02
ff
0a
fa
16
f0
0b
f7
08
0d
06
03
fd
03
f5
07
04
0a
0a
02
fa
0e
04
ff
fa
ec
03
1f
16
02
03
f7
04
02
18
f3
f7
f1
fc
19
fe
06
01
02
0d
10
0b
07
08
ff
09
07
05
ec
07
f7
00
fd
ff
fc
06
07
09
00
fb
04
0a
04
06
03
05
fb
0b
03
ef
f9
08
f5
00
ec
f9
f8
07
07
00
f6
07
ff
01
03
f6
03
ee
fb
fd
fd
01
01
f6
ed
fd
f8
00
09
fa
08
f5
fb
14
02
f6
fa
01
f6
11
13
f7
fa
02
00
00
fe
09
00
e8
03
05
12
f1
03
fe
ff
f9
05
f8
09
02
ff
fb
17
07
f9
eb
10
f9
0a
fc
1a
fd
fb
f4
fd
08
f6
01
04
f7
00
10
ef
0b
ff
fb
f8
e9
fe
fd
0b
f4
f1
09
fd
e5
ee
0a
0e
0a
03
0b
f9
05
f2
03
07
fc
0c
fb
07
f9
00
04
06
fe
f2
03
e8
f8
04
ef
0d
2b
02
fc
06
fd
ff
02
10
04
08
fe
f3
f5
f6
ff
0e
fa
f0
00
fb
04
0a
f3
0b
f2
01
0f
16
05
ec
0a
00
08
07
f9
e5
03
fb
e5
fa
eb
03
04
fe
fb
f3
f6
01
f9
07
0a
f9
09
05
04
02
f7
03
f9
0d
11
fc
07
f4
fe
fc
10
f1
fe
f4
01
fa
fd
f7
07
09
21
f9
e8
fb
02
03
f2
09
09
08
0e
03
06
00
01
01
f9
f0
06
fb
10
26
12
0c
0d
02
00
09
fe
ed
fb
f3
03
fb
fa
ee
e2
f4
ee
ef
0d
03
03
fd
07
f6
fc
08
03
f9
04
03
09
ff
03
f0
0d
f5
f6
fd
f2
02
07
fd
01
e7
fb
01
fe
06
f9
f0
f7
04
f8
0d
ef
06
13
0c
f9
04
f4
09
0e
09
e9
e8
f6
fe
01
10
07
fd
fd
13
09
15
0b
14
f3
07
00
01
15
21
ff
07
fc
fc
00
09
21
f0
05
f9
01
fc
f0
09
f4
ee
08
ea
06
01
05
03
08
13
f4
f6
0c
09
12
fc
19
fd
f7
0d
f8
06
11
07
ef
0b
fe
01
f8
fd
02
0f
eb
09
f4
ff
09
f5
04
02
11
f2
07
ee
0b
f9
01
fe
e6
e4
03
02
f9
f3
fa
09
f7
10
10
fc
08
fe
fb
fe
fc
0e
e9
f0
02
04
09
ff
f7
fd
fb
e6
0c
f9
f1
fb
f7
07
00
0a
f9
fa
00
fa
05
e7
04
f2
fa
05
fd
f5
05
fa
09
06
07
06
04
11
f9
fa
0e
0f
07
05
13
0e
fc
f2
f2
08
f9
07
fa
06
f5
1e
01
00
fe
fa
04
f5
0b
f5
0e
05
10
00
eb
02
fd
fd
02
02
ff
0b
06
00
fa
fe
f3
0b
f9
fb
f7
f8
fe
fb
f8
04
0b
ea
f2
01
06
0e
fe
06
02
fa
0a
0c
16
f8
06
fe
03
01
04
02
f4
fe
07
08
f9
ee
0c
04
0e
fd
f8
04
10
0b
05
ff
fe
0c
1a
e5
04
fa
f8
ff
07
0b
f9
f3
06
fa
01
1c
01
04
0b
fa
08
f4
fc
ff
eb
08
04
0a
fa
17
01
0b
fa
05
fa
f6
02
01
f9
0e
fb
03
06
17
01
03
0c
f5
f6
05
f5
03
04
f3
01
f7
fd
00
fa
f1
fa
07
ee
04
ff
03
fe
f8
01
12
01
05
f9
e9
00
0f
ec
01
03
01
fd
e5
ed
02
0c
07
03
f6
0e
05
01
fb
fe
f4
fe
03
02
07
fd
fd
03
00
ff
ef
fe
ff
fc
ff
f6
f8
01
f9
05
0b
01
0a
10
f9
f4
f8
f6
01
fb
06
eb
f7
fd
f6
fe
05
ff
fb
fd
02
f7
fd
07
fe
fa
fc
00
07
04
fc
00
06
f9
04
f0
fe
f7
09
fe
fa
f8
00
02
f8
f5
08
ff
fc
ff
05
16
04
f9
04
fa
0a
03
f8
04
03
0a
00
f8
2b
ff
fb
0c
f4
f6
15
01
fe
07
eb
1b
f2
f1
fe
11
09
02
fe
fb
03
fe
f7
08
02
10
fc
f6
0d
00
09
0f
fb
fc
01
f5
f9
0c
05
08
ff
0a
f6
09
04
09
09
ff
f7
09
00
f9
f8
e9
00
fe
ea
f2
f5
08
f5
04
fa
fc
09
10
fa
0a
00
f0
ff
f9
fd
f0
fc
e8
08
16
ec
ef
0b
fa
0a
e8
ff
02
fa
fa
f2
f4
14
05
fc
fb
0b
fa
08
f0
0a
05
0e
f3
03
f6
fb
f6
07
06
f5
fa
02
08
fc
01
01
f8
f0
08
f9
02
1e
00
f9
06
19
05
0a
01
06
fb
fb
e6
f6
02
fd
01
05
e9
00
fa
09
e2
fa
02
ff
fd
fc
1f
f7
f5
e6
03
f6
dc
0b
03
f1
01
fe
15
fe
ff
04
f0
fe
02
03
02
08
00
fe
02
fc
02
f1
0f
fe
00
14
06
00
ff
00
00
0f
fe
0d
0e
ef
05
ff
fd
1f
f5
fa
fc
03
06
f4
ff
ff
1c
11
f7
f9
0d
0f
05
07
11
17
00
11
fc
ee
04
08
f7
eb
fc
0b
0a
f9
0c
f9
ef
e5
15
01
10
fd
fd
f5
09
f8
10
f8
fc
e8
14
04
f0
0e
01
10
f5
f8
fa
f2
16
fa
07
01
f7
14
ff
f0
02
00
12
f5
f3
17
fc
05
f6
df
f5
0e
0c
06
18
0d
01
0b
0c
10
00
0e
16
03
fc
f4
04
fb
02
fd
f2
fe
0a
01
00
fd
02
f4
06
fd
fb
07
0c
07
f4
fb
10
09
19
f7
00
0b
f1
fd
fd
f6
08
0d
f1
f5
fb
0a
0c
f6
00
0b
f9
ec
03
f7
f6
01
f9
f8
11
00
eb
04
03
ff
ec
04
05
f6
f8
05
05
1d
0f
01
02
08
0c
f4
ee
0d
15
fe
0a
f8
e4
f3
06
06
04
fe
fd
13
11
fb
03
05
fa
ff
01
04
02
10
10
05
fb
f0
0a
0c
fb
0b
07
09
05
04
06
fe
04
fe
0b
09
04
f5
fe
f5
fd
03
06
05
fb
0d
f1
0b
f3
f5
0a
03
fb
fe
03
fb
fb
00
22
00
ff
11
fd
f7
f7
fc
10
10
f7
f2
fc
fb
f5
02
fd
02
05
f7
f5
01
0e
03
00
22
fb
fb
0a
f7
f8
f5
fe
0a
fb
08
01
f0
f7
0f
04
0f
f8
22
1c
f5
f8
02
f6
05
00
fe
f3
fe
06
fe
ff
00
00
0a
02
fc
02
fd
03
07
08
00
fc
fe
ff
0c
0b
fb
0a
f1
11
08
ff
0d
fa
0b
05
00
0b
08
fc
fd
03
f5
01
ec
fe
17
03
f3
09
01
f9
f9
04
0d
fa
ec
f9
0f
03
03
f7
fb
f8
f8
fc
09
05
0e
fb
05
fe
fe
00
09
f6
f9
fa
01
0d
01
f0
05
f1
01
11
fd
ee
f9
0c
04
08
01
0f
05
04
f3
05
ff
02
12
04
f9
02
ff
08
f3
02
00
09
01
05
0c
02
14
ec
e8
01
fe
05
04
09
07
f9
12
1a
01
02
f7
f1
01
ea
0d
f8
f2
0c
0b
17
07
fd
fd
12
09
fd
06
f2
02
fb
0b
fb
01
f3
0f
0d
f9
00
04
0c
e9
f8
19
16
ff
fb
ff
f8
f5
0c
fc
00
ff
02
f6
fe
06
02
fb
07
12
0d
04
f0
09
0e
fc
f0
fd
09
fb
f2
00
14
fb
fd
11
f7
0e
ec
02
05
02
fe
0c
f1
e1
0f
03
1b
f4
01
fe
f9
e9
f7
0a
fb
03
ef
0b
01
fd
03
07
03
f0
0d
01
ee
f6
04
f9
08
ed
fc
f6
fc
03
01
f8
09
16
f0
02
f7
f8
f9
f9
0e
fa
05
05
fd
04
0e
0e
0c
06
0c
03
25
2e
ec
fd
1c
fa
fa
1d
13
fb
11
da
03
fc
f1
02
01
f0
0d
10
f1
1a
04
0b
15
01
f8
f1
e6
0b
0d
fc
ed
f8
f4
10
01
18
f1
fb
0a
f5
0c
f1
f8
fe
eb
35
0f
0c
fa
f3
fa
ed
0f
14
f9
f4
ca
fc
ff
f8
f9
fa
e7
12
f5
04
f6
fd
f3
1c
f3
ee
fd
fb
03
f7
17
fb
fa
1a
e3
02
fc
f9
f3
0c
fa
ef
04
18
04
05
f2
05
19
0a
01
fb
f0
fa
fb
ff
07
11
ff
ff
00
09
02
ef
12
08
28
ed
f4
fd
16
ff
fb
ee
06
05
e1
05
f2
f0
f9
01
fa
f5
fa
0f
2d
f6
02
15
f1
f3
fb
0f
fe
fd
2e
02
07
02
05
05
0f
0e
05
11
06
ff
25
02
0d
fa
fe
fc
0b
04
ee
ed
f2
f4
0e
f8
f8
ee
04
13
12
10
00
01
fd
f3
06
04
f2
fd
f2
fe
f5
fe
f9
01
0c
03
03
0d
0d
f8
01
fe
00
0b
fc
0c
06
07
ff
00
f3
08
f8
fe
fa
01
f6
06
12
07
f5
00
07
f4
f7
04
05
fe
f9
0a
ff
ff
02
16
02
fc
f1
ff
fe
fa
f4
0c
f2
13
fb
fc
fa
f6
01
fa
ee
fe
0b
ef
02
fb
fb
13
11
fd
02
fb
fa
f4
f7
fc
f5
dc
08
fc
f3
06
07
f3
13
eb
05
fd
12
06
ed
11
08
f1
03
fa
00
00
f1
06
06
10
14
f7
f5
ee
09
05
03
06
f6
f6
f8
06
0a
05
f8
03
ef
04
02
f5
f5
02
12
0a
fa
08
0e
0a
00
08
fd
e7
f1
0a
f4
19
ff
0b
f2
ec
fa
fd
0e
02
fa
fc
f4
f2
0d
03
ff
02
fe
0a
03
02
02
fc
fc
0a
08
ff
00
f1
03
f8
f8
ff
06
08
ec
f7
ff
f6
04
0d
03
f6
fe
fb
ee
fe
09
ed
0b
f8
f6
f7
04
07
e5
fa
fa
0a
fe
ff
07
f5
0e
f8
05
01
fa
11
1b
fc
0c
f1
f8
05
fc
fe
f9
07
06
08
09
fe
ee
02
09
04
f5
f8
0c
fa
f3
fe
fc
f7
06
f8
0f
1a
ef
03
0b
fd
06
f8
05
13
f6
23
f2
f8
04
00
0b
f1
0e
09
06
f8
fd
09
04
14
01
06
f9
00
05
00
06
fa
ed
f8
fc
fd
fc
ee
0c
fb
ff
fa
f1
02
ff
06
ef
fc
01
ff
ff
fa
fd
16
e8
f8
1a
02
03
0f
0b
fc
05
05
03
f9
fd
15
0a
07
0a
0e
eb
04
0d
02
fb
fb
0e
0d
ff
ff
0b
00
08
07
02
f6
0b
07
f3
02
f9
f9
01
08
0a
ff
06
05
00
06
07
ff
f9
f1
05
03
02
03
0f
08
ff
00
04
06
f8
0c
02
f9
04
0c
f8
fc
02
ff
0c
02
08
00
f6
03
0a
f1
11
0d
00
04
fb
0e
fb
0d
06
13
f8
0a
f7
fc
fe
0a
fd
06
0b
00
00
f3
f8
06
fe
16
fa
0d
0d
f6
05
ff
fd
ff
0b
0f
00
09
1c
02
03
fd
f5
ff
11
fc
0a
05
05
ff
0a
fb
09
fd
09
03
fd
15
f5
ef
fe
00
09
0d
04
fa
04
0e
ff
07
05
07
ef
0b
10
fe
f6
f4
10
fd
f7
07
f8
05
ef
0f
0c
fb
f1
07
ff
f8
f5
f0
00
fe
0a
05
fc
15
f7
fe
01
05
ec
0a
fd
fe
f9
04
18
fc
0c
fd
0c
e3
12
fe
f9
fc
05
03
fd
ef
fa
16
02
ff
f3
f5
ea
f3
08
fb
0f
fa
05
fe
0d
05
0c
fe
00
fe
f9
ff
00
05
f5
f0
f4
11
05
fe
00
fa
10
04
15
00
03
04
02
f7
0e
05
f6
0b
01
ee
eb
fa
f0
ef
07
f3
11
04
fd
04
04
0b
f0
08
f9
03
f6
fb
09
05
fb
f5
fc
17
05
ed
00
fc
fe
03
0c
07
fc
03
0c
fc
f7
00
f7
fe
03
0b
02
ff
01
fc
f8
fa
00
f9
12
00
f5
05
05
00
03
0d
f3
f7
f6
03
01
03
0f
0b
0d
05
fb
1d
02
ea
01
00
fd
fe
f5
fa
ff
0e
27
f7
f5
f0
0d
17
f4
f9
f6
0a
03
fd
01
03
04
ed
08
ee
05
03
ed
fc
0b
eb
01
f4
06
f5
03
02
f9
fa
09
03
15
01
fd
03
00
fc
e0
02
12
fd
02
00
f1
ff
04
0b
fb
f8
09
fa
06
08
f4
fc
01
02
fb
fd
06
f9
01
00
f7
23
00
fe
11
f9
07
00
19
07
0e
0d
09
f3
10
fc
0f
f2
f8
f2
fd
00
fb
f8
01
f9
fe
ee
03
02
00
04
f6
fc
02
fe
fe
00
f1
0a
09
fa
f8
ff
09
0c
02
0b
f8
ff
07
04
0a
f4
01
0e
02
00
fa
09
f7
f7
f9
0b
04
04
05
f3
08
00
fa
12
f3
0d
00
fb
15
0c
09
08
03
03
f3
f9
03
f8
05
0a
f3
fa
f7
0f
fc
fc
f8
ff
f0
05
0b
00
fe
fb
fd
f1
fe
0c
06
00
09
02
f7
f7
06
05
05
00
0f
17
00
ff
f8
0a
0f
0d
04
f8
06
f4
fb
09
0e
fc
fd
f5
0e
11
f0
07
02
01
fa
08
20
fd
04
f5
f0
fc
f6
07
0d
0a
e5
0d
ef
f9
03
00
06
00
02
ec
09
14
ff
f8
f5
01
08
05
ff
06
14
0d
f7
fb
11
f0
0d
12
03
01
0d
0b
05
1a
01
0a
09
02
08
0a
08
10
0a
0e
f0
fd
f4
06
f1
05
09
f7
05
fd
fe
ff
16
f6
f9
ee
fd
07
20
01
0b
df
17
00
13
fc
12
0f
06
0a
0c
ff
f6
fb
f8
f9
fb
0d
04
fb
ff
e5
ff
07
09
f2
fd
fd
0e
0c
0c
f9
fc
fa
02
0b
07
0e
16
f4
02
02
0e
fd
f6
f9
01
00
f3
fc
09
fb
fe
06
02
f4
01
fc
09
f7
06
00
07
04
01
f7
f1
fd
02
f2
fd
19
fd
00
f8
01
0a
01
f8
03
fb
f7
04
01
f7
00
10
02
01
01
05
04
08
0c
01
02
0a
01
ee
f8
09
00
07
03
08
01
f9
eb
06
05
f2
fc
fe
00
01
ef
f6
07
f3
f2
fd
f4
fd
e2
ff
f6
0e
e7
09
ec
03
00
fe
ed
fc
f7
f8
02
02
f9
f9
05
f4
04
fb
ec
13
02
08
fe
04
fc
f9
f9
07
00
0b
f5
18
ff
01
f3
fc
04
ff
04
09
f8
04
ff
05
ff
0a
06
04
01
f5
06
0c
05
01
0c
09
05
fb
0c
00
09
f9
f9
04
f8
fe
fe
f1
fb
06
08
f6
f4
fd
fd
f9
f2
00
08
03
04
fe
fa
0b
f6
fd
02
0c
f5
ed
f1
ff
0d
08
05
fb
ff
f9
ee
04
03
f5
f8
05
f6
00
fa
f9
00
f9
11
05
04
0c
ff
00
f8
08
fa
12
00
f6
02
14
fe
02
01
ff
09
0f
06
00
11
fe
fe
ff
05
07
07
fd
f3
ff
ff
07
fd
06
04
fe
fd
02
01
08
01
fe
f7
02
f3
03
0f
0a
0d
02
fc
0d
fb
09
03
fb
08
fa
fd
09
f4
03
fd
07
0e
fc
0b
08
fd
0c
07
fb
f6
ff
01
dd
0b
00
08
f5
ff
0c
f0
f7
03
0a
0f
fd
f1
06
ee
fb
ff
05
02
fd
0f
0e
07
f8
06
f5
07
fc
06
0b
01
0a
fd
08
00
f8
06
fa
f2
ff
fe
0a
f8
fd
0a
04
13
04
ff
15
04
01
f4
f8
fc
09
13
0f
fc
01
f6
03
0e
02
fa
05
ff
fa
01
f9
fb
fa
fc
01
01
f4
09
f8
fa
f1
04
f3
0f
fb
f6
fa
f9
10
04
06
ee
09
ff
03
03
0e
02
10
03
ff
ff
09
00
fd
e9
06
f8
ff
00
03
05
ee
03
0e
10
e7
05
21
05
fb
04
ef
f2
fe
f4
fa
f9
fb
02
0e
03
fc
e4
f5
f3
fd
fe
f8
f5
fa
03
01
fd
0a
f1
01
06
fc
06
f3
0d
07
fd
10
00
fb
f9
00
08
fc
0e
03
ff
02
04
ff
10
02
06
0c
03
fd
ef
fd
04
05
ff
f9
01
0d
1d
01
03
ff
03
fc
04
1c
0a
08
08
10
fb
f5
f8
03
02
fe
19
07
fe
0f
04
06
f4
0c
05
fe
0e
00
03
0d
0f
fe
fd
0d
f8
f3
f7
04
ff
f2
0c
04
00
00
f0
09
f5
00
13
05
02
01
04
03
08
00
05
f5
f4
ee
08
ef
04
0b
fd
f0
08
f6
03
0a
fa
12
ff
03
fe
f1
06
f2
f1
fa
09
fe
02
ff
05
03
fc
f2
10
f4
02
fb
ff
fc
04
04
00
08
fa
10
f1
f5
01
ef
00
0a
f6
ff
ff
fb
01
04
14
00
fb
04
02
07
00
f9
ff
06
f3
19
0f
e9
03
d8
06
08
ea
f8
fa
05
0c
0a
04
ee
13
fc
08
fb
05
ee
0f
03
f7
05
05
ff
f4
fa
f9
05
06
fb
fa
ea
ea
f1
f9
f3
00
00
08
08
01
fc
0b
05
17
06
fa
01
05
fa
0f
fc
0a
07
07
07
fc
f0
f6
0d
f9
fe
04
03
ef
f5
f8
ff
01
f7
00
06
fd
fe
fc
0b
07
fa
04
05
f5
f8
10
09
04
ff
ff
05
f9
fe
fb
07
05
01
09
ef
0c
ef
f5
09
03
f2
f7
0e
0d
fb
09
f2
ea
eb
0e
fb
0b
fd
fd
fe
f9
f5
01
0d
0a
07
f6
ee
f9
08
f7
0c
f5
0c
fd
f8
06
03
04
13
12
0d
f9
03
02
03
00
06
00
f8
f3
fe
1f
05
fb
00
03
0e
fd
08
03
fc
fb
16
01
f0
ef
10
00
05
fc
f9
07
06
fa
0a
f9
f8
ff
0e
08
06
05
fc
e1
f9
08
01
01
04
02
fe
f1
f3
f1
0d
03
0d
fb
fa
fb
e2
ef
fa
f2
f1
05
f2
ed
fa
09
f1
09
f9
fa
06
f7
0f
ed
01
05
f8
ed
ef
e9
03
02
f4
ff
0d
fc
18
f9
10
fb
fe
f9
f6
0d
fb
ed
08
fb
f9
0e
fb
0b
05
f4
ef
f7
fd
fd
02
0c
fb
03
04
01
00
12
0b
00
02
eb
ef
18
26
05
f8
04
dc
f5
fd
07
0f
12
fc
13
f1
0e
04
07
05
f2
f1
09
14
f1
17
06
01
fa
f3
ee
25
00
f8
ff
03
10
05
04
fa
e9
1b
f5
01
fc
fc
1c
f6
f1
08
f4
f3
f3
10
01
20
f7
ff
fe
f2
f8
ff
0b
f1
fd
fe
f9
1d
00
fc
08
f2
f3
fd
13
f8
fc
fb
f9
03
08
01
00
f9
02
10
01
f1
0b
f6
03
f3
f9
fe
10
09
fe
0c
10
00
fb
fe
f8
13
ff
f3
15
05
07
fd
cc
fa
14
fc
f2
00
05
02
f0
19
f2
f5
f5
e7
10
06
f8
08
f7
07
15
f2
07
f0
08
fd
06
f6
ee
f8
06
07
06
f6
0a
04
f1
f9
11
03
05
f8
fe
02
fe
fe
06
13
fa
02
14
06
f7
fd
04
f3
00
fc
ea
f4
f4
ff
fb
03
0e
dc
fd
f4
fa
03
fa
08
06
f7
f4
02
fe
04
15
02
13
02
e3
eb
fb
13
06
f6
15
0e
0b
03
f1
fd
e7
f4
08
ea
00
01
04
fb
f2
0c
f9
f7
f5
fa
02
12
ff
fc
f0
23
03
f2
18
ec
0e
12
03
eb
fe
f5
0d
0d
03
00
14
00
13
0f
f5
fc
f5
fa
fd
f6
08
ef
02
06
06
08
02
0d
fd
ff
f4
0f
01
fa
f5
08
f2
02
ff
fd
fc
01
ff
07
0a
f4
0f
fb
ef
fd
02
08
fc
06
fe
fa
00
ec
fe
f7
09
fc
09
f9
fa
fa
eb
02
02
f0
03
fd
07
02
05
04
f0
08
f5
01
eb
f6
01
1c
fe
e9
12
f9
ed
11
ec
0d
0a
f8
f5
ee
02
14
0d
ec
0d
11
07
0b
12
02
f0
16
fb
fc
f2
fc
fd
0c
f7
f0
00
f8
fa
05
f6
09
f4
f2
0a
0e
0b
ee
14
02
03
fc
0c
f6
0d
f9
02
fc
08
01
ee
02
05
0a
f2
fb
0e
00
ea
fd
e6
f7
22
00
0d
0e
09
05
f0
1e
ff
f7
0c
fa
03
11
ed
fd
0c
0e
0b
fd
fb
0d
0b
ee
0a
01
fe
f7
f7
02
fd
fc
04
05
ff
17
fd
09
f9
09
f9
e3
fd
06
f3
e7
f9
02
fe
06
fc
0f
02
fe
f7
02
f1
0c
fd
01
07
06
ff
d8
fb
fe
fe
f9
f1
06
08
0b
04
0c
03
fc
ed
0e
10
f1
06
05
fb
07
ed
0b
0a
0c
f9
06
f4
09
f5
0b
fe
fe
fb
f3
ef
f2
0e
f7
f7
f6
ea
11
f0
fd
f6
15
0c
11
03
01
01
00
f5
f7
07
fa
f4
fb
f2
03
fd
0a
f3
06
f8
fc
f7
05
f9
fb
0e
fc
fb
00
fe
08
0e
03
02
f5
0f
e5
0b
03
0f
07
00
fe
01
fa
fc
f7
0f
f7
f9
02
fb
00
f6
05
f4
03
03
ef
0b
ed
00
03
fd
06
f7
fa
01
09
01
06
fa
fa
fb
13
00
f7
fc
fc
0d
fd
0c
f1
d2
e9
ff
fe
fb
02
0d
07
f8
0a
01
0c
01
02
f9
f5
09
03
ea
03
f6
ff
eb
00
f8
05
1d
05
fb
04
03
f6
ff
ee
02
10
00
06
fd
0c
fe
04
02
02
10
fc
0b
ff
0e
fe
02
f7
0c
fe
fb
07
08
f9
fc
01
f1
05
01
04
04
12
fc
02
0e
ff
f9
f6
f5
fa
0b
06
03
f9
05
11
0c
0b
03
ff
09
f7
0a
0a
fe
fd
10
f4
05
fb
01
fc
fd
02
05
fb
fd
01
f5
f8
03
06
f7
f4
fe
f3
09
ff
fb
02
fe
02
f0
02
08
06
00
fd
0c
ee
f7
12
01
03
02
f4
fb
19
f0
f6
f0
0c
fe
04
01
ff
10
00
06
ff
13
00
08
08
0a
f1
07
04
ff
01
fe
f9
11
0b
02
00
11
ed
0a
e9
0b
02
ff
f6
ff
00
fe
f1
07
f7
ea
0c
fa
fd
0a
f9
e0
fe
11
0e
02
08
0a
06
fd
ff
f7
0a
1c
fa
f5
fd
fc
0a
f7
0b
fc
03
06
0c
ee
01
f9
03
00
f0
08
06
08
1e
04
0d
fd
fe
f9
ee
fb
0b
fa
f6
11
00
0b
01
fa
05
04
fd
fc
08
05
fe
f5
f8
ef
00
0c
ff
f1
00
f9
0a
00
fe
f5
fa
01
01
fe
02
09
02
0f
0f
fa
09
dc
17
f6
0c
09
f7
e5
f0
e7
07
07
10
f0
01
ea
07
09
f2
f3
fb
f8
ff
08
f9
fe
16
00
06
fe
fd
04
ff
fe
09
16
f7
13
02
f6
fc
ff
ee
10
09
fd
05
f4
0e
ed
06
f2
09
ef
02
14
05
02
04
fc
ff
f2
f9
fd
f8
01
07
03
fe
fc
f7
04
f9
06
f7
fc
fa
ef
11
f7
fe
0e
04
ff
fa
07
e6
fe
f1
f9
fe
05
0d
fc
04
06
f8
04
0f
fb
06
0c
00
01
03
f2
03
06
03
08
04
f8
05
03
06
f9
fd
10
03
ff
ff
05
03
0c
06
e7
02
ff
00
01
f6
05
16
02
07
04
17
ef
f7
04
ef
06
f6
f9
05
08
0b
f2
ff
00
f4
f3
03
fa
05
f1
fc
05
fa
0d
f8
05
16
02
0b
fd
07
fd
05
fd
fd
0b
04
02
14
0a
05
fc
fe
f7
fc
f6
00
f6
ee
05
ff
f9
10
ff
f8
04
fd
f3
ff
02
02
fd
fa
02
0b
05
0b
f4
00
06
00
f1
fc
07
01
12
f1
0d
05
f1
fc
0a
ef
fa
06
fb
ff
f2
09
fb
11
fb
f7
0e
03
f3
06
0c
07
f9
fa
f5
fe
0c
0a
02
ff
00
09
03
05
f8
07
ff
0b
fe
fc
f7
0f
f8
07
fe
02
fb
05
fd
fd
03
07
04
f3
00
fc
09
12
0a
f6
0a
ff
0d
0e
fc
09
04
0e
02
ff
0b
13
ed
f4
fa
ff
fe
02
fd
f4
f9
fd
ff
08
00
fe
03
ff
00
00
02
f7
f8
0e
fc
0c
0a
eb
0b
0c
ff
fe
0a
fb
14
fc
08
f5
12
fc
fd
1b
0f
07
fe
05
ee
03
f5
0a
18
f7
04
0d
fb
fc
03
f9
03
04
04
08
0f
fb
04
f1
07
fa
02
f6
fc
07
f8
0c
e8
06
fc
fa
03
00
f4
0f
01
06
09
f6
02
08
07
f8
0b
00
02
f5
18
0a
f6
ea
f9
fc
fa
fc
fd
01
0b
0f
f2
f6
09
05
03
ff
f8
f7
e5
01
f4
e5
09
ff
11
00
f6
f9
01
f5
08
f5
07
f2
f8
0d
f0
0a
13
04
0d
f2
f7
ff
02
01
ef
f3
00
f5
06
06
fa
06
1a
02
f5
22
00
05
f7
fb
f9
f9
f5
0d
fa
0b
03
f0
04
06
fc
08
f8
f5
f7
07
0a
11
f7
07
0b
05
fc
eb
00
04
f5
fa
01
0e
0c
fb
06
fe
04
02
fd
f4
fa
01
00
f3
f6
f1
f5
08
f8
08
07
f9
06
fd
fb
08
fb
0c
ff
f6
06
ff
f2
fd
02
03
ff
ff
04
f7
14
fc
e5
05
0c
ed
0b
1c
fa
05
f3
de
fe
fc
ee
ea
ef
0a
03
ff
fe
13
fa
ff
ff
fa
03
fb
fe
f7
06
06
fd
0b
0b
ff
06
f9
11
0c
f2
16
00
fd
14
08
f1
f7
ea
f6
06
f9
0f
eb
fa
fa
f2
06
f3
fe
fb
fa
03
07
05
f8
fd
09
04
f8
f5
f7
01
f8
e3
06
19
00
f8
f9
03
fb
ff
f7
03
04
f5
04
0d
f3
fa
03
10
0b
f8
01
ff
fa
f8
fe
f7
02
0b
f9
14
05
f7
03
f4
f3
f8
f0
09
10
00
02
09
f7
08
fe
0a
f8
02
fa
11
04
0c
06
09
05
ec
f8
f8
fe
0a
11
fd
f4
e3
f9
04
f7
fe
f2
04
ff
05
01
fb
05
fe
fa
f8
01
dc
02
03
18
fd
0c
f2
06
ed
08
fb
13
fa
05
0b
09
06
f1
12
00
fd
fc
f0
f1
fa
f7
f9
05
f9
f3
01
f4
03
f6
fd
27
0e
02
0c
f8
f7
05
fe
f8
fd
17
00
f4
11
0b
fa
04
fc
e8
f3
f0
0d
fb
04
ee
ff
03
05
ff
0b
fb
f0
06
02
08
01
12
09
00
15
fd
ff
f9
0e
f5
f5
f0
e6
1b
f4
fe
06
02
fa
0c
fe
ff
16
08
e6
f7
06
00
06
fb
04
fb
0d
0c
f4
f4
02
e5
f8
f8
f7
07
f4
01
09
f9
14
f9
fa
0b
f8
0f
12
f2
fc
fb
f8
f3
1b
06
10
e9
00
06
0f
05
ea
0e
00
01
fe
f7
f7
17
05
04
00
ff
e9
06
e9
07
fc
0c
04
ff
03
0d
16
0a
07
0e
f6
0d
0e
f2
f7
03
02
0a
0f
f1
db
01
f1
fe
f9
fc
04
e6
04
ea
0f
11
02
18
00
0a
10
fe
00
13
fb
f7
10
f5
fd
e9
03
0f
f8
04
05
10
f6
03
02
f8
10
12
0a
fa
01
02
fc
01
07
f3
f5
0b
05
05
03
fc
00
09
06
04
ed
0a
23
fd
02
fe
fa
fe
fa
26
fb
fc
00
f5
01
fe
12
ee
f4
f8
dd
07
00
0a
1b
ed
fa
fe
fb
ff
05
0a
01
fa
10
f1
f7
f4
f6
02
03
f2
03
08
f9
01
fe
04
06
fe
00
1a
03
07
f5
01
11
00
00
09
17
06
09
fd
04
02
09
f7
07
ed
0e
03
04
f9
f0
01
fe
06
09
f2
f5
0d
fe
fc
02
10
0c
0a
fc
fc
f5
f8
fd
0b
fc
02
0a
06
f7
04
f6
ed
12
05
0e
f9
00
01
06
fd
0c
01
f5
f2
f8
07
f7
08
f2
f8
08
fa
ea
fb
04
0b
ff
14
fd
12
f9
10
f7
09
07
07
e0
02
f1
fd
14
00
02
ee
14
fc
f7
fd
02
04
ed
02
fc
fd
03
e9
fd
fa
0b
08
07
fb
f4
f5
05
01
05
0e
0a
ed
00
e7
fd
06
0b
01
09
f7
f6
0b
00
07
f3
15
05
f8
03
fa
f7
02
04
fe
ed
09
14
fc
0a
07
f2
fb
20
fc
09
0a
0f
14
0a
1d
ef
0c
0b
e5
07
03
fb
fe
f2
0f
ee
08
06
0c
10
08
fd
12
15
06
0c
e9
fe
04
14
10
ff
01
0b
0d
08
eb
05
ff
f6
f4
f3
fd
f6
f8
05
00
e9
02
18
fc
ff
f1
fd
01
11
f2
00
fe
04
fc
f8
05
06
06
00
ff
f8
fc
ed
05
fd
18
f4
ed
fb
0a
fc
ff
01
12
ff
0a
04
f8
f9
ea
04
21
eb
06
09
f5
08
08
13
07
06
03
06
00
f1
0c
02
0b
eb
f3
04
01
f8
ee
15
ff
20
f3
03
14
0e
02
fa
ff
f8
05
fe
f8
fd
01
e6
08
13
05
0d
08
1b
04
ff
09
00
fc
10
ec
ff
07
fa
15
01
f8
fd
f3
f4
0a
f3
f4
0a
08
01
02
06
02
0a
0c
03
f4
07
01
f4
0d
0a
f8
f0
06
0a
07
09
fb
08
fc
f6
f9
f0
02
f5
fc
1f
ff
fb
06
04
09
0d
f9
00
eb
f4
ff
f2
f1
07
f4
f3
f8
fa
02
05
fc
05
00
e2
e9
00
ea
03
06
f2
07
f2
04
00
f8
01
f0
02
f7
f8
01
fc
fb
1c
04
01
27
02
ff
0d
fa
05
fd
fe
0a
0a
f5
08
ff
01
fe
07
f4
13
09
fe
f8
09
00
f4
09
0a
04
f1
01
06
0b
02
fd
05
04
0c
f6
0a
f0
fe
06
09
fc
18
15
00
f6
f3
fb
05
f6
07
f5
04
0d
00
0a
fa
ec
f5
19
fc
03
f3
06
0b
04
00
fe
ee
04
fc
04
f9
fe
0b
ea
fd
03
f6
0b
10
00
fd
03
00
0f
fb
fb
07
f7
01
fc
0a
04
04
00
0d
0c
fb
11
f5
04
fc
fb
01
ee
00
01
00
fe
fe
0e
fe
06
18
0d
03
fd
fd
04
f9
0d
06
02
02
f5
00
f0
09
fd
0e
0e
ff
03
12
03
fe
f9
f6
08
03
05
07
fe
1f
fa
13
01
05
fa
03
16
10
fa
f3
f5
ef
0b
ed
f2
ef
e5
01
05
12
04
11
f1
0e
fa
f1
11
f3
00
09
ff
fe
01
00
06
ff
16
05
f5
fc
f9
f5
f7
04
08
0b
0e
ff
f3
e7
f1
f4
01
0b
f6
0d
fe
08
f8
07
fb
07
f4
0f
10
f7
1b
f1
fe
04
f7
0a
08
f2
ee
f6
f6
f7
02
0f
f8
0d
f7
f5
06
14
0b
02
fc
09
ff
f8
01
f8
00
04
08
02
f8
04
ee
01
f5
02
ff
04
08
f2
ff
0c
06
04
fd
fd
02
03
f6
0f
03
00
f9
f6
05
03
f3
f5
11
f4
dc
01
f8
ee
0b
07
02
fa
ee
fc
f5
f9
fd
0a
ea
eb
03
07
0d
fc
05
fc
02
0d
f9
02
09
f7
11
06
fd
f0
f1
f1
01
f3
f5
04
04
f8
ff
ec
0b
15
0c
02
fb
01
05
01
fb
f5
17
05
00
06
0d
00
fe
0b
00
fe
03
0a
fd
08
00
f1
0b
05
00
00
fe
e9
07
0b
10
fb
f9
fd
f6
f2
f7
0c
07
04
fe
20
03
05
f3
fd
f1
08
0b
10
fd
07
0a
00
03
02
07
00
05
fb
fe
f4
f2
f9
05
09
f7
11
05
f3
00
f8
00
11
f7
07
f2
00
fc
07
17
ff
f2
01
14
06
f2
f6
04
e8
fe
f2
13
0a
00
f1
03
05
0f
07
02
03
06
f0
f5
0d
09
f6
06
fe
fd
01
fe
f0
f7
00
fd
0a
f7
01
07
0c
07
ff
fb
0f
09
f7
0b
04
0e
fc
fb
f1
07
09
f8
0b
fd
f0
07
f7
04
0a
02
00
14
f9
f9
02
f6
0f
0e
02
f2
0a
01
02
06
f6
0d
fe
fe
fc
17
08
0f
0c
04
f8
f4
f6
ef
fc
00
10
ff
f7
f9
fa
fc
07
08
f7
07
10
e8
f7
fc
f7
0d
0f
f4
01
f0
0a
f6
06
0e
fa
07
0a
fb
fc
e9
ff
fc
fa
f9
05
f9
f8
03
07
fc
01
0a
02
05
fb
0a
04
ff
0b
13
01
fd
09
fe
f5
02
01
08
fa
02
0e
fb
f3
00
fc
02
04
f2
f2
17
00
f7
fe
0b
06
fe
04
f7
fc
13
f9
0b
02
07
08
fb
f4
04
fa
08
09
02
01
03
f3
0b
11
fd
06
e7
f7
0b
f8
13
f9
01
0a
fd
f6
02
fb
17
ed
f5
16
df
13
00
ef
fc
eb
e2
01
0f
05
0a
08
fb
00
08
01
fd
03
fa
fd
fd
03
f0
05
fd
02
fc
ff
f7
09
fc
f3
00
03
fe
14
04
fd
f4
04
17
05
f5
00
f4
ff
04
0b
f5
0d
fe
04
fe
05
00
05
06
0d
01
fe
03
fe
fe
0c
09
0a
08
05
fd
01
01
11
0e
0a
00
06
06
04
01
07
fe
04
f6
08
fe
fb
e5
07
09
0e
fd
e8
00
0d
ff
04
fa
03
f8
fd
01
05
f5
05
08
f6
0a
06
09
01
09
24
03
f6
fe
ec
0b
03
0a
09
02
f9
d9
05
f6
fd
ef
02
01
1f
f8
0f
0c
f8
fb
08
ff
01
14
fe
03
ff
1f
10
01
02
fc
f6
0c
11
fc
09
05
14
fb
ee
11
08
fc
f3
12
fd
0f
f6
07
01
f6
f3
0a
ff
02
f9
09
fd
f3
f0
00
04
00
ee
f9
05
15
03
08
03
08
0e
f7
fd
fb
07
05
11
06
fa
07
00
02
f0
0b
07
0a
04
fa
f8
ff
01
fa
f5
08
00
06
03
04
0b
fe
13
f5
09
0e
ff
0a
06
06
04
f4
01
03
ff
fd
07
11
f5
ff
f9
fa
1c
07
10
03
0b
fa
02
09
f4
07
13
11
00
06
f3
f8
fa
02
fa
09
ff
00
09
09
f3
f8
00
fe
0a
0e
04
f3
f7
08
f6
01
0d
f3
19
04
f3
f8
04
07
ff
f7
05
03
fd
ef
07
08
16
1b
f6
04
17
ef
e4
f1
1a
05
08
ff
f2
fa
18
fd
fc
05
03
0b
09
06
0d
f1
fb
07
05
ec
02
06
f5
e7
f9
fa
17
03
fa
f9
f9
f7
03
09
05
fa
f6
02
10
04
08
fc
08
06
f8
fd
fc
f9
03
fe
f7
0a
03
0f
f4
f2
f8
0c
f6
f7
fa
03
0c
fc
e8
04
0f
f0
03
f0
0b
1a
02
08
00
01
05
10
fd
fe
ed
fa
00
fe
0d
02
ff
fd
fb
0b
f9
f6
f6
fb
04
00
fe
07
fc
09
fa
09
04
f1
fb
14
0d
0a
09
f6
09
04
ef
0f
05
ff
ff
fe
00
03
01
fa
e0
0d
fc
f9
09
01
f6
0d
f5
f7
f0
0a
22
fc
0e
ed
f8
ff
05
fc
f7
05
00
f8
07
01
08
f8
f8
f6
0b
ee
f2
fc
05
06
02
f9
ff
e9
f7
ea
f6
f7
06
ff
00
0f
04
eb
0a
de
00
0c
0e
09
04
f7
03
09
fc
fb
ed
f9
fe
ef
08
f7
fd
00
15
07
ef
fa
fd
10
f7
fb
04
fb
f6
fd
00
01
19
23
f7
e1
07
f6
01
f3
f5
e8
02
f2
fe
07
09
d8
14
07
e7
fc
09
fa
0d
f9
fa
0c
f6
f0
01
f6
f4
f5
0e
0e
e8
f7
f6
ff
0b
0a
fb
04
07
ff
04
f5
05
e9
ea
f4
06
05
06
00
00
04
10
f1
f3
00
0c
fb
0d
fd
fa
06
ee
f5
fd
fc
0e
0e
fb
16
00
ff
04
ec
18
fc
fc
02
0a
01
ec
07
ff
0f
f3
fe
0e
fe
f8
0d
ef
fe
02
e9
02
f6
08
ff
ff
09
09
03
10
0d
05
01
0d
01
fc
04
f1
0c
f3
fa
02
f6
fd
01
0f
03
02
f4
07
fb
ff
f6
fe
fc
01
fa
0c
f4
fe
0c
14
07
03
01
f9
07
05
f5
f9
03
05
17
ef
ff
f2
f6
ea
f5
02
fd
03
06
f9
04
fe
04
f4
03
00
fa
0e
09
01
07
fb
03
ef
f9
f4
00
fb
0c
0c
0c
07
05
29
f9
05
00
09
00
01
15
02
fb
ec
05
f9
f3
ee
fd
fd
16
0d
fd
02
0b
12
f8
00
05
17
fe
05
0f
05
f8
f5
f2
e0
11
01
0c
10
03
03
fb
fe
fe
12
09
0a
fa
fa
02
03
fb
f2
08
f7
f7
11
0e
f6
01
f7
05
06
03
fc
f1
01
08
fc
01
fc
fc
f8
0c
00
03
fb
e5
06
fa
fa
ef
fa
01
f4
ee
0d
f5
02
fc
18
f5
01
ec
f6
ef
f5
08
ff
fe
f7
fd
01
fb
04
01
f2
09
f8
fd
f1
0c
f4
08
f4
04
06
12
00
f0
06
fa
02
fc
01
f9
0c
eb
0c
0e
08
10
f8
0c
03
fb
07
0b
f5
fe
f7
f6
00
17
01
03
f3
fd
00
00
10
09
fe
fe
fe
07
08
01
0d
e9
0e
0e
fc
11
fb
01
06
1f
f3
eb
02
fa
0d
01
07
fa
fc
11
08
01
fe
03
0f
fb
09
13
11
05
ff
01
e5
07
fc
06
fe
fb
f5
f9
02
f9
00
05
f4
fe
fc
f6
15
02
e6
e9
14
08
fb
f8
04
03
0e
e1
fb
00
14
fb
00
01
f9
fb
fd
fc
04
f4
ea
03
fd
09
f7
f1
07
fb
f9
08
fe
f8
0a
ff
f4
0f
fa
00
f4
07
04
f8
0d
fc
fa
02
0c
08
fd
ea
fb
fb
ee
fe
f4
de
fe
f5
07
ed
01
0a
ff
f4
0b
0b
0e
0a
02
09
09
f5
01
fb
00
0b
04
00
05
f8
04
03
01
f9
06
f9
0b
06
06
f5
00
f8
0a
00
f2
f8
0c
fd
0e
f8
f9
1c
08
f9
14
00
03
f5
01
01
05
ec
fa
fd
f3
01
fd
00
02
fb
fb
ef
02
00
14
00
fe
09
0c
fe
fd
08
09
0b
0f
15
fa
13
ed
07
01
f2
02
01
07
01
fb
01
ff
f4
fd
06
06
ff
01
fb
f6
f7
04
0b
14
01
02
0f
06
0b
02
18
f2
f2
e8
07
01
06
30
f9
f8
fc
ea
f8
ee
f9
03
05
fe
ef
f8
fd
01
fb
ff
01
06
ff
07
fe
fe
ec
0a
f9
f4
fb
fd
fd
0a
0c
e5
f8
04
e8
fc
0c
0d
fe
f3
da
f9
15
13
fc
f8
03
fe
e8
0e
f9
00
fd
0e
01
fb
05
09
fe
05
fe
fb
e1
03
04
04
f5
fa
09
f3
f4
00
07
f4
fb
08
07
06
14
04
14
df
0e
ea
fc
0c
07
09
06
fe
05
f7
f1
05
f1
00
08
04
f9
0b
f7
f5
07
fa
10
fa
06
07
13
01
f6
13
fd
05
fa
fd
0c
fa
01
05
fd
fe
fb
fd
fb
09
0a
fa
09
0b
0d
fa
f3
00
06
08
e7
fe
0b
00
fc
07
f7
fc
0c
fa
e9
fa
0c
0f
f9
ed
0a
f5
f4
fa
f7
11
07
f9
0e
0a
05
0c
ef
fd
0e
00
f7
ec
ea
ed
f3
fa
ff
08
11
1f
01
ff
05
09
f9
fa
f7
fb
f4
0d
07
04
0b
eb
09
05
1c
15
06
f4
20
02
04
03
ee
f9
08
06
1e
f0
01
14
09
f3
fd
00
15
ed
0e
0e
01
0d
0b
08
f1
f7
f4
ff
08
fd
e8
06
f1
1b
01
15
00
ff
f5
f3
1d
f6
fd
f7
ea
f5
f1
f5
0d
13
00
09
0a
07
11
03
ee
f2
0d
fe
fc
f4
de
0c
13
f8
00
04
f9
ff
0f
06
f7
fd
f9
fa
11
05
1b
04
fc
0c
03
fb
fa
0f
00
f4
0a
03
13
06
0e
03
0e
06
08
fb
0a
19
ed
f6
e8
04
09
f9
f0
08
ed
fd
fe
03
18
ea
03
0f
f0
09
fa
f7
e4
ea
08
09
00
f3
02
05
00
07
eb
05
19
0b
fa
fa
06
16
f8
0f
e8
04
08
08
fd
fd
f9
fd
ff
fa
00
01
fe
fc
ee
07
f9
f8
fb
03
04
fc
fe
02
ef
ed
fa
ff
fe
05
01
ed
fd
06
fc
ff
fd
0a
f2
00
f2
f3
f9
f9
0a
06
00
f8
f7
00
fd
02
07
f0
0a
05
02
0e
fb
f6
f8
ef
fd
01
03
fa
fd
04
0c
0a
f2
f7
fb
05
01
01
f5
03
07
fb
15
05
f6
0a
07
fc
02
15
00
03
ed
01
ef
fa
f8
fa
0c
fd
06
02
fc
fd
f9
03
09
fd
f5
04
07
ef
f4
05
02
01
0e
f0
fe
f9
fb
0e
01
01
fd
04
00
01
03
0c
f7
02
00
0f
f6
f2
fb
03
fd
02
fd
06
05
01
fe
08
fb
f9
05
03
fa
03
fa
03
06
00
01
ff
04
05
fe
11
f7
02
fc
00
01
fc
fd
0c
fc
00
00
f1
f9
14
01
f6
f0
03
01
f6
fe
03
00
fd
fb
0b
02
02
04
02
10
ff
09
ff
03
10
fe
fa
f5
f7
ff
ee
0b
fc
fe
e6
09
03
09
fd
08
00
f1
03
f9
00
fc
f4
02
f8
07
01
10
f2
f1
08
06
05
fd
01
07
ff
0a
01
fc
f4
0a
17
fe
00
03
f9
10
06
17
f8
e5
f9
fe
07
e7
f9
f5
0b
f2
01
fd
fc
08
05
fa
08
fa
03
f2
01
fe
f2
00
f2
ff
15
09
fc
0c
04
06
fe
ff
fa
00
10
09
0d
fe
f9
04
0e
0d
fa
f0
ff
01
03
ff
fe
f9
f8
fb
ff
e3
00
f7
f8
0c
06
fc
fb
fe
01
0b
08
e7
fc
01
fc
ff
0a
f9
08
f8
f5
f8
04
e8
ff
10
fe
fc
fd
f7
fc
ff
0e
06
0d
09
f9
f5
06
10
04
08
07
03
fb
f7
f9
fa
05
fd
01
0a
fe
ff
f4
f6
03
fa
f2
07
0c
fd
f5
02
f9
05
fc
f4
f0
f7
f3
ff
00
e4
f7
f7
fc
06
e7
fb
f1
07
1a
f0
f3
06
f5
f9
03
e7
07
01
0a
08
04
ff
f1
10
f4
00
ff
f1
02
1a
f9
0c
06
00
f1
f8
ea
06
ff
f8
fe
06
fd
01
20
08
ff
06
fb
0c
e7
01
0d
04
0d
0e
04
03
00
1f
12
1e
04
f0
05
f9
fc
09
02
0c
f9
f7
10
ff
fd
0f
0b
17
02
0a
f6
f7
0a
f8
02
f6
fd
ec
ea
ff
04
03
0d
f7
05
ed
fc
fa
09
01
f5
f3
15
ff
05
03
06
fd
f8
02
13
f6
08
f4
fa
f8
00
ec
14
f6
fb
fe
f8
01
f9
07
fd
f4
0e
f3
f9
10
fd
f0
06
08
12
12
03
ff
1b
03
fa
fe
fe
00
04
e8
06
fb
f8
fe
06
05
f1
0b
fd
f7
e7
02
09
fa
06
04
0a
03
f9
fc
14
fb
f3
07
fe
0a
fe
fa
0a
fe
0a
0c
0d
0f
fb
09
ed
0b
f5
fb
03
09
f7
e6
f5
0c
04
fe
01
f5
fc
14
04
e4
03
f2
e3
04
fe
19
f4
07
08
00
fd
0d
00
0d
01
06
f8
0a
04
05
e7
0f
0e
f9
12
e8
f8
f6
08
03
e6
08
f6
05
0a
ed
16
fb
ec
f9
f5
00
0e
f0
1d
00
06
f4
f1
fc
f4
fd
05
f5
03
0d
f1
fe
0e
f1
f5
02
0d
f6
fb
f8
09
f7
f3
ed
ec
fc
fe
f6
0c
f5
07
0a
0f
f7
f4
09
02
18
f3
ef
f9
0a
00
11
04
f2
08
01
00
08
f7
01
fe
00
f4
01
10
fe
f7
fa
00
e2
fb
fa
05
fc
09
08
f6
10
fb
02
01
01
fd
fa
08
0d
fb
02
04
f9
ed
f3
f0
07
02
08
10
f9
0c
f2
fe
07
ed
19
0b
09
ee
09
fc
03
06
f9
0a
01
00
f8
ff
01
fd
0c
ed
fc
ea
07
fe
17
fd
0f
fb
04
09
14
f4
09
f7
f4
f8
01
fa
02
04
09
f5
f3
07
ff
f7
01
f4
f1
0a
0e
08
12
1f
07
08
00
f8
07
06
f9
fd
0f
0a
f1
fb
f9
01
15
0c
f8
04
08
fa
fa
03
10
06
00
05
00
04
03
f6
f4
04
fc
f6
00
f6
f7
fc
f9
03
0a
12
13
04
ff
fc
f4
04
02
fc
08
06
f6
ff
05
f9
0e
ee
0b
f7
03
0d
ff
fc
ed
fb
fd
04
fa
11
f5
0f
0b
09
0e
fd
07
08
10
fb
09
0b
01
00
f8
fc
fa
03
11
fc
f9
07
0b
07
04
11
f8
07
09
04
0a
0a
e6
04
04
07
f7
f4
05
fe
f3
e9
0b
f9
f3
ef
09
01
f8
03
fb
04
f8
1b
f5
0a
fd
06
ff
11
e6
07
03
f1
ec
03
fd
0a
f8
00
fb
eb
fd
14
06
08
0d
10
fc
f3
f0
05
14
13
01
ff
fc
06
fc
05
fd
02
06
fb
00
fb
07
ff
fc
0a
02
f3
0b
ea
12
f6
1a
f9
01
f4
0d
00
03
06
fa
02
0a
f1
10
02
ff
06
0b
f3
02
f7
fb
f6
02
f4
12
08
ff
f2
15
07
fe
fd
f1
02
fa
10
fa
fa
fc
fe
fa
0e
f3
09
f6
0d
f9
f6
fc
01
f2
f4
1e
08
fd
f7
fb
ff
03
07
fa
08
ed
02
f5
03
20
10
01
f5
fd
17
f5
1a
e8
f1
00
01
ff
0c
f2
10
f9
04
0a
fb
09
f6
fd
ff
fc
f4
fe
f9
f0
fe
05
fd
0b
03
fa
f2
02
f6
0f
fe
f2
0f
01
00
eb
03
f7
00
fe
02
0d
0f
fa
f5
09
02
f7
f4
03
fb
fd
f9
f6
06
f6
02
14
ef
06
0b
fe
09
fd
f9
0b
f4
e8
f0
f8
10
08
fd
f8
0d
01
01
fe
04
08
fd
02
0f
fa
f2
07
f3
f5
04
fc
f6
11
f6
02
07
ef
05
08
fe
03
fe
ff
04
05
03
f8
0d
0d
ee
03
fa
fb
fb
ff
f9
fa
07
05
05
f7
ef
05
fc
08
0a
0d
18
01
f1
08
f6
0d
f4
f9
ee
01
f9
f5
02
04
e5
05
fa
00
fc
f7
07
fb
f9
fe
03
fa
f7
0f
09
0e
f5
fd
18
01
f9
ff
fe
f8
fa
0b
03
0c
fb
ff
ff
02
05
fa
01
04
14
fa
0c
fc
09
02
02
23
09
03
0b
05
0b
f1
f5
0d
fd
06
f1
f4
08
f9
00
02
f7
1a
ff
0e
04
ff
e6
16
fd
05
03
06
00
eb
eb
ed
09
10
01
02
ef
01
fa
fe
fc
0c
fd
e2
f5
f9
fa
01
03
ff
13
f6
07
06
0c
e5
07
09
03
0d
0a
00
ee
fd
ed
03
09
0e
ee
07
0d
04
f7
f5
02
f9
09
05
ff
f7
fb
04
03
f9
06
f1
fa
05
08
fc
fb
08
00
0c
f7
02
00
05
06
09
06
f0
00
0c
23
00
ff
fb
f3
06
06
03
09
04
00
07
0a
09
02
f7
09
08
01
f5
fa
ef
fe
0f
f6
0e
03
00
0f
fb
f2
13
07
e7
0d
fe
01
08
f6
01
f1
0e
00
e7
07
01
fe
f7
f7
ff
0a
15
fe
e9
01
06
0c
f8
fc
01
eb
01
02
16
f3
0c
08
04
f7
f8
f8
fe
fa
fe
0f
06
0a
00
f3
f8
11
0d
f6
f9
fa
f5
04
fa
f9
0a
18
1e
0f
06
f1
02
f4
06
0a
02
0a
fa
08
0b
f0
f5
17
17
fc
fa
09
e5
f1
09
0d
12
fa
f6
09
0e
06
05
04
08
02
fa
06
0b
05
0b
f1
fa
03
1c
ff
f3
0f
fa
e7
0a
15
04
0c
14
23
0a
f8
0a
f7
f1
0b
f4
fe
0a
0d
00
ff
1f
02
04
0a
03
ed
11
05
f6
f7
fd
f8
09
ed
02
f5
00
0f
03
f7
03
fa
ff
fc
13
19
fc
fe
18
17
0f
10
05
07
03
f4
fd
0b
fe
1a
f8
f5
fc
05
fc
07
e6
1b
e8
04
08
02
05
fb
0a
fd
fe
00
04
f8
03
02
06
09
fe
fe
fd
04
15
05
0d
0f
11
01
fc
07
ff
fc
00
05
00
fc
fe
f5
06
fb
f9
0b
07
0a
ef
02
0b
03
f2
02
ff
0e
ff
0a
f7
01
05
00
07
fb
fd
03
fe
0b
f3
fd
08
0e
0d
1f
08
0c
00
fa
19
00
fc
f7
01
fd
07
02
f8
0b
10
02
05
04
fd
fc
ff
f1
02
e7
f6
01
f4
03
fd
f5
f6
e4
0a
fc
10
01
10
07
ed
f7
15
f6
01
fd
f1
06
14
09
06
fa
02
10
11
0a
ee
05
03
f9
03
18
02
00
08
02
f7
ff
fd
f3
04
ef
0e
04
08
fd
0a
16
02
11
f6
e6
11
ff
e8
02
f9
01
e9
ef
ff
f1
16
f4
fd
fc
f2
03
03
01
04
06
f7
f1
01
fd
0e
fe
05
08
00
00
fc
02
f7
f1
f5
fd
ff
ff
f7
ea
07
ec
09
ee
fa
ed
fb
f3
0a
00
06
08
0c
03
f5
f5
0f
fe
fc
f6
f7
f0
0f
01
08
15
09
f9
fa
ff
f9
f5
f2
fc
06
06
05
01
f8
fe
05
0a
0c
fb
0a
01
00
ef
01
ff
fc
fe
f1
01
fe
02
f8
ff
04
ed
06
fd
fd
f7
f2
05
0a
08
01
03
01
1d
ff
03
0e
0d
05
05
12
fb
04
03
00
f3
ff
ff
f7
ee
fc
0a
f8
ff
0b
02
f9
fc
fa
f8
ff
f8
00
06
02
f9
06
06
f8
03
11
fb
05
13
10
f8
fe
06
f7
f3
03
fb
f4
03
06
08
05
03
fc
fa
ff
07
03
06
03
04
ef
f8
0c
01
f8
ff
fa
fd
05
fb
fc
01
f4
09
06
f5
f8
0a
fd
ff
e7
fa
03
ff
f9
05
f4
0a
f1
fa
f8
02
ee
ff
03
03
fe
f3
ff
05
03
f9
0a
f7
01
03
f3
fc
01
08
00
03
05
f4
05
06
03
ff
0d
fd
0d
0f
fb
03
08
fd
f7
03
f8
f5
fe
0f
fb
0f
f8
06
ec
05
07
f0
01
13
13
08
02
03
f8
f1
f8
fe
fa
00
08
01
fd
fa
ff
14
e3
1b
09
fa
fe
01
e4
09
f2
fa
07
12
02
ee
fb
ef
0d
06
f9
05
f4
10
f9
0e
f1
fd
f7
1a
00
e6
0f
17
0d
f6
01
f9
01
f5
17
00
09
0d
14
00
fa
f4
08
01
f3
04
fb
f4
05
06
fb
ff
f3
f5
fd
0f
03
0d
ee
f2
f5
f9
e4
08
05
fc
e9
09
f4
0a
06
04
f9
0c
f2
f5
09
08
f3
f9
e5
f9
fd
13
05
12
08
06
f9
fe
f5
f7
fc
02
f6
fb
f6
04
fe
02
f3
02
ff
e3
12
02
f0
f9
f9
09
f4
10
fb
fb
ff
f9
fc
07
03
10
04
03
ec
fe
05
03
fa
07
00
08
fa
f9
0b
01
06
02
12
02
05
fe
01
08
f6
00
04
02
f4
f7
fe
03
04
fc
fe
03
fd
06
f8
fe
f8
05
0a
f2
fd
f8
fe
f6
08
05
f6
f6
fa
07
0d
08
ea
00
06
03
f5
fb
0c
04
0d
eb
fa
05
0e
ff
06
f7
fd
0a
03
fd
f2
00
ff
0e
0b
f9
01
fb
f6
fa
f7
00
fa
00
12
fd
00
f2
04
09
15
0a
03
01
15
eb
06
fc
04
ff
f3
08
f8
f6
06
06
13
ff
11
11
f5
05
db
01
fa
04
e7
02
0f
fc
02
ee
0d
f3
06
e9
f9
03
eb
ff
f2
fe
f7
05
11
10
05
0c
fd
0c
12
04
fc
f6
02
f9
04
04
f6
fe
fe
fb
0a
02
07
f2
02
00
f7
04
09
00
f6
ee
04
fe
f4
04
fd
fe
0d
f3
f7
09
08
07
fb
f0
f0
06
f9
f2
e9
ee
fa
f7
0a
fe
f6
fe
05
fe
fb
09
02
f6
ff
10
02
04
fc
01
f6
19
f5
02
f8
01
02
fd
f6
fa
f6
f5
05
0e
04
ff
fd
ee
ef
25
07
fb
f3
ea
f1
fe
fc
ee
10
fd
02
fd
15
ea
0e
07
fd
f9
03
0b
0c
0b
ff
01
06
01
f6
f8
26
fc
e8
06
01
08
04
fe
02
f5
ff
0a
13
f7
fb
fd
fb
00
fd
01
ff
12
07
02
f3
07
f9
0b
01
ed
0c
f6
ee
06
fd
00
0f
f9
f9
05
0c
fa
f5
0c
07
05
f8
0b
ec
03
fe
09
0a
f3
ff
e9
03
f2
ed
08
f4
07
fa
f8
01
fb
ff
0b
fb
f1
00
f9
f6
fe
15
f3
04
1c
fe
16
01
fc
06
10
f8
0a
16
f1
01
08
fc
00
01
f2
07
01
fa
ff
00
ff
03
07
ec
f7
fb
12
09
02
08
f0
df
ee
02
fa
00
03
f6
f6
12
f3
fc
06
fc
fe
05
ff
00
18
0e
01
03
fe
f9
0e
f8
07
0d
ed
fd
e7
06
f4
ff
f5
0f
fc
0d
f7
05
ee
04
fb
fe
07
f6
f3
f8
04
09
04
f8
f3
ff
04
05
ff
19
07
fb
03
fb
fd
06
fa
fa
0a
01
fc
ff
05
03
06
15
f8
0a
f5
f8
f1
05
f9
08
00
02
0e
f7
ff
07
fb
08
f3
fb
fd
0f
07
ff
02
06
01
02
08
ff
0d
09
00
01
ff
fb
f0
f9
07
11
17
fb
01
1b
f1
04
fd
f3
0b
fa
07
05
11
f1
fd
11
fd
16
fd
0c
f3
f4
01
18
ef
fe
03
f6
0a
03
ea
10
f3
05
f3
f4
e7
01
08
0c
03
01
0a
fe
06
fc
03
eb
fc
19
eb
f3
fb
16
fa
14
02
02
fb
04
fc
1f
f9
04
05
00
01
f2
05
0a
03
fb
0c
15
03
08
0a
fa
f9
f8
02
eb
07
1b
f9
00
fa
f6
0b
f2
02
01
fa
fd
08
e7
09
ff
07
0b
ec
e4
fc
f6
fa
0f
01
01
05
fd
04
fa
0c
fc
f7
07
07
fe
f7
00
f8
ff
f5
fb
f5
ff
f9
07
00
04
fe
fb
fc
fa
f5
fc
ff
13
03
05
f9
eb
f3
07
fa
03
fb
00
f7
fe
11
05
ff
0f
03
0e
05
f7
02
fb
ed
0d
05
ff
0e
00
f8
09
fd
02
ef
07
00
02
07
07
09
ee
fb
fb
f1
0a
fd
01
00
f5
15
e8
ff
15
09
fd
01
ea
e7
fe
03
00
13
04
2e
fe
0a
fa
fa
fc
05
03
0c
fa
ff
04
0c
ee
06
01
f8
04
ec
fd
fd
f6
ff
11
ff
00
0b
eb
10
09
f5
14
ea
f0
07
fd
01
fa
06
ff
ea
ef
fc
f2
03
f2
04
12
f6
ed
07
0a
00
f0
02
08
ff
f7
f6
03
ee
02
ff
eb
01
f3
ff
f3
00
f8
03
06
f6
03
0e
12
08
0a
f0
fc
fe
ff
ff
05
fd
00
fa
08
00
01
f3
ef
fe
ec
0d
fb
f4
eb
fd
f0
f1
06
fc
06
fd
fa
12
04
f8
0a
01
f7
13
f4
f7
07
fd
fb
fa
02
17
08
f2
f3
13
f4
00
04
fa
09
01
f5
05
01
14
09
fa
00
04
f5
0b
02
f8
04
05
fa
f4
09
08
fd
f9
fd
1c
f1
05
f3
fc
09
05
fb
ff
07
13
f2
f7
f7
fe
0b
00
f1
fa
e6
f8
0e
09
f7
00
f6
f5
0f
07
02
f7
f6
13
03
0a
fb
ee
01
02
fe
f7
f2
f6
fd
0d
f1
11
18
05
16
fd
03
03
06
17
02
17
ff
03
09
fb
fe
08
05
fc
f9
07
11
14
f9
04
fd
fc
05
fd
fa
0c
08
ff
ff
01
0a
15
04
15
0d
09
0c
f9
0c
f5
ef
04
07
05
03
ed
fd
06
f8
fd
fa
02
f5
13
08
0a
05
f1
f1
f1
00
0b
e9
15
00
00
f0
ec
f5
07
fe
f6
fd
05
fa
ff
06
10
fb
03
0c
00
03
fa
f3
05
13
11
f3
ff
07
f1
0b
0c
15
0d
08
f6
01
0d
05
f1
fe
1b
01
fb
fe
f8
f2
f8
0e
13
f8
15
f0
14
00
ed
11
0a
f9
00
fa
f8
f6
f8
09
fc
08
06
f9
fa
00
ff
01
0a
f7
fa
f7
fe
ff
11
09
f8
ff
fb
f9
0a
02
07
14
fc
f6
f1
fc
f9
f5
01
18
04
f6
fa
03
10
f9
fa
fe
08
11
f5
f9
04
f7
0b
f7
f3
ef
00
07
f4
02
23
02
05
fb
f7
1b
00
14
0b
e4
f6
dc
fb
ed
ed
00
ff
f1
11
0f
02
08
04
f1
06
fe
ef
01
fb
00
f8
01
06
02
f7
15
fd
f6
0e
0d
05
f5
00
02
04
02
04
fe
fc
00
fc
ef
f1
fd
fd
f3
fa
fe
0c
14
fd
05
01
f4
01
fe
ff
03
14
f4
f3
f8
fa
0b
01
0f
ff
15
05
0b
04
08
05
06
ef
02
0a
09
fe
fc
01
12
09
fb
f9
00
fe
08
fc
ff
07
fa
03
f8
04
f2
01
01
ff
13
09
fa
fd
f4
01
07
fb
f8
0f
fb
fd
f3
23
ec
e9
16
03
03
07
09
ee
0e
f2
f3
0e
01
00
f5
00
02
08
f5
04
fb
ff
09
01
04
f6
00
ee
fb
1c
0c
fa
10
f9
f3
fc
fe
02
03
fe
fc
03
f9
f2
0c
0b
e3
f2
08
09
07
01
0e
e9
f9
f0
07
06
ff
f3
19
fa
12
f6
fb
01
fd
0c
0c
25
15
06
ff
f9
03
16
0b
fc
12
f9
07
01
0c
f7
fd
0a
06
02
01
09
f4
0d
fc
00
f6
fa
fb
f4
e8
00
fb
fe
02
f4
0d
04
0f
07
05
f8
fd
f1
08
fd
fa
03
fc
fe
fc
e7
f9
f0
fb
fe
00
f1
04
07
0e
f4
04
04
03
f5
f5
fa
fa
f9
0a
e5
ff
f9
fe
08
ff
f7
ed
02
f8
f6
fc
06
08
03
f2
07
ee
08
01
f4
fb
02
fb
ff
0d
ef
0c
fe
0e
f4
fc
05
00
f5
0a
fc
10
06
f5
10
03
09
fd
0a
05
ee
fd
0b
21
f9
01
04
01
f1
04
09
ee
08
f3
f8
07
00
fa
f8
f8
f9
0b
f1
fb
fc
1d
fd
f4
f1
0d
0a
19
0a
1a
f5
0a
16
ea
01
19
24
05
03
fb
0c
15
ec
f0
0b
f5
fc
19
07
f3
ea
25
25
0b
0a
08
09
13
0d
0d
00
05
19
16
ea
fe
ff
09
f4
fe
14
df
b7
03
f4
03
05
09
ee
ed
ff
f9
17
22
0d
19
1b
0a
0f
0c
fc
0b
04
07
07
1a
e8
17
10
0c
16
09
03
08
0d
0b
0f
f3
fe
ef
f3
f4
02
f9
f2
fd
eb
01
10
f1
fb
06
ee
f9
0d
fc
fd
fa
08
f8
f1
00
07
0f
f9
11
eb
16
00
01
ff
0d
e6
0d
f3
06
ed
00
09
0e
f9
09
0a
f7
ed
f7
fa
f3
fa
00
08
f3
fa
08
00
08
f9
01
08
09
f0
06
fb
09
ff
0d
0c
eb
03
f5
09
e6
06
fb
04
09
fb
fd
0c
08
09
09
14
06
f9
16
01
13
08
05
fe
ee
fc
fe
0a
f7
1c
ef
19
07
fd
f4
e6
f8
f0
01
fb
f4
ec
f4
f6
0f
06
f7
0d
f0
ff
f4
ee
07
00
fd
fc
ed
fc
08
04
ff
00
06
01
03
09
19
f1
fc
09
0b
0b
0a
e6
08
ff
fd
ff
01
fc
ef
fc
fa
00
03
14
0d
f3
fd
f4
fa
f2
f7
01
eb
09
fe
0c
ed
0d
f0
17
01
02
16
f7
fa
f3
fa
0d
f5
0a
fb
fb
f3
fc
0f
0c
e5
0e
04
07
0f
f9
00
00
fe
f9
fb
03
0b
08
fd
fd
f8
01
f7
05
09
05
07
fa
01
0b
0c
01
f2
0d
06
fc
fd
07
f7
06
09
f9
07
05
ea
fb
09
fd
ff
06
06
00
04
0f
08
f2
ff
00
00
14
fa
fa
02
0a
01
0a
02
fb
04
03
0f
09
fa
fe
09
08
01
fc
06
01
0e
ff
02
f0
fb
0d
03
fa
fb
12
09
06
01
f3
ff
fa
0b
07
ec
fc
fc
0a
00
03
ef
f4
12
13
03
00
f5
0b
02
fb
0a
f0
f7
08
ef
f8
f5
02
01
f8
04
0c
f7
f4
01
0d
0d
fc
f4
ff
08
05
11
f2
f2
02
f4
08
06
f4
0b
0e
12
0c
05
f1
fb
15
ff
03
0c
ee
04
06
0f
f6
fe
ef
01
02
06
fc
ff
f2
f8
f6
fc
f1
02
f9
0f
f6
d6
f6
fa
ff
02
f4
eb
ff
f4
f1
eb
08
01
01
08
f9
e8
08
fb
0c
fc
ef
04
06
0a
03
f7
0b
0c
04
05
0a
01
04
ff
25
f4
f1
01
f9
fd
f9
fb
fa
f9
0d
e8
fd
00
08
0d
f2
e2
f4
f9
00
08
f9
fd
0e
00
0a
0e
00
fb
ff
e9
07
00
f9
0a
07
10
0b
03
0a
0a
fe
08
eb
03
f6
0b
fe
fb
f8
fc
07
fc
03
ff
01
f4
fe
12
fb
fe
f0
f6
0b
f5
01
08
0c
fb
f1
f8
f9
eb
fe
fa
04
05
ec
0d
15
ec
0b
07
04
09
02
fe
0e
fd
fa
f2
05
fb
f0
fd
ed
0d
14
04
fc
0b
02
fb
10
eb
e4
dd
f2
f0
fd
f7
f2
fb
ec
01
e4
01
00
06
f2
06
07
05
0b
fd
fc
09
f7
fe
08
f6
01
0e
20
f6
1b
0b
02
0a
01
03
0d
f5
f8
12
f1
06
07
fb
22
02
f5
11
f9
fa
f8
07
e4
fa
eb
f0
f3
ef
e0
f5
0b
0a
ef
fa
f3
18
11
0f
ee
f6
03
fb
f0
fb
f4
f9
06
02
fd
0a
0b
e9
02
f0
02
0a
f3
f7
01
01
02
e4
fc
07
f8
fd
05
08
fd
14
09
ff
0f
fb
02
04
00
06
06
0a
f5
06
f2
06
e8
09
f5
08
f5
0a
0f
0b
02
18
06
06
f1
07
ff
02
05
03
07
02
02
f6
f4
03
10
07
04
ff
07
fc
0c
f9
f4
13
ef
fb
f6
fd
01
06
f9
01
f5
07
f6
f6
05
1c
fe
11
db
0c
eb
fa
fe
f5
0d
f2
03
0a
ea
f7
0f
f7
07
f6
f8
07
0b
0c
0b
fd
01
0d
f7
f9
f6
fb
f7
0e
fe
ec
02
f7
03
f9
10
f3
02
fc
fc
0f
ff
f4
10
f5
09
f5
13
ef
ed
fc
05
04
f3
fb
10
0e
fe
05
f3
f5
fc
05
fc
02
ff
01
04
06
07
f8
14
fe
04
09
04
ff
08
06
04
e4
fa
0f
f7
04
06
ef
fb
09
ea
1b
f6
ff
f4
fc
0c
07
e7
fa
04
f3
fa
e5
fc
04
f8
f3
fe
ec
06
f9
fe
f9
0a
0b
0e
f4
0d
f1
fc
f8
02
ef
f7
17
f5
fd
00
f2
08
fb
07
fe
04
f3
f6
17
fa
fc
fb
0c
13
fe
ff
07
04
f4
01
0a
03
fb
fa
03
fa
04
f0
0d
fb
ff
08
12
07
f5
00
08
ff
ed
f8
fb
fa
f0
fb
fa
fa
f4
fc
f6
f4
04
fd
ea
07
fb
0c
ff
f4
f1
eb
fa
f4
02
17
ea
0d
07
16
03
fc
ea
f6
0d
06
ff
fd
10
02
ed
f6
0b
08
00
fc
fd
07
ed
f1
f3
0a
02
f3
ff
02
f5
ec
08
13
ff
f1
f1
f5
fe
08
fa
fb
18
f0
fc
05
fc
0b
0a
ff
0f
fb
fc
11
08
fe
0d
fb
02
ff
ff
10
fd
f5
04
f5
e8
f1
15
f8
08
f9
02
09
10
03
0f
fd
ff
10
e9
fc
00
ff
05
11
fc
f9
01
09
f8
05
0d
f8
f0
07
07
ed
13
ff
17
04
09
07
06
f3
fc
f5
0c
ef
ff
05
f7
f7
0c
db
01
05
00
f3
02
fb
0b
0a
f8
0f
02
fd
15
fe
f5
f8
f2
06
0d
f5
e9
04
f1
f5
fd
08
fb
09
04
fd
fd
fe
ff
f2
08
fa
ee
0b
fe
08
08
fb
12
00
fa
f7
07
f4
fb
f4
f2
01
0b
00
fc
0a
09
06
02
00
04
05
02
f8
fc
15
fc
f8
fd
01
0b
fa
0d
f2
00
f4
f7
1e
06
00
f7
03
f8
07
ed
0a
fa
0b
f8
02
10
06
f2
fb
08
fa
f5
02
fd
10
f6
00
fe
09
02
f7
19
f0
f3
04
06
ff
04
ff
fa
fb
f7
f6
fa
04
0a
fc
08
e3
f3
f3
04
03
0b
ea
fa
01
08
fe
fc
07
fc
f2
05
fd
06
06
fd
24
fd
00
07
06
14
f0
12
05
f5
e8
fe
fb
fc
fc
02
ff
e9
0a
f5
02
f2
fd
f2
03
0c
06
03
fc
03
09
fd
02
04
09
0a
00
03
0c
f7
02
12
fb
1d
0a
05
08
09
04
15
03
f2
07
f4
ff
ec
ff
09
20
07
fd
08
0a
f0
11
04
00
03
00
00
19
00
fe
0f
fe
14
03
f6
fc
f6
00
03
eb
0b
f2
f9
f6
fa
f4
f9
18
fe
08
02
fa
fa
f1
07
0c
02
04
08
0e
fb
fa
fc
00
04
f4
fb
fd
fa
12
fe
05
fd
03
07
19
04
f0
f8
00
fa
ed
fe
0c
f9
05
fc
f9
0c
f6
0a
f0
f8
03
f9
00
ff
01
03
04
f9
f5
06
03
04
fd
fd
f6
fc
02
ec
02
fe
f3
06
01
07
03
0f
06
f4
08
ff
fb
f8
fd
f2
04
fe
ec
f4
03
f6
fb
fc
f9
f3
fb
fe
00
0a
02
03
fe
0c
05
f4
f7
05
16
f9
f7
0b
04
e7
f2
1a
05
fc
fc
0e
00
02
f8
fa
e8
07
fd
04
0c
00
05
00
f0
08
fc
fc
fb
fa
02
07
fe
01
02
02
01
07
01
fd
f5
0c
f5
fb
fa
eb
03
f8
f1
09
ed
ee
0b
f6
09
01
0c
06
07
0a
03
fc
fa
f4
00
01
00
03
fe
f0
f8
0a
01
01
12
fa
01
05
05
03
00
f2
06
0c
00
01
10
f3
ff
01
04
04
00
14
01
09
03
05
0c
fd
f8
01
fc
f2
02
06
f8
00
0f
07
fd
05
07
0a
ef
f9
eb
04
f5
07
08
fe
f9
04
09
fa
f5
ed
f6
03
0a
07
0b
04
f5
05
ea
06
f7
04
05
fa
0d
04
fd
f3
f2
04
00
fd
05
fb
f6
0a
00
02
ef
fc
f5
f8
09
08
0e
05
06
04
f5
f6
ff
0c
00
02
06
fc
02
06
f9
00
04
16
ff
fb
11
08
03
ea
ea
07
01
ee
ff
f6
12
13
03
ff
f8
0c
fd
04
0a
ef
f5
07
f2
0d
02
03
fd
ed
02
fc
f8
fc
fc
13
0d
03
0f
fc
fc
01
f7
ef
fa
f6
0d
13
ff
f7
0e
f6
04
ea
f5
01
14
ed
f8
fc
11
00
00
17
ff
fe
fe
01
00
fe
f2
fd
04
02
03
e7
0c
14
00
fc
e9
0c
01
02
f9
fe
05
03
02
0c
fb
fc
06
0b
fb
16
f1
04
0d
18
fc
f7
13
f8
fe
fe
fe
f5
fb
09
07
fa
07
00
fa
ff
0b
1b
fc
f9
ff
fd
fd
f0
ef
f9
19
06
04
fd
f2
07
ea
07
05
08
ec
05
fe
ff
fa
f4
f9
00
fc
10
e2
f8
f3
06
f8
fc
03
00
fa
07
fe
0e
fb
08
f2
0a
f3
fd
04
f3
f8
ed
ee
07
0a
fa
fd
09
f5
fe
f7
ee
ff
fa
fd
f9
f8
fd
0b
0d
04
f9
11
fb
0b
e9
f3
05
02
f9
11
f1
fe
fd
ef
f9
fd
e6
0b
05
0d
fc
03
11
fa
eb
f6
ee
0f
01
fb
12
f6
f5
01
e8
ff
fb
12
00
f2
f9
fc
f1
f7
fa
03
09
f9
0d
03
fc
f9
10
04
08
09
07
ff
fa
fa
02
ed
e6
f2
fe
f3
04
04
e6
01
09
f7
fc
fb
f3
f6
07
11
f7
01
03
05
fa
ff
1d
08
0a
10
ea
ff
f2
02
ff
08
f8
f8
ed
04
0a
ec
ea
ff
fb
11
02
fc
07
f1
fc
03
ed
ff
fd
ef
fe
f1
00
02
06
04
00
fe
f8
f6
f8
0c
f7
f9
f9
f5
06
fb
fa
f9
f7
04
f1
ff
04
05
fc
f4
fb
f3
f7
17
f3
f5
01
f6
05
05
e9
f4
f7
06
f9
fa
01
fb
f6
02
02
10
3a
f5
f4
03
02
eb
08
fb
06
e8
fe
06
fd
f7
fd
fa
fa
fb
1c
04
f5
0f
05
fb
03
06
ed
00
07
02
00
ef
fc
f6
ff
f6
11
12
fa
0d
f4
00
fc
fe
04
13
f5
08
f9
0b
ed
06
23
f8
df
00
16
02
00
ee
11
0c
08
0f
f7
e9
26
14
ff
0b
10
05
07
fb
02
f3
f1
f3
05
fd
f4
f9
fd
12
f1
f0
04
01
f7
fb
fe
eb
04
11
ec
f9
e9
f9
0f
fb
0b
00
02
fc
02
0e
03
fe
04
0f
0f
05
1e
ea
09
fd
f9
02
01
ef
09
f9
ff
f7
01
01
07
02
fc
0b
07
f8
05
02
fc
0c
ff
f4
ff
04
0a
f4
01
f0
fa
16
0f
fc
00
f4
08
00
0b
ff
09
f6
0d
0a
0e
f7
00
fd
04
07
08
14
f5
fb
f7
f4
f4
f9
05
05
00
01
10
eb
0d
17
ea
09
f5
fe
02
f2
01
0b
f9
13
e4
fe
11
fe
01
10
f4
fa
03
fa
05
17
00
f2
02
f7
f9
06
e9
00
f8
ff
17
f2
00
fb
0e
1d
f8
0f
09
f8
05
f5
1a
05
0f
19
12
f8
f2
f4
10
0d
00
00
ec
12
f6
f5
ff
0f
10
18
dd
f6
fa
f7
f7
07
fa
fb
f2
fb
04
04
14
0b
fa
0e
fd
0e
f5
fc
12
02
f5
f6
02
17
03
ff
f6
02
f1
ee
15
0e
01
f8
fb
fe
1f
0e
0d
15
fd
08
f6
fd
ff
06
fd
ff
17
03
11
f3
07
00
06
f6
05
06
f4
18
09
06
02
ee
19
03
fa
ee
fa
10
05
07
04
fd
ef
00
01
ec
04
fe
05
07
ef
00
06
0a
f7
06
0c
00
09
10
07
12
17
ee
04
f8
0e
04
e9
f3
07
f8
06
f9
06
12
fc
01
0c
06
f7
0d
f9
ee
fa
06
fc
08
fd
00
0f
19
fa
e7
fc
fa
ea
f5
fe
e6
0a
fc
fb
0a
12
e2
09
fa
00
fa
00
fc
f9
03
06
0c
f0
f3
04
09
08
05
f9
f6
07
fe
f2
d3
f7
fd
fb
fb
01
02
08
05
fe
11
01
f3
f5
1a
f1
f1
05
03
07
0c
fe
00
ee
0b
0a
f5
01
04
14
17
fd
19
07
f8
f5
fb
fe
0a
ff
f4
0b
0c
ee
05
02
fd
f3
f5
ee
f6
04
f7
08
03
fb
04
f3
ed
04
09
06
f6
07
0b
ff
f4
10
e7
f8
01
e4
03
00
08
f0
ee
eb
fa
f3
f7
05
0f
fe
fd
fe
ff
f2
04
ef
01
fb
eb
ee
0e
e3
15
fb
f5
06
ff
10
01
f5
13
01
f3
fc
16
f3
ef
0e
f5
fa
e0
fb
ef
13
00
1c
f9
f9
f7
ea
f3
ed
08
f0
fd
f4
fb
03
fb
08
fc
ff
25
0d
01
07
fe
05
0e
f8
ff
eb
ec
f0
14
07
0f
0f
09
13
08
f0
fa
0d
e9
08
01
10
00
00
06
07
fd
fc
09
fe
07
f3
02
ff
fa
fd
09
f2
00
fd
f4
09
0b
f9
00
fe
05
09
f8
e6
fe
f0
05
f4
02
f4
f5
f2
fb
f2
fa
03
fc
f8
f6
fa
0d
14
fb
f8
f3
0c
f3
0c
0b
f6
04
f0
0a
ff
f7
f9
07
11
03
f9
01
f9
f5
07
f0
0f
f5
11
07
f5
fa
f9
ea
f3
fa
07
fc
1b
fe
fa
f3
0a
01
00
fe
01
0d
07
fd
02
0f
fe
f4
fc
f9
02
01
ff
02
0d
03
03
07
0a
04
0c
09
07
14
13
08
02
00
f0
f1
f1
13
01
00
0f
03
1d
00
05
ed
f4
ed
f3
f6
fe
08
09
fd
f5
02
f6
fe
fa
fe
fc
10
e5
fe
fc
fa
f7
f7
ee
02
fa
fe
0b
10
09
ec
fe
0e
fd
01
e4
f9
fa
fa
fa
fe
f4
f6
01
07
fc
07
fd
0a
07
f8
04
fb
03
fa
1b
fc
f2
f3
fc
fc
05
02
f1
fb
0b
0b
07
0f
f7
08
09
07
2a
00
12
0f
fa
e9
ff
00
f5
13
06
04
06
fd
03
f5
f6
fa
07
08
06
f9
fd
0a
14
ef
06
08
0d
0c
00
0c
01
07
fc
0f
fa
ff
f4
14
f5
00
f9
04
05
0b
fa
04
fa
13
fc
01
12
01
05
fd
fd
03
ff
fe
00
13
f5
16
06
fd
17
fb
11
fb
01
04
0c
fb
05
05
05
f5
08
05
f4
fc
f9
06
fe
14
ff
00
05
f5
02
f1
03
06
fd
04
f8
fc
07
f9
ff
0f
f5
f2
fd
fe
fd
fe
fe
02
01
f6
0d
fd
ff
13
ed
fb
fc
fa
f1
07
f5
07
0f
f1
e3
0b
f9
f5
09
05
ff
0e
fe
08
01
fb
ec
04
f9
01
0e
ee
05
fd
fe
06
ff
07
0b
03
09
fa
f5
f5
f9
15
00
f0
07
eb
08
fb
04
0f
03
10
fb
f6
fd
0e
05
fb
08
fa
f1
06
03
07
0d
03
03
fd
fc
f2
fe
fe
f2
1a
0b
03
05
07
04
fc
f9
10
01
fa
15
fa
01
fb
f2
0d
0a
12
05
0c
02
0f
fe
0a
fd
08
f5
ef
07
07
fe
0d
03
06
0a
09
02
10
10
ff
02
09
04
f1
05
f8
07
21
ef
0f
00
fc
17
f2
ee
fb
f9
04
f6
01
ed
00
0d
ee
10
06
00
f7
ef
f6
f9
01
13
0d
11
02
ee
0b
0b
ff
02
07
f8
06
f5
08
f7
fe
fb
18
0a
01
09
03
fa
0c
f0
ff
f3
fc
0b
09
fb
fe
f4
09
fb
00
08
0a
f2
ff
09
fe
f8
ee
e6
fc
0a
06
04
ee
05
04
f8
00
0a
0b
fd
f5
00
06
ec
f2
fb
0c
00
09
f9
fc
ea
01
01
0e
ea
e8
f7
e6
03
fd
f3
09
ff
f7
08
06
ee
f8
05
f2
09
f5
0b
04
f9
fe
fb
f1
00
fe
fd
f8
fe
fe
0a
01
f1
fc
07
05
fa
07
0b
0c
01
15
08
02
0b
f8
0a
fa
eb
0a
04
0c
fc
07
fb
fc
f9
0b
fb
0e
09
f6
08
06
06
fc
f6
fa
0b
fc
0e
fa
05
f8
fe
07
fd
f6
fb
ff
00
0d
f2
08
0c
f5
ff
fb
13
05
f0
f6
f6
f0
19
0c
12
01
04
09
04
fd
0a
fe
ff
fc
ed
fb
05
fa
f8
0d
06
ff
05
f9
fe
f8
03
02
fe
fc
06
0e
f2
ff
11
01
fb
f7
0b
07
17
0d
0d
09
f6
08
ff
06
01
00
07
f6
04
01
f7
f6
fd
01
fe
01
f6
08
fd
f9
f3
02
e7
09
0c
01
0b
02
fa
07
03
f3
0e
eb
0a
f0
07
f8
f9
ef
06
00
0e
09
ee
f6
fa
f6
10
02
01
00
08
f3
fc
06
fc
01
ff
f6
05
f1
08
fb
10
f6
00
15
e9
00
fd
04
18
ff
0b
f9
f8
f3
0d
fa
fe
ee
ef
ed
ff
0c
00
05
f3
fe
00
ff
f9
03
ff
fc
00
f9
fb
f9
06
e9
06
fc
0e
06
06
fd
f7
f7
ff
ed
f8
01
f9
05
06
f5
00
fd
07
0b
05
0f
00
07
fd
05
0d
ff
04
f1
04
e7
fb
f9
f7
00
05
05
0a
00
03
f9
f8
fc
fd
f8
fd
f6
07
0e
00
06
f6
0c
05
01
13
02
04
f7
07
04
01
e5
ff
fb
f2
0a
f8
02
09
05
07
08
09
fa
e8
06
fe
03
f8
0f
fa
fa
01
f6
03
0d
f6
f9
00
07
08
fe
0d
fa
06
02
0c
07
ff
fd
f7
f8
fc
f4
f3
f5
f9
eb
06
fd
f0
04
0e
fd
0d
01
fd
0f
00
03
f5
09
fb
ff
10
10
fa
00
ef
0b
0a
fe
01
0b
f3
04
f9
f0
fc
ff
ff
fe
f7
f7
17
f6
08
ff
fe
00
fb
01
f8
f8
00
01
00
01
fe
f8
fb
fe
f8
05
00
0d
f6
0c
00
04
fc
05
00
fd
0f
0c
00
00
f2
01
f1
06
fb
15
12
02
f8
04
fd
02
0e
f0
0e
09
02
f5
fc
f3
fc
02
fd
fa
ff
ff
f4
fd
03
f6
f5
0c
04
fb
f5
ff
09
ff
02
fa
01
eb
00
f9
fa
04
fd
09
19
14
04
05
07
01
fe
f7
05
09
04
f6
01
ff
f3
f8
03
04
12
ef
06
01
03
05
02
06
fe
03
fc
0f
f6
fb
11
fd
02
fb
fb
f9
f7
f0
02
05
05
0e
0f
06
07
06
04
04
ee
00
03
0e
02
fc
09
06
ff
0f
f8
f1
f2
18
14
f9
05
fc
01
f7
02
e9
fd
10
fc
09
13
0f
fa
fd
fc
fe
f4
fe
f0
11
fb
fa
fc
ff
f8
f2
fa
fc
fc
f6
06
fe
fb
02
08
05
03
01
06
02
07
fd
02
02
06
fd
fa
fc
07
f0
ef
09
0b
07
06
f3
02
04
fd
05
02
11
fe
fa
f1
0f
05
fa
00
03
14
05
ec
fc
f7
ef
06
02
04
f2
fb
f8
03
02
f1
f7
fd
08
01
17
09
ee
ff
f2
05
09
09
fe
ff
16
11
fe
fa
0e
f0
08
fc
02
f0
ee
08
0d
03
00
08
fb
e4
fd
f7
0b
20
03
ea
01
f9
fd
f8
05
02
f6
ed
0f
f3
ed
fc
fb
06
fa
0d
07
08
f6
fa
fd
0f
ed
fa
f7
fe
04
0c
f1
f7
e6
18
ff
02
06
08
f9
0f
fb
06
09
fe
09
f7
f7
12
08
09
ff
07
0b
ff
04
05
09
e6
f8
ed
f8
0f
f7
ef
08
05
02
f6
0f
fc
f4
f7
f7
fa
02
eb
13
02
06
f5
13
fc
14
1f
03
fb
01
0c
05
f5
03
f1
f4
f2
f5
00
fc
f6
10
02
ec
03
0d
fb
07
f6
03
fb
06
0c
01
ff
f8
f7
04
f7
05
0a
fc
0b
0d
fe
ff
e9
f1
0b
02
e2
0a
f2
03
02
f5
07
fa
04
fb
03
f8
f7
05
f6
fb
03
04
03
f3
07
f6
17
08
f6
fa
03
0b
05
0f
fc
1a
fb
f9
08
ef
19
f0
db
11
01
16
f4
fc
e1
0a
fd
f5
fd
13
f4
05
f4
eb
0a
f7
05
02
ee
fe
08
fd
f7
00
13
0b
f6
02
03
1d
fa
fe
fd
10
f3
0b
f4
fd
f3
00
06
0b
10
fe
11
fc
00
09
f1
08
ee
fb
f2
04
f9
ff
0c
16
18
ec
e6
e4
0c
03
01
f9
04
13
fe
f2
f0
0f
07
02
f6
f0
0f
f6
1b
0b
00
fc
f8
fb
f4
ff
fa
03
03
da
fa
f0
f5
05
f1
06
f0
01
fb
05
06
07
09
07
f7
04
fa
fd
fe
f8
fd
fc
0a
06
16
f6
14
f7
0b
00
ff
f2
ff
df
fc
08
04
0f
02
13
03
16
00
fb
0b
04
e6
ee
fe
f8
f9
ff
0f
09
fd
fa
06
1c
ff
0e
fc
0f
fd
09
fe
f9
03
0b
08
09
fa
01
fb
fb
fa
0d
fc
ff
fd
05
0f
0d
ea
fa
01
ef
00
fe
fd
03
07
01
07
fd
f0
09
f8
fa
e4
fc
02
0b
0a
fe
07
00
f1
f8
0d
ff
0d
ee
ef
ff
02
f4
eb
0a
06
fd
03
10
09
03
fa
fb
04
08
07
f9
03
09
07
03
01
10
01
11
13
fb
ff
17
fb
fe
fc
07
f6
07
05
07
f9
0f
ff
fd
f4
f0
09
f7
02
f3
ff
0c
f8
07
06
ff
f8
f9
0b
fb
11
f2
fe
00
f9
1b
fb
05
06
ea
fd
fe
0b
f0
f7
0f
fa
09
00
f4
01
01
f1
18
0a
ff
1c
f4
01
fc
0b
0d
fd
ed
0d
fa
fe
03
07
f8
08
f9
f7
e0
02
00
0a
0f
f1
f8
0f
00
21
f4
f2
e9
fb
f7
01
fb
fb
ff
0b
f8
08
fb
f5
fc
0c
09
eb
f7
02
f8
0c
fd
e8
13
ef
00
06
08
f3
f9
fa
fd
fb
11
04
03
06
0e
01
06
fe
00
fe
fb
01
f9
08
f3
03
ff
f9
fc
0b
0c
f9
09
1c
05
09
03
f2
0f
f7
08
fc
f2
0e
00
fd
f5
0d
16
ff
02
fb
fc
08
09
fa
0d
fa
00
0a
ef
0f
f4
fd
fc
f9
03
fb
09
f4
f2
fc
07
01
03
0c
f5
ef
e4
eb
04
fa
f7
07
fe
ff
f4
00
fe
10
12
fd
f4
f9
fd
05
0c
fa
05
03
0a
ec
f0
15
0e
fe
fa
05
fb
ed
f7
eb
fe
ff
05
f9
0f
f9
f6
fb
e9
02
fb
fe
f8
04
fd
f4
fb
ed
ee
07
0d
ff
0f
0f
05
f6
f0
18
00
0e
00
ef
02
11
0c
0d
f9
10
13
0b
03
f9
02
00
05
fc
10
fd
05
01
0c
05
f2
17
f7
07
09
fb
fe
f7
fc
0b
07
04
f9
05
03
fc
0b
f8
f6
ea
06
15
f4
0d
0b
f7
f5
f2
f4
fb
f7
07
09
0d
01
11
0b
fd
fa
05
fe
fd
03
06
fc
0b
0a
fd
fb
fa
06
ef
09
fa
12
ff
ee
f3
f2
01
07
03
18
02
fd
08
01
fa
fc
08
f8
f5
00
09
03
ee
ef
fe
00
fd
01
f7
de
fb
fd
04
fc
ff
06
02
f6
09
0b
f9
f8
10
13
fd
fd
f3
0b
04
f9
08
06
ff
00
f6
f3
f6
05
11
fe
10
f8
fe
07
11
12
01
07
07
ff
0e
f9
1a
05
f3
00
ee
0a
09
01
fc
e7
07
15
09
02
0a
03
fb
0e
fe
fc
09
07
0c
ec
04
f4
f5
fc
07
fb
fe
fd
ef
00
fb
fe
fc
07
fe
00
00
0d
f4
09
01
fe
f6
fb
fb
f4
f5
11
f2
01
f3
02
eb
07
02
fc
fe
06
05
00
13
07
11
f0
0b
f9
ef
fe
0f
12
fe
0d
fa
00
06
00
fa
12
fd
03
f3
02
08
fb
0c
0b
06
eb
0a
0c
13
04
fb
fd
ef
05
fb
1a
f6
07
fe
f3
05
0a
08
01
fc
02
08
05
fa
f6
ed
ec
fe
0d
f6
10
ff
fd
f6
f7
0a
fb
ff
fc
0c
fd
06
fb
f9
0b
09
00
f3
f9
0c
0e
f6
03
fc
ed
ff
02
f3
ff
03
fa
0b
f8
13
fa
08
02
f6
03
ec
06
05
02
03
00
04
e7
f8
fa
f4
fa
0f
03
f7
fc
10
07
fa
fa
05
f6
f8
f6
f8
18
f8
0d
0a
09
00
ff
0f
05
ee
18
08
f5
01
e9
f6
fa
f7
0c
fc
02
f1
0a
fd
02
fe
03
f7
fe
0f
01
01
f6
fd
0a
02
ff
06
f8
04
04
05
f3
0d
09
fc
05
ff
0f
13
04
fa
ff
ef
01
0c
fa
0f
0d
fd
08
fe
01
02
01
11
01
01
ff
f4
f5
f7
ff
fa
04
09
f8
00
f4
f5
f7
04
03
0b
08
07
00
06
01
02
f8
e9
02
ee
02
ee
f9
fc
0d
13
0a
07
ef
01
00
05
12
0a
00
f7
05
0d
fd
f8
06
04
f1
fe
03
05
11
f7
ec
fa
ff
14
00
f5
f1
fb
02
05
00
03
f1
14
f7
f8
ee
fe
ec
0c
f5
ff
fa
fc
ff
fb
02
f8
00
06
03
05
06
fc
fc
08
00
09
00
ff
fb
14
f9
eb
04
0c
03
07
fb
1f
07
0f
f0
0c
0c
fa
f8
09
0c
fa
09
fc
f2
ef
f9
f4
11
f5
f0
fc
0b
f6
f7
07
07
03
22
0c
09
fb
fa
ff
03
0e
14
e8
fa
00
ee
05
fa
08
0a
f7
17
07
f7
12
08
fc
ea
00
f4
ff
01
06
ff
f2
ff
0a
f8
fe
00
ff
fc
f2
01
fe
e8
fb
08
0c
f8
02
06
fa
ed
f8
fe
06
0b
fc
01
03
0d
e0
03
f8
07
0c
fc
07
f6
06
fe
0f
ee
f8
f3
08
0c
01
1c
fb
03
05
f8
00
10
14
07
06
0d
00
0f
06
fd
04
01
f8
04
01
01
01
04
e4
04
fa
0e
01
0d
0e
09
10
e8
07
cc
f3
f9
0b
ff
0c
f2
0b
00
ff
ff
ea
fa
ef
ff
ff
fa
04
0c
f9
06
0e
03
0c
07
ff
ff
02
06
f8
16
f8
0c
ff
00
f7
f1
fc
fa
16
ef
05
fc
07
00
f3
f2
02
07
ec
ff
09
f0
e3
06
ee
0e
0e
00
05
0b
fc
eb
08
02
08
03
04
fb
03
fb
ff
09
ff
0b
03
0f
e8
eb
f6
f9
fb
0a
00
02
fc
ee
f3
00
f5
02
f5
f0
ed
fe
fb
ff
fd
f8
fa
f8
fb
ef
0a
02
fc
ff
04
01
fa
0a
03
fc
03
f9
fe
0a
f6
01
02
08
00
02
10
f8
1a
fe
ef
03
fa
01
06
0d
0d
01
01
09
fe
02
de
04
02
fd
ed
04
0b
f7
0e
02
fd
00
06
07
fc
f0
0e
08
0b
0a
f5
ff
e8
fd
fb
f6
05
02
f7
05
fc
09
fc
00
01
ff
ff
0c
f8
0e
fc
fc
02
f4
f5
04
ed
0f
fe
0d
fe
01
06
fd
02
01
03
ed
fc
06
fa
f2
11
0a
06
04
ff
03
07
06
fa
07
07
01
f0
fe
0a
f5
0a
0c
00
07
11
fa
04
06
00
fc
03
07
0f
00
07
f7
fd
fa
f6
ff
00
f4
fe
0e
1a
07
02
02
ff
0b
f5
f8
00
e9
f5
fb
f4
0a
07
04
fe
0f
10
ff
f9
fa
0b
0a
fe
05
f1
2a
13
fb
03
f4
0a
05
01
05
f8
fa
de
fe
04
03
f9
02
fb
19
05
ff
03
04
07
07
03
e7
e9
fa
08
fe
07
0b
fa
0f
08
07
09
fb
f3
01
fd
f0
f3
fd
f3
0e
fe
13
fb
f8
fe
05
00
03
f5
09
f9
0c
05
ef
06
05
ef
03
09
04
fa
f0
11
f4
09
04
10
fa
0b
ff
fd
fc
f7
04
f9
13
19
fb
f6
ff
f4
04
09
08
fd
f7
12
0a
fc
fd
fb
f6
0f
0c
07
eb
05
f4
ff
00
fc
0e
f5
fb
00
f4
10
01
f6
e4
fd
f0
fd
f9
fb
00
fa
04
fe
02
fe
f4
fa
02
00
fa
fd
fc
fe
04
0a
01
ff
15
fa
03
f4
ff
f7
0f
eb
f3
f9
02
02
12
f6
ff
15
e1
08
00
03
ea
f4
fb
07
f4
0d
0d
f2
05
07
fa
03
ff
01
fb
f7
0b
08
fe
fe
fb
fe
f8
11
11
0e
0f
07
05
fd
fa
02
06
16
f2
fd
f4
02
fd
01
00
fb
fd
03
fd
ee
ff
06
fd
ff
04
fc
fc
02
0c
05
0f
fe
0a
16
fd
08
fa
06
08
f0
05
0a
02
fa
04
fb
0c
f2
f9
0a
f1
f6
f7
ff
fa
0c
0c
e9
fb
fc
fb
04
0e
f8
04
0c
08
07
ff
ea
0c
13
f7
ff
f8
06
fc
08
fd
03
00
03
f7
ed
f6
09
0c
0d
ff
f2
1b
06
0d
0b
0c
08
fb
00
0d
04
06
ed
0f
fd
08
04
0d
ff
00
01
0a
09
13
f1
f3
03
ff
02
0c
05
fb
ff
fb
fd
fd
15
ff
fe
f3
f9
ec
04
0c
f7
16
f7
f3
fa
f7
fa
10
05
f3
0a
07
ea
f3
01
f3
f8
03
f1
fd
fe
fb
04
f1
f5
f4
f9
03
f8
10
f2
02
00
07
02
05
f6
f8
00
01
00
0f
18
10
fd
fb
09
0c
11
06
02
03
fe
03
02
fd
0f
0c
fa
f6
ff
fe
13
00
0b
11
fb
fa
01
06
04
0a
f1
00
fa
fe
f2
13
05
e8
fb
ed
f6
11
07
f9
fe
ff
f6
06
ed
f9
fb
fd
ff
06
01
fa
f7
10
0f
0a
04
0e
07
15
fc
03
0e
0a
f8
f2
f8
fc
0e
02
19
e8
07
fe
03
07
01
f7
fe
fe
0c
09
f9
fb
fb
02
f1
02
f9
fc
02
0a
18
0f
0c
0f
f5
02
01
f9
f4
0c
ec
f0
fa
11
01
0d
02
fe
0c
09
f9
00
fc
0c
fb
f6
09
06
ff
f9
05
fb
1f
f9
f8
fd
ee
07
fe
04
0d
f9
ff
fa
02
07
ff
12
fd
f9
eb
14
fd
09
00
f0
0a
0e
fe
f1
fd
fa
0d
e2
f0
f6
07
fd
0f
fa
09
0d
0b
00
fa
02
f6
f6
00
07
06
f3
fe
11
fd
fd
fa
f2
f8
15
f2
ff
04
03
f7
16
fb
03
e7
1c
eb
03
f6
fe
02
08
f3
fe
03
eb
00
06
e7
fb
f4
f5
02
fa
0a
06
f0
f2
fc
ff
ff
f3
0b
ff
fc
f6
f9
04
01
0e
10
fe
f1
fe
04
00
0f
fa
fb
10
08
03
f3
09
f6
fb
18
f9
11
f4
f8
04
0f
03
11
07
fa
fa
fe
fa
f8
14
03
f0
ec
07
05
10
fc
07
f5
fd
00
ff
02
12
03
f7
ff
11
04
02
0c
08
0d
f1
01
f7
0a
f6
f7
13
f8
fa
11
01
08
10
e4
fd
02
f2
04
0b
fe
ef
0d
ff
f5
04
13
fa
16
f0
08
0a
fa
f2
0c
08
03
05
0b
fe
fe
fe
fe
fb
06
ed
0b
ee
fd
f4
fe
f0
f5
f9
f5
f5
fa
07
04
0b
f6
f4
03
fe
fd
1a
07
06
ff
fb
11
fe
03
06
fc
09
06
ee
0c
0d
f6
fc
fa
09
f4
05
fc
f6
f9
07
03
05
f4
03
03
fe
1d
fb
00
0f
f0
05
ff
f5
06
fa
0f
06
ff
14
ff
fd
fc
07
fe
16
f7
0a
f7
17
03
08
0f
01
06
fb
00
f5
00
f3
19
07
f5
fb
0a
f6
15
09
17
02
07
05
fc
f4
14
fa
04
00
0c
fe
06
f3
01
05
f2
f5
07
01
0a
fe
fe
00
03
ff
16
13
00
ea
fd
f3
fa
fe
05
06
03
01
fd
fe
01
fd
00
0c
f6
f8
ff
01
ea
09
f0
00
03
fd
f0
f2
ec
02
05
f9
fd
fd
f7
04
0a
00
03
10
f9
09
ec
10
fa
f5
03
fa
05
fd
15
02
0c
ff
09
0f
03
f6
fd
fe
fb
f4
f8
f9
0c
f8
06
fe
03
fa
f5
1b
01
05
00
01
03
0d
00
f4
fd
fb
fd
01
fe
0e
04
00
e7
05
00
0f
fb
f6
f6
fd
13
12
13
11
03
fa
f4
e9
09
0b
00
f9
fd
fc
06
fc
00
f6
03
06
f6
f8
03
03
08
ff
f9
0c
05
f5
01
fe
fd
ed
01
05
f6
f5
0a
00
07
0f
00
f8
03
fb
f7
f4
13
fc
00
05
12
18
05
e7
fd
f8
12
fe
0e
0b
fa
fa
18
02
fc
1f
16
00
fd
0a
fa
04
fd
0c
fc
ee
04
fa
01
fc
fb
08
f9
f1
00
01
06
06
04
00
00
07
03
06
06
f1
00
ef
f6
fc
04
f4
03
00
fc
fd
03
06
02
ee
06
f3
12
0b
f4
fc
fb
08
1d
00
09
04
f8
0b
0d
08
f9
f7
05
0a
fa
18
0a
e6
0c
16
01
04
1a
f8
04
15
f8
04
0c
04
f6
fa
ef
04
fb
f7
f8
ed
09
06
13
06
f8
03
f7
fc
fc
16
04
f9
fc
f7
07
fa
00
0c
ff
05
04
f7
01
03
f4
12
05
0b
06
f6
06
fa
00
fe
fc
01
fc
0a
fe
0d
02
0d
06
05
09
f5
03
0b
ff
02
02
fc
16
0f
01
01
fe
ed
f5
f9
ff
09
f8
00
0d
01
ff
00
08
18
ff
f0
fd
07
fd
0a
05
fa
ef
0d
fa
f3
02
00
09
fb
10
f3
f4
08
04
01
fe
00
fb
eb
03
fb
04
00
f2
02
19
01
04
05
f7
fa
04
04
05
08
f7
0a
e8
f0
f6
fd
f0
f2
09
fc
ff
f9
03
f5
04
1e
f9
02
f2
17
02
09
11
f0
ea
ea
06
fc
09
06
fa
f3
fb
f6
0c
f5
07
0e
01
01
ec
0c
f9
04
fe
fd
06
08
07
fb
14
fe
f9
fa
f4
02
07
11
fa
18
f3
01
03
ef
02
f5
0c
09
fd
fc
fc
03
e5
df
06
ff
02
f6
fa
fc
04
f9
0e
f7
ff
f0
f5
06
f8
f1
ea
fe
ec
e7
02
f6
f5
0a
04
03
07
fb
f8
fa
f6
f9
03
0b
01
f1
f2
02
07
fc
00
08
01
f8
f6
08
03
0a
09
16
08
0b
f0
01
f8
19
0d
fe
01
f7
01
0a
06
09
fd
e8
07
f9
08
f5
fa
09
01
fe
00
0a
ff
07
10
ff
03
02
00
fb
03
f4
f6
f7
06
f7
06
0a
03
11
07
1b
05
f8
0c
fd
f7
ec
01
03
f7
00
d2
09
04
ea
fd
14
fb
09
fb
f8
f3
0b
fd
fc
f0
f0
10
07
f9
fb
0c
e7
fe
fb
08
fe
07
07
f9
04
fa
ff
05
0f
07
fb
fa
fb
02
01
ec
f6
f0
03
01
10
f2
fe
02
f4
f9
fc
de
07
05
f7
09
ff
f8
07
fd
f2
18
04
0b
01
01
03
00
03
0d
fa
02
f7
01
02
19
fe
ef
04
09
00
ff
fc
f8
04
f7
00
01
08
01
f6
02
00
03
04
0a
ff
10
03
0a
fe
fc
05
fe
fa
fa
07
f0
ed
f3
02
fa
fb
0a
f5
fc
fc
fe
ff
fd
ee
fe
03
01
03
f4
08
fd
fe
00
0e
fe
fd
fd
12
00
fb
0a
ed
04
e1
f5
05
f8
03
ff
fb
0b
04
10
09
09
00
0d
07
22
f8
06
fd
f8
35
fa
ff
f9
f9
f6
f9
0b
0d
04
fd
f8
f6
f7
ff
03
13
fc
f4
18
07
04
ee
07
0b
fc
f6
0e
10
fb
e5
da
f5
0f
07
eb
0d
07
03
fd
05
01
f7
f7
01
ef
f8
fc
01
05
07
e0
f9
01
13
eb
f9
f6
07
00
0c
04
f5
fd
fe
0f
09
eb
0e
f5
0d
10
06
05
fa
03
f7
f9
3b
fb
00
fd
0e
f1
f1
17
ff
f4
12
07
ff
00
fc
14
0d
fa
ed
fd
00
02
06
05
07
fc
ff
ff
01
08
eb
fe
08
04
fb
0a
fb
f3
04
10
fa
e8
f7
ff
05
13
03
fb
f4
04
f3
11
04
fb
0b
01
0d
ff
08
07
12
fd
08
07
f0
fd
07
0c
f7
f5
04
01
09
05
f8
fc
ed
06
f7
f7
f6
f7
0a
f7
fd
06
fd
09
fb
f6
fe
09
0e
03
ef
12
03
17
02
09
f8
fb
01
01
fc
03
09
24
09
f0
f7
01
08
ef
09
0c
06
07
19
f9
ee
fb
fc
f7
06
f2
08
fc
fc
01
10
04
fe
06
e8
f2
ff
06
f0
00
02
f7
f7
f6
0f
0d
fb
1b
ff
fb
10
f4
e4
06
fc
18
f4
ef
ea
11
0d
00
09
ff
05
f8
f6
f8
ec
f9
fd
0b
f7
fc
0a
fd
10
0d
01
fd
16
01
0c
f2
f5
0b
01
05
fe
fc
05
ff
f9
f2
f1
0a
03
24
11
06
02
f2
f5
04
e9
20
f9
fd
0e
04
02
f9
f6
fd
08
f3
f4
db
f0
f5
f9
fc
f7
fa
04
08
fb
0b
09
ec
f9
fb
f4
0e
08
fa
01
fa
06
23
ff
f3
03
f1
fc
f7
f5
fd
0c
02
f0
05
fb
00
0e
f1
0b
fd
f9
fc
f3
ef
17
0b
02
f9
fa
09
15
ef
fc
f6
03
eb
11
02
03
f5
ff
04
00
03
f9
03
fa
fd
f8
f9
09
f6
0a
13
f5
f9
11
09
ef
04
ef
01
0d
04
07
f9
f7
01
12
0a
0b
f2
08
0a
f2
fc
09
0c
fe
01
16
ef
fb
fd
fa
08
fe
0e
0c
fd
fc
0a
e3
03
0d
1e
0a
fb
ed
0b
09
fb
05
fe
f7
f7
f8
00
f7
04
08
0c
06
fe
01
0e
04
00
0d
07
08
fd
fe
fd
02
fc
05
f2
03
00
fd
f3
0e
08
fa
13
00
01
0a
f5
01
00
