02
01
00
0a
0f
00
0f
ff
ff
fe
01
fb
f7
04
00
03
fd
03
02
04
f7
ff
ff
06
01
05
05
07
ff
03
02
05
02
fd
00
03
ff
06
fc
fb
04
ff
f6
06
00
fc
00
0c
03
09
16
fe
ff
fe
f8
05
0d
fc
ff
fd
fd
02
f4
fd
ff
fd
02
f5
fd
07
00
f6
fe
fb
09
ff
02
04
00
02
0d
ff
07
07
03
09
01
d8
06
0d
fe
f9
00
01
02
ff
05
07
06
fc
fc
fc
fe
00
05
fc
ff
ee
ff
04
08
ff
02
ff
fb
ff
02
05
03
fd
02
05
13
05
02
11
fd
04
03
ff
fc
05
ff
0c
06
fb
02
03
fc
07
0f
ff
04
fe
03
fd
09
fb
04
02
f5
03
00
16
09
02
ff
01
fd
fc
ff
f7
00
fa
05
00
ff
01
09
06
fc
0a
09
00
fb
fd
ff
04
fc
ff
03
fe
05
01
08
fe
fd
03
fe
f5
00
01
09
fe
09
f7
fa
f1
07
ef
fd
02
3c
f9
06
04
00
fe
00
ff
fe
fa
f3
00
e3
eb
00
03
fc
fc
01
fb
00
fd
00
00
ff
01
03
00
ff
f3
0e
01
00
ff
03
04
0a
02
02
fe
0f
03
0c
00
02
0b
03
00
fd
0d
0a
fe
0b
00
fe
02
fb
01
0b
fd
0c
fc
02
01
03
0a
01
09
01
f2
00
06
06
0d
03
02
f9
02
ff
06
01
00
03
0c
0b
0a
0a
02
03
ff
00
09
01
06
00
02
07
00
ff
ff
07
02
0c
02
00
fc
00
00
0f
0e
02
fe
07
04
f3
07
07
00
00
01
fb
02
04
00
05
09
05
01
fb
03
02
ff
fb
00
fe
01
05
03
f9
03
ff
fc
00
fe
fc
ff
06
f7
07
01
fe
01
fa
02
02
02
f5
fe
1e
0e
fb
02
1c
f0
02
0b
ec
08
0d
00
10
04
03
05
fe
03
03
f9
01
05
01
01
01
fb
00
fe
00
f6
0a
01
ff
01
01
ff
05
fe
00
05
02
06
03
02
fb
01
fd
fe
02
02
0b
01
02
02
1b
00
fe
08
06
00
00
fe
0c
fe
01
ff
03
06
00
05
00
07
f7
03
04
fe
04
22
fc
f9
00
04
10
02
05
05
08
10
00
f6
0d
03
00
03
fd
08
fc
09
05
0b
ff
ef
00
06
02
fd
06
14
06
ff
09
02
00
01
08
07
01
03
ff
02
0b
10
01
06
04
fb
01
00
06
fe
00
ff
01
0d
07
02
ff
05
fc
dd
fc
08
00
0f
01
fd
05
03
0d
07
ff
f8
04
ff
03
0b
00
fd
0b
fc
fc
00
ff
04
01
06
fe
fd
0a
03
fb
f5
ff
fc
f8
0a
04
04
fb
fa
01
0b
f9
06
fd
fe
04
05
00
01
fe
02
ff
01
e0
ff
0a
f3
00
00
10
fd
01
f2
00
04
fe
02
04
01
07
07
01
06
fd
05
00
fb
0f
04
01
00
00
02
08
0f
00
ff
fe
03
00
f9
01
02
03
01
06
fe
00
01
01
fb
ff
f9
fe
f8
02
f5
04
03
f8
0b
00
fe
06
06
fe
fc
02
04
fa
02
fd
f6
00
fc
03
00
fd
02
09
ff
fe
01
f6
01
fe
02
05
fb
00
01
fa
ff
03
03
06
ff
07
0d
0c
06
ee
ff
04
06
06
02
06
fc
02
ff
0a
00
f8
05
02
fe
02
00
f6
05
0c
01
04
f4
28
ff
0a
f6
fa
06
03
03
f4
08
00
04
00
0a
09
0e
f6
0a
fc
07
0d
0c
11
f1
ff
fd
0d
0f
02
01
fe
04
1b
09
ff
fc
05
fb
f3
27
18
fa
fa
12
06
00
0b
f9
00
f8
fe
03
18
f8
ef
0f
f2
07
fb
fb
fa
04
03
06
fd
0a
0f
fb
fd
f8
fa
fd
05
15
0b
06
18
fd
fa
2c
06
f8
02
d6
12
eb
fc
15
01
f7
fc
ff
ff
10
06
ff
fa
f9
03
00
06
f8
01
58
fb
ff
14
fd
09
13
01
fc
07
09
f8
fd
00
09
02
0a
0c
12
00
04
00
00
ff
0d
01
08
10
f8
0c
09
f7
11
18
01
fe
09
03
fa
06
01
0c
0b
fb
f0
0b
fe
fd
0d
00
f7
0a
f8
00
fb
00
ef
0e
01
05
06
13
fd
0f
0c
11
01
fb
17
00
05
00
00
03
fc
04
02
02
fd
fa
06
01
f7
00
ff
f3
05
12
ff
39
d8
02
d8
fe
17
30
ff
18
1f
02
04
04
fc
00
f8
f7
f9
02
01
03
0c
01
fa
ff
e0
fd
fb
03
02
fc
12
fe
fc
fe
01
22
fc
01
ff
00
05
08
01
03
fc
0b
07
1f
0b
0e
fa
09
08
06
10
0f
fc
0f
f8
fe
fb
fc
0d
0b
ff
03
01
f8
06
05
08
fd
12
00
f4
02
10
01
1d
ff
00
0a
06
00
08
fe
09
ff
09
13
0f
0d
01
09
fa
f8
0c
0f
0a
05
0b
0b
00
f8
03
0a
03
11
0b
01
11
fe
04
20
1b
0b
ff
0f
0c
f7
0b
03
04
f6
ff
fb
07
04
05
11
06
18
04
fa
00
03
03
f7
00
11
00
06
05
fa
ff
0f
fd
11
fa
0c
fd
11
ea
0c
0d
f9
00
fc
05
fd
04
04
fb
0d
00
fb
fe
f1
e9
0c
fe
f3
0c
12
05
e5
0c
01
0d
fe
0c
fe
f4
01
21
fe
f9
04
19
01
fb
02
f2
28
ff
f9
06
1e
ff
07
fc
08
05
07
08
d3
0d
ec
fe
fd
f2
fc
0f
0e
05
06
fc
01
00
fb
09
16
02
02
ff
05
fd
fc
fe
fb
00
fe
05
0f
0a
f6
09
0c
fc
05
fb
fd
01
01
01
2d
07
08
09
01
fa
f8
ff
ef
04
fd
00
f5
05
f4
0d
07
0d
02
e1
00
08
10
00
13
fb
13
fa
14
fc
00
00
01
0a
ff
01
00
11
0a
15
fd
0a
09
fc
00
00
04
fc
03
00
fb
fb
02
17
f9
07
fd
fd
05
0e
01
0a
04
fe
06
02
01
0b
fa
f4
05
fe
04
1c
01
fb
12
f9
fd
f8
05
03
04
0c
02
fc
14
0f
fb
0c
fe
fb
fb
05
10
07
fb
b5
09
16
fd
12
fd
f9
01
00
04
ff
fb
05
f7
0b
d8
01
09
0a
fe
04
10
fb
05
0d
00
09
09
06
ff
01
0c
0d
0b
11
fb
08
02
f9
10
0a
04
00
02
0b
0f
fa
02
13
05
0c
0d
f6
04
03
15
01
14
2a
03
06
01
fb
fd
f9
09
f8
06
fa
09
11
f1
05
16
12
00
12
fa
f8
04
fc
fb
0a
fd
ed
00
08
04
ff
02
ff
0a
00
08
f1
f0
fc
fa
03
15
f9
10
02
f9
01
0d
13
12
0c
0b
24
00
07
06
01
10
0a
0f
05
0e
fe
03
fa
17
02
01
35
02
fc
fe
0f
f5
07
02
01
00
0a
0f
00
0f
03
fd
fe
01
0e
fb
04
00
03
fe
02
02
05
f6
01
ff
05
04
07
04
07
00
04
00
03
06
03
ff
03
fa
05
fc
fa
04
ff
f7
07
01
fd
ff
0d
03
fa
02
fd
ff
fe
0f
04
0c
fc
12
fe
fd
02
11
fd
ff
fe
02
07
fd
05
00
fd
fe
fa
f6
ff
01
04
00
02
0b
00
06
00
02
01
01
d4
06
0b
fe
fb
00
00
02
ff
05
07
06
f9
fd
fa
fe
00
05
fd
00
0f
ff
04
08
fe
02
02
fa
ff
02
04
07
fd
02
04
e7
05
03
e5
fc
01
fb
ff
02
05
03
0c
06
fb
08
03
fc
07
10
04
fb
ff
03
fe
0e
fb
04
01
f7
02
01
fd
f4
00
ff
03
00
fd
ff
f8
00
fa
04
00
ff
01
0b
05
fc
0a
06
01
fb
f7
ff
05
fc
ff
04
fe
04
01
f5
ff
fd
02
fe
f5
00
01
04
08
09
f9
f7
f3
08
f2
fc
02
1d
04
06
04
00
00
ff
fb
fe
fc
f2
00
0b
09
01
02
04
fe
00
fa
fe
fd
00
01
ff
00
fd
00
02
f8
0e
06
00
01
03
01
0b
fa
02
fe
0c
02
0d
00
02
0b
04
01
02
eb
0c
fd
0d
fc
fe
fb
fc
fe
0d
03
fa
04
04
02
03
0b
01
0b
02
0b
01
04
06
0e
03
fe
fd
04
05
06
01
01
fe
0d
0a
0b
0a
fc
04
00
00
0a
00
06
00
05
06
00
ff
02
08
02
0f
05
01
fd
00
00
0f
0c
02
ff
06
05
f5
07
06
01
fd
fc
02
07
08
00
03
09
04
02
fd
04
02
00
fa
00
00
01
04
04
fa
fb
fe
fc
ff
ff
02
ff
06
f7
06
ff
fe
01
05
04
02
02
ff
05
1d
fb
fd
ff
f8
f4
02
f1
eb
07
0b
01
ff
fb
fe
05
02
01
ff
f8
00
06
02
00
01
fc
ff
fd
00
f3
07
fe
fe
01
01
ff
07
fe
fd
04
01
05
03
02
fb
01
15
ff
fc
04
0b
01
03
fa
f6
00
fe
0b
06
00
01
fe
0d
fe
02
01
04
fc
ff
05
0e
09
f9
04
03
fd
04
ec
fd
f6
fe
03
11
03
05
05
07
e4
00
15
0a
00
ff
fc
ff
08
fc
08
04
0b
fe
f2
ff
06
01
fc
06
f2
06
ff
06
02
01
01
fe
05
03
02
fe
02
0a
0e
ff
08
03
fb
fe
0b
06
02
00
fe
00
f6
08
02
ff
03
fc
17
fc
07
00
10
02
fc
06
fd
0c
04
ff
f8
02
ff
02
0b
00
fc
0a
fd
02
fd
00
02
01
05
ff
fd
08
12
fc
07
fe
fd
0f
0a
05
05
fb
fd
01
08
f9
05
fd
00
fc
06
01
01
ff
02
00
04
ef
ff
04
f2
00
00
0c
ff
01
fd
00
03
ff
01
02
00
07
06
02
05
04
08
00
f6
0f
03
01
00
ff
01
09
f8
01
00
fd
04
00
f7
ff
02
04
01
06
fb
00
01
01
fb
ff
f9
fe
f9
02
07
03
04
f6
0a
fa
fe
05
06
fd
fc
01
04
fb
00
fd
f8
00
1b
02
ff
fd
02
09
ff
fd
01
f4
00
fd
01
09
fc
01
01
fc
00
02
02
05
00
08
0f
ea
07
0d
ff
04
07
04
00
06
fd
03
ff
07
00
f9
03
02
fe
01
08
13
02
07
08
03
ed
fa
00
0b
09
00
03
04
fc
f4
ff
00
03
fa
fd
fe
10
f5
08
04
10
0c
0c
01
04
fa
09
0d
f9
02
fe
fd
03
10
08
ff
ff
07
fd
ff
02
00
fc
e9
08
07
00
07
00
fd
02
dc
05
03
00
f7
0c
eb
00
ea
04
02
f9
03
f9
fd
15
0b
f5
fc
fa
26
0e
01
fe
01
03
08
fc
07
20
08
18
fe
11
05
16
fe
f6
01
0c
0c
fd
0e
0b
11
f2
fc
fa
fe
01
0b
04
00
42
fc
09
02
f5
0a
13
05
02
02
07
16
fb
08
05
23
10
fb
28
f3
0c
06
05
fc
05
fc
0d
11
f9
14
0e
00
0c
07
fc
0a
05
04
00
0d
fd
ff
0c
f9
03
0d
22
43
0a
ff
08
09
fa
ff
fb
01
ff
02
01
08
d0
09
10
09
13
0b
01
f9
04
00
05
fe
00
04
fc
0c
00
2b
ff
fe
05
ff
f6
00
00
1a
06
fd
06
fb
06
0b
10
fc
00
0a
f7
ff
07
01
06
00
04
ff
04
07
fc
c5
1a
03
03
fa
fb
01
e7
f9
01
03
00
fb
08
07
fa
0f
27
03
c6
00
fa
01
0f
09
10
05
fd
0a
06
f4
05
00
14
1b
06
0f
34
10
05
0e
08
fd
19
06
0e
11
fb
02
fc
ff
06
00
08
06
12
04
bb
00
00
0c
0b
07
06
f3
05
13
08
f3
09
09
0b
11
0b
14
02
09
f7
09
08
01
fa
fe
08
0d
00
f8
ff
0b
03
0c
10
04
f8
fa
02
02
00
ff
00
04
0a
04
10
01
04
1f
05
f6
0c
0a
02
09
1a
ff
00
fc
fc
03
03
fc
01
f5
05
01
0f
f8
05
03
01
0b
04
0b
04
13
ff
06
0b
fc
f9
f1
0b
08
05
18
fb
fb
19
f6
09
1c
05
fc
36
f6
08
15
03
51
0d
07
09
fc
05
0e
fa
01
13
00
0a
0c
f1
fd
05
00
13
f2
10
fa
fd
fd
00
09
04
04
05
05
07
f9
fd
04
03
f6
f4
17
09
0e
03
07
07
14
00
fd
0a
02
03
02
fe
16
fd
09
ff
07
0b
fd
0a
11
07
fc
0e
fe
f6
04
5b
06
fd
11
00
09
08
0d
0a
03
19
02
f4
14
02
fc
0a
0d
09
fb
0e
03
07
02
eb
ff
ff
fe
fd
f8
23
0c
fe
19
05
00
02
05
ff
01
03
ff
0e
0b
32
08
0f
07
fc
0e
f9
09
fe
09
fd
ff
1b
02
ff
f9
0a
fd
cf
08
0f
01
14
05
f2
08
07
17
07
09
fc
05
fe
06
07
01
ff
fe
05
fc
05
05
02
08
07
06
fd
12
f7
fb
ed
ff
ff
fa
13
03
04
00
12
05
0a
fc
01
ff
05
04
07
06
01
fe
02
08
21
e1
03
0e
0a
fb
03
0b
f9
04
0f
01
08
0b
02
06
01
03
0a
02
04
00
08
02
26
13
fd
01
00
01
03
16
0f
00
fe
ff
0e
fd
01
03
04
16
01
01
ef
0a
08
01
fb
02
f8
08
01
02
f4
01
01
ed
00
0d
fa
06
0f
fb
f8
08
07
fe
09
f9
07
01
05
03
04
06
0a
03
fd
0c
07
f3
03
ff
02
f3
fa
fd
01
f6
01
f9
11
02
03
0a
08
ef
07
f0
02
04
02
08
fc
ff
fb
04
f8
11
fe
01
14
01
fb
11
27
f0
09
24
01
21
cd
e0
18
07
f5
fb
10
0b
01
f4
f9
0d
07
04
fb
f2
21
e5
2b
f4
f9
10
1d
02
33
01
28
23
e6
f9
f7
f7
15
26
fa
21
f3
1a
fb
0a
f7
1a
fe
d2
f6
30
fd
0f
03
09
06
eb
0a
ff
08
fa
32
0a
01
ed
20
fd
0a
09
04
fe
ff
18
0f
fa
e5
05
01
0f
ff
28
0e
17
fd
fe
7e
2c
fe
ea
0d
fd
b3
09
12
05
07
e9
fc
0a
01
29
0c
fb
ff
f9
07
0a
0e
09
98
00
07
03
f6
27
34
f5
f6
01
03
f8
ff
22
33
07
08
eb
fb
12
4a
03
fe
01
05
03
c8
af
ff
36
1f
0a
0c
df
fd
f4
3e
04
03
24
27
27
2b
0a
e3
19
f7
fb
0b
08
0d
2c
f8
0d
fa
0b
13
f7
0f
13
78
1a
17
46
2a
1a
10
10
21
0c
16
0f
08
f0
fd
20
05
01
fe
05
1c
18
f8
08
0b
d3
0a
fe
da
1f
30
ff
13
fb
fd
cb
00
02
03
12
19
03
3e
0f
ff
f0
30
28
02
1b
21
03
fb
10
07
f0
01
21
09
f6
18
ff
f9
18
16
f0
fa
fc
ff
ee
1a
01
fd
19
03
e8
2d
c2
0f
0a
18
0d
0f
2a
22
47
f5
2b
06
fc
f6
fd
40
17
03
02
02
39
11
09
0c
f8
14
13
f8
09
02
fa
f4
01
fe
38
26
35
1d
fd
38
fd
cf
16
15
12
08
03
f0
fa
15
21
01
fc
0c
07
0b
05
fb
05
21
20
fd
19
e9
03
0d
0b
1e
fe
f4
f8
0a
2d
04
24
1b
cf
04
fe
4f
25
0b
0d
16
01
42
fe
eb
0d
15
f6
0f
1b
45
f7
30
f7
02
2a
f9
2e
f9
22
03
22
0b
3f
22
03
22
d2
41
f3
08
f4
fe
b2
de
ec
00
0c
12
e8
eb
08
0b
1c
17
d8
33
03
3a
fe
2f
09
fe
13
fd
15
f9
dd
15
e9
f4
09
1f
ef
0d
b5
ff
9c
19
06
fa
c0
09
19
03
63
fe
1a
fd
f8
f0
eb
3f
11
09
0e
fe
02
12
fc
00
f3
0f
0d
f6
eb
ec
f2
fd
f3
fc
fd
e9
30
12
03
32
00
5f
0d
d5
12
e0
fd
17
00
03
2e
26
0a
04
fb
04
e9
21
fe
00
18
eb
12
0e
f4
f6
0b
e7
0e
09
fc
0e
fb
02
30
f9
25
f8
0a
07
fa
03
33
fb
0d
53
20
5d
fe
1e
24
fe
fb
36
36
fe
20
fc
05
00
da
1c
fa
09
05
0c
28
03
0a
03
14
dc
26
01
ba
0b
09
0e
21
f1
32
e7
0a
05
01
e1
ff
f9
16
1a
19
ed
1e
fd
07
d1
fb
e2
0c
fa
f5
ee
2f
0a
01
3f
1d
0f
f1
10
fa
f3
00
1c
29
03
fb
1c
07
1c
5b
54
2a
46
fc
05
43
c8
0a
5a
0b
2d
4a
19
55
0e
1e
42
01
f9
f8
23
11
ed
0c
00
18
08
19
02
f0
f3
0b
03
1e
29
fe
04
32
09
41
0d
00
38
65
2d
f8
fc
03
f3
36
0e
17
f1
07
1f
e9
f3
43
f9
02
d8
ff
fc
12
e9
38
2a
03
16
0a
c5
13
02
17
14
04
0e
29
f2
d6
1a
ff
08
1c
f7
fb
0d
f3
08
01
20
fc
1a
15
f0
0a
13
15
10
fe
fa
02
1d
f9
f9
0b
e7
00
04
4e
e7
11
fe
fb
4a
00
13
07
08
02
e8
f8
00
0a
0b
00
03
04
00
f4
ff
00
03
06
fd
fe
0e
f6
08
05
10
0c
0d
00
05
0c
09
0e
fb
0c
0a
fd
04
11
09
00
01
06
fd
fe
03
00
fc
ec
08
05
07
0d
00
fe
00
38
05
05
00
2c
0c
e7
00
24
04
03
fe
03
11
fd
fc
0a
1d
fc
fa
d1
fc
00
fe
01
02
05
fc
07
23
07
fb
fe
ec
08
15
fe
f6
00
0b
0c
fd
0d
0d
0e
16
fc
fa
fd
01
0a
02
00
4c
fc
09
04
16
0b
10
03
03
02
07
17
fc
07
09
d4
10
fb
a9
f6
06
fa
05
04
05
07
0a
17
f9
10
0d
00
0e
09
06
fb
02
04
01
18
fe
fc
08
fd
08
10
fd
b6
08
ff
07
08
fa
00
fb
00
ff
01
01
07
cc
14
0f
0a
13
0b
02
f8
03
00
03
fd
00
04
fc
09
01
d2
ff
fe
04
fe
f5
00
ff
19
02
fd
ee
f9
07
0e
0d
fc
01
f2
0d
01
07
01
06
00
04
00
02
04
fc
22
e9
02
06
04
fb
01
e7
fb
00
02
01
fd
08
fb
f9
0d
e5
04
34
00
09
01
f7
0a
f8
03
fc
f8
04
f5
04
00
11
1a
05
0e
a0
12
08
0c
07
fd
f6
05
0e
11
07
fa
04
01
06
ff
0c
06
17
02
3f
00
ff
0b
0f
08
fb
f1
05
0f
07
f1
08
f9
0d
0f
0c
12
f9
09
f9
09
06
03
fa
fe
09
0d
00
f8
0b
0a
fe
0b
10
00
f8
0a
02
03
00
ff
01
03
09
00
10
01
03
1e
fa
0a
08
09
01
0a
1a
ff
01
fb
fb
03
02
fc
00
f3
02
00
0d
f7
fc
02
02
0d
03
07
04
12
ff
04
0b
fd
fa
10
0d
07
05
f5
0a
f5
fd
f7
fa
d3
0a
fb
f7
f4
06
10
02
d1
0c
fc
0a
09
07
fa
fc
02
17
01
0b
0d
f3
fe
03
00
14
f2
fa
f8
fd
00
01
07
05
0d
06
04
08
f6
fd
03
03
29
f3
fb
06
0d
04
06
fb
f5
ff
fd
09
01
03
01
fe
15
fc
0a
07
08
f9
fd
0a
17
07
fc
0d
fe
f7
05
a4
03
00
01
fe
09
08
0c
08
01
df
03
0f
15
03
fd
fa
0c
0a
fb
0b
03
07
02
ee
fe
ff
fe
fe
f7
df
0d
fd
14
05
00
03
fc
ff
ff
02
00
11
09
26
fa
13
07
fc
fd
11
05
0e
08
fd
00
ea
02
ff
f9
0b
fd
29
09
12
00
11
04
f2
07
fd
15
08
0a
fc
06
fd
06
07
00
00
fe
06
05
05
05
03
07
07
07
fe
15
10
fc
26
ff
fe
0d
13
03
03
ff
12
06
0c
fc
00
00
05
fc
03
04
02
fe
04
08
22
0c
02
0f
04
fb
03
0c
f8
04
0d
00
09
0a
03
0d
01
02
09
00
03
0b
0a
02
2a
13
fe
01
00
02
03
15
fb
01
ff
fe
0d
fd
01
01
03
12
01
02
f3
07
07
00
fc
03
f9
06
01
00
1d
01
fe
ef
00
09
fa
07
0d
fb
f9
08
06
fb
09
f8
04
01
02
03
fb
05
09
03
fe
0c
07
f1
02
fe
02
f2
fd
fd
01
f3
01
fb
0e
03
03
0b
08
19
08
26
01
05
03
08
fc
ff
fb
04
f7
12
fe
01
ff
01
fb
12
23
1d
09
02
01
fd
0a
f8
00
10
0b
04
00
fe
00
f8
00
00
03
fa
01
00
ff
f6
02
08
00
03
03
fc
02
fe
07
04
01
ff
fd
ff
04
04
06
ff
08
03
01
09
fd
fd
fd
ff
00
04
fc
05
02
ff
04
fe
05
01
01
00
01
f7
fd
f1
fe
08
fb
00
fe
fd
09
fd
05
02
ff
1a
02
04
fd
ff
03
0a
00
03
03
03
fe
03
43
07
09
03
f6
00
07
02
03
04
06
03
fb
fd
fb
02
00
03
04
00
f3
02
07
f6
fb
04
ff
09
03
01
02
17
fc
02
01
15
03
04
18
fc
03
02
04
ff
ff
ff
04
08
fa
ff
01
00
02
fe
fc
02
f7
02
01
0b
fe
01
ff
0c
09
00
13
10
01
00
05
ff
fb
00
fa
00
0c
fc
ff
02
fb
0c
04
ff
06
0d
00
fc
ff
ff
04
01
ff
03
fe
06
fc
06
02
01
fd
ff
f7
00
00
0b
08
fe
21
03
03
0b
0f
fd
ff
f7
fc
fe
fe
00
fe
ff
f8
fe
07
0b
fe
f1
1b
01
01
fd
fe
ff
fc
00
05
ff
00
00
01
04
fe
02
07
fc
ed
fe
fd
03
08
06
0b
02
fe
08
06
02
00
00
0b
ff
01
04
16
ff
0c
0a
0a
fc
04
04
fd
07
fe
fc
fe
fe
01
02
0b
00
08
01
e5
fc
fc
08
07
00
03
f9
ff
00
05
02
03
01
0d
f8
05
0c
01
00
00
01
01
fe
fc
00
05
07
00
fe
fe
06
03
09
03
01
02
fc
00
f9
f6
00
06
fe
03
fc
08
fe
00
05
02
fd
04
02
03
00
08
fd
ff
f9
03
02
00
05
00
05
03
fe
04
f9
03
00
04
00
09
01
01
0c
04
05
03
00
00
fa
fe
03
03
0d
fc
f1
18
01
02
0f
0f
02
14
f8
fe
01
ff
0d
04
01
04
fd
03
08
0a
01
04
01
02
07
fa
09
04
ff
f8
fc
05
fd
00
02
ff
07
05
04
04
fe
02
00
ff
f8
01
fa
f9
07
01
0a
00
02
04
f9
01
ff
0a
fe
ff
ff
fe
f7
ff
01
fe
01
03
02
07
0d
04
01
05
fd
fc
08
23
08
07
05
04
fa
03
09
07
06
10
00
fe
01
03
ff
03
04
08
ff
04
fe
fb
fe
fd
00
f6
ff
03
f8
0f
06
00
05
02
ff
00
00
fa
01
06
fe
00
02
0c
02
07
03
fc
06
fb
0c
fe
06
03
00
ff
0a
f0
01
06
fc
e5
05
09
00
0e
00
fe
05
fd
10
04
01
00
f8
ff
02
0b
00
05
f9
0a
ff
07
00
06
03
03
05
04
0e
f0
fd
f0
fe
07
fc
00
fb
02
06
0a
03
04
fe
ff
04
07
ff
06
ff
01
05
04
07
03
fd
f1
05
fc
01
01
04
fb
02
fd
00
01
02
00
fe
00
05
02
fe
ff
fc
07
01
16
10
fd
03
00
ff
00
07
0a
01
ff
fd
00
00
05
fa
01
0a
01
fd
f4
00
fc
01
fc
05
fc
fb
fd
00
f7
ff
02
f9
f9
fa
01
02
06
01
fc
02
05
fa
01
fc
07
00
18
02
04
00
09
fe
fe
fc
01
f6
01
01
01
0c
ff
ff
02
fc
00
fe
ff
fb
00
07
f7
ed
ff
f6
ff
00
00
fd
01
fc
fd
03
fe
0c
fd
01
f8
00
fd
04
10
fd
04
0a
01
03
f0
ff
fe
11
30
0b
03
03
fc
f6
ff
00
02
02
fc
01
0c
f5
0d
0d
07
0a
16
fc
fc
00
11
09
0c
fd
00
fc
05
f1
09
03
14
04
fd
10
f8
f6
fc
fd
f9
0b
fe
06
0e
00
10
fb
02
ff
03
fd
10
ee
fa
00
fd
10
04
04
f9
fd
ff
0d
fb
0b
f1
f9
fc
02
fc
fe
01
12
fe
fc
26
07
ff
11
27
02
f6
13
1b
01
12
fb
0c
ff
11
ec
ff
fb
f8
0d
01
07
0e
00
56
0e
08
eb
ff
0a
04
19
06
ff
08
1b
fb
0a
05
fe
0f
09
12
05
07
01
0e
ff
ff
01
00
20
f7
09
0c
04
05
f5
fe
00
03
04
05
08
fd
07
06
2d
17
12
f4
04
0b
00
13
09
f9
00
fd
00
21
ff
00
03
07
27
01
09
0b
06
02
f9
fa
01
07
06
01
05
fd
09
fa
00
08
02
03
ff
f2
01
00
e5
02
ff
f6
ea
0e
14
17
fe
01
c8
fa
f6
f7
01
06
fc
17
01
0e
27
fc
05
f9
01
0b
00
fa
01
ec
fd
0a
ff
fe
fa
fc
00
fa
fe
03
f4
00
fb
ff
02
ff
03
fd
04
fd
f7
07
16
fd
02
f6
0b
03
11
0a
0a
1d
12
11
fc
f8
0b
0e
06
01
fc
fd
ef
08
03
0a
fd
14
06
01
fa
00
03
f6
fb
ff
07
01
1a
05
fc
0b
fd
08
f6
0f
11
00
08
f9
f9
06
0e
fc
06
0a
0c
02
f5
00
04
06
0c
0e
05
1a
fd
03
fb
f7
fd
11
fc
0e
f3
0c
03
09
f2
00
fa
0e
09
04
fa
06
f3
05
fc
fe
02
04
13
00
fc
09
fd
06
f6
ff
0c
0f
01
0d
13
08
27
1b
0e
0d
05
e8
f9
06
fc
05
f6
00
f0
fa
fd
fe
0b
25
0b
fb
f6
00
09
01
f8
09
00
07
fd
08
fe
0f
03
03
00
00
f1
1a
0b
15
ff
fd
f4
fc
ff
fd
28
03
0c
0b
24
05
02
fa
05
f9
f4
fe
fb
ec
f9
0e
16
02
03
03
f4
00
0a
0e
fe
00
00
ff
f7
fc
fc
00
ff
fd
08
0d
23
0b
0b
0a
fc
f5
05
05
09
40
fd
06
f5
08
0d
08
02
f6
f8
f7
04
09
fb
01
1d
09
03
13
fb
f7
01
e7
ff
f1
f9
0a
f9
01
10
10
11
fb
00
04
fc
f9
03
10
00
21
12
1c
fd
10
07
fc
01
fd
10
ff
0a
12
0b
fe
00
f5
f8
0c
fd
02
08
0e
00
25
04
fb
07
fd
0a
0a
00
02
f2
fc
0b
09
00
0d
f5
13
03
0d
08
04
09
01
06
14
19
f7
fa
fd
ff
0a
fd
f9
f9
fe
0b
09
08
02
ff
fc
0c
0c
ff
fd
07
09
15
03
0f
00
1b
d1
0d
15
13
03
07
fb
06
09
02
0a
0c
04
0d
00
11
0d
f8
02
fe
09
02
27
0e
fa
05
00
01
fe
0e
ff
02
fa
02
0a
00
0b
f7
04
12
03
f5
d4
05
04
00
fa
0c
f8
07
fe
03
fa
fd
0e
f6
fb
f9
fe
0f
0e
07
fb
03
fb
05
0a
ff
1a
01
00
03
00
02
fc
03
ff
08
f6
f8
fd
11
0b
0d
fc
fd
ff
f6
01
fa
06
f7
fc
09
ef
fe
fe
fd
00
fa
fd
fc
02
fc
fc
03
f8
07
fc
01
e8
01
fb
01
27
fd
0c
00
01
fd
09
f6
00
10
0d
04
00
ff
fd
f8
00
00
03
06
00
00
fe
f9
00
08
ff
03
ff
fd
02
03
06
03
02
03
04
ff
02
02
08
ff
07
04
01
08
fb
fb
fe
03
00
02
0b
0f
03
00
04
05
06
02
00
ff
04
f7
fd
11
fc
08
00
00
f8
fe
01
ff
08
03
00
df
ff
04
fe
01
02
0a
ff
03
03
02
00
03
02
07
05
03
f9
00
05
02
02
05
03
08
06
fd
fb
03
00
05
05
00
08
02
07
f5
11
04
02
08
03
01
02
15
fd
00
fe
ec
04
03
de
f9
02
fe
04
02
fe
01
05
09
fb
ff
03
00
05
fc
01
fc
fd
02
01
11
ff
03
00
0a
07
ff
fa
fc
02
00
07
03
fa
00
fb
00
0b
fd
ff
04
f2
12
05
fd
05
0e
01
fd
ff
ff
04
00
00
03
fe
06
fc
fb
01
01
fd
ff
f8
00
00
0b
00
fe
fa
08
01
0b
0f
fd
ff
db
03
fd
ff
ff
00
ff
fe
fe
05
0a
fc
0b
f2
ff
ff
01
fe
ff
fa
00
05
00
00
00
01
fd
fe
02
f6
fc
15
ff
03
03
fe
05
fa
02
fe
f5
06
02
00
00
0d
01
00
03
d5
fe
08
09
0a
fc
f6
05
03
06
00
fe
fd
00
01
03
0b
00
02
03
10
fc
fc
07
08
00
fe
f7
00
03
06
03
01
fe
0d
f9
03
0b
fe
01
ff
00
03
fd
fc
00
06
06
00
fe
03
08
00
09
03
01
02
02
ff
fa
f4
01
06
fe
03
00
07
ff
00
01
fb
03
04
06
03
ff
04
fd
fe
f9
03
02
00
06
ff
05
05
fd
03
fa
fe
fd
04
03
09
00
00
13
04
00
01
00
00
19
fe
03
03
f8
03
f0
f8
00
fd
e9
0f
03
e5
f9
ff
02
00
f1
06
fe
04
03
03
fe
0a
01
05
01
02
06
ff
08
04
ff
f6
fc
fe
fc
ff
01
ff
09
05
03
04
ff
02
03
ff
f8
00
14
f9
fb
04
0c
00
02
ff
fe
00
00
0b
fe
ff
00
fe
f7
ff
01
02
02
fa
02
07
16
05
02
07
fe
fc
06
e5
09
0a
00
04
fb
03
09
06
07
eb
00
fa
01
05
fe
fc
03
09
fe
08
ff
fb
fe
fe
ff
f7
fd
03
f7
f0
0a
00
00
02
00
00
fc
f9
02
05
ff
00
04
04
ff
08
04
fc
fe
12
0b
07
05
02
00
ff
0b
f1
01
05
fd
11
05
07
00
11
00
fc
06
ff
0f
04
00
00
f8
00
02
09
00
05
f9
0a
02
07
00
04
02
03
03
03
0d
0d
fc
14
fe
06
0b
00
fb
02
04
08
03
05
ff
fe
04
09
00
06
ff
02
05
02
06
06
25
f1
04
ff
02
01
ff
ff
02
fa
00
00
02
ff
fe
00
05
02
fe
ff
06
09
02
1a
0f
fd
03
00
fe
00
07
fe
01
ff
fe
fe
ff
06
f8
01
0c
00
fc
f1
ff
ff
01
fc
05
fb
fc
fe
00
09
ff
03
f7
f9
06
01
02
07
01
fc
02
04
f9
01
fd
08
00
f8
01
fe
01
09
ff
fe
fd
01
f4
02
01
01
0e
ff
ff
02
ff
00
fd
fd
fa
ff
06
f8
27
ff
06
01
fd
00
ff
01
fc
fd
02
fe
09
fd
01
fd
00
fd
03
11
01
04
