07
fb
f2
fc
f9
02
01
20
fe
fe
09
04
00
15
02
f7
df
1c
f6
02
13
1f
06
f4
f4
00
11
f7
01
ef
fb
f2
08
0e
e3
f7
00
f5
01
f4
19
e7
f7
ee
f1
fe
f5
08
fb
10
f8
07
0e
f9
fc
09
fd
11
02
f7
f7
07
09
08
ff
0b
12
05
03
09
fc
fe
0a
00
ec
06
f3
09
f4
ff
04
08
fe
04
f6
ee
03
19
fd
08
01
fa
12
04
f1
13
f7
0b
07
f9
ef
10
f6
1a
10
06
f9
ec
f8
19
fd
f7
12
f3
e5
06
f6
04
03
06
fe
00
ff
01
03
12
f7
10
09
f6
0f
f6
eb
f5
0e
f5
fd
02
fe
ed
00
02
e8
f0
e0
00
fe
f7
fa
11
fc
fb
09
ea
f8
0a
e3
03
e9
ec
0a
fe
01
00
ff
f1
e5
fa
0b
f5
01
ec
fa
0e
f6
12
13
fb
fb
f5
f5
fb
ef
02
f4
e6
20
04
f2
04
0e
fa
26
08
08
f5
f7
12
1f
f0
f9
0e
03
ff
ef
fb
03
05
17
16
06
03
f8
fe
f5
e0
f7
04
f0
0e
fd
f9
0d
fd
f9
ea
f3
13
1d
fb
0b
07
17
03
04
fe
03
e7
08
e8
11
03
0e
f1
f2
e4
f7
09
07
0e
06
f7
ff
04
17
2b
fc
01
f7
04
f9
ef
17
04
f1
0a
da
06
f7
ea
f4
fa
f9
1c
ff
f5
fa
06
ed
08
e9
ff
01
02
02
06
20
eb
f4
10
07
05
f8
06
0c
ed
09
04
16
14
ef
23
f9
00
f3
ef
d6
fe
e0
fe
05
f0
f7
13
13
fb
f5
f5
f2
fc
21
00
fa
ef
f6
19
03
08
0f
09
0a
09
fa
03
15
f9
f0
f7
e6
05
18
fc
05
ee
e8
f6
da
fc
e9
08
f3
f5
02
02
11
08
0f
01
0d
08
10
1d
02
11
07
f7
fc
04
fa
ff
02
f7
17
06
f3
fe
01
f8
f4
fe
ff
08
0f
01
0e
f7
0d
eb
01
f7
ec
1b
f8
fd
20
1b
ff
08
fd
00
fc
1a
02
1f
06
02
00
f6
ff
02
03
05
14
fe
f1
f3
f2
05
dd
fc
00
ff
ef
f3
03
07
0a
f7
fa
fe
e6
0c
08
14
06
fe
00
fa
01
08
07
f7
0f
f7
00
f9
05
14
13
01
ff
f6
0e
0d
07
f6
14
ea
f7
f5
10
f3
f7
f0
14
fc
00
f2
fb
fc
24
07
fe
f2
f8
f5
06
13
ea
f7
05
04
fc
f4
fa
f5
f5
f9
fc
fe
fe
1a
ea
ec
fa
02
10
11
f6
f8
01
f8
f4
12
01
03
f2
07
ff
01
01
f9
06
0e
05
f7
f5
05
f4
01
04
f9
08
10
f5
02
0f
f2
e8
0a
f0
17
0b
10
f3
f5
02
07
fb
03
08
fc
f3
09
e8
f4
02
fe
fb
08
0c
fd
0f
27
f2
1e
17
fa
1d
07
f6
f6
04
08
05
fd
f9
18
08
de
e3
05
08
08
01
eb
08
03
f2
03
0c
fc
17
0b
f6
f7
14
02
04
02
f2
f1
fd
f1
14
f9
07
ef
05
1f
04
fc
ff
fb
f0
05
08
01
ef
0b
e4
0b
07
01
e9
ff
f6
06
f4
0f
0d
f4
fe
0e
fb
0a
f6
eb
04
e9
fb
f6
f3
08
fa
04
f2
ff
ff
f5
08
04
fb
04
fc
00
12
0d
fb
fe
07
f8
f3
03
14
fd
15
ea
fe
11
fd
02
09
fe
f8
f7
05
eb
0d
01
24
fa
09
f5
ff
f8
04
0f
fd
03
0e
f3
f7
15
0b
15
15
ec
0a
17
fe
1a
07
ff
f2
f3
02
06
0f
f3
14
05
03
03
14
10
fc
06
01
02
fa
02
09
f7
12
19
07
07
11
0a
00
f9
f8
16
ef
ff
fa
f7
f9
f5
0f
fe
0c
f2
01
fe
05
eb
ec
fd
f6
ed
f3
f7
ea
15
0d
18
f5
04
0a
fb
eb
00
fb
ee
fa
08
ef
f8
ff
f5
dd
ee
0a
04
ff
0d
e8
fc
04
02
fb
08
f3
f8
07
ef
fc
ef
1c
0b
08
fc
f9
d3
21
eb
16
ea
07
e0
03
f9
ee
01
07
fa
03
0f
0a
04
ef
0f
04
00
fc
23
0f
14
f2
ee
e8
02
0f
03
02
05
12
10
f1
07
f4
e1
1d
f0
eb
16
f5
fe
07
15
0c
fd
12
0c
0a
0c
12
11
03
fc
e8
27
1a
e5
ed
fc
14
eb
e8
06
01
14
e5
f4
16
ee
f5
f2
08
f7
14
01
fa
02
09
f6
0d
f3
f1
e9
fa
0e
23
e5
ec
f6
18
0a
f3
ff
ff
01
ed
0b
19
f5
f9
f0
ff
1e
20
fb
e5
e7
fe
e5
22
0a
0e
06
00
09
08
0b
00
d8
0e
08
13
04
02
14
0b
e8
22
12
06
00
ef
18
10
ed
ff
03
f9
f4
fe
fe
ff
0b
0b
f4
e6
02
e3
fe
0d
0b
02
fb
fe
fd
f7
fd
08
e7
f0
ea
ec
03
08
fb
13
e9
14
f9
f1
0a
f6
ec
dd
03
0a
e7
00
f5
ff
11
00
f0
f8
fe
f8
10
09
04
09
f3
06
de
f9
e5
0b
f2
ee
01
12
00
f6
01
0c
11
05
07
00
09
ef
03
0a
fe
0e
1d
0d
ff
12
ec
06
fc
00
fd
fc
f9
e0
03
0c
0f
f9
12
fb
0d
fb
24
f8
08
fd
20
09
f8
2b
f8
00
fd
e8
0f
08
08
10
08
05
04
fa
f8
11
fd
14
fc
04
fc
0e
05
1a
eb
1b
fc
04
f5
13
0a
05
1a
03
03
fe
0d
f0
fd
0d
dc
18
fb
12
0a
f4
06
14
0d
0c
07
07
18
fd
0e
23
fb
01
0b
06
fe
ff
16
11
04
12
f3
03
f9
fa
f2
fa
03
e5
0e
0b
f2
0f
ef
fe
ea
03
06
00
f5
ed
ed
0c
01
eb
fe
0d
08
07
15
0b
fc
f2
03
05
05
fe
f4
00
f0
0b
d8
f5
f7
f7
f2
02
06
0a
fc
f2
fb
0c
16
02
f8
fd
f8
13
11
00
eb
00
f5
03
15
fd
fe
fe
02
0a
0e
03
13
fd
01
0a
f2
03
d6
03
fd
f3
fa
17
ff
04
f8
08
0a
16
12
0b
09
10
fa
f7
f5
fe
04
f6
fd
05
f4
ea
0f
fe
f4
f6
e3
fa
fb
f2
15
fd
09
f2
19
08
ef
10
1a
f5
fd
f5
f6
f8
fa
08
07
f6
05
14
01
03
f3
09
03
e3
0a
0a
01
f9
0b
08
02
0c
e3
f7
07
ff
03
09
0b
12
f6
0a
f7
fd
fc
e8
f1
06
f6
ff
ff
ff
00
ff
0c
01
00
fd
02
07
f2
f7
16
fb
01
f5
fd
04
07
0c
13
08
03
07
07
ff
f6
f8
fd
05
02
ef
f0
04
f4
f1
00
ee
fb
fd
f5
0e
08
ff
09
fa
12
00
fe
00
ff
05
00
01
0a
f1
f7
ff
11
05
07
f2
f8
f8
0a
14
f7
14
fb
f9
0e
0f
0a
03
09
02
0d
fc
fe
0a
f6
ed
ff
f7
0a
15
11
e2
fa
0f
04
ff
1c
f8
f7
13
f7
03
00
10
04
f7
fe
02
e6
f7
15
08
25
08
0a
ee
07
0c
08
0e
12
05
10
06
0b
10
04
02
ee
e0
03
02
06
16
fe
fd
ff
f9
f4
fc
f4
03
14
10
19
fe
f3
11
05
f5
fb
05
ff
00
04
00
fb
f2
00
f8
06
df
16
e9
f2
06
03
0f
0d
0a
e6
ff
fb
03
f8
06
0a
12
0c
24
f8
f8
11
0f
06
03
0e
f1
01
0f
eb
00
15
f1
f3
f5
fb
02
04
f3
fa
f1
fc
d7
f1
ff
09
ff
ee
f5
f7
fc
f2
0b
ec
ef
eb
ec
f8
11
12
f2
fa
fe
06
fb
ee
03
f2
ef
ff
ed
fd
f2
01
f9
ef
f3
0d
01
09
0d
f1
fb
05
ec
02
ed
00
0a
ff
08
1b
f6
0b
04
04
0e
f7
0c
ee
08
f9
0b
ef
f8
f9
07
ee
ff
fe
05
05
02
0a
06
fe
00
14
01
fd
05
fb
06
03
f5
f9
08
e0
eb
0e
fb
0d
fe
04
f6
f5
fd
00
fd
fd
f8
fc
06
0b
02
01
15
e4
0a
fc
fe
f1
fb
0d
17
0f
1d
ff
d7
fa
05
ed
14
06
0a
14
0c
f8
05
15
00
f2
f2
0d
0e
ee
fe
f1
e6
05
fc
e6
1c
16
fe
fb
fa
0c
02
eb
ef
02
13
02
29
f5
d9
e2
03
ff
df
19
08
05
ef
00
06
1a
0b
ed
e7
fb
0e
01
11
00
e2
10
02
f8
fa
04
f7
f4
07
03
14
f3
10
0f
02
ff
f3
ee
fc
00
14
fc
01
e8
00
08
fa
f7
f7
fc
ed
f9
0f
f8
eb
ef
0b
e2
17
05
f7
f8
04
02
01
01
04
0c
02
09
ed
f6
f2
f4
fd
0c
0e
fa
f1
00
ed
fc
ed
04
fa
0c
08
dd
f5
21
fe
ff
eb
fd
fc
ea
f9
13
f1
04
12
00
fb
f6
fc
ea
f1
ea
fb
15
fb
f2
08
0d
0a
f6
e9
00
18
0c
11
e7
03
07
e0
07
f6
f7
05
11
01
08
07
05
05
01
03
fe
0a
05
0b
00
12
e4
f6
01
ed
ff
07
ff
ef
ef
ee
eb
0d
fb
26
ee
08
ff
08
0e
f7
03
ff
06
01
f1
f4
1c
eb
20
00
ee
f4
f4
0a
0a
e7
19
12
fe
00
ea
03
0a
17
fa
f7
f0
e7
fa
f5
07
08
17
f4
39
00
00
fb
03
0b
08
f7
0b
ff
01
fb
f1
22
04
f2
f7
fa
f9
f4
06
e7
f1
fe
fb
fc
13
11
f6
ef
14
e7
f7
03
fb
f3
f5
07
ee
07
0e
fc
f0
e9
14
0e
f6
04
04
ee
ee
ff
0d
e0
f5
03
fc
15
0f
fa
00
e9
03
12
0a
06
f6
00
fc
0f
01
05
19
e1
f8
d9
f8
fd
f3
f8
e8
f4
0e
ea
0d
fc
fa
1a
ef
13
07
21
fe
fa
ff
f4
f4
fd
f6
01
00
03
02
03
fa
f6
ef
fd
13
1a
09
f8
0c
ff
14
00
ed
fb
fe
09
fe
f9
f4
fa
fe
01
01
fc
fc
f0
05
fb
00
04
01
f2
03
03
fe
05
0a
f2
0b
0c
fa
0b
f6
e5
0c
03
0a
08
03
08
01
03
0c
0c
03
10
1d
f4
00
fb
21
03
f2
03
16
f4
2a
01
06
05
2e
f7
14
07
f8
f6
f6
19
02
04
fc
fb
f3
0c
f0
0e
f5
f2
f4
04
ef
fe
fe
d3
04
f3
ff
f6
05
06
fb
17
02
02
f1
fb
fe
fc
08
ee
04
0f
12
0a
06
fd
0e
0f
fd
0c
08
fe
f7
f5
07
08
0d
0e
0a
07
00
09
04
0b
f3
fb
07
f3
f9
f4
fb
20
f3
1a
01
04
fe
10
08
f0
11
ef
f7
15
08
ee
00
0d
f8
fb
f5
00
fe
f9
1b
ff
f4
f9
02
05
ea
0b
0a
06
fd
f4
fb
fc
04
01
12
11
0d
ed
fd
0c
fa
0a
f3
01
03
00
f4
03
f3
0f
fc
06
0b
f9
02
07
02
f8
fb
04
f6
09
15
fb
fb
fc
04
1d
08
e7
09
09
02
01
f9
01
f5
01
fb
06
fe
ff
00
f1
03
03
fa
fa
16
08
15
f3
06
f1
f5
e6
f7
28
09
fa
f2
f7
fd
13
0c
03
10
fa
13
07
04
fd
f2
f7
e2
02
ea
f0
fa
ff
0a
ef
02
f4
ee
fe
f1
03
1b
fd
13
12
05
ed
07
fe
00
fc
ff
f0
f8
ec
fd
04
03
f8
00
08
e0
0b
ec
1a
fe
0b
f8
fe
08
f3
14
0b
f4
13
f6
fa
1b
f7
f3
03
1f
09
ee
07
f0
08
10
e8
f9
f7
06
00
f1
03
f0
f0
ec
f6
04
0e
ff
e7
ee
0e
06
f1
10
01
0b
f1
f4
f0
e1
f8
fb
11
fb
09
0c
13
0b
fd
0c
01
0b
ee
01
04
03
11
17
0b
f9
05
07
fb
0c
ee
f4
fa
f5
00
fe
0e
04
f4
10
f7
f9
0a
24
f3
eb
ea
e2
0b
f4
00
f1
fa
ea
01
04
03
06
e7
f8
eb
09
f1
17
27
0e
ed
fb
f3
16
01
de
05
16
fe
f6
06
ea
fb
01
e7
fa
f8
fb
ec
11
ee
10
03
04
0a
0b
f4
f7
df
0d
03
ed
f4
e5
fc
08
01
0b
fe
e6
fb
25
02
ef
14
fd
fd
1d
f5
10
05
f7
f5
f3
10
04
16
04
13
f1
07
fb
f0
f1
f8
16
09
fb
1d
e5
f4
fd
05
f5
fc
0a
f5
fe
c9
f7
e8
fb
29
f0
14
01
f3
fc
1e
01
08
f2
f7
0b
0d
15
0c
fc
fc
f0
05
01
f8
0f
05
21
1d
fa
02
0b
e0
f5
ee
ef
02
f5
04
14
00
f1
13
00
03
fb
f3
f2
f1
25
f3
fa
f2
f4
f4
fa
fe
07
f3
07
f3
f5
0e
f1
f3
09
15
f1
fe
16
fb
f2
18
02
f0
f8
fe
fd
02
fa
fb
13
f0
f0
09
fc
0e
05
08
03
f6
02
08
e6
e4
0c
ed
f3
19
fb
fc
f1
0c
e6
0c
f3
0c
00
16
e3
0a
f3
0b
ee
f0
fb
2f
07
f9
10
fd
31
0a
06
0b
0b
0e
ea
ee
04
ff
f9
ff
f5
1a
f8
00
15
1c
12
f3
0f
0c
03
0c
ee
f6
14
04
fe
02
f9
ed
08
fb
07
05
e6
02
0e
0c
04
f7
f2
f9
01
20
10
15
14
0d
0c
ff
14
ed
f8
ed
17
15
f6
1c
fa
10
ff
ff
e9
03
0b
f5
0e
00
03
0a
f3
16
e8
04
f2
f2
05
fd
f1
1a
1a
fe
f7
0a
21
f7
e9
10
f5
05
03
04
fc
fb
0b
f9
2d
fb
02
0b
02
fc
f7
ee
10
f7
ef
00
f5
f9
02
03
f0
fe
09
10
ff
e2
00
05
f1
0d
ea
10
fd
05
01
ee
f7
04
11
15
09
1a
04
02
f8
f5
0d
e7
12
04
fd
12
f4
fd
08
06
11
fb
19
11
06
ff
f6
ef
02
07
fb
05
07
16
03
fb
f0
18
d5
02
fe
0a
02
f9
11
f5
08
04
0d
fb
0c
fe
06
03
07
fb
00
09
fb
07
e4
fe
04
f3
08
f6
fd
f8
fd
0a
ed
14
ec
01
01
0e
07
e1
03
02
00
05
ec
eb
f8
02
fa
05
18
f6
e9
0b
06
f7
f9
e2
08
01
0e
f8
0b
13
00
f3
02
fa
fc
f6
09
03
02
fa
f8
1c
0e
08
05
03
fb
f6
e7
fb
fa
0d
f4
25
f1
01
0c
0b
04
f8
f4
ff
fb
f4
08
09
00
f6
fd
ef
e9
0c
01
00
ef
01
09
09
04
f2
fb
04
f8
f1
f8
0a
17
fc
1e
0a
03
fb
f3
08
fd
ff
ef
f2
f8
03
0b
f7
ff
0f
ff
f6
00
ff
07
f0
ed
11
18
ef
fd
e4
02
29
f6
0e
f7
06
f7
01
00
1f
fd
1a
fc
04
f1
fc
0d
0e
ee
0b
03
04
fb
f7
fe
0e
df
07
12
04
07
f1
05
fb
fc
0c
1d
ef
02
f0
ff
02
0c
f6
02
e4
ee
07
09
0b
1f
04
fe
0c
f8
1c
f6
05
e6
ff
16
17
f9
f7
02
fa
0c
0c
fc
0d
f6
01
05
f6
15
f3
fe
0f
f9
02
0f
04
05
eb
0a
03
ef
10
0c
15
f8
fa
26
1a
f8
fe
10
02
eb
05
f3
0d
0a
fb
03
fc
16
f0
0b
04
09
05
ec
01
07
f0
00
0f
11
0b
0a
15
fc
08
03
ef
f7
fa
03
fc
f9
03
f0
07
ea
f4
e6
1f
fb
03
fd
eb
14
0e
09
f1
f0
f3
fe
f2
fb
f8
03
08
fd
02
f9
e9
fa
16
fc
ea
13
f8
e4
eb
f8
03
07
11
f6
fe
fe
01
05
23
f4
19
fd
f8
00
08
0c
d4
14
fe
08
00
fb
f8
f2
fc
fe
16
ff
ec
fe
fc
08
e2
17
03
fc
f9
ee
0d
f1
f5
fd
00
10
0f
fa
f4
f6
21
01
04
01
0d
14
f7
f1
0d
07
ee
13
f9
12
0c
f9
12
00
0c
f0
fe
ed
07
fe
f0
0d
eb
09
15
f6
0d
fe
00
04
ff
09
ff
fe
fc
06
09
fa
fb
0f
0f
0e
07
0c
e9
02
11
0b
0f
0b
ff
ef
0e
03
ea
00
fc
09
fb
ed
0b
ee
08
01
fa
0a
ed
ef
15
f2
03
fa
04
00
f2
00
fa
f1
f6
fd
e3
04
f3
16
ee
ff
fb
04
e6
f1
18
18
fc
1c
09
f0
f7
e6
fa
05
f0
01
0a
0f
09
f8
0f
ff
04
10
fd
fc
eb
fb
f7
0e
e2
0f
0a
04
12
ec
f8
f3
f9
f4
14
f8
fc
07
fe
05
04
fb
06
11
15
16
0c
f8
15
03
f8
ef
16
0c
03
fb
03
ee
f3
f9
f6
07
09
ef
0d
16
18
fb
04
1f
04
fa
0f
0a
05
16
0b
e7
01
fe
e7
fe
e7
fe
05
f3
f6
f7
fb
f7
f7
fc
fd
01
04
00
ff
01
fc
ef
0b
17
04
02
11
f8
08
01
01
fe
fc
01
e5
1e
0f
06
0e
f3
02
0e
e2
02
0d
e9
d3
09
11
f3
f1
fc
f9
f6
f3
18
0b
07
f8
ea
f9
f7
1a
0b
fc
11
00
fa
21
07
06
06
f3
07
0a
fd
f1
00
1f
0c
0d
fb
f2
dc
ff
ed
ee
f6
f4
f2
14
0d
ec
02
2b
fb
fa
07
fa
f4
16
1c
10
f2
0d
11
02
07
fb
0b
e1
fa
ec
f7
de
02
0c
0d
0d
fa
05
e4
0c
f6
e9
00
1a
f7
12
0c
01
22
1a
09
de
01
f1
04
fc
0c
09
fd
f0
ec
0a
07
f1
e7
1b
15
04
18
06
01
f5
fc
fe
16
16
18
ee
fc
f1
09
e3
19
22
0c
07
ee
18
f6
06
fb
16
0a
ff
fa
e6
f8
0e
1c
21
f6
07
03
08
06
18
01
04
16
e5
04
f2
f9
f2
04
f6
16
eb
2e
08
ff
fe
f1
f5
fb
fd
f5
29
08
09
f6
0a
08
fb
04
02
06
f6
03
14
02
14
0b
ff
f1
01
1a
f7
0f
e4
ff
f0
fd
e9
f1
1c
fe
ed
f5
0b
0d
fe
03
ee
13
01
fe
eb
ff
f6
18
fd
fa
03
0c
f7
fd
0b
e4
f8
f8
08
01
fd
f5
ff
08
09
04
04
07
03
f2
ff
01
fa
0f
fc
00
09
00
1c
fe
04
06
f5
21
00
0e
eb
eb
fc
00
01
06
13
05
0b
f9
fa
00
09
0a
06
f4
0f
10
0e
00
09
f0
03
ef
07
02
25
04
00
03
fa
02
ff
0b
01
11
0c
f5
10
f3
f6
08
ec
fc
0e
f3
ed
f6
0f
06
fd
04
12
06
06
12
12
ef
0e
e6
fa
0b
00
01
2b
07
01
fc
04
11
01
eb
f4
0c
16
f4
ff
ff
06
fc
ff
07
f7
f7
f3
ff
01
06
ec
fb
00
03
18
0c
0c
04
f5
15
01
17
16
fa
05
ed
f5
0d
0d
04
fc
1b
fd
e8
f9
15
ff
fa
04
03
ff
fe
0e
fe
ff
f8
fe
ee
db
f5
fe
f3
02
02
fa
04
0c
f7
fe
0a
e7
0b
ed
0a
eb
f4
fa
fe
f7
fc
f6
fd
0b
0c
0a
00
fc
04
13
14
f5
fe
07
1a
05
0e
f2
f6
03
0c
f0
08
00
02
fc
ee
f8
e7
fe
01
0f
01
00
fd
ff
fd
f1
fc
10
f9
05
f2
fc
03
ef
fa
fc
f4
f0
f6
0e
07
f8
0a
1c
fe
1c
00
08
fb
05
f4
10
0b
12
03
f5
ef
0d
fd
00
fd
f7
01
05
fc
ee
f3
11
f9
24
01
06
11
fb
0c
0d
ff
0e
ed
0d
f5
f5
0e
f7
05
0b
f9
0b
0b
fe
fc
02
06
01
e9
20
11
02
f1
f3
f9
f0
f6
f5
fd
f4
02
0b
04
f1
f4
fe
06
21
09
08
10
ef
04
f2
06
f6
19
1c
dc
0f
08
10
19
f5
f2
fa
01
02
1b
03
f9
0a
fd
0f
01
fd
1b
ef
f8
0c
f9
08
fc
01
ff
07
f6
fe
16
f6
ff
0d
0d
f8
09
11
f8
e7
20
e6
08
fa
08
fe
20
f4
00
07
0a
f7
f9
16
02
0d
04
19
05
0b
ec
01
15
0b
00
fd
08
ff
f9
1a
fc
00
00
ff
0b
08
fd
fd
f0
f2
0f
08
0e
11
fc
06
01
07
17
f0
04
f0
12
16
0f
08
fd
fe
00
fa
f5
15
f7
f5
fc
0d
f5
07
10
09
f2
ef
d7
e1
03
ff
02
fd
e2
15
e9
1a
03
0e
17
0e
06
07
fe
f8
05
f8
f5
fc
e4
18
f6
18
fa
0e
20
01
01
0e
ef
12
01
e4
10
25
fd
04
fa
10
0e
07
02
fd
f9
03
ea
03
06
1f
f2
fb
02
f8
04
ff
05
00
18
ea
ff
f8
07
d0
f4
dc
08
fa
10
05
03
05
05
fa
11
12
00
11
eb
01
ed
09
ea
07
fb
0d
0e
f8
10
0a
15
f4
fe
0b
ee
03
06
ec
02
13
0b
1a
f7
fc
09
04
f4
fd
0b
0a
ff
ee
0d
1b
fc
08
0b
0d
e5
05
0f
ea
11
00
e7
03
f5
0d
0a
ef
01
ec
fe
04
07
14
f5
06
e9
04
00
14
fe
f5
f2
15
01
f8
0d
ef
00
f9
06
16
13
01
f8
11
00
f8
fc
f7
06
05
08
f0
06
15
10
02
f6
0f
0f
12
29
0d
11
f9
14
01
1e
fd
fd
f8
e7
06
12
13
0c
fe
ee
f1
e8
f8
06
0a
e9
f2
04
fe
0c
fa
09
0c
19
f8
e6
fa
11
fc
f6
1c
f3
f5
02
0c
06
09
ff
fb
fb
0f
e5
1a
f3
0e
f3
05
fa
f5
ea
04
e8
0a
f7
ee
fb
0d
01
07
f6
f6
00
fe
12
07
08
2c
04
fd
09
14
1c
ff
1c
00
04
fe
0e
1f
06
ee
0c
02
f3
02
f8
21
05
02
09
f0
f7
fd
0a
05
08
fe
0f
0c
1b
f4
f1
05
04
0d
e7
f9
14
13
11
04
0a
08
ed
02
f4
f2
09
07
ec
0c
0e
00
e9
08
e6
01
00
17
e6
fc
0f
11
f9
0e
0c
fb
e7
f8
0e
f8
17
06
02
ec
f1
f3
ff
f6
08
0a
ff
07
07
02
f6
08
06
07
f3
15
eb
1c
fe
06
0a
e4
0a
fb
09
f7
05
f8
ed
f7
1f
f9
17
0d
fd
f9
13
05
f0
06
03
01
07
f2
05
14
00
e9
1b
02
0c
fd
04
fb
f6
f9
f7
0a
f4
0e
da
f4
f5
fc
f3
fc
ef
15
06
01
fb
de
f5
fe
0c
0c
05
42
02
fe
19
f0
f4
eb
db
10
0c
12
0c
f5
f1
f7
ff
0a
f0
f9
0b
f2
2a
0e
f7
ef
03
07
0c
07
12
13
02
ce
fa
0c
fa
fa
02
f3
04
0a
f6
0b
fe
12
07
01
17
07
16
f6
e1
fc
0d
fd
10
02
07
05
15
1c
f7
08
06
fa
fe
09
f2
07
05
05
fb
04
f5
dc
0f
0c
dc
eb
00
15
05
19
0a
f3
10
fb
e9
00
f4
19
fb
fd
07
f9
ec
f7
ed
e0
0d
15
0c
00
fa
fb
18
0f
06
ec
fb
1c
e8
0c
02
ed
f2
f0
f9
f9
02
f9
15
19
ff
fe
0d
fd
09
fc
05
01
10
04
18
fc
f5
11
0c
0b
fe
10
ee
08
02
f3
ec
01
dd
f8
00
e9
02
ea
04
1e
0a
14
1d
f6
00
ed
0f
19
f5
04
07
ef
0c
0d
fc
fc
0b
e2
08
fd
f2
04
03
fe
04
fd
02
0f
f1
1e
0a
f8
11
0b
f5
fa
ff
f7
f0
10
e9
00
03
0c
0b
20
f5
f0
e7
0a
ff
ed
d6
07
04
ef
fd
16
09
01
04
f7
01
08
21
f9
e4
04
f7
df
0a
ea
fb
ea
e6
0f
0c
05
f6
0c
f7
f6
03
1a
17
01
f2
fc
f9
03
f0
13
fc
01
0b
fe
ec
01
03
0b
fb
f3
0e
fa
f1
1a
09
0b
11
00
02
01
e3
f7
13
ea
07
fa
0c
1b
ff
f4
f2
f9
03
0f
fa
07
07
02
ef
05
19
02
03
35
10
fa
0d
0e
fb
f1
18
f7
f7
16
07
fd
0e
fb
ea
12
fe
fe
09
f8
19
02
fa
1a
fc
ee
dd
f5
fb
02
01
ed
eb
fc
fd
01
0b
26
f8
fc
15
0d
f2
f0
e9
01
02
f7
05
0a
19
f7
17
0d
03
f1
1f
1b
14
fa
0c
fb
30
04
05
05
eb
17
f9
11
fa
f7
04
f4
fc
0f
ec
15
ff
05
1e
f3
fd
0d
01
dc
00
08
1b
01
d7
f8
10
fc
0c
04
05
04
00
fd
17
10
0c
07
07
15
0e
f8
05
dc
0e
e4
fc
ef
f9
fd
0f
fb
f1
01
0e
04
11
f8
06
e0
f3
02
04
f0
10
e5
fb
fb
03
f8
09
fc
08
12
09
0a
ff
08
01
09
05
0e
0d
05
05
ee
0e
f5
f9
ef
04
eb
00
f6
08
f8
13
01
0a
f2
f7
f4
03
06
ff
1f
15
ff
0d
ec
0e
fe
16
07
20
ec
01
03
10
f4
02
02
f5
ff
f5
05
fc
00
1a
02
f2
f8
15
fd
08
f1
02
04
1a
f9
0b
0e
14
03
0b
e6
f9
02
1f
08
fc
10
f7
0b
09
0b
02
fc
0d
05
e7
fd
02
e8
25
0e
13
06
f5
03
09
01
f4
fd
00
0a
ef
f4
0b
09
f5
07
00
0c
08
03
f9
05
40
0f
08
04
0b
06
07
05
0c
0f
fb
d5
04
f7
ed
08
16
fd
f9
06
02
07
06
f6
f4
07
f3
f2
15
11
09
f2
ee
0f
0d
f6
03
02
08
f6
0d
03
01
f3
21
ea
16
07
ff
09
02
e5
04
03
f9
03
03
fe
fd
0b
fe
f4
0d
f2
fb
0f
ff
0f
ef
f2
09
11
0f
25
f5
f6
07
f8
fd
f8
0c
09
15
11
f2
0a
09
f4
03
ff
0c
0b
fc
e3
f7
f0
08
0c
f6
f7
f7
fc
ff
fd
0a
0e
f3
ff
fe
11
e9
0a
f3
02
f5
05
f0
11
f3
10
02
ff
12
eb
00
ec
fd
16
de
e8
f8
06
f7
f2
00
03
f0
00
ff
f3
03
f8
15
14
f7
0f
00
16
fe
ff
0f
06
1d
02
02
10
0c
06
11
ec
02
0c
04
fd
f3
ec
11
0f
fd
03
ea
fa
f5
04
02
01
02
08
08
fa
0a
03
e7
fe
02
fd
00
f4
ef
0a
01
03
fa
f8
0a
04
fa
04
04
0e
f3
05
00
04
01
0d
06
00
02
07
10
06
12
09
f9
fe
06
eb
05
fc
fd
02
fa
f8
fc
ea
f8
0c
05
01
ff
08
03
03
f5
fc
0a
0e
03
f7
e5
f3
f6
f1
f9
0a
02
f8
ec
f1
f4
08
f7
11
0b
ea
03
04
ff
f5
fa
04
f6
fd
08
e9
ee
01
08
ee
f0
f9
0e
0b
fc
02
fb
f1
0b
e9
01
fa
08
db
f4
fa
fe
fd
f6
2d
fd
00
0b
02
08
ff
04
0d
f3
fb
f2
01
01
04
f3
f5
00
fb
ff
fe
fc
14
0d
06
fc
0a
04
04
0d
07
00
f8
10
05
ef
16
f3
f4
f4
11
0d
22
06
00
e8
f6
fa
23
01
f4
12
01
05
13
09
ef
f3
15
18
01
02
01
e7
ff
dc
14
fc
f5
f6
0b
0d
f3
03
fb
06
10
f4
f7
f9
e7
e6
f1
ff
0b
06
e8
e2
13
0b
ff
0e
f5
ee
02
18
fe
03
fe
f6
0a
fc
18
11
08
fe
10
04
06
01
06
ea
f8
01
fc
ff
11
07
f0
0f
f3
fa
fa
f9
f9
03
0c
f7
09
f7
fb
f8
0e
0e
ea
ed
27
e1
f6
07
f6
e5
0a
fa
f7
03
f5
ff
0f
0a
fb
ea
fa
04
f1
00
06
fb
01
06
f9
06
15
f3
0b
f8
e9
fe
05
00
11
1e
ed
0f
f0
f8
fc
f2
f5
f8
fa
00
fe
27
f4
fc
04
fc
0f
f9
de
fb
ff
ed
f7
f5
04
09
f0
07
f1
0f
f1
12
10
f7
00
0e
01
e5
04
f1
f3
fd
0f
0a
f7
fc
ff
fb
f7
16
f1
19
f0
04
05
f4
e8
f1
fd
03
17
02
f7
f8
fb
1a
04
f2
fb
ef
07
f5
da
06
05
07
0f
09
ee
f7
f6
0b
fe
01
1e
ee
05
e2
08
05
f5
f8
04
01
f6
1d
0a
0e
f6
ef
ff
08
15
da
01
08
04
f8
00
15
fa
f5
f6
fd
03
1f
07
06
f8
12
0c
f6
1c
01
fd
0f
ce
10
f6
f6
07
00
0f
cb
07
08
04
fc
0e
f8
eb
06
0f
0a
09
f4
17
f0
10
f3
0a
f5
f0
02
10
0b
f4
ff
fc
11
06
2b
07
03
12
ef
0d
0b
fb
fc
e8
f5
fe
0c
da
f5
14
04
f0
03
1d
fc
e9
ff
ea
fc
15
01
f5
14
f9
01
f0
fb
01
10
02
fe
e6
f9
ed
0e
ef
f5
f2
ec
09
f9
d3
05
fb
f3
29
ef
e2
24
04
f8
eb
f9
ff
fc
0c
09
2c
f3
08
0e
07
ef
ec
0c
fb
dc
1a
e1
eb
fb
14
ed
1d
f9
07
f7
e4
f9
f1
0d
fb
11
f8
00
fa
08
05
f7
ef
f1
ff
02
e6
18
fd
03
ff
fa
04
de
e7
01
20
fa
f8
08
f3
fb
fe
0c
0a
fc
05
0b
fe
0d
13
fa
10
03
f3
f4
04
04
fb
fa
07
e6
ff
10
fd
f3
02
f7
fc
05
00
02
eb
18
14
fb
ff
0c
fb
00
24
fe
ff
f0
03
f8
ff
fb
e5
08
f2
0e
ed
05
08
08
f9
fe
00
fe
03
21
08
f3
fc
09
ff
e9
e8
0b
ee
fa
f1
0d
0a
05
f7
07
f9
f6
03
f0
fe
18
04
0e
02
f4
0a
03
14
f7
08
02
ef
f7
04
08
f0
fd
ff
08
e2
fb
12
ee
f1
e9
08
fb
fc
04
ff
fb
00
f1
09
dd
f8
f6
fb
fe
fc
0e
03
05
fb
19
e8
16
ff
f1
10
ed
13
f5
00
0c
f7
00
fb
04
07
04
03
13
fe
06
fc
e7
ff
01
07
f4
ee
0a
e7
07
15
f9
0a
16
0c
f3
f3
0f
01
f2
05
e8
e5
e0
f1
f5
0b
08
0d
e1
02
04
03
12
08
0d
05
0b
da
fc
f1
04
e9
e1
e1
0e
01
fd
0e
f3
1a
ef
02
f0
00
0b
fa
1b
e5
fb
fa
02
10
07
e5
03
08
eb
f3
13
fe
01
fd
0a
f2
0c
24
28
02
14
f8
12
08
05
04
fd
ef
05
fd
ff
f9
fa
17
0a
0c
f8
0c
07
f7
18
fb
fe
f6
18
06
09
f0
f8
14
ff
16
16
0a
f3
f4
10
0a
f9
ff
0e
f8
f0
f3
07
f9
f1
13
0d
0f
e9
00
f9
01
e9
08
f5
06
0d
05
0f
ff
07
fa
ff
03
f9
19
fb
f2
10
18
07
ef
2e
0f
03
21
fc
f1
e4
05
f0
f0
ff
e0
0a
f4
11
0a
fb
12
0f
fb
f7
03
fc
f8
ec
03
fc
ed
16
01
1c
e3
ef
06
f9
19
1b
f3
0e
f7
04
04
e9
0a
05
fe
01
08
fe
1b
0c
fb
15
0d
f5
db
07
04
fb
0c
f6
08
02
ea
01
f8
04
01
e2
d9
1d
ee
06
f2
f4
14
fd
03
ff
e8
0e
04
ff
09
00
00
f1
f1
09
fe
ff
20
00
f4
fc
13
e7
04
f2
eb
f9
09
05
17
10
26
fd
02
f6
ff
fe
ff
04
f5
10
0d
d8
02
ef
14
fe
0c
0c
fb
fa
ef
e3
25
17
0b
29
ef
f2
05
f3
0d
18
f9
f2
08
ca
fd
0b
fa
f8
09
f0
e6
0d
f7
f5
06
f8
f7
ef
07
15
fb
19
01
0c
ff
f6
0e
f0
e7
09
07
f5
1b
00
17
e7
eb
fe
01
08
fa
f3
ff
03
f9
f3
d6
11
f9
07
e6
00
0f
f3
ea
05
fe
fb
e6
fb
ff
f9
0d
f6
ea
fb
12
f9
05
f1
1a
10
0c
14
01
fa
ee
de
06
fb
f4
fb
ee
e8
05
fb
ec
f9
e0
f1
f4
05
09
e8
03
1e
17
fa
16
f4
fb
fe
0b
09
11
0c
f6
fc
ff
01
0b
ff
01
0c
f3
04
fb
01
fe
0c
03
11
00
fe
08
ed
08
fc
fd
f0
f8
0a
00
01
07
e9
05
f3
03
06
02
01
17
fb
f7
06
fe
00
02
0c
f4
f7
fe
06
fe
fb
03
04
04
ec
0f
f5
fb
02
fe
04
fb
1b
0b
0e
fe
38
0f
f8
01
13
ef
05
27
0a
ff
06
f2
04
fa
ee
fe
ee
f8
ec
0d
0e
13
ec
f6
ff
03
05
0b
02
f1
03
09
f3
09
14
f5
f0
0c
03
ea
12
0e
f5
ff
07
f0
f9
fb
06
f6
f2
f7
fd
f2
f4
f6
12
0d
0f
ef
f0
f4
00
f7
ed
01
04
f2
ff
f9
f8
10
05
ea
05
05
10
e6
f8
f0
e5
ff
f1
05
fd
04
08
04
09
17
05
f5
f6
e8
fd
fa
00
06
fd
f1
ed
09
04
fa
fc
f3
05
07
06
16
06
14
f0
06
0a
10
e8
12
0c
e9
12
ef
f9
07
ec
02
10
ed
ff
02
0c
fc
f5
02
f9
07
f6
0b
f7
08
04
0c
fd
0a
f2
0c
05
01
f7
ef
fc
04
f1
02
01
00
f8
f9
f9
e7
fc
ff
fd
ef
f8
0c
ff
fc
ff
09
00
fe
00
de
f9
ec
f2
03
f6
0b
f8
01
07
f2
0f
06
02
04
fc
00
fe
ee
2d
e4
01
f2
0c
00
06
fc
f8
ed
fc
0a
00
fe
01
04
06
f3
1a
05
01
f5
10
0c
f9
11
e5
e9
fe
f3
f7
f8
0e
f5
ef
00
f7
ec
fd
0b
0f
f8
f7
05
f4
ef
f6
05
ff
fd
fd
fc
e6
0a
12
f4
07
fa
f8
02
13
f5
ff
0f
fa
f8
10
02
03
06
fe
0c
12
02
fb
f0
22
f5
f4
ff
18
f8
0e
df
f6
f5
f6
01
fe
03
fe
f0
f9
12
07
f9
fe
02
00
0c
f3
06
f5
eb
17
e4
f1
f4
e9
12
07
ef
fa
f9
dc
f4
fb
ff
0b
f3
f5
f0
f4
fd
e2
ea
17
fe
fa
ff
04
0e
fc
fd
ff
15
fb
eb
ef
f9
01
08
0b
01
08
0b
f8
ff
0f
09
fe
f6
e2
f9
02
f7
e2
02
10
f7
f7
09
f4
02
04
0a
03
f3
ef
00
fd
f9
19
00
0f
fe
fc
fa
1e
01
06
0f
ff
0f
e7
fa
fc
ff
f5
fa
f2
ff
00
fd
01
02
fa
07
1d
0d
f6
0b
0b
ee
f6
e5
0c
fa
f4
fb
04
03
fc
0c
f3
ec
fb
ed
f0
14
05
01
f4
13
0d
e2
16
02
02
04
fc
ff
e0
eb
11
fd
08
ef
18
fe
f4
03
1c
07
fc
fd
06
fd
25
09
fc
0e
01
02
f6
e2
06
f7
f9
fe
16
1d
09
04
10
06
fe
0a
ff
f9
09
e5
07
f4
f9
f5
fc
0f
11
0a
01
09
0a
0b
04
ee
f7
f6
de
f9
0e
f7
f5
ef
0a
06
0f
05
d0
0b
fc
ec
ef
f0
fb
ff
f0
05
1f
0b
02
fc
f5
08
ea
09
0f
06
13
0b
06
1a
07
fe
0b
f7
fe
fa
f8
f1
f2
f9
e3
08
01
01
f8
00
13
f8
06
ee
10
f8
09
fb
00
08
0a
03
11
f2
f4
0e
f7
f6
0d
fb
02
00
f4
06
fd
f4
0a
08
07
f5
fa
10
e6
f1
13
e7
fb
fc
f9
02
06
0b
05
ff
08
11
14
fb
04
fd
f7
f0
fd
11
09
07
18
15
f8
f1
0d
0c
ff
ec
03
18
ec
08
fe
0f
ff
19
07
f1
f6
0d
15
fd
f2
f0
f5
02
06
07
fe
f8
0e
e0
15
06
ff
ff
0a
17
20
03
0e
0a
fe
e9
f9
ff
02
0f
04
01
05
0d
03
04
0e
0f
0e
e3
ed
f6
ea
f6
fb
00
12
02
f8
f9
03
03
0e
f0
07
10
0c
d5
f4
10
f5
fb
04
02
ef
07
ff
f7
fc
ec
f0
00
eb
06
11
00
fd
00
03
04
00
05
15
fb
fb
f7
18
0a
ff
fa
ec
19
fb
f6
f9
fd
01
03
ef
fa
09
00
0d
0e
fd
09
f4
f1
08
ee
0b
02
f1
ee
11
01
fe
0a
f0
13
00
ff
17
02
12
09
03
17
04
04
fd
f2
02
0f
f5
0b
0c
04
13
01
03
09
0c
fa
fe
ff
fd
fe
00
fb
f9
07
04
fb
0a
df
ff
f4
e7
12
0e
07
ed
14
30
e0
05
05
12
24
16
11
14
f6
f2
fd
07
fd
d9
06
e9
ef
0c
0d
21
e8
06
e6
fb
ff
0c
0c
ec
f7
ef
01
07
ef
01
fd
f8
f8
19
03
0f
02
e5
ff
06
d6
11
e7
03
ee
f3
ec
f4
14
fb
ee
f1
f6
f1
1c
e8
19
02
e5
f7
f6
00
fc
e7
ef
ff
10
06
04
e5
e4
f3
fa
fa
15
0e
1b
0b
05
04
fd
fc
f6
fe
fd
fa
fe
e3
ff
f7
eb
f1
ed
13
12
fc
00
01
ee
03
00
f7
f9
eb
0c
e8
fe
1c
1f
e8
09
f6
ec
fd
fa
f6
ff
f6
08
02
08
ff
08
f5
fe
05
e5
eb
08
ed
f1
11
0e
fe
f6
09
f3
e4
fa
0b
06
f4
01
0e
0b
f4
f7
06
0f
f2
02
06
f7
10
11
f7
f8
03
07
fc
f8
f0
f0
01
06
03
f0
08
17
ee
fd
eb
14
03
09
0f
fb
fc
02
f7
f0
04
05
fb
f8
f2
12
f2
e4
04
01
11
08
13
0c
f4
00
0a
13
1b
0e
f7
05
1f
00
16
fe
fe
01
f6
fd
14
0d
fc
05
05
05
0e
fd
fe
0f
f1
02
fa
f3
f1
0d
1d
ec
f6
fa
03
ff
f8
0f
fc
18
f5
ff
10
f5
f7
0f
f1
e8
0f
02
fd
f5
01
fb
05
03
08
00
0c
09
fe
f7
0d
01
01
f9
f5
fe
02
01
ef
e9
f3
f5
de
f4
00
0d
ff
de
0b
13
07
fd
fd
ff
ed
ea
04
fd
f8
10
f9
fe
fc
ed
f8
06
15
fd
04
fa
e1
09
06
05
ec
07
08
f7
01
0c
fd
14
fe
02
01
ee
fd
fa
ed
f8
02
08
ec
0b
0c
f9
03
f3
fc
05
08
ef
1d
f2
f9
fa
0a
ea
04
08
fb
0a
0a
16
fb
01
01
ef
08
09
f5
17
f1
0f
fe
0f
13
05
fa
ee
09
04
ee
ed
f9
02
ea
01
0d
1b
06
07
eb
19
0c
fa
dd
07
0e
19
17
fe
fe
08
ea
f7
07
23
0c
e6
0f
25
ec
06
02
08
06
f5
13
03
0a
0e
1c
03
ff
03
07
fb
02
f6
ff
fa
ff
06
08
15
07
f7
01
25
f6
04
0c
06
07
1f
f3
13
0e
15
ec
e2
f5
f9
0d
f6
f9
f6
02
15
ee
08
fb
30
f9
0a
fb
00
db
05
0c
0f
f5
13
f9
10
0a
f4
00
00
fe
ff
f9
f1
fc
ea
05
fc
0b
f8
e0
0e
ed
10
03
1b
0a
03
06
fd
12
fc
0e
01
18
1e
05
fc
fd
f8
ec
f9
07
f0
31
f9
17
fb
00
ef
e9
fe
03
ff
1b
fd
ec
0d
f9
04
fa
15
10
f7
f5
ff
ff
05
01
fc
06
ff
20
03
12
0f
f9
0d
01
f9
f4
0d
fd
19
02
ef
03
01
fb
10
e8
07
12
ef
20
11
fc
ff
fb
05
f0
22
06
f6
19
e9
ff
f9
de
0b
04
10
f8
16
f0
fc
fe
0c
f6
08
fb
0f
e5
25
0e
0f
00
0d
09
0b
03
04
e9
06
fc
e7
01
04
0d
f6
0f
fa
ff
f8
00
eb
fa
20
e6
0e
ee
ed
f1
fc
ff
0f
fd
15
07
02
f9
06
de
04
f1
fb
e5
0d
f4
06
16
08
01
ef
00
02
fc
02
09
16
05
fd
fc
01
04
e9
fa
f6
09
f3
f2
ea
ff
f9
ff
ff
01
12
ee
f7
06
05
0a
fb
06
05
11
0d
06
06
0c
f9
0b
fd
f8
ee
f7
f1
07
0a
ec
06
fb
10
0d
11
0f
fc
09
02
fd
02
f7
f8
05
ef
ec
f7
08
f5
f6
03
11
01
10
12
0c
f6
0d
09
ef
02
f6
dd
f2
fc
f3
fa
f6
07
f5
02
ff
fd
fc
00
fa
0d
07
fc
fb
0d
e2
00
1e
ff
fc
06
00
13
05
04
05
ec
01
f8
0b
05
f9
03
05
01
09
08
10
0f
f9
00
0c
fd
04
07
e7
fb
f9
02
f7
07
07
f0
f8
ff
04
06
32
fc
ee
15
f9
04
10
10
0a
f9
e6
08
0c
f7
e4
0a
fb
f6
11
08
0e
0b
08
09
eb
17
00
f1
0a
00
ef
0a
ee
0e
ea
f8
02
00
da
f7
f5
0b
0a
06
0b
ee
04
f4
e9
02
02
ee
0c
1b
fe
01
08
f7
22
ff
10
ff
fd
ea
f6
10
fb
19
01
06
fd
1e
ff
08
11
0b
f8
e0
09
f3
e7
0e
0d
06
f5
09
11
ef
f8
0e
e3
f6
ff
f8
fb
f8
fc
1a
06
12
f8
02
08
f2
01
f9
08
0d
0e
18
03
1a
0d
fb
16
f9
f0
05
19
11
fd
0c
fc
1e
09
04
0f
f8
03
0d
07
fb
06
06
10
ed
08
0a
04
f7
f5
f4
ff
eb
11
0e
ee
1e
0f
10
0e
f1
f3
1d
06
0a
03
fd
10
0b
00
ff
f6
01
12
00
05
1a
12
1e
f8
1b
00
f7
0d
06
09
f3
02
11
05
f3
06
ef
08
0c
ec
e9
00
ff
02
22
e5
08
0b
f6
16
0b
0f
04
f6
fa
15
0d
f6
09
fc
0e
03
f9
f5
fe
f2
0c
0c
fa
ea
0c
20
e1
14
0a
09
f6
0f
ed
e7
0e
f8
f7
02
f8
f9
fe
02
06
f8
07
f8
24
22
13
e6
01
03
f4
00
17
f4
11
de
f8
16
fb
08
f8
17
18
0a
f8
02
08
f0
00
16
fe
f8
ec
0e
00
f4
f2
1b
0c
0f
02
ef
ff
06
fe
10
f2
f3
13
0b
03
01
06
f6
f2
f9
f9
10
15
04
0a
07
09
ef
04
02
ff
13
ff
ff
17
05
f7
07
f4
0f
09
fb
fc
08
f7
fb
f8
e2
08
e8
fe
02
0a
f3
0a
ec
05
f2
09
0f
ee
f2
11
02
ee
17
03
0d
fc
fe
fc
12
08
ff
00
fc
f9
08
0a
02
03
02
15
f7
08
ff
e6
02
00
ff
08
fd
f9
f4
0e
f8
0a
09
fb
0d
00
01
03
06
ed
fe
fc
f9
ec
0f
f4
26
14
12
f8
fc
05
fd
fb
f7
08
05
e5
03
ec
f4
ff
04
07
f9
00
11
fb
f0
f6
0f
03
e2
ea
f6
fb
f6
fa
f5
06
06
11
da
0d
07
01
ff
e7
f6
ea
f7
10
f9
f2
f2
0a
02
f2
fd
01
0b
0c
0a
f4
12
05
f7
09
fe
0a
f9
09
11
0d
fc
07
07
f6
09
f7
fe
15
03
f8
ed
01
fe
07
f3
e7
0d
fa
f5
09
ea
fe
07
06
06
f9
fc
fa
f8
06
ef
06
0c
f3
e2
0e
fd
ef
f0
f3
0b
f7
f9
fa
05
f9
08
03
01
f8
ef
0e
03
07
27
fe
fc
fc
ff
f5
11
0f
08
f0
01
ec
f3
08
0d
08
1a
fe
01
f3
fd
19
e9
f4
eb
fb
f4
d9
f1
f8
03
09
f3
fd
fe
e7
2d
eb
ff
05
f6
01
10
f1
e6
04
06
12
ed
e7
05
11
03
fb
09
f7
ff
fc
f2
06
11
0d
e8
17
fd
fb
f3
02
00
fb
f9
04
c5
05
fd
06
f1
11
ff
fd
ff
1e
14
33
09
12
1a
fa
ef
16
e2
f5
06
f3
02
05
01
11
10
f0
07
f8
09
d4
17
1d
04
e9
f4
07
fd
f9
14
01
04
ef
c9
12
fb
e7
01
1a
02
11
f5
f2
f2
05
f4
f8
12
01
04
ee
e5
3c
f3
f8
0c
06
fd
0d
ec
ed
06
db
04
06
f7
0d
06
ed
1d
02
ee
f1
06
ef
fa
eb
f2
f6
01
ee
0c
2a
03
0e
10
02
fe
0d
e7
05
03
14
fb
ed
f8
f6
fb
e0
0b
01
ed
fb
eb
fe
18
ed
f1
fb
13
0d
f9
1e
09
fa
f9
08
ee
f4
e7
06
09
04
04
f6
09
06
ff
da
f9
04
fd
05
03
fb
03
02
fd
e8
03
fa
ea
05
03
fa
0b
02
03
10
ef
f3
0c
09
03
f9
05
0f
05
10
f7
ff
f0
0d
fd
11
05
0a
01
f2
f6
ff
fa
04
0b
09
0a
0d
eb
fa
02
1f
02
20
09
02
e3
ff
0f
1c
08
f7
09
e7
fe
05
e5
15
0c
11
06
fb
f0
00
ef
0e
08
00
fe
f8
fb
fd
fb
1a
dd
fb
05
03
03
17
ef
09
00
fb
05
0d
fd
01
f0
f6
06
f8
f8
fc
05
fc
fd
f9
f6
03
0a
ef
ff
0a
0d
02
12
05
01
06
1f
04
06
06
04
0b
f0
fb
15
0a
f5
1a
0c
0b
de
12
0c
f8
0a
f4
f7
f0
f1
05
04
e5
f3
03
18
05
fc
fa
f6
f8
f3
06
f5
0e
f7
fe
0f
12
04
09
06
fd
f4
0a
e6
08
f6
fe
0a
fb
ed
ff
f9
ff
f2
09
00
f7
eb
0c
00
f2
02
12
03
16
f4
fc
e8
fb
10
fa
05
05
0c
02
06
05
fd
f4
f0
17
fc
f5
0b
06
ea
fb
0c
00
02
1d
02
f7
1e
f5
06
05
04
14
ef
fc
fa
16
f5
02
01
f8
14
0a
f4
f3
0f
eb
13
11
ef
08
ed
05
11
11
f4
11
ed
ea
ee
10
09
14
f1
07
e8
0b
0d
05
06
ec
fe
e6
17
08
04
df
f9
10
ee
fc
e1
fb
f4
12
01
f6
f1
f3
00
05
17
f0
f4
e5
f6
ee
e8
01
fa
fd
13
0b
12
fd
e9
ea
e8
0c
0e
05
0b
0d
01
04
0c
0d
f7
02
01
0e
06
f9
e9
fb
fd
1f
07
f1
02
f9
09
ee
18
ee
fc
f1
0b
f3
ff
04
f0
fc
f4
f7
04
f9
fc
08
ff
f9
ee
08
fd
ff
05
fe
0e
f9
02
f5
e3
ea
06
fd
fe
f3
00
ff
f8
08
05
de
f6
09
fe
0b
f6
f3
00
e2
eb
e5
f6
e0
fc
03
fb
1f
09
0e
0c
f9
12
f6
f1
10
06
fb
dd
1a
01
08
fe
0a
01
f4
00
f8
0c
01
03
f6
02
11
04
f4
fe
fb
ff
10
05
ff
01
f6
0e
01
fc
fb
00
fc
0a
06
f6
00
ec
e8
07
06
03
0e
1b
f9
0d
f4
04
07
f1
da
08
f2
06
e3
f9
04
fa
ff
02
12
e5
07
f7
1e
ff
f4
04
14
05
fb
f7
0b
fc
f2
eb
ff
01
00
ff
ff
fa
fb
02
0e
1e
f8
14
0c
f2
00
ec
e3
f9
09
06
03
0d
fc
f4
fa
0a
0f
0a
19
01
01
fb
f4
ef
fe
f5
14
f8
f2
18
1a
15
08
02
05
04
fd
fd
dc
ff
06
fb
ff
f3
10
02
f4
03
fb
09
fe
0a
eb
09
08
15
00
0e
1b
03
13
01
0d
03
fe
17
f2
05
f7
f1
0c
ea
10
17
13
d9
ff
f9
03
ef
0c
0d
ff
ef
f7
f1
fd
15
02
04
fd
ed
f5
03
f0
00
00
fe
00
08
0e
05
f2
07
0b
09
1b
fd
e5
00
04
fa
f5
fd
0f
03
e6
e4
07
f7
0b
e7
0a
fa
11
eb
f0
03
19
f1
f0
08
f6
0a
ea
f4
ee
ed
08
f7
06
f8
f8
f2
ff
1a
fc
fd
01
f4
0c
ef
18
2d
f7
eb
fc
00
13
eb
ec
f6
f5
06
d5
00
04
f0
03
f8
12
f5
0c
06
f9
09
f1
01
03
0d
f4
f6
fd
05
e8
f4
03
f3
ff
ff
0d
1f
fe
00
08
09
eb
f7
f9
f8
06
fc
ec
fe
01
08
f5
f7
fd
f7
02
09
ef
0b
08
fc
e7
03
16
f4
04
08
f3
06
07
f7
09
0b
11
f5
f8
13
fa
f1
0b
fd
07
fb
fd
02
1a
0a
f5
f0
14
02
f5
02
fd
18
e6
02
15
07
fe
ee
ef
ff
04
e6
03
fd
f7
fd
05
0c
ff
07
01
f7
03
04
03
f7
f8
f2
0a
04
f9
2a
0c
05
0b
f4
01
03
00
0d
06
09
0f
f5
13
0d
fa
02
fd
fc
1e
15
1d
fb
08
08
03
03
14
00
15
ea
f2
0f
fd
f5
ed
04
fc
01
04
05
0d
fa
00
15
fa
20
fd
e5
fe
ea
f7
21
09
fa
01
08
ff
16
f6
07
fb
0f
fc
06
fa
0b
15
fc
f9
0a
0f
e0
fc
06
ed
f5
2c
08
fc
0c
f3
07
ea
04
e9
00
11
24
e9
13
18
0e
05
fa
f5
fa
ff
03
f7
fd
fd
0f
fd
f6
fc
07
01
07
04
f1
f9
02
1e
ef
01
03
ef
09
06
01
03
11
ef
0c
fc
f8
15
fc
09
15
eb
f9
18
f3
0b
e6
22
eb
02
f5
f0
fa
e5
fc
ec
06
ee
11
f9
06
f5
fe
15
05
e9
13
04
11
f0
00
02
ff
f8
e3
09
08
0c
07
0a
f6
fe
07
ff
fa
d9
fd
03
15
1f
01
f8
e4
f5
f5
12
09
03
f9
08
fc
f3
f9
06
14
05
f6
e6
00
f4
12
ee
fe
02
ff
f2
fb
08
0c
03
14
06
04
20
e9
08
06
0d
f9
f5
03
08
15
fc
f7
e9
fc
03
fe
f6
04
fd
0b
fd
f2
fb
1a
04
1d
ef
09
fb
f1
06
0c
ec
0c
15
ed
0a
06
ff
f6
f6
ec
ff
07
00
f3
16
fd
05
09
ff
0b
f6
02
06
f5
ec
fa
f8
f0
08
fb
13
fd
16
04
08
f9
00
fc
0e
1f
0a
ff
f9
0a
eb
d9
00
f1
fb
fd
0f
09
0c
f4
fb
14
11
12
09
e1
fd
0e
01
0e
00
05
0a
02
f5
0d
e3
f0
0d
03
07
e6
00
05
01
0a
00
fe
03
0b
05
02
fc
07
fa
05
f2
0b
0d
0e
06
fb
f4
03
f8
09
08
f8
04
fb
fa
fe
06
04
f8
f1
ff
ec
0a
f7
f5
12
ed
0c
0a
fe
10
f0
05
f2
f9
0b
fa
04
05
f7
ef
02
0a
13
08
0e
0a
fa
03
f2
e8
e7
12
fd
fd
09
08
f6
f4
03
f8
00
f1
f1
04
11
16
0d
f8
fc
fa
f9
0e
04
fc
ee
0c
f6
fe
f2
09
f2
14
07
f1
e8
04
f6
fa
03
0c
0e
f8
fc
f7
06
0c
04
10
fd
fc
03
01
0a
f9
11
04
f2
f8
15
09
21
00
0a
25
0b
fb
11
fe
f9
f1
11
1c
f1
0b
0d
f0
05
11
0d
f4
00
05
24
0a
16
ee
f3
0d
05
fe
0e
fa
07
0e
12
1c
0e
0c
10
fa
15
0a
13
09
29
09
fd
f8
ea
2a
07
f5
f8
02
04
18
0b
fe
fa
fe
07
07
0f
00
00
0b
0d
e6
0f
0c
02
06
fc
1b
02
ec
07
fb
fc
15
e1
f0
07
07
f4
f1
03
ff
11
0b
f8
04
f6
06
10
17
f5
15
fd
fb
02
12
08
ff
eb
09
fb
f5
1d
fe
f5
0e
11
f1
fe
e3
0b
11
ee
fb
f2
f8
f8
07
05
05
00
e9
fb
10
18
07
ec
eb
f7
f9
05
e7
fe
12
fc
0a
fb
0e
08
f8
f7
fe
f9
02
07
12
f6
06
0c
f9
ff
02
f4
0d
fa
f4
0b
f4
04
dc
ec
05
f8
03
fb
12
10
f9
f5
18
29
08
ef
14
ff
f5
09
fd
0e
0a
02
01
fd
04
0d
02
11
fd
04
01
fd
f2
f2
01
f9
ec
f9
02
eb
03
03
01
ee
18
f0
0c
fe
ef
f6
06
05
1e
0f
fc
08
f8
ef
f5
0a
01
16
09
06
ff
f7
ee
0c
02
0b
0a
05
07
f1
f1
09
f2
14
0e
00
03
14
09
01
e2
05
14
07
ee
16
04
f8
04
f6
f8
01
e1
0e
0c
e8
07
05
f0
07
fb
ef
06
0b
11
09
03
f4
05
18
05
f3
05
02
02
01
08
07
09
03
ed
0a
00
f7
e1
fc
08
1f
db
0d
17
f8
08
fa
10
09
e5
fb
05
fd
03
0c
f6
fe
f6
ef
12
23
06
03
fe
0a
ee
0a
10
fe
05
f5
e2
19
05
ea
fa
06
fe
07
e6
fc
f6
05
13
00
f7
15
0f
2d
e6
17
f8
1d
09
fb
f1
f3
05
02
ff
05
08
f6
05
05
0c
f4
f5
f3
fc
f6
f8
02
16
0a
eb
e2
13
12
fc
fa
0b
06
f5
10
08
03
fd
eb
02
f3
ef
28
05
05
f7
f5
09
0d
1a
1c
f9
00
fd
d7
08
0e
04
fa
fb
1a
16
17
0f
00
0a
0d
ed
04
14
18
fb
fc
0d
fb
ff
fd
09
00
ff
23
15
0a
02
f8
ff
f0
ff
f5
1b
01
0a
08
04
16
ed
f4
fa
09
06
04
06
e9
f6
ff
d9
f8
f2
01
f8
14
fa
0a
dc
07
f6
fd
07
0d
0a
e5
05
14
0a
0a
0c
eb
fc
28
15
05
13
fd
12
04
ef
f3
f4
fa
05
0a
fa
f4
09
f5
ef
0a
14
02
f8
05
0b
f4
f4
0a
ff
ed
ea
ff
0b
fd
10
fd
04
f9
03
f5
13
25
0f
f5
14
fd
0c
15
20
f1
08
eb
ed
0c
1c
de
01
fa
ff
fc
f5
05
f4
00
0a
09
fd
0e
f0
02
f9
fe
f8
fa
10
1a
06
fd
0a
04
e9
09
01
09
02
f3
0b
06
fd
f7
00
e7
f4
07
07
dd
fb
0b
13
e9
05
11
0e
08
fb
ec
0e
29
18
09
02
05
12
f0
fd
04
00
03
00
00
fd
f7
fe
fd
0d
3b
fa
07
fb
fd
fe
0e
f6
06
ec
0f
f3
ee
0e
02
e3
0d
fc
08
00
17
ee
0b
fd
18
fd
2c
fe
eb
fe
0c
02
14
00
0e
f3
f3
05
ea
e0
07
f4
f1
fb
00
fb
0a
ff
03
16
ed
fa
18
00
e6
05
01
02
e9
03
0d
11
08
ff
03
fd
fa
0c
02
08
fd
05
08
f3
f2
e8
fe
eb
fd
f9
f4
09
fb
fb
f7
00
ee
ee
09
fd
01
e7
ee
01
f5
fb
08
f6
04
06
18
12
02
e5
e7
06
0d
09
04
e7
0d
e2
0f
e7
e4
fe
f5
17
0c
16
10
e2
e0
ec
16
e5
1a
ff
fa
f1
fe
06
0a
e7
12
09
0f
fe
0a
0d
f8
13
19
e8
fb
01
19
f7
0f
f1
07
18
05
0c
ec
05
f0
0c
10
ff
ec
fe
08
0f
f1
01
12
e2
13
08
18
07
f3
17
0b
f8
e7
fa
1a
0f
fc
f9
f2
fa
f3
08
17
e5
f3
f6
e8
0b
06
e1
ed
fb
1b
fc
1b
f5
04
11
07
ec
fd
06
0d
f8
f7
1d
15
dc
fa
13
08
0d
02
04
0b
ff
fb
19
f1
08
07
e2
02
f6
fb
ed
f8
05
09
f9
08
0b
0b
e8
05
e9
11
ee
e9
f4
12
1c
10
08
ee
f4
15
d0
ee
fd
13
f1
e7
c9
01
e0
ff
ef
fc
e3
08
f8
1f
f5
06
fc
1d
f2
00
f8
03
e3
fb
02
fd
0d
15
ec
dc
fc
0f
01
1f
13
f9
f8
f7
0e
03
12
01
0d
0b
fe
f8
0a
13
f5
0e
04
f4
d9
05
0b
2f
04
fe
f5
f4
f0
1f
f0
20
14
d5
0c
de
05
ff
fd
04
01
00
09
f7
01
03
fb
05
f6
ee
1f
09
fe
09
f2
06
fb
da
11
0d
03
06
0b
05
ff
f5
fb
0d
0d
e0
18
e6
e8
df
f2
1c
0f
ee
0a
05
02
34
02
ed
01
1a
0c
ef
37
02
e7
f8
13
f8
f4
02
f8
da
07
12
eb
f5
06
0c
f5
28
18
f1
f9
07
f2
e8
fa
f3
05
04
04
02
f1
02
03
f8
f5
02
13
f9
05
19
06
f1
07
16
00
f9
fd
fd
02
05
0a
1c
ff
fa
01
0c
f7
06
02
eb
f6
e3
01
13
f9
f1
01
0e
03
ee
01
fa
eb
ed
f8
ef
f5
ee
01
06
fa
02
fa
fc
23
ef
06
fd
e0
fe
ee
f2
ff
f8
11
00
f9
03
f1
ee
f9
03
03
fc
f8
08
fc
0e
18
f5
10
fc
17
17
e7
f5
ea
ee
06
0f
1a
06
e7
fa
04
f4
06
f5
15
12
03
f7
08
03
00
1b
fb
e7
06
fa
ff
fd
f6
00
f9
0a
f8
fe
fd
09
04
fc
f6
00
f9
13
0a
11
e9
fb
01
08
fe
f2
fb
de
13
0c
f9
ed
0a
03
f3
00
02
ef
fd
ee
fe
f0
f8
05
f6
ed
ee
f9
07
f7
08
f9
f0
f3
f8
f7
06
f5
01
26
03
1b
fd
15
e5
ff
ec
06
f8
11
ee
04
16
00
e6
1e
09
13
01
f9
03
fd
10
f8
f8
1a
f7
05
fc
1c
09
fd
ec
19
0f
08
1a
ff
f3
09
01
fa
07
02
f1
21
eb
f9
16
ff
e7
fc
ef
01
fa
f4
f8
ec
ef
0a
f1
f7
ff
ff
2b
15
fa
e3
f4
ef
e9
fc
0a
05
01
fe
f5
f4
fe
01
04
e5
0d
01
f4
ee
0c
04
f5
17
f6
e8
f5
ef
04
0f
ef
01
06
eb
f4
f6
f6
02
f7
09
e8
04
08
0c
19
06
00
ed
fd
00
15
06
ff
0f
0d
fb
ff
17
ed
ee
fd
0b
ef
11
f8
f3
04
db
07
fa
00
f3
07
fd
ea
06
f2
ec
08
03
ed
01
14
e7
eb
ef
00
03
de
04
14
15
1c
0b
ea
eb
f9
0b
f5
fa
09
f1
f4
ff
e9
09
f8
1b
10
e0
16
e3
fc
0c
f7
e7
f9
fc
16
e2
01
06
04
0e
f3
07
23
0a
0d
eb
02
10
02
eb
e4
fa
00
fc
de
fd
eb
10
ff
f8
f7
09
fb
01
1e
f8
08
1d
09
12
01
00
f7
f4
09
d3
e0
f3
f0
08
33
01
07
05
02
e5
13
ff
05
f6
f3
0a
ec
eb
e9
fd
0b
06
f8
04
fd
02
d8
ed
fe
05
fa
0d
f7
ef
16
0f
ec
06
e9
f5
01
02
03
02
fc
05
ec
f9
e2
ef
09
ee
02
fe
f2
f2
10
01
09
fd
ff
0b
ea
07
07
03
0e
02
fb
01
02
fc
1c
f8
f1
f8
dd
10
07
1c
09
e6
f8
fc
06
f3
fb
03
00
fe
18
0a
08
01
f4
09
0a
eb
08
ff
03
0b
05
fe
01
fc
f9
08
05
01
0c
f9
05
ef
f9
07
05
1f
0a
04
01
01
09
0b
fb
f8
09
08
fd
f3
05
17
02
10
08
04
fa
ea
0a
fb
fe
09
00
f0
ff
39
f7
08
06
f2
f2
0c
08
12
fe
04
0f
05
f2
f3
08
f9
f1
f5
01
0d
06
02
03
f7
ec
f4
0f
0f
f5
0c
06
fb
01
1c
04
fd
ff
fc
fb
05
07
fb
fd
08
ff
f6
0f
f5
02
0e
02
0d
ff
fd
fa
05
0a
0d
01
0f
13
01
d6
08
f8
01
fd
f3
f6
01
0a
fb
11
f7
18
05
e8
07
02
ed
04
ea
f1
0b
08
ff
04
12
0b
10
01
f5
fb
03
fc
fb
0d
05
f9
f4
f9
fd
03
02
f4
f6
10
03
0a
f5
fb
0a
0d
0e
01
14
04
f7
0e
01
fc
03
0f
18
ff
f5
15
f7
f7
f8
0d
02
06
0d
f3
ff
0a
fb
05
02
fd
04
f4
0d
11
22
05
02
04
eb
ff
ee
f4
01
ed
04
f7
04
02
f0
16
f9
e9
02
10
ff
f2
0d
04
10
fd
16
f9
ff
00
f2
0b
03
06
f5
fa
20
f6
01
15
fe
08
04
05
fd
1a
10
f8
f0
13
07
00
f9
07
00
13
f2
f9
0c
fc
eb
f9
13
fb
14
04
fd
03
e9
06
06
03
fb
f7
f8
02
fe
0c
f1
03
eb
05
04
f5
f0
fa
07
ee
16
07
13
13
f8
01
0d
0c
ec
f8
f0
05
07
0a
06
0c
00
fe
fd
f3
06
f5
01
03
f8
0a
12
04
fd
04
06
23
01
f4
06
f5
f6
01
03
08
fc
0f
01
10
20
f2
07
f2
f3
ef
02
0c
fb
1b
15
f2
f7
fe
ef
02
02
19
f6
fc
f5
03
13
e5
05
03
12
0a
f1
14
07
ff
f9
ee
f7
0d
f2
03
0c
1d
0b
f9
fc
e3
f3
06
fa
1a
fe
fd
05
e4
04
fd
0b
05
f8
fe
0d
0d
08
04
f1
00
f5
06
0b
0a
01
f8
1c
ff
0d
f6
0d
0e
ed
0a
02
00
06
ef
fd
12
18
02
07
0c
fa
00
04
03
07
0c
10
f5
fc
f1
03
fa
0a
10
cf
03
0b
04
fd
e6
0e
07
fd
e6
06
0b
05
fc
fc
f7
f0
03
da
01
0c
04
ff
f6
f2
1f
05
f3
01
ef
04
f0
0e
f6
14
f5
fe
03
03
fc
0a
0b
1f
ec
e4
f9
ff
14
04
f9
12
f8
f5
f0
16
f9
f8
ee
0a
fb
06
08
f9
0f
12
ff
ee
02
0f
07
08
ee
f1
07
0e
fe
ea
0e
f7
f4
0d
fc
09
11
08
f8
0d
f9
02
09
f5
f0
f7
ff
0b
08
fa
f5
f5
15
11
10
fd
05
f8
f0
00
11
fe
f1
01
f2
0f
fd
fb
f3
21
01
f8
01
01
fc
07
f7
06
04
f6
0b
f0
f2
e3
0a
f0
f7
0b
03
0e
fb
ff
f8
07
02
f0
01
ef
eb
13
fb
e0
fe
10
fe
05
0b
ff
07
f1
09
f8
14
e7
05
fa
f4
f6
f1
f9
e7
14
fd
ea
fb
09
fc
fd
0e
f9
fd
00
07
ee
05
f8
fe
ef
f9
0a
e5
19
fa
f7
18
f7
03
03
05
1d
04
00
fb
08
04
ea
09
fa
06
04
0d
05
09
ec
11
eb
f6
01
09
fb
fe
03
04
f9
f2
05
fb
09
f7
0f
e6
fc
14
fa
02
0a
01
ee
0b
f6
13
f1
10
0e
0c
23
f3
ee
0a
28
f7
ff
f9
fe
ff
10
00
0c
fc
05
0f
f7
09
04
07
01
fa
14
ee
10
df
03
0f
f4
ff
f5
f6
08
fe
0d
e8
fa
ff
06
10
ef
f1
12
f1
17
ed
f8
f9
fd
fc
f8
ef
ea
13
fb
fb
fd
10
06
ed
ef
04
f7
0b
02
fd
06
1c
0e
00
fd
09
01
ff
f5
e9
fb
fb
f7
ef
f3
07
f6
0e
04
e9
eb
05
01
0f
02
f7
09
f1
f5
f8
27
f6
1d
e8
00
eb
f3
0d
13
07
05
ea
fc
dd
28
f9
fd
f5
ff
0f
eb
f2
07
1b
f0
10
0e
1c
0f
ff
f7
00
fa
fc
fa
00
11
1f
02
07
06
0f
03
19
ee
eb
ee
01
f2
ee
0a
f6
e0
10
f2
f8
17
1b
04
fe
04
fe
fe
01
06
ed
fe
f7
02
fa
0d
f3
06
fb
0c
00
ec
14
f6
f8
08
f8
f3
f7
10
1a
0e
fb
f7
03
f4
eb
1f
f3
06
0d
e6
14
09
08
16
e7
f7
05
f0
06
0f
06
17
13
01
f4
01
f4
f5
ef
09
fd
fc
0a
fc
0e
02
0d
ff
09
f5
f8
0d
f5
16
0f
29
0f
03
f9
fa
f0
eb
fa
e2
e2
fc
fb
04
fb
1d
d7
1e
f4
02
05
0a
fb
f2
00
03
03
00
0a
f4
09
f9
e3
cf
05
f3
ff
0c
1e
05
05
09
05
e9
fb
01
fc
08
1c
fd
06
f9
0b
06
f5
f7
fd
08
0a
18
fc
05
05
f7
14
f8
00
fd
f1
eb
ff
f1
fc
0a
ed
ef
0e
0e
e0
0e
10
f5
ef
08
14
01
06
10
ed
fe
01
f1
f8
f7
f2
0d
05
01
f5
fa
00
f8
e8
09
1e
06
0a
06
fc
04
14
34
07
01
f5
f9
f1
f0
1f
07
f0
02
fc
f6
04
fd
ff
f8
fe
fb
06
12
06
02
f3
fa
fd
05
fb
fc
f8
06
0f
08
06
06
06
09
fc
f0
f4
0f
0b
ee
fc
e6
e8
13
f3
f7
f1
e0
ea
f1
04
06
06
f9
fd
ec
fd
0a
fc
02
fd
f6
f3
00
00
f4
f5
02
04
13
fa
13
f2
04
03
08
fb
0f
07
f9
0b
f3
04
00
f2
ef
02
ff
f4
fc
fa
09
16
07
0a
fb
05
f7
0f
f8
fc
07
fc
fe
0a
22
0f
05
01
16
0e
0b
ed
f5
0d
e9
0a
08
03
03
05
07
00
ec
ff
e5
ed
0b
f9
09
02
f6
fb
1a
01
04
0b
fe
02
f6
19
ee
ee
d2
0f
fb
07
03
07
f5
ef
fa
0a
07
09
f9
10
0d
05
ff
ec
eb
02
f3
08
05
05
05
fd
1d
fd
fe
f7
10
03
04
12
fc
eb
11
00
fd
05
ed
05
f0
02
0f
13
f3
fe
05
09
07
fd
08
fe
02
e6
fa
f0
fe
f6
06
06
ea
f9
14
fc
03
ed
ec
f3
0b
f6
e7
18
f2
00
f8
f3
f2
e8
e0
02
fe
f6
0d
ed
25
00
fb
03
17
04
17
11
f7
0c
01
fd
fe
20
f5
0a
f6
fb
fa
f8
02
02
00
f3
fe
0e
00
09
fc
05
05
f2
fb
13
fe
ee
03
09
08
06
fe
e3
f7
0e
14
0a
1b
01
ff
fb
10
f4
fd
14
fb
00
08
06
16
e1
03
f7
fc
fb
03
06
03
00
1e
05
fc
09
0e
0c
04
09
e5
04
fd
ec
09
fa
f1
f1
f9
31
ed
fc
08
ed
14
fe
fd
01
f3
fb
fc
fe
0f
02
fe
fb
fb
01
f5
12
07
05
ec
11
f0
03
fd
fb
02
17
04
02
fc
f2
f5
fb
0a
04
fc
f0
01
e7
fa
04
fd
12
fe
11
09
04
04
f7
08
04
0a
01
fe
fd
14
fb
04
fb
f1
08
fa
f9
02
10
f4
f9
fe
0e
04
02
0c
18
f9
0d
01
01
01
f5
de
0b
fb
fd
04
fd
02
fb
1c
03
fb
0c
f6
02
14
1a
06
04
06
09
ff
eb
fe
e8
fc
f8
f5
f8
fe
f9
ff
0a
fa
02
f4
13
00
07
04
0e
13
fc
e1
10
fc
01
f6
f4
fb
01
04
0e
08
03
ff
04
f5
0c
fa
08
ff
0b
00
0c
fb
03
0c
00
11
07
ee
14
f9
15
0e
02
fc
18
04
00
fb
f5
07
f2
f9
0c
e3
0b
ff
fd
f9
06
ef
f1
08
14
ed
1e
f8
00
f2
06
0e
01
f9
0b
fa
f1
1a
f5
f2
02
0b
d8
12
18
f9
eb
ff
02
f1
ee
08
fb
f5
fa
16
f4
05
15
07
0f
ff
02
ef
f3
0c
fc
05
23
e5
fd
12
fe
f4
0d
fc
11
13
f2
04
fb
03
02
f9
f8
f6
21
05
18
ee
ed
0a
f4
09
ee
fc
fa
f6
05
fd
f2
eb
07
0e
f5
11
f6
fa
03
16
ef
f0
21
1c
f3
16
10
f6
0d
f4
fd
03
01
12
0a
ef
e9
f3
29
fe
0a
06
ec
f9
ff
1b
f1
06
f2
2b
ed
00
f6
1a
f6
14
ed
ee
0b
f8
ec
0e
ff
01
f9
eb
07
fd
f2
f0
0b
01
fe
11
10
f3
10
0e
f7
1b
fb
fb
00
1b
db
ff
01
fd
f2
03
fa
05
f3
f5
fa
04
09
fe
17
e0
13
1d
f8
0d
09
03
ed
fd
13
fa
e0
08
0d
f4
fe
08
e6
0b
0c
16
0c
0f
ef
fb
04
0c
04
f6
f7
f3
00
f2
f6
08
23
ee
fa
ff
f3
f6
18
07
ec
e6
07
02
0a
ec
fd
0f
fb
ef
01
f4
0a
09
e9
0a
f8
fa
08
20
04
f9
01
da
f9
d8
1b
f5
f4
fc
fe
0c
14
09
06
01
04
0d
f9
f4
04
0d
f9
0a
02
02
ee
14
06
03
fa
0a
eb
f5
ee
11
01
0c
00
17
0c
01
fd
ec
ec
05
ef
21
fa
0d
13
f4
f9
f4
ee
fb
07
f1
01
d3
f8
00
f3
03
fa
01
fb
f8
f5
fe
ea
08
ed
02
f8
12
e5
19
f4
0c
e4
05
03
f5
f5
10
fb
0f
07
f5
14
0a
ef
01
03
1a
ee
17
19
eb
ee
ff
ed
01
f3
ee
13
f6
fd
fc
07
03
03
fd
0e
fb
01
f9
14
f4
02
10
ec
0e
f1
f0
f9
03
0a
df
f4
03
02
fa
0e
08
00
fe
f5
f5
e7
fb
ed
10
f4
07
0a
07
0d
ed
05
fb
01
ff
f5
f7
fc
f5
ff
f1
f1
05
f9
ff
0a
f1
03
fa
07
fc
0a
03
0c
08
02
fb
f6
fe
f4
ff
1e
f7
03
f5
02
03
ff
09
f4
1c
ec
2a
16
f9
f2
05
01
04
f3
01
11
08
02
f7
15
18
03
fa
0b
0c
fa
03
12
12
fe
fe
fe
f6
ed
10
03
fb
01
0d
f2
e9
01
07
06
fa
e9
04
ee
ec
08
04
f9
e6
00
05
f8
fb
eb
ee
f9
06
0c
ef
03
fd
f6
05
0e
f9
19
e7
fe
03
03
f3
f4
04
0f
e6
ea
1a
f3
12
f3
f5
0e
fd
f1
05
08
0e
f4
0a
f3
06
08
ff
fd
05
07
f3
10
0e
03
f8
10
e5
f2
f1
09
fb
0c
f3
fd
09
e5
0e
e3
f8
0c
fb
02
fe
f9
fb
e1
fa
e9
08
28
08
0a
07
1c
f6
fe
29
fa
e7
f2
e9
0c
f6
05
fa
d7
00
f5
0a
06
fd
01
f5
fc
09
12
09
0a
09
11
f8
12
f7
f5
fd
00
ed
10
01
ee
f2
1b
f2
f7
08
0e
06
fc
0f
0f
01
06
e3
ea
f2
fb
00
ff
16
fb
fc
00
f7
0d
f6
16
03
fb
10
fd
0e
fb
fd
fb
f6
fb
ff
f3
07
f5
04
fb
13
03
0a
f8
fd
04
07
05
0b
f1
f8
04
f3
f2
06
ef
f4
09
0c
ff
01
f3
11
07
04
12
f5
03
fc
0a
e8
0e
22
f8
00
08
ef
02
e8
16
f9
f5
f4
ec
ed
e6
fd
fc
07
01
d8
fe
f9
19
ff
fc
f3
ed
ed
0b
ff
08
f1
08
f5
fa
10
f4
0e
0a
0c
0b
00
04
e6
f4
0c
f6
0d
f0
08
e9
0b
fa
07
f5
13
10
ee
f5
06
00
00
ff
01
f1
04
fe
ef
26
e6
f2
f8
f6
14
fa
05
0d
0e
fa
02
10
1e
f6
0c
fd
06
fd
f6
f2
09
0c
f8
1a
09
f3
f3
02
01
04
ff
05
eb
f2
fa
07
f9
f6
13
fe
f0
07
f7
0e
14
0d
f8
00
04
05
1e
f7
13
04
fa
ff
f7
ea
fb
fc
e7
fa
02
0a
ff
03
f6
f1
0b
07
02
21
0f
fe
0c
e9
24
eb
10
09
ff
02
0d
08
07
22
f4
0f
05
03
00
08
04
fa
01
fc
f6
11
04
0c
e4
fb
f4
fc
f4
0b
0f
00
fa
fb
f9
f2
f1
fc
06
ff
eb
e7
fa
17
f2
09
15
13
29
02
fa
08
10
f4
05
e6
05
fc
f7
e9
08
07
02
13
15
00
ef
f6
ef
06
13
12
05
f7
f0
eb
f3
fa
f1
ee
0c
07
11
09
f7
06
01
08
eb
f3
09
0a
0d
05
0f
13
fc
16
f7
f3
0c
00
f2
03
03
0f
1a
f8
11
eb
13
ea
09
ff
ef
03
0d
f8
ef
0a
f3
f9
ff
04
f5
fc
0a
e4
14
05
f4
f9
05
f0
00
02
03
00
f3
1e
fb
f3
09
e9
f5
d8
14
03
02
03
1d
ed
1a
02
06
08
1b
ff
01
fa
12
ff
04
fc
f3
fa
02
f9
fb
f2
0a
08
07
ee
16
f2
ff
07
0b
ef
0f
f5
ea
08
f5
0a
1d
1a
08
0a
fd
ea
04
eb
0b
11
02
19
fc
ef
fc
11
fb
0c
12
0c
f8
06
02
01
f9
f7
00
f1
f2
05
11
15
f5
0c
fd
03
f5
16
f6
04
11
14
14
f5
f8
08
1c
e8
fc
f4
f8
f6
ee
f8
2d
01
00
fc
02
ed
05
fb
05
01
02
fa
f5
f2
03
02
09
07
df
f1
f3
06
f9
06
0c
07
f1
ff
ed
00
fb
06
16
08
02
f2
fe
f0
ff
03
fa
f3
02
06
fd
f4
ff
fb
f9
f2
fc
01
fb
10
f4
f9
f9
f9
04
f8
05
ee
f7
f0
fd
f3
fd
04
00
eb
de
fa
ff
00
0d
13
17
f7
f7
ff
13
f4
0f
fa
31
08
fe
13
07
06
f9
f0
fc
0c
fb
f4
e8
0b
0d
fb
ef
11
11
0a
fd
0a
14
0c
f5
0b
04
01
00
09
ff
f6
0a
fd
eb
f7
fa
f8
0b
0e
ed
0f
0e
f4
e8
f2
f2
13
f1
13
07
fc
30
e4
0a
ed
1c
07
02
16
ff
07
09
f3
16
06
26
f5
e9
f7
fe
eb
12
fa
e8
04
08
f9
f5
00
04
17
00
ff
00
0f
f2
22
fe
e6
ef
12
03
fa
ea
08
f6
09
06
15
10
e5
07
11
08
fb
11
f0
f5
05
08
f8
1e
d7
ff
0c
1e
19
0c
23
f5
fa
f9
ec
f0
e1
05
1c
07
02
e9
ff
ea
0c
f2
fd
05
ea
10
19
0b
f3
01
f7
03
03
1e
1d
07
11
fb
0b
0d
08
09
06
ea
f4
07
f1
f4
f1
fe
0d
f6
f9
e5
ed
f3
f0
0e
25
f2
1a
11
15
e9
f8
02
0c
ff
fc
ff
28
fd
19
f4
e2
1b
15
fe
fe
05
f5
1b
f0
0e
09
dc
cd
08
f5
ec
0c
f9
0c
e9
ec
f2
02
f0
f3
1d
ea
e8
0b
0a
fa
03
fa
fc
09
fd
00
f8
0c
f4
f7
eb
08
ee
19
08
0a
1a
f8
f4
00
0c
f4
03
f9
f2
f6
05
18
00
04
f9
09
0a
f5
0b
f6
e3
0f
11
0d
fd
09
fe
01
f3
0d
fe
f7
f3
04
ef
0d
f5
0d
01
f6
06
03
ed
e5
02
f8
11
f5
fe
12
04
0c
13
0c
f9
00
f5
00
03
03
0c
fc
01
08
fb
07
1c
02
f6
f7
05
f2
0c
27
07
e6
0f
f4
f4
f7
13
fb
fd
ec
f2
04
0f
f9
09
fd
03
fc
12
09
05
ff
fb
05
00
fd
fd
01
f7
fd
fc
0c
f2
0d
f0
18
07
e7
0e
0d
0f
00
0b
fa
02
03
ff
f9
03
fe
0f
fd
06
dc
03
fd
ec
e8
fb
08
f3
05
ff
13
05
fa
14
07
ee
0d
07
0d
07
06
f9
f8
f5
ff
fe
f9
f8
02
08
ff
03
fe
08
12
00
05
f9
fc
00
f3
08
f9
ee
06
1d
f5
fe
0e
fb
fa
fe
0d
ef
fc
fd
03
ee
09
1a
04
29
00
04
17
f9
0c
fe
f1
ff
0a
f8
e9
f8
11
f8
e7
0f
04
f8
f5
f3
f2
eb
fe
01
0d
ec
ff
e6
16
ea
07
f9
fb
0a
f4
16
0b
00
fa
f8
02
fe
f1
f6
f8
15
e5
f4
11
1f
fe
05
07
02
0a
ed
12
eb
11
f2
e9
f7
e5
17
ec
10
05
1e
1b
26
ef
1a
ff
01
16
0b
19
09
fd
0e
f1
fc
09
e5
fa
0f
e7
0c
05
f5
09
0c
0a
f1
f0
ff
12
fb
fe
19
13
fa
f5
fb
f5
f0
0e
0a
f3
13
02
fe
08
02
fc
02
fe
0d
01
f0
f5
f9
fd
fd
0b
fe
0b
15
f3
f7
f8
08
00
ff
fb
0f
0f
e7
14
16
0b
ef
08
f2
fb
ef
10
05
07
19
10
0e
1d
06
17
f5
db
07
ef
11
e8
04
e8
00
f2
f1
f5
f2
0e
00
e9
01
0a
f0
04
fb
fe
12
0b
f6
27
06
f7
0b
03
ff
f8
15
0c
e7
fe
0c
fa
ed
fd
07
09
ec
f1
07
fe
0b
0d
04
f5
f6
11
f7
01
fd
0a
12
f7
0c
f7
ee
e2
fd
16
18
f6
0f
fd
fe
1f
05
ef
fc
f1
08
fb
0c
f3
f8
14
fd
1b
01
f7
fc
f2
07
05
08
01
00
fe
fa
ed
fa
ff
07
08
05
00
07
10
09
fb
08
dd
f9
05
0d
0a
03
12
1f
06
f4
01
fc
fc
01
01
03
f7
14
02
f7
fb
fd
ed
0e
f9
ff
fc
fd
0c
fe
07
f5
0d
06
08
e0
08
01
03
14
f4
f1
f2
fb
0a
04
02
ee
f6
fe
0d
08
07
ff
fd
05
0b
00
00
19
fc
0a
0c
fa
fa
ee
f5
fd
ed
fb
f4
e7
fb
0e
0f
09
f7
eb
ec
f9
06
f6
d1
f8
f9
ff
ff
06
eb
08
0c
e8
fa
05
d7
0b
f3
00
f7
0e
ef
04
ee
f8
fc
fd
e8
e9
04
04
1b
00
ff
eb
1c
06
eb
f1
03
0b
f8
08
03
f0
fb
fe
f6
fc
fb
0c
20
06
08
18
fe
f9
fa
fa
05
01
04
06
00
fb
f2
08
03
06
04
fd
02
f5
07
25
11
10
ff
fb
ef
05
09
23
10
ff
fa
02
08
06
f5
04
f0
0b
f8
d6
00
31
02
fb
f6
0c
04
00
0c
16
12
f3
07
f7
f2
03
04
0e
1c
35
00
07
fd
e7
12
f1
14
fd
fb
f4
e7
f8
e0
f6
f7
16
ef
fb
00
f7
fc
ea
0a
f4
fb
ed
0f
0e
17
fb
f1
e6
fa
10
f4
f8
f7
03
0a
01
fd
e0
ec
ff
11
f4
16
f8
08
15
dc
09
10
0a
ff
0d
0f
ed
06
02
fe
f3
f1
07
1a
f7
fb
e6
0b
10
1b
fd
13
fb
e9
f5
fe
03
fb
06
01
0e
f1
ff
0c
0a
f3
15
08
f9
fa
fa
06
09
f4
08
fc
00
03
ff
0d
0c
03
f6
01
d5
f4
07
1c
12
0c
e5
04
f9
ff
f6
ff
e8
fe
f9
f3
14
f5
e0
14
0e
fc
0c
f3
f1
02
0b
1a
fc
fd
03
f2
f3
04
fc
ec
f2
ef
fc
17
0c
0b
0c
fb
ed
13
ff
01
08
fa
07
fb
fa
f9
00
0a
f6
f9
e6
11
19
0b
04
13
13
f9
2b
09
10
10
e9
f3
ea
01
dc
0c
16
fe
07
f7
fa
10
14
0a
09
ff
f8
f7
e9
fa
18
02
fe
03
f3
f3
fd
ef
f3
0c
fe
00
fa
fb
f8
f1
ea
ef
0d
17
08
ed
f5
d9
00
ff
11
f4
fc
0c
22
ef
00
ef
07
f1
f3
0e
d8
f8
0c
fc
13
fa
04
ed
0c
f4
0c
ff
fe
09
06
f8
01
02
05
f5
f2
11
06
0a
03
fc
f3
fe
09
05
03
ea
02
03
eb
19
09
fb
08
fc
0d
fb
ea
03
eb
16
15
06
05
f3
0b
0d
f2
0e
08
fd
fc
fb
13
0f
f7
f9
07
f0
fd
ed
14
f2
f9
08
ff
fd
f4
00
f0
03
f9
f2
03
03
02
f1
e6
02
08
f6
ff
11
00
fc
08
f4
04
fd
01
10
f4
ee
03
02
0c
0c
e4
f1
0a
16
08
f4
00
ff
0c
f7
03
f7
0c
0d
12
05
06
ff
f4
ff
06
06
03
f6
f5
f5
03
fc
00
05
03
f0
02
06
f1
06
ea
06
0a
0f
f9
02
12
f9
01
f7
fc
fa
05
eb
ff
05
eb
0b
01
00
fc
05
ec
0f
0a
1c
04
ff
f9
ed
f4
f7
e9
fe
fa
07
ff
03
20
ee
04
f6
fb
f1
fa
e9
ed
0f
f5
15
1a
f4
0b
06
02
00
03
f6
f9
16
fc
e6
01
02
fc
05
01
f5
08
1c
15
06
00
fd
05
03
fe
f5
fd
05
f9
ee
fb
ff
fe
f8
06
fb
f0
fe
04
e7
07
0e
13
ff
f6
03
f0
07
fe
f1
15
ff
f5
0f
00
1c
e6
04
0b
14
0b
fa
ff
07
03
f6
eb
0d
11
ea
02
fb
0f
f3
f4
fd
fa
0c
01
09
07
f5
fd
f1
ee
02
12
fe
f9
fc
06
0d
f7
f4
fe
f0
14
fe
f9
0e
f7
09
11
07
d9
0d
18
16
11
f7
11
ed
ea
05
0b
0a
f2
01
02
fc
fb
12
fc
04
0a
0a
fb
fc
f0
05
f2
07
03
08
01
f6
fd
01
10
e3
de
f8
e1
0e
16
ff
fa
06
f3
05
0e
04
f4
01
07
03
0d
19
0c
12
0a
04
f1
f4
ee
00
03
fc
f4
f9
03
06
f2
0c
09
07
f8
f3
f8
eb
06
f0
eb
e8
ff
e6
fc
18
01
fc
f7
15
f6
04
ea
0d
00
f5
13
15
fe
fa
12
0e
07
e4
f1
05
f3
f4
f3
12
0c
01
f1
ff
07
19
ff
f1
ed
f9
ff
03
10
f7
ff
fb
e7
fb
f2
12
ed
00
04
f9
f6
0f
ea
f0
f9
05
f5
f1
08
0a
fb
f7
f8
fd
00
f9
f6
f3
08
08
ed
31
08
09
14
f7
19
08
f1
f9
ff
f8
fc
fa
e1
f2
05
f4
00
06
09
0c
f5
03
08
02
f7
01
0f
fa
f0
f6
f2
fb
f8
0e
08
03
0a
09
fc
0e
0c
12
fc
06
f1
ff
01
e9
fa
08
f7
04
f8
f7
f3
0c
10
01
f6
f2
f8
0c
09
f7
16
11
f2
fc
f8
e4
05
f8
0e
06
fd
fa
0e
09
0d
05
0e
e4
f5
f2
05
1c
1b
ed
ef
ff
f6
09
02
0a
fa
fd
08
08
1d
ee
f4
08
fc
07
ec
fd
13
18
06
07
f2
19
12
fd
01
ff
0b
1d
ee
07
04
fd
07
f1
06
e6
eb
fc
fd
ff
06
01
08
ff
06
08
f3
ed
02
e9
07
fc
03
00
f7
fe
1d
05
02
04
fc
ef
fe
1b
15
f4
04
24
fc
02
f6
13
07
0f
07
0c
f9
fc
0e
0f
1d
04
07
02
ea
09
0a
ff
fa
02
02
f5
0e
f2
0d
02
04
05
fb
f7
fd
f9
0d
08
0a
0a
fa
fe
1b
18
da
05
02
0a
ea
08
f6
12
e0
05
ef
02
0c
01
eb
f5
06
07
0a
17
f3
fd
fc
ff
06
00
fd
06
05
06
08
f1
19
19
01
ff
fa
02
06
00
05
f8
ee
0d
05
11
f8
f9
05
01
08
f5
fd
05
fc
19
0f
07
0e
07
09
f5
f9
16
f7
f2
0e
fe
13
f9
00
03
eb
07
10
01
fc
f6
25
08
0e
06
04
fd
eb
07
0a
fc
04
f7
ff
fb
e6
f7
16
02
05
15
f9
03
0a
eb
fb
11
04
02
0b
01
0a
08
09
02
f8
f9
07
f2
f2
03
18
f8
13
01
f5
fa
fa
08
1f
f3
02
ff
01
f6
07
08
0a
f4
08
ef
08
16
f9
f3
fb
f5
07
0c
f0
f7
fc
f3
f7
02
25
04
03
e5
fd
f4
e6
fd
04
08
0b
08
f6
f8
fa
12
06
ff
f4
eb
06
fb
14
f9
f7
04
08
08
eb
0b
07
00
00
0a
09
04
02
06
07
09
fe
04
0f
ff
fd
1a
ff
eb
f5
0d
f0
ff
00
f2
0b
fd
04
01
fc
0d
0a
fa
f6
17
fc
0b
fa
fe
f8
11
02
17
f1
fa
02
02
07
04
f7
09
01
04
08
01
fb
f7
ff
05
00
f7
04
1c
08
f8
0f
01
07
f0
fa
0c
f0
f6
0a
02
fa
fc
ff
f7
0a
06
0e
f8
f4
03
ff
01
fd
0b
0f
1a
f9
0b
10
ec
fd
fa
f4
0c
fb
05
00
04
0a
14
e8
0d
e9
fb
15
00
09
13
01
0b
05
01
f6
06
0c
f7
f0
0e
05
f9
05
fb
f7
f4
0d
fc
0d
10
18
0a
19
f1
02
09
ec
0f
f9
e3
01
04
f5
0b
11
0a
ff
03
fd
11
12
0c
08
12
0c
02
ef
fa
f4
ff
09
ed
f8
02
08
f3
02
05
05
f4
12
f4
fc
fe
f7
fb
fc
e6
f8
0a
07
0b
f8
07
f9
f5
ff
13
0c
01
03
fd
ef
fc
f9
f9
f2
fd
10
09
05
05
07
fb
0e
f3
01
00
fc
ea
fc
05
09
ff
e7
f9
00
17
09
fc
03
f2
03
0b
01
00
f3
f1
fd
f1
fd
15
01
17
07
fd
f5
f5
f2
02
00
f2
f2
fd
f4
14
f4
f1
dc
e3
0c
09
fb
f0
fc
fe
05
fa
07
f9
0f
e7
14
04
04
02
eb
05
08
f0
f1
ef
fa
00
fb
05
0f
17
1c
0e
f9
fb
eb
04
fc
15
fc
09
ee
0a
f1
0a
fd
04
f7
fd
14
fc
fe
03
f4
f3
06
0b
ee
10
ff
0f
01
f4
07
04
09
0e
fc
09
fd
eb
08
10
f4
17
fd
0f
04
fa
fc
e4
01
f6
fe
fa
02
ee
e9
09
00
f3
07
fb
04
ef
03
01
ff
0c
f7
05
18
06
f9
26
08
f0
04
fd
fd
04
07
ee
09
04
f1
03
0b
04
11
fb
f0
10
f7
f1
f1
12
0a
fa
01
fc
06
ee
12
00
fd
fb
0c
02
06
04
0b
f3
fa
fb
07
01
08
01
05
ef
02
ff
fc
07
1a
f6
10
07
f5
0a
f3
07
f8
10
02
00
00
02
fa
f1
f5
07
06
fe
00
f4
05
1a
0a
fe
f4
09
e1
0a
05
f5
f9
fa
ff
f1
ea
0c
00
fd
0e
09
ff
f0
fc
0a
12
00
0a
02
00
09
04
09
fc
ec
e9
05
f5
fe
f7
f4
20
02
12
05
0a
f6
2c
f8
f5
f4
ea
ef
07
14
06
f8
09
ee
f3
fe
f1
f5
13
03
f7
06
0e
14
ed
02
07
04
0d
10
f9
01
00
12
09
ff
0d
05
05
0f
fa
07
1f
03
0a
0e
09
fa
fc
f1
ff
0c
17
ef
f3
f9
f5
09
f2
0d
17
0d
03
fc
04
d1
fd
07
03
f8
ea
11
ff
04
03
f6
08
01
08
01
08
f6
f6
0d
0e
fd
13
00
0a
ea
fa
fb
09
f9
f8
f5
04
00
fa
f9
f5
f2
e7
fc
f0
fb
07
ff
fb
06
f6
12
02
0e
0e
05
04
04
e2
01
f9
0d
06
fd
0a
0b
1b
f9
18
fe
f4
04
f4
f0
04
06
ff
fa
ef
ea
eb
0d
f6
18
22
02
eb
0c
f2
da
1e
1c
00
ea
f6
1b
fd
07
fe
04
f6
02
07
ff
f4
fe
f5
f5
fe
28
e8
04
f0
fd
00
03
ff
16
ff
22
e9
f2
e9
0a
fa
ff
04
0e
0d
05
01
f7
09
1f
f9
f0
1d
fd
0c
e8
f6
17
06
ee
fd
16
1d
14
14
0c
16
f4
07
f2
fd
06
f3
fe
f9
01
f1
0d
07
1f
f7
03
21
04
16
0f
07
ef
17
e5
f8
f8
ea
13
0f
df
ff
1f
17
0b
0a
f0
03
ff
02
06
fb
0d
e7
df
0e
fe
0e
e6
07
16
06
18
e8
d8
04
f9
08
03
ee
00
0b
ff
f0
0a
00
10
04
f2
df
f8
08
eb
15
04
f9
01
f5
05
02
16
0c
00
f4
08
11
f2
09
ff
f9
ea
f1
09
0e
1a
f5
f4
0f
f6
ec
00
fc
f5
fe
f3
25
f9
12
0a
f6
fe
f3
f0
15
0f
0b
e9
10
0a
e3
0e
0c
e3
0d
05
fc
13
19
04
ed
f2
00
15
0c
fe
f4
05
f9
21
0d
07
00
08
fc
1a
05
f4
04
05
04
06
02
1c
07
00
05
00
07
f9
21
10
ea
00
00
07
fb
15
fe
28
e8
18
02
09
0f
fe
00
00
15
0e
00
fc
ec
07
16
14
07
05
20
f1
14
16
11
f7
ff
eb
26
f4
03
fb
08
00
fd
00
0b
19
06
0c
04
03
f6
0e
01
01
f6
13
06
f8
f1
f5
0e
fc
0c
f8
10
f3
e4
f7
f5
de
f3
0c
0d
03
0d
ea
05
fe
0b
09
f6
fb
f4
f6
03
ff
04
fc
12
04
f8
ff
e5
09
1b
01
06
f8
f1
00
02
05
0e
fd
0a
12
e1
f7
02
11
06
f7
00
f4
e9
f3
f1
15
ff
08
f7
12
fd
ff
08
e9
00
22
03
ff
02
f8
0b
01
10
fd
04
03
fb
00
fa
03
0b
00
11
08
ed
07
f3
0c
fa
1b
f0
fc
00
f9
02
07
fd
0d
02
0d
f3
ff
25
0a
12
fb
0e
fa
f9
e9
f8
0b
0a
f6
ff
f3
05
1d
09
09
f7
f7
fe
0f
02
fa
0d
fc
0f
03
00
03
fa
f3
05
fd
f0
fe
07
0a
f2
0c
e8
14
12
fa
02
f7
26
f9
fb
06
fb
f7
0a
0c
0c
04
fc
ee
0a
ff
d2
09
ea
0c
f8
0f
03
e5
0c
06
f3
08
f7
0e
19
00
02
fd
08
fb
09
f6
ff
f9
0e
fc
10
f8
01
04
0c
11
04
fa
07
06
09
f3
03
fd
07
f4
03
e5
0a
fe
09
f9
f5
f6
fe
11
05
01
f9
f6
15
f6
eb
df
fe
f7
f9
fb
0f
f1
ec
03
04
03
17
03
0d
f3
f2
fe
03
f2
fc
eb
08
f8
05
13
11
fd
0b
fa
05
f2
05
eb
f4
0e
fc
f2
11
0a
17
0a
0e
f9
ed
fe
0e
08
16
f7
0c
fd
fb
ed
f3
00
04
11
fe
f3
06
0e
f7
ff
fa
0e
0b
0a
0b
f8
fa
f9
0f
fb
05
ef
02
f3
13
06
fb
12
07
f4
07
08
03
fe
fe
e4
fc
0e
17
fc
f6
13
ff
fa
fa
03
0c
fd
00
f1
01
01
0a
04
02
f9
fe
0b
ef
09
f1
fd
ff
03
03
fd
fc
f9
f2
f6
05
0b
0a
dc
fc
09
0a
17
fd
fb
f3
15
f5
03
e2
f3
fa
f8
fa
0a
0b
f9
f6
07
0e
03
04
ed
02
ea
11
e4
fe
00
f1
0d
01
f1
fa
16
f1
0b
0c
17
14
f3
19
e5
fd
f2
08
09
01
0f
11
f9
fa
09
03
24
0b
ff
fb
02
01
01
00
fe
10
06
13
fa
00
f0
f6
dc
fe
0d
f4
f1
03
09
16
f0
fb
f2
fc
17
0e
16
0f
04
07
fb
f6
0e
eb
02
f7
11
fd
00
0c
f5
f0
06
f3
03
09
f9
fa
fd
17
fd
f9
0e
ec
08
f1
f5
e6
f6
ff
f6
fa
11
f7
00
f2
da
f4
f9
e2
02
fb
0e
ff
11
fe
ec
fe
0a
1d
ee
f7
02
11
08
e8
ff
fe
08
f6
fc
06
ff
07
04
fb
08
fa
22
f5
12
ec
1b
06
ee
03
fc
ea
03
02
09
f0
f1
13
05
f1
eb
fa
fb
08
04
f5
00
fd
0c
ff
0f
01
00
21
f3
00
09
18
ff
fe
f5
28
0b
04
f1
e6
fe
15
ff
09
fa
0b
ea
ef
fe
f9
fc
21
f8
10
00
0e
fa
0c
f3
f2
e8
10
f9
ea
19
16
f6
f1
16
01
0c
fa
e0
00
04
e9
fd
f8
f9
e3
05
df
f4
05
f5
f9
00
1b
04
fe
08
09
ec
04
f8
10
f1
0e
f5
f7
f7
fb
0e
fa
fa
10
14
f3
03
08
f1
f2
f8
01
f1
08
09
f9
ee
03
03
06
04
fe
ff
09
0f
fb
09
f2
03
fd
f2
ef
11
18
de
f7
fa
f3
f8
0c
0d
f6
fe
06
ee
fe
12
08
f8
02
f0
09
d7
fa
09
04
ff
f9
0b
f2
09
01
fd
07
0f
13
0e
0c
01
fd
0b
fb
0a
0a
fe
09
ff
01
e3
13
ef
fa
12
15
fc
00
0c
fa
00
ec
13
15
fd
34
0b
1d
0c
fd
f9
09
0a
1f
04
19
fb
0b
08
03
fc
04
f6
03
ff
f5
f9
f9
0f
0e
00
04
04
07
0b
0f
f8
fa
0a
02
09
0e
00
28
f5
fe
f2
02
f1
03
0d
05
0a
02
f4
0f
fc
08
07
03
fe
02
01
fd
f7
0f
00
07
19
f5
09
0b
09
f1
f0
08
04
05
01
f8
fe
f9
f2
fe
f3
e4
0a
f4
ec
10
f0
04
02
05
03
fc
08
fc
0d
eb
d5
e4
ee
f7
ec
25
13
0c
18
f7
f4
09
0d
04
04
ff
ec
f2
ef
f9
17
fc
fb
e7
fd
18
0c
f6
ff
05
f7
e9
05
16
e3
f9
14
0c
11
eb
09
e0
f6
fe
00
04
ff
0d
0c
f5
fa
f7
f2
f2
00
ec
f8
e5
f8
00
04
06
07
0c
09
f7
01
06
03
eb
ef
0e
19
f8
f8
14
fd
03
0c
0d
ef
09
00
f5
f4
05
06
05
09
00
ef
f4
f0
08
01
02
fe
ef
16
19
fc
f9
01
0a
07
fe
05
1c
fc
00
11
0d
06
f3
f7
17
04
01
f3
f4
08
f3
0e
13
08
06
ee
11
01
f9
f1
10
0d
ea
fe
f8
07
08
f8
13
13
f3
df
ea
f4
fd
ff
fb
0e
e9
ef
f6
eb
03
09
0d
f9
02
fa
e3
f4
0b
11
ed
eb
08
00
12
17
13
1c
ff
0e
09
f4
01
05
e9
0b
09
11
05
02
e5
06
f6
ff
eb
05
1b
fc
0e
f9
03
02
08
eb
eb
17
0c
fa
19
fb
02
03
09
f6
04
05
f6
0d
0f
02
fb
05
00
0e
eb
0f
f5
f1
0a
26
1a
1e
f9
db
fa
f4
ea
f2
f4
02
0b
0e
f9
08
f4
12
ef
e6
ef
ff
0a
fd
f8
fa
01
dd
0a
f7
fe
f5
01
07
f8
ea
01
06
03
f8
fd
f8
16
e0
0a
fd
0a
03
d8
1b
f0
1b
ea
fc
f9
05
f9
05
ee
06
f8
f2
f9
e1
f0
0d
0f
0f
14
05
0e
f4
06
ef
05
15
03
24
0e
0a
f5
00
f0
fa
08
05
27
1f
18
0b
10
19
00
fc
07
f7
02
0a
f6
f5
f9
fb
f9
06
fc
14
f1
0f
2a
e8
f2
0f
0d
06
01
f9
02
02
01
f7
09
04
f9
f3
09
09
02
fd
0d
ed
07
ee
03
f7
05
0c
f9
04
ee
14
f2
10
e4
0a
00
e6
02
06
fb
fd
11
f3
13
f0
ed
fa
f6
02
0b
f7
0f
fb
09
00
fb
fe
e6
e0
10
ea
f2
01
fa
f7
09
06
f6
12
f0
01
09
02
0c
06
f4
f8
fc
17
19
11
f6
ef
06
ff
1b
04
f2
14
fb
eb
19
23
fd
03
ff
04
07
01
21
fe
e6
07
ff
18
f0
0b
08
fb
fc
fc
fd
f9
0d
09
06
f2
03
f3
14
02
f2
f7
0e
01
ff
09
f0
0b
04
fd
ee
00
09
fb
e1
f9
1f
f8
00
1b
f2
f5
ff
15
03
17
03
f1
0c
f4
f2
df
10
17
ff
ff
0a
23
f1
f4
ec
18
02
13
da
02
0e
fb
f1
09
f8
fd
02
04
1b
fd
03
fa
fd
17
09
06
0c
05
05
fc
01
09
06
05
0d
ea
12
03
05
eb
07
13
00
06
e5
0e
ff
00
1d
04
fd
04
e5
12
09
f0
f3
05
0f
e1
1a
f8
ff
0a
17
17
f7
0a
fa
05
0d
09
f1
e1
e2
f5
06
f8
19
e6
11
e3
05
dd
02
fe
fd
11
04
06
0c
da
08
ff
fb
f1
e6
f9
ed
0c
f6
17
03
05
f3
16
04
fe
01
00
f3
03
fc
fb
08
f6
fa
09
0e
02
eb
fa
0d
0d
06
05
08
0d
06
0a
0b
f7
fa
15
f2
01
10
1b
f1
f3
fb
fa
16
11
ef
fc
02
ea
e8
00
07
0a
00
f9
ed
fb
13
01
08
13
06
18
f3
fa
f7
f4
ef
1c
01
1b
0a
02
06
f4
0e
01
fe
fd
13
e9
fd
f5
02
ef
fd
19
ed
09
02
16
f3
0a
0e
06
0a
01
f1
f6
ef
0e
02
fc
01
07
11
ec
16
05
00
03
f8
0a
d5
19
fe
f9
02
21
ea
ee
fb
fb
0d
05
0c
11
f9
0c
07
0b
06
02
f1
04
11
fa
02
eb
f2
fa
01
15
0c
ee
04
f0
ff
ef
11
ff
f5
10
08
fd
ff
00
0b
fb
15
ff
04
07
f7
10
cf
f0
f7
f5
fa
fe
06
0e
ff
ef
12
14
14
ef
02
24
f1
00
00
2c
f8
05
03
e4
29
ec
06
f0
ea
23
e8
f0
e1
f2
f8
0f
ff
df
14
0a
02
f7
f9
0c
ee
f9
09
0a
11
fa
f0
01
06
03
ff
fa
f6
03
dd
13
03
f2
10
fc
14
f3
1d
f9
12
fd
ef
0a
07
07
08
f1
f4
18
fe
db
f4
fe
f3
fe
f0
f1
0f
fb
fe
fb
08
f5
f0
00
f2
fb
f6
fe
12
ff
02
fb
0d
ff
f8
fc
02
f8
08
02
0e
12
fd
ef
fe
f9
f4
02
04
fa
f4
05
05
fe
ff
06
00
f0
0b
f2
f7
05
0d
02
25
fa
08
01
00
05
05
29
ff
ed
0c
26
07
f4
ed
e2
04
00
f5
0a
0a
0b
00
f8
f7
18
f3
06
00
fd
fe
08
ee
09
00
09
03
f9
f2
fe
06
0e
f3
09
11
03
f3
0e
0a
f6
14
ef
1b
fc
10
07
06
0a
fc
ee
02
06
f3
00
04
fe
fe
fe
17
f9
0c
07
07
10
f0
04
0c
fd
f1
03
f6
fb
05
ea
eb
fd
fb
f7
fe
f2
1d
0e
f8
16
f4
0a
dd
fb
08
16
0e
04
11
0b
ff
16
0c
03
fc
fb
fb
02
fa
f3
26
09
15
04
04
de
ff
05
fa
1a
eb
19
f4
fa
04
fd
ec
01
ff
e7
f8
f5
03
18
12
f7
09
09
00
03
de
ff
eb
07
04
05
14
fc
18
fe
fc
0c
f1
0a
07
fc
0c
e9
05
f5
04
f3
0b
f1
0b
f5
f5
fd
f7
07
fc
00
f8
ff
e9
09
fd
01
06
11
f9
f8
01
f6
fb
fe
e5
fe
03
0a
17
06
fa
04
f3
18
f0
de
03
ea
0b
f1
ee
12
eb
00
06
f6
1b
02
eb
0a
fb
f7
f0
e4
0a
f5
f0
08
fc
f5
08
03
01
13
01
00
01
08
e9
f4
f8
f4
fe
fe
fb
f3
0e
e9
0e
0c
00
f3
fb
0d
f5
16
ef
f0
00
e5
f6
f5
0b
07
f3
fa
f9
fb
07
ea
f7
02
0a
e7
04
f8
ff
f2
00
07
16
0b
f0
fd
e6
f8
e8
0e
fb
0b
f9
f2
f4
ff
f9
f5
f7
fa
15
03
ee
ee
07
01
f6
fd
f5
f5
11
15
fd
04
e0
01
e6
1a
ec
03
ff
13
15
f1
08
00
07
05
24
17
ed
f7
0f
05
ff
f0
13
22
fe
f6
fa
19
f1
fe
15
d2
08
fd
f4
06
03
f7
fc
e5
ed
f9
f0
0a
fd
1a
ed
db
01
f8
e7
1a
f7
f1
03
0e
18
13
f2
e1
07
0f
1d
06
1a
08
fd
ff
0a
fb
1d
02
0d
0a
ef
0c
1d
19
f2
03
fe
02
08
f7
2f
ec
fa
0b
f9
f6
18
05
e7
14
0e
12
0f
d1
01
10
03
e4
d5
eb
f5
02
f0
de
f5
ef
fa
0c
08
0a
06
04
09
f3
f1
fb
fa
09
09
0a
10
fb
0f
01
e4
02
ff
02
14
06
20
f9
06
fc
fe
ff
fb
0c
fa
16
f5
01
07
09
f8
09
fe
eb
f4
fe
06
08
0d
f7
f5
de
fc
fa
05
0e
05
01
f0
e3
fb
02
fa
06
fa
04
ea
05
06
00
03
01
11
fd
0f
f2
0a
04
fd
03
f5
ef
19
11
fb
f1
0e
24
27
02
f0
f0
16
1b
f8
08
0d
17
fc
09
07
fe
ea
f8
17
f7
19
f8
fa
fd
01
f3
fd
e8
0c
0e
ef
00
02
fe
f1
02
04
ff
f7
02
0a
04
06
09
04
fe
05
05
fe
f8
f6
f9
f7
16
f3
f6
ff
ee
0b
08
18
f5
f3
fe
fd
f7
eb
06
03
0a
fc
0d
0a
04
11
01
fa
f5
08
fa
14
19
fa
fc
06
05
03
03
fb
eb
00
00
01
fd
05
0c
06
f9
0c
09
11
f3
06
0a
f3
f7
ef
fb
fa
fc
fe
f7
07
fb
03
01
ff
f7
f5
fa
10
1c
0a
ec
f9
02
0b
fb
09
02
ea
f5
0a
fb
05
0f
f9
f2
10
00
05
fe
07
fe
fc
05
f6
e7
0a
fe
fd
02
fd
08
ff
fc
e6
ec
04
0f
08
1a
fe
f9
0c
16
ff
eb
fa
0b
03
13
06
0d
ff
0b
07
00
00
e9
11
fd
fd
10
07
05
0e
00
07
f0
09
fa
fe
ed
f2
ef
e5
fb
05
fb
0e
f3
fe
1d
da
fb
fd
ee
f4
19
00
e7
02
1a
fe
04
f2
f0
13
03
ed
e0
09
ed
02
fd
f5
10
fc
13
f7
f1
03
e9
fa
fa
06
ed
01
ff
f3
1a
ff
f7
fd
ea
ea
ef
07
fe
fc
f7
03
fe
13
fe
0e
e9
e3
21
ee
0e
12
01
f3
00
09
0a
08
15
eb
f1
fc
14
03
23
ef
ff
03
fb
e2
f5
f8
ff
00
05
fe
06
00
ef
ff
09
00
08
08
fd
fd
fd
f7
0e
12
01
09
05
07
14
ef
f7
09
ef
ff
0f
f6
04
ff
ff
02
04
f5
0a
11
e4
06
e3
01
09
f6
14
14
15
0b
ff
ea
11
f2
1e
05
07
08
00
fd
16
fc
e1
fb
0f
0a
0a
09
dc
f7
ff
02
00
09
0a
1b
10
09
f7
f6
13
05
06
f5
01
d3
1d
f5
f4
ec
19
18
ff
07
f9
fe
1b
0d
10
07
f9
e5
01
fb
ea
05
0c
10
fc
09
0a
0e
11
fc
f8
0c
ed
f9
fe
11
15
ec
11
f8
05
08
ff
f7
f4
07
03
ef
d9
f4
fb
f8
03
02
06
f9
fe
e4
ff
f1
f0
f0
16
f8
f8
14
19
00
ec
ee
15
05
18
03
0e
f0
f2
05
06
1d
09
e4
e1
f4
f1
04
f2
1c
f7
f2
08
f2
0a
23
e8
0d
fa
fa
fe
ea
e5
02
03
df
11
f1
fe
07
02
fd
09
09
fe
ed
00
03
f3
28
12
04
fa
05
f6
00
f1
f6
fd
fc
fc
0c
08
13
0e
20
f4
f8
fe
fc
04
06
06
00
0b
03
e5
0b
0c
f7
00
0c
05
0b
fd
f5
fc
06
0c
f2
f3
0f
04
0a
0a
f6
0c
1c
1a
f2
07
fc
f2
05
04
12
fe
05
03
ff
15
19
03
0b
01
cd
ef
10
ff
13
e3
f5
02
0c
12
ff
ff
f4
0c
1f
e9
06
11
fa
1a
e9
04
f4
fe
f4
ea
e4
f8
f8
0c
1f
07
1b
02
01
07
02
f2
11
f4
fc
eb
f5
0d
00
09
fb
0e
f3
ea
0c
fe
f4
f2
f3
f1
0b
29
05
f6
e6
02
0d
fe
01
f2
f2
03
fe
0a
06
04
0e
0a
f6
f3
0a
fb
fc
03
f1
0e
05
e2
05
11
f0
fe
00
0a
fc
fe
f3
de
fe
06
0b
14
05
f0
fd
ff
17
04
0f
07
fe
fa
12
07
07
f3
17
03
f3
02
f6
fa
f0
ff
23
ff
ed
f8
f5
ee
f0
f1
09
ec
04
05
1e
ed
f6
1f
fb
15
fd
f7
0b
01
06
17
11
06
0d
f8
07
22
0d
19
f9
f8
df
0f
f5
05
0a
ec
09
f6
ff
04
f7
ff
f4
0c
f7
04
05
f1
fa
06
09
05
0e
13
03
f0
08
02
fc
fa
f3
ff
04
08
fd
fb
f2
ea
f1
0a
f7
09
fb
08
10
fc
f6
0e
02
0a
12
06
07
04
07
04
e2
fd
03
f5
01
fc
1b
0e
09
f7
03
0c
10
fb
25
f6
f0
f9
00
f1
07
fc
f8
01
05
19
eb
fb
ec
06
06
fe
fa
f7
fe
17
0b
27
23
02
09
ed
f2
05
13
05
f1
02
f5
fb
0a
1b
ff
04
ee
1c
ee
e7
0d
ff
e5
0d
f6
12
e0
0b
f7
ff
fd
fc
f9
f4
eb
00
10
fd
f6
15
fa
fc
fe
f7
f8
ea
07
ff
fa
08
ff
ff
fb
09
0e
fb
fe
1f
05
fc
e4
dc
eb
13
fa
16
12
02
04
06
01
fc
f8
fc
f5
00
0b
05
02
f4
fe
fe
06
07
06
ff
1a
fc
0b
f8
f1
0f
f9
f9
06
15
18
f5
fc
08
eb
f4
f6
fd
0d
e8
f8
ed
f9
fd
01
ff
f2
07
ee
fc
03
07
fb
0d
f7
f1
f6
ff
ff
f7
e3
f3
e2
f6
06
01
f0
f9
fa
f8
ff
fd
05
e5
f8
07
02
00
fb
ef
1b
fc
f7
fd
0e
0b
fe
f8
e4
0c
10
fe
f0
f5
16
05
0f
0a
10
d9
fa
f8
0a
f6
06
0f
17
d9
ee
f3
06
f6
fa
04
fe
11
03
03
0a
fc
fa
e4
17
12
0a
12
0b
08
06
09
0f
02
09
04
0d
0d
e5
fc
fb
0e
f3
02
12
f5
ed
fe
05
fd
dd
f4
ef
07
e0
f7
18
e0
fa
f2
d9
fa
0c
01
22
0b
07
e7
ef
08
e2
fd
f7
03
0d
ed
04
04
06
fb
15
01
f6
e8
f3
fe
e7
03
07
f5
0a
f2
fd
f9
ef
07
0e
ec
0d
00
0f
05
0a
fd
fd
ef
fb
ec
fd
e7
06
0e
08
ef
22
1a
0a
14
de
04
08
06
f2
ff
19
f1
ee
08
f7
f2
f0
1f
29
15
0a
f6
0b
f7
f3
f8
01
01
ec
0b
f8
14
09
fa
0c
ee
f6
ff
fd
e2
03
17
06
fc
1c
09
fc
e4
f0
10
0f
1f
f4
06
ef
fe
f8
f6
ea
fd
ff
f2
fd
10
f3
f5
f6
07
fd
13
08
f5
07
e2
ff
f5
e5
0d
f9
0a
e8
05
f6
fc
0d
0a
10
04
01
f5
15
04
fe
00
df
03
fe
ed
fc
07
15
07
06
f2
0c
f7
e9
2d
10
05
ff
09
ff
ec
f1
fe
f9
f7
11
f4
fd
f5
f3
0b
f9
e6
11
09
14
1d
07
e5
0e
08
f0
f7
11
01
1a
fe
13
04
ee
ec
03
00
0c
09
f3
ff
0e
11
0d
e3
06
13
fd
13
fa
11
02
02
f4
1e
34
28
10
00
fe
0b
fe
09
1d
06
f1
14
f0
0b
12
10
12
00
f4
f5
f1
11
ff
f9
01
0e
fb
e6
01
f2
fd
e7
e8
00
f4
fd
e7
ff
0d
fd
0c
0d
fd
03
18
00
04
f1
ff
08
ff
02
06
08
03
18
0d
00
14
de
fe
ff
ff
d0
fa
de
f6
06
06
03
07
0b
0e
03
ee
0b
ee
fd
0e
01
0b
17
04
ed
0f
f1
ee
16
07
f3
20
08
06
01
09
10
08
0c
01
0a
fb
04
ff
0b
ea
04
14
02
f3
05
f6
18
04
1b
21
ed
03
10
00
e2
08
f9
05
0b
fb
f2
f8
f0
03
ed
00
f2
09
dc
ef
e3
f9
03
0c
fe
04
0c
f7
06
1d
fa
fd
02
0b
0a
ee
08
e3
fe
01
09
0c
ea
02
15
f6
fd
1a
11
ee
f5
0b
01
13
f1
fa
fa
03
fd
0a
03
fa
fc
fe
e0
f6
04
01
fa
f7
08
0e
fd
09
f4
e1
08
0c
04
04
ff
12
03
e5
03
e5
e7
f2
10
fe
fc
09
09
fd
fb
01
f2
04
fa
17
13
05
f3
ee
08
01
f9
08
14
e1
0f
f8
fd
f5
f7
1d
ec
f2
ff
fc
f8
fe
10
06
0c
f8
ef
fc
09
f9
08
08
f4
f7
fc
e4
df
10
00
1e
f7
f5
ff
fb
f5
0b
09
ff
f6
0d
f9
17
f7
0e
07
00
15
00
03
03
03
fa
f0
26
ff
f7
ff
f8
fa
fd
ee
ea
14
0b
ea
ff
f2
02
0c
ef
0f
07
13
06
ea
eb
0f
01
fb
f5
06
fa
e9
f5
dd
0e
08
0d
fb
13
fc
0c
05
ec
20
f5
e9
2c
07
03
24
02
17
fc
04
05
f9
f6
0b
0e
f5
0a
0b
fc
16
f1
eb
07
fe
0e
e6
0a
08
15
ed
ed
0e
06
07
f8
f5
e3
f2
11
ff
07
0b
f9
1f
0b
fb
0a
0a
f2
07
0b
e2
18
ee
0f
f3
dd
ec
0e
0e
06
f3
02
0e
ed
26
e9
02
f2
f9
0f
fd
da
07
f1
0e
f8
05
f5
0c
fc
ee
ff
e8
df
09
ff
f9
fe
ff
f3
f3
f7
ea
f3
0b
15
02
fa
06
06
0a
ff
11
0a
f3
ec
fc
ec
f5
fe
ef
03
03
f8
f6
00
08
00
f1
0a
0d
f1
0e
03
00
f9
fa
ec
fe
f4
01
f7
01
f6
f6
fb
f9
f8
04
f9
fc
16
15
f3
f5
02
e6
13
0e
e9
f1
fe
e6
ff
04
0b
10
f8
fc
1e
16
17
fc
07
0b
f5
18
0b
ed
fe
df
07
ee
07
1f
05
f6
0a
fe
f0
02
f9
fd
01
fd
f6
00
f5
f3
fe
04
fa
f4
f6
fc
fc
f8
e8
06
fb
11
1d
06
0c
04
fa
ed
0e
fb
00
0d
f4
01
e5
fa
0b
f2
06
0e
06
f7
ea
f5
07
f6
09
f7
0a
09
fe
ed
11
ff
04
f1
f0
0a
0a
f5
ff
03
ff
fc
fc
06
e2
f6
fb
fd
fb
ef
07
10
15
15
0f
0a
04
08
fe
fa
fe
17
fc
f3
f1
09
06
fc
03
02
f1
03
f4
11
fb
fa
f3
14
03
f6
08
fa
f6
ec
03
f9
0b
eb
08
00
10
fe
fb
17
05
06
fd
00
fd
f6
f5
1c
fe
fd
f3
19
fc
06
05
f0
05
04
02
fb
fc
e6
03
ff
fc
06
fb
0d
f9
fd
00
01
17
09
02
06
04
07
04
fa
0f
f3
ff
f0
00
00
fe
0e
18
0e
e9
fa
fa
f6
11
07
fc
0a
0c
07
ff
00
fa
fe
04
02
16
17
0c
06
09
01
0c
f5
07
f3
fa
03
03
f1
fe
e7
ef
ed
fb
03
f8
00
14
08
fe
e5
09
11
ed
0d
f3
06
0b
f1
08
13
0c
00
15
fc
f5
0c
09
04
02
1a
f5
0a
00
ef
ff
f4
f6
ff
ec
02
f9
f8
fd
f5
05
f3
eb
08
13
00
04
0c
00
fc
15
02
0c
d1
15
0c
ea
f0
03
f6
1c
fe
f4
01
15
05
f3
00
15
15
fc
ec
08
ef
eb
f8
ec
ed
fc
fd
03
0f
0e
ff
04
16
f1
0b
ec
fd
03
14
09
eb
0d
06
06
0d
24
ea
f9
0f
ef
f2
10
e9
04
06
fd
ff
10
0e
03
f6
ef
0a
04
ff
fc
02
03
26
14
fe
14
06
00
0d
02
e6
fb
13
01
fa
0c
17
e9
fc
00
f1
fe
1c
01
18
08
f6
0c
04
01
09
ed
12
07
03
14
f1
fd
f2
fc
f5
00
ff
06
04
16
f2
07
02
0c
f8
03
fa
09
06
fb
08
fe
ee
f0
f4
09
fd
fd
f9
f1
f1
fc
f9
e3
04
e3
fc
09
f8
00
02
f4
f7
02
03
fb
0e
f8
d3
03
05
02
fa
fb
f6
db
f5
fe
f1
16
f9
03
fa
21
fe
ec
fb
06
1a
07
00
21
03
0f
01
0a
06
07
ef
fa
06
11
0f
fc
0e
17
00
fc
fb
f1
09
52
e6
fd
03
eb
ff
fd
0c
07
e4
00
d4
0a
f7
f7
13
1e
f0
11
01
f3
12
1b
00
0d
05
dd
19
f0
02
ea
00
f6
f5
fe
f6
f8
fb
fd
01
00
09
ff
fe
f9
15
08
09
10
01
0c
e9
ff
01
ff
fc
1e
f3
f5
f8
d9
0d
09
ef
08
15
02
09
fb
0e
fb
17
fe
20
f1
f9
0b
ed
07
e0
ff
eb
16
0c
f1
03
04
07
fa
08
e7
02
03
f9
fa
f4
e0
18
fa
02
09
0c
03
f0
02
0d
f4
ee
f3
f8
e9
00
13
07
09
e8
e4
0d
05
1b
f4
05
07
00
f6
0e
11
ee
12
26
18
fe
04
fb
08
02
09
01
f7
ec
0b
15
17
05
13
15
ed
fe
03
07
f9
e8
ef
fc
f8
fb
0b
01
f7
f9
f6
07
f9
03
0f
05
00
f7
fd
20
fd
fe
07
fa
0a
07
03
f7
06
0b
ff
f9
03
f0
0f
03
17
02
f9
fa
00
1f
13
fa
01
f1
01
0d
02
f4
ec
ff
e7
f1
00
f8
04
02
0a
00
03
f8
fd
f6
0f
07
f6
f0
fb
1d
e7
fb
ed
f2
d1
16
0a
19
fb
f4
14
19
0a
0f
e2
f6
0b
ef
fa
fb
09
01
fb
fe
00
f8
05
f2
f7
0a
03
f9
17
fe
03
07
10
14
fc
ef
06
fb
06
fa
0e
fd
10
02
01
21
07
f6
07
fb
ff
ef
15
f7
04
03
0f
ee
01
04
02
03
ee
05
ce
03
15
07
11
11
fb
e2
f7
0f
02
0d
f0
df
08
f9
0f
ff
fc
01
e6
f5
04
f7
13
fa
08
19
e8
0e
02
ef
fe
08
02
ea
05
f6
f4
02
f4
f5
02
19
f4
fe
06
e2
00
fc
01
05
16
0e
04
07
f3
e5
0b
e9
f5
fd
00
f1
00
03
08
17
1b
f5
f5
0e
09
f2
04
0a
f9
e2
04
01
fa
fc
0d
03
f1
f7
24
03
ff
fe
fd
17
dc
05
e9
06
13
07
fa
08
0c
d9
e6
1d
11
ea
f8
e5
f4
07
09
0a
00
f1
f4
02
03
f5
01
e5
fd
fe
0d
03
0c
0b
05
15
01
f7
f1
13
f6
16
f5
f8
19
fb
f5
fc
31
03
e2
08
ff
fb
00
f6
0e
c7
fe
08
05
17
fc
01
f1
ee
08
fc
ed
0f
fa
f6
e5
0b
00
1c
ea
16
fe
18
00
1a
f8
13
e4
ff
03
0b
ff
f6
f4
02
06
14
05
ee
fa
03
f1
ed
fb
00
12
04
f6
10
e8
05
ee
23
f4
fb
21
12
05
e9
fb
03
21
ff
0c
01
0f
02
f3
fc
00
10
df
ff
1d
05
04
f2
05
01
f5
04
07
f3
00
fe
00
0a
0a
02
fe
ff
19
fb
0d
00
f9
f3
07
fc
e2
ff
fc
f9
fc
04
03
00
0c
e3
f4
fd
f3
fc
f8
f3
f9
ea
f8
fd
11
14
ea
fe
0a
0c
0e
ff
09
f8
f0
f8
f1
01
07
0c
f3
f5
01
e6
fa
fd
09
02
0d
16
05
11
01
13
0a
d3
01
fb
f9
e8
15
ea
08
1d
05
f7
11
0b
fc
04
31
04
ef
07
04
f5
f0
01
f6
e5
fb
1b
e8
fb
fc
02
0d
08
fb
d2
05
26
06
fb
14
f9
fc
f9
0a
f7
f8
12
02
19
ff
fd
f7
eb
0f
0b
f7
fe
08
f2
fc
1b
01
07
fd
06
04
fc
f5
fa
fb
15
fa
ed
fa
ec
09
f5
09
0b
0b
f9
16
fc
eb
d0
06
09
0a
09
fb
f0
14
f0
f9
09
09
fc
e5
15
fd
0d
0d
03
02
10
f5
03
10
0e
ee
fd
f2
0c
f9
02
fc
00
01
17
ff
0d
f6
0a
0a
fc
0e
f7
fe
08
ff
06
09
13
f4
03
1a
18
f5
f3
0f
02
fd
0f
05
f9
06
ff
fd
15
f2
fb
e4
05
fe
ff
f7
0c
0d
ee
fe
ec
08
00
03
eb
e6
05
02
0e
0e
08
03
f9
19
ff
08
f0
f0
fb
f5
f2
2d
fb
01
09
0d
f7
03
1c
f0
ed
fd
14
fb
0f
f2
0b
ef
dc
e6
f2
0e
0f
fb
02
f7
16
02
f1
f0
ff
f7
f7
ff
0a
fa
fe
f7
0a
10
03
e3
fd
f8
fd
f8
0a
f8
02
f3
0f
13
09
19
f5
06
ee
fe
08
f7
eb
0d
f2
11
ff
ed
f4
f7
ff
09
fa
f1
f0
f2
21
02
fd
fb
0c
fb
f9
03
0a
f5
f5
06
f6
06
0f
ff
13
f5
0a
e5
0a
14
05
0a
e8
02
11
08
09
09
11
fe
f8
0c
0a
fc
fe
fb
0a
16
f9
12
03
ff
04
03
08
f2
fa
fa
f5
04
ee
f7
ff
06
0b
fe
0d
e6
0f
0f
0b
f7
fe
f0
f5
0c
0d
1c
f6
fe
fb
0e
f9
fe
fe
29
f8
f2
09
fa
09
0c
fd
f5
fb
10
0a
0c
05
fd
f1
ed
fc
13
f1
ff
19
db
f0
0e
ea
02
f3
e9
f3
0c
13
02
ed
0f
ff
ef
eb
f4
fe
06
ef
fe
20
09
fa
f4
f3
0b
20
f4
ea
0a
fd
f5
0e
e9
e9
fc
f5
f2
f7
07
02
04
f6
fc
f6
19
16
f8
05
e1
1d
fc
05
07
10
00
0f
01
ff
e5
ed
fe
f4
07
07
0a
08
fa
10
0d
fd
06
01
00
04
11
f7
07
fb
0a
1b
07
13
fb
ef
00
fb
06
04
ec
10
0e
f9
e8
fa
ff
f8
fb
15
ec
ea
e7
18
ff
05
14
fb
0e
00
ea
f6
fe
f9
ee
e0
fc
eb
f9
03
ed
08
00
fe
16
f7
08
fb
0b
0f
0a
ef
01
16
1c
ff
09
eb
f5
e9
1f
e2
f4
f9
01
08
03
07
0b
00
1f
f1
fd
02
eb
06
10
e5
01
fd
06
fb
14
0d
f0
00
f4
fe
06
12
0e
09
ff
f2
0e
01
fb
06
fc
04
ff
0d
03
eb
e2
0f
03
01
03
ff
12
02
07
0d
11
e3
14
04
f8
0b
03
06
04
03
ff
16
14
f3
f8
06
f5
27
13
12
f9
fc
eb
0e
fa
0d
15
fe
f4
06
1f
04
18
0e
06
e7
f0
ea
f6
ef
12
10
fb
05
02
14
f6
18
17
2c
f2
de
fc
18
f2
06
09
f7
14
e9
f6
fd
f6
04
fa
fb
ed
0c
14
fb
1c
ef
ec
0c
fa
0e
29
ed
09
fd
12
f4
fe
03
0a
f3
e9
00
ed
27
f4
f1
13
ef
f4
03
01
ee
f6
02
fc
ee
09
0f
f3
ee
e9
f8
17
04
ff
d5
f8
e6
25
e1
03
e8
13
06
1b
12
00
07
06
01
05
f8
eb
01
fd
ff
f5
00
03
f0
01
17
0f
f7
0a
f3
fd
0b
fa
ee
03
ee
01
0e
0b
13
fa
e7
02
03
07
e6
01
f1
e3
ec
18
18
14
fd
f3
0d
04
06
00
f9
ee
0a
fe
0a
e4
f9
14
e7
14
01
e1
02
16
20
fa
04
fa
06
02
0b
f4
18
fb
f8
ff
f4
ef
10
16
1c
f5
06
0a
16
0a
ff
ec
0d
00
0a
fe
f8
f9
fc
fd
09
07
0e
0e
dc
11
fe
03
ef
00
00
fb
00
f9
06
16
f1
fb
0a
1e
13
fc
ff
fd
03
14
ee
f8
fe
07
ed
e0
0e
17
0a
e2
0a
f5
ea
ed
12
ec
e0
f9
f0
08
f4
fa
fc
01
f8
15
0e
e4
0e
fa
fa
f7
f5
07
04
f3
e4
ed
0d
fa
f1
f1
0c
f0
f3
fa
12
12
fe
f4
05
f8
00
f6
18
02
fb
00
ea
0b
09
e5
d6
07
12
07
ed
ff
04
f9
0d
00
fd
13
fc
e1
01
07
17
14
06
d8
10
f1
fb
de
17
0d
f8
06
05
fd
08
e8
03
03
14
10
fa
f6
f4
f9
0c
f6
01
fa
fa
01
fc
0d
fb
08
eb
dd
17
16
ea
12
03
f0
0c
01
0d
fc
06
00
01
f0
07
ff
06
0b
ee
ed
1a
1d
fe
08
f6
f5
f8
03
17
fd
03
f8
ff
fe
02
06
ea
08
fc
0b
03
06
f6
24
0b
15
f7
01
fd
04
15
f7
f8
fd
16
ff
0f
07
f8
1c
fc
f5
0f
0d
0e
15
02
06
ff
f4
19
f3
0b
00
f6
ff
0b
fc
f7
e6
f8
0b
07
07
fc
04
fd
19
0f
18
17
03
f4
08
04
19
e6
f4
fe
fc
00
ea
f2
03
f3
f6
f9
f1
06
fa
f1
07
01
28
f5
03
09
fa
09
f6
08
f9
03
fe
fe
0c
02
18
f4
fe
0d
13
fb
03
0e
ef
0b
f6
2f
0a
04
f8
04
10
f3
01
03
09
02
e5
f4
03
06
fb
ec
db
01
0c
04
fc
fc
f3
f5
f3
1b
09
f1
01
fc
ec
f5
ee
f8
ee
df
e3
16
f6
0b
fc
0e
15
00
02
f3
fb
19
ec
05
02
02
02
07
18
dd
f6
fd
f9
ff
f7
fb
ee
ff
f8
0a
ed
1a
e2
f7
18
fa
02
f2
e0
0b
03
02
0f
07
da
f7
02
04
0d
12
fa
0c
f4
18
00
f7
e4
05
f3
ff
e7
05
20
f4
fb
00
09
03
ff
0c
01
d9
04
e2
0d
e9
00
ec
f4
de
fd
f9
f8
1e
ff
13
0d
04
da
ed
1a
01
f9
01
05
fe
f0
0a
04
05
0a
f0
f1
f4
eb
11
03
1a
f1
ff
12
10
0c
02
10
f8
03
f4
1c
03
e8
07
e7
ff
16
f6
fb
24
fe
03
f3
05
1a
02
02
07
11
f0
01
03
ff
f9
13
10
01
0a
0a
e7
10
13
f4
01
e6
0b
f7
e4
06
f6
13
fd
f5
ff
f4
08
09
fe
fe
fd
ed
14
f5
09
01
14
f7
12
f7
f5
07
03
fc
04
09
f5
01
06
f4
0c
fe
0f
0e
f1
0e
07
01
04
f1
fd
f5
07
f8
ff
12
f6
06
08
05
f2
07
09
09
fb
06
05
11
ea
09
1a
ed
02
f0
04
00
0c
07
08
0f
fa
00
0a
ee
08
00
ff
fe
f2
f1
0e
f4
fd
06
07
02
f9
f2
ff
15
e9
fa
08
f9
f2
05
0a
31
04
07
fb
0e
ea
fd
0a
0b
13
01
fc
f1
0b
f7
0e
fc
01
fd
f5
f7
11
11
ee
fa
f2
fc
03
f2
f2
fd
ff
12
06
ff
f5
04
e3
fb
f3
06
f8
f7
03
f3
0c
f9
f0
f8
20
09
ff
0c
02
02
f5
1b
0d
06
05
0d
f1
01
f6
ef
0c
04
12
fa
f4
fe
0d
fc
08
0a
06
f5
fd
00
07
03
e6
16
ff
0f
07
0e
f4
02
f9
fe
eb
f7
0d
02
ea
f3
f7
02
01
f8
f2
fe
03
ea
ff
f0
04
00
00
05
00
f9
f6
e8
02
fb
13
f5
06
13
fd
0a
f6
fd
0a
05
f4
0d
0a
11
03
eb
f5
0d
0f
03
17
fe
07
00
0f
f1
fc
fb
eb
fd
06
13
06
19
f2
1e
ff
ed
e6
0b
15
fb
0e
fb
f0
fe
04
f9
fd
ef
2a
fa
e8
15
1e
f7
fb
14
13
0e
09
0c
ff
fc
fc
0c
25
eb
05
00
ee
05
fe
1c
fe
fb
00
ef
df
fd
0c
f2
04
f7
f1
04
22
fc
dd
24
ff
0c
01
f3
13
05
0f
0f
e9
f2
03
e3
f5
07
fa
f8
e9
ff
fb
e9
f9
02
e6
05
ec
f9
ec
03
f2
f2
11
ee
d5
f2
ff
11
ea
e9
00
08
fd
e5
16
e2
fc
fb
f5
f0
ee
04
12
0e
fa
06
05
1a
ff
f0
02
ec
0e
06
05
d9
e7
fe
fe
0c
11
00
fa
0b
04
02
fa
fd
0c
0c
18
f7
f6
0d
06
08
02
08
0c
00
06
02
f4
01
fe
e6
db
e2
f3
00
0d
f4
fb
0b
ff
f8
06
f2
fa
eb
1c
fa
f3
fe
f2
eb
ea
17
10
fb
08
11
f8
fc
f2
04
01
fb
ef
fa
f1
26
1a
f7
f4
e1
05
e8
0a
f4
fb
fd
13
fe
01
00
ff
14
01
fb
02
fa
01
f1
02
fa
03
12
fa
da
0b
02
f9
f9
fc
0a
f5
0f
f3
f8
f5
fc
07
15
e4
e3
ff
0b
1e
18
09
fd
f5
fe
f8
16
eb
15
fc
fe
ce
09
0b
12
f9
ec
03
02
07
e8
10
00
0b
02
f4
fa
17
05
f9
0f
26
e1
fc
e9
ea
f7
fd
f4
07
ff
fc
e9
e5
04
19
ff
e4
f6
00
04
09
f7
f9
0b
06
14
05
2b
07
e9
fa
fe
1a
ef
d7
fc
fa
0e
e7
04
04
0a
fa
0f
f0
f7
de
01
ff
f2
f3
0c
f3
0f
03
02
21
11
f7
0f
07
0a
02
00
1c
ef
16
f8
fb
0f
f6
e2
02
e6
f8
12
01
fc
0b
03
f8
ec
19
f8
08
f6
f3
04
fa
f0
08
e1
03
fe
04
fd
10
08
eb
ef
05
ed
07
f9
f9
fb
ed
10
fe
fd
f8
01
f2
0b
fd
fd
04
ff
17
1b
02
0c
1f
0a
f3
ef
03
15
08
03
fe
fe
f8
03
0a
fe
f8
11
09
fd
f4
f8
fd
f5
11
03
05
ea
01
f7
fd
f4
fa
e7
fe
fc
06
f0
f1
04
fc
32
ed
fc
07
f1
16
e5
fd
fc
ec
fa
02
f4
f1
db
ed
06
f2
f5
f2
0e
02
03
fc
f5
06
fa
0b
fa
04
e2
09
de
e6
1e
f6
01
f1
1a
f4
f0
fd
f9
fd
0c
ff
f4
f2
11
17
f7
f5
03
f4
05
05
ed
01
0a
06
08
fa
00
f5
12
e8
f6
01
eb
f0
07
20
0a
02
03
fa
f5
e6
07
ee
0b
e4
fd
0a
f1
fa
0d
f9
f7
ff
f7
0a
f7
0c
0d
ff
f4
08
1f
f4
f8
09
f5
01
fe
f8
20
0a
0d
0a
fc
01
07
06
f7
0c
f1
14
f0
05
ea
05
de
03
0f
f7
f8
1c
04
f8
0e
f8
0e
0f
fd
0f
03
f6
0d
0f
f7
f5
eb
0d
f4
04
1c
16
02
16
fa
fc
07
ee
02
ff
0e
fe
f8
0c
ff
f8
09
fc
f7
02
0b
fa
f0
fa
fe
0b
ef
fa
f6
f2
fe
f6
17
01
f2
0a
e9
f1
fe
f6
19
f7
fc
fd
f3
12
2b
fb
02
fc
fd
e3
0b
1d
02
f7
09
e5
f6
00
f3
ff
17
0c
06
00
f9
04
f9
02
03
f8
f2
21
f1
04
ef
08
f0
0e
15
f1
ff
ec
03
fa
10
ff
f0
ed
13
03
e8
fe
fc
01
0c
05
fb
f5
01
00
13
10
0d
05
17
0e
f4
08
f5
06
f3
02
fe
0a
0c
fd
f8
06
fa
0d
03
f2
fd
0c
fe
fd
0c
04
f4
00
ee
01
f9
e7
05
f7
f1
03
f6
f5
14
ff
ee
0f
09
f5
f7
0a
17
09
1c
04
01
0e
0a
00
f9
fa
05
f9
0a
f9
00
f9
0c
fd
03
0a
11
06
e8
f3
fa
fb
0a
fd
10
12
fb
04
09
01
f2
10
15
08
e2
fa
0d
fd
17
0e
ff
0c
10
fe
f5
fd
fa
0f
12
03
0c
12
05
0c
f8
07
fc
17
fd
f9
ff
16
00
e3
eb
0c
2f
ee
fe
fc
03
00
0f
f6
0c
e2
13
fa
e4
20
18
f8
03
1f
47
f7
fe
ff
00
f3
e2
d1
fd
fb
09
0e
ea
25
03
1c
09
08
21
0d
ef
1b
10
23
06
00
dc
ff
08
f4
03
db
0a
13
20
f9
fa
f2
00
0b
01
f7
fa
0f
e2
e3
0b
0a
f9
08
08
fa
fb
fe
11
0e
20
ee
1e
fc
f5
11
03
0a
0a
f7
fc
0b
08
f6
0f
0a
eb
d1
e9
fd
fa
f2
02
f8
13
f1
ff
f9
f4
f7
f6
d1
01
fe
ec
18
09
07
f9
12
11
f1
0a
03
15
03
f8
05
f1
f8
01
06
f4
f1
e9
f1
20
fd
12
01
18
02
01
fe
f8
fa
08
0e
14
ff
fc
02
f4
0f
fc
fc
07
08
f8
0f
fb
18
02
19
f8
10
08
fe
f7
13
0d
0a
10
fc
f6
fd
02
f7
09
03
e0
fc
f4
1c
0d
0d
0d
10
06
f2
fa
0a
1f
f2
f1
ff
00
04
f0
06
fd
f5
08
fb
ec
0f
18
fc
f7
f7
ea
11
f2
0a
f8
f0
2f
f9
fe
ee
20
02
09
1e
ff
fc
07
0a
00
fe
df
ed
fe
fa
01
06
fa
ff
e6
fc
0f
0b
eb
02
05
11
e4
0d
02
0b
f2
ed
09
09
04
f9
17
0f
f9
e7
04
fd
12
f3
12
ee
fd
01
fc
07
fc
04
0d
09
12
03
f1
fd
05
fb
e8
16
01
1b
24
18
0e
0c
08
fe
fa
05
07
f9
fd
06
05
09
01
fe
15
0c
0e
f9
10
08
08
0d
0b
f1
01
18
ff
fb
05
fd
ef
f6
e1
f8
0b
17
e8
0c
0c
10
03
01
0a
0c
08
fc
f7
f6
fd
09
f8
fc
0e
ec
06
05
08
05
04
01
f9
f5
0e
00
0a
01
03
fc
06
08
04
dc
f9
fd
20
13
02
03
06
f3
f1
fb
19
0d
fd
04
06
e7
fb
e8
0f
05
0b
02
09
06
03
f9
e8
0b
02
08
fc
fd
fa
15
f6
f5
fe
d9
e9
11
01
f0
07
05
05
0a
06
fb
fa
09
44
01
0a
01
f7
12
f5
04
f7
fc
df
d3
e9
f8
fa
0c
05
fe
1e
02
f3
09
08
0b
01
00
fa
fa
ee
f3
f9
03
09
08
eb
08
06
03
06
09
fe
15
03
11
09
f0
f7
0b
ff
fe
fc
06
f2
0a
03
f9
01
09
0d
fe
f1
fa
fb
e9
03
03
00
05
fc
f4
03
04
08
fe
f5
08
e7
f2
f8
ed
06
f9
13
05
05
0d
00
28
02
00
f8
04
ef
f7
07
fd
ee
03
00
f1
0e
f3
08
05
fd
f6
08
02
0a
25
fe
ff
0c
02
01
02
02
fb
fc
f8
f5
04
09
0a
ea
fe
04
02
17
ee
ea
fc
14
04
fa
f3
00
02
f5
f5
fe
10
15
f3
09
f0
e3
fb
fc
09
01
00
11
fa
fe
03
ef
03
13
03
12
f8
f8
0a
ff
07
13
0f
fc
f1
11
14
18
f2
f2
ff
fc
fd
06
fc
00
16
ff
f1
e8
fc
fe
0c
02
fc
f5
f0
1f
02
01
03
0f
eb
0b
09
f4
ec
0b
ee
09
09
f7
eb
f9
03
f3
f5
f7
02
fe
19
01
01
f9
06
1b
07
06
fe
00
0c
fc
1e
0a
eb
01
07
0b
16
df
17
f4
08
0c
0b
fd
07
01
fb
10
02
01
02
15
01
03
06
fa
fe
04
ef
f1
03
04
f4
f7
15
08
00
fe
04
0a
03
0e
03
05
0d
f5
f9
fb
f4
de
00
01
12
04
02
f7
fc
fa
e5
fd
f4
0d
fc
f7
f1
1a
fb
fa
f8
0e
f6
08
f0
00
e9
f7
19
ee
08
dc
f8
09
00
02
03
fb
fd
f7
03
03
e8
ec
fe
f3
0c
fc
f7
1a
f8
f5
0a
f7
0a
fb
fd
de
1b
02
f9
f9
07
08
09
f3
0b
06
02
14
06
05
05
ea
00
fe
0d
f9
07
e9
01
0c
13
f1
f7
fd
f3
09
02
f8
fa
13
ff
ff
04
0d
fc
eb
03
fc
11
f8
0e
01
fd
04
0c
fe
f0
23
ec
14
f9
f2
05
fb
ff
0a
fa
00
f6
ed
fa
eb
f3
0b
10
fe
03
ee
f9
ee
f2
01
eb
ff
12
fb
08
fd
04
12
0c
f3
fd
08
f9
10
14
00
f3
15
f0
1d
e2
1d
06
fa
01
fe
f6
02
00
01
0b
19
fd
0b
ff
03
f2
fd
ef
07
03
fd
0c
0a
e6
02
02
f9
15
ef
0e
06
fa
fb
10
f7
fe
08
04
f4
f4
04
04
fe
10
04
f3
fc
f3
ff
ff
f5
f1
ea
10
fa
0b
f8
09
fc
ec
0a
f2
0c
13
05
09
0c
03
03
f8
03
04
f1
03
fc
03
0a
e6
f2
f8
00
03
f3
f3
0d
fc
06
f8
ef
03
f7
f9
06
06
05
ee
f0
16
00
00
0d
fd
03
02
f0
10
01
ea
10
12
f0
fa
05
fd
07
05
09
09
eb
fe
fd
f0
f6
fb
14
10
0f
07
fc
ff
f8
0a
0d
00
06
ff
09
fa
12
f4
ff
f0
f0
f8
f9
14
23
05
0a
ff
01
16
f8
fe
f7
05
04
f4
f3
fd
fb
fa
f9
f0
06
f3
0e
01
07
13
f9
07
f2
f7
f8
fe
ed
f3
14
f7
19
20
f0
05
f8
03
f9
fb
0f
ff
06
03
0e
01
fa
fb
01
f7
05
00
06
eb
01
01
fa
fc
0b
16
f8
e4
f6
03
fb
01
f2
f8
fb
09
05
f8
08
f8
06
eb
fa
ff
f2
f7
e7
f4
fd
0b
00
fc
01
f6
10
fa
0c
f5
06
f4
21
04
f4
0f
05
02
05
08
f9
0f
e9
07
03
0d
f7
fe
fd
07
f7
02
fd
0d
0b
0e
06
04
05
04
fd
06
11
f0
0f
fb
f9
08
16
0a
14
fb
f5
01
08
f7
f8
0a
fc
0b
0a
07
fe
05
11
14
04
07
f0
17
04
0b
e9
00
07
01
06
1f
fa
00
09
04
fd
eb
01
18
fa
f3
fc
f7
fa
03
ff
07
10
ec
04
0d
00
ee
fc
08
0e
07
03
04
08
f5
1b
09
08
0a
0f
ef
0b
16
04
fb
00
f5
09
ea
0b
13
11
01
eb
f6
f5
01
fd
f8
f7
05
f7
08
06
f4
f1
02
18
05
14
0d
f9
fe
08
f7
f3
fb
ff
f3
f5
13
08
06
ff
f6
09
f5
f0
0a
03
04
02
0b
f3
fe
0d
f6
05
f5
f2
eb
11
fb
16
0b
0a
15
f7
04
ff
01
03
03
fe
fa
f6
02
fb
fc
01
0a
fc
f7
fc
0a
19
12
03
dd
fe
10
07
03
1a
f5
f9
f9
eb
0a
e8
13
f9
13
ed
15
08
07
06
f8
f4
f8
ee
fe
01
01
0d
14
ff
f8
10
f1
0a
ff
f5
eb
f7
0b
16
fd
07
10
f8
01
0d
06
17
e3
f4
08
0d
2a
18
fd
0b
f9
01
fc
f5
ef
f7
00
f5
ff
ff
ec
f3
0e
fe
de
09
02
0a
06
e6
fb
f6
02
09
f0
fe
f8
fa
07
01
e1
e3
0a
01
f9
0a
0a
ee
09
16
fb
fc
e0
2b
01
fa
0f
fa
ef
08
f7
fb
00
02
0a
f9
f3
ff
13
00
07
f7
f9
f6
ff
fa
e4
ee
f3
0d
03
03
f0
03
1a
f7
06
f1
09
0c
05
ed
fc
f1
ff
f2
0a
f2
04
04
ff
f9
0c
f0
06
f7
11
f1
01
08
e3
05
f0
16
07
06
fa
01
ef
f8
0a
16
f9
e5
02
05
04
08
0e
f3
0f
03
09
07
f6
03
fd
f2
fb
04
f5
fd
05
f9
fc
f6
ea
15
06
f4
05
fc
fe
f4
fd
fd
e9
f3
00
00
10
03
e3
f8
0d
04
06
0e
08
01
01
f6
f7
08
07
f7
00
f2
f6
02
fa
f7
ed
f0
f2
10
f2
f4
f3
f6
0b
02
ff
0a
fb
03
f5
03
0e
21
20
fa
f6
00
f9
f0
f5
f2
fc
11
ef
fc
fa
0c
fc
03
fd
02
07
1a
0d
07
fe
ff
05
0d
01
09
fc
03
0a
0d
f1
20
0c
e8
0b
02
ec
e2
09
0c
09
fc
f5
e7
f7
04
fc
05
f7
fe
1a
f8
07
fd
f0
f6
fb
ec
ed
dc
23
05
f5
f6
15
fe
e8
01
17
00
1a
03
0e
09
f5
fb
0c
1a
11
f7
08
0d
fc
07
f6
fc
0a
0d
05
08
07
f8
fa
00
e7
f6
ea
04
09
18
03
26
04
12
14
03
e5
0a
0c
fa
03
ee
01
0a
09
f7
0a
0c
1c
fa
d5
07
f9
e9
f6
e6
f8
e0
ec
fa
0a
fd
05
f5
f8
00
fb
f8
ed
11
f2
02
f7
03
0a
f8
f4
07
f7
f5
07
fd
12
16
0e
de
f7
f2
ed
0b
16
0f
06
08
07
ec
e5
fc
11
f8
08
f5
0f
07
eb
14
ef
e9
01
e2
f6
f0
fe
fb
01
fb
fa
f7
13
15
f9
ea
0c
e7
09
f8
05
ef
09
f5
eb
14
fe
f6
fb
0b
1d
ef
1b
fb
10
ff
01
0f
01
fc
00
ff
15
1a
f6
03
f7
01
f8
26
ff
f7
e9
f4
0a
fe
0b
01
ea
05
0f
ff
e5
0a
fc
ec
0e
f3
ef
f8
ec
f3
de
fd
0f
fe
03
e4
07
fc
fb
0a
25
fe
fc
06
1a
22
13
f8
08
05
12
e4
ee
10
02
ee
ee
06
f0
fa
08
1d
f1
0b
f4
e9
19
0f
fb
0e
04
fd
03
f3
f3
28
ef
f7
f3
2b
f8
fb
01
00
1c
0e
00
0f
fb
07
e6
fc
ef
1a
09
0e
21
fc
01
e5
e8
f8
04
02
0f
06
df
fe
f9
fe
f8
ff
ff
ff
fe
03
fe
fd
fa
fc
04
f3
0c
0c
0d
f7
13
04
f2
f7
1e
f7
16
08
fe
f8
0b
f5
06
f9
12
e9
f5
18
04
fd
f1
0b
0a
eb
1b
04
f9
ee
fe
f9
08
fe
05
0f
0a
fc
29
0c
ce
dc
cf
f2
fb
f8
15
00
1d
03
e6
f3
fa
07
f2
04
02
e9
eb
ff
fe
0d
04
06
e3
df
f2
0c
fd
07
10
e9
02
1d
01
f7
f0
e4
04
fb
15
10
00
ee
05
10
06
0d
fc
0d
0b
01
f1
f6
f4
e9
06
e8
f3
f8
fb
01
02
f2
f5
ef
0b
00
fc
f8
f5
12
fd
00
0b
09
1b
ea
09
e7
0b
f1
00
04
ff
00
fd
fe
fb
e4
f5
fd
fd
ec
fd
f2
0e
f6
fe
0f
0f
ec
08
13
db
04
12
0d
e7
f4
1a
f9
05
06
ed
ed
00
1c
ee
13
10
05
fe
17
f9
0c
f2
03
04
f9
fa
15
ee
03
fd
fb
02
f4
00
0a
04
f9
f4
f0
02
02
0c
01
06
f3
fa
f6
f6
0a
00
0b
14
07
05
00
01
10
01
2c
e8
0f
eb
0a
f9
13
f6
13
13
f1
f6
0b
fa
04
fd
02
01
0a
0b
f2
0f
0c
fe
17
fd
fc
03
d8
0d
08
fa
fe
02
19
ef
08
dd
f5
05
04
f7
f5
e9
ec
f9
f7
19
ff
fb
ff
f6
f6
00
2f
02
fb
01
04
07
0c
02
02
0e
10
1f
ea
f0
07
0f
f6
0b
02
02
f0
08
17
fc
f1
f2
15
f1
03
12
ff
f2
f9
fe
f4
fb
ed
01
fb
fc
15
fd
ff
f8
0a
fc
00
f9
f4
02
fe
08
05
f5
fc
00
fa
07
10
fe
0a
00
01
ff
23
02
0b
0a
04
f8
00
02
0a
f7
f1
fd
f7
fb
1f
ff
f4
04
f6
12
f9
04
00
fc
f5
fe
04
fe
fc
0f
1f
f9
06
16
f4
f7
07
12
fa
e7
f4
00
fd
dc
0a
fd
11
0b
04
02
f6
f6
ed
fd
ee
06
09
02
ff
09
f6
f9
07
00
02
fc
0f
00
01
04
01
f7
e7
f4
ea
f7
00
fc
06
fb
f9
00
02
13
f9
01
f2
fa
03
02
f0
04
00
ee
f1
f3
fc
05
0d
fb
04
f4
02
07
ff
09
f0
02
20
05
04
f9
f4
03
fd
0f
f2
f8
06
fe
04
fc
14
05
fb
0b
fe
f4
11
fe
17
0f
f6
fe
f8
0f
fe
0d
f1
02
f8
0a
15
ff
f0
fd
01
f9
0a
0c
0f
f4
fa
ed
01
08
08
00
fe
f8
12
07
f5
02
fe
00
0e
f6
0e
04
f1
fe
04
01
09
03
07
01
17
04
01
0a
fc
00
fe
12
f9
05
07
04
fd
00
06
ef
0f
ff
0b
0d
05
ed
f9
0e
f8
0b
08
12
fe
e4
ee
01
fd
f1
fa
e1
fa
f5
09
09
12
fd
02
ef
fd
03
06
08
0b
f0
fd
f9
f9
12
09
f8
f6
f5
fb
f8
ff
f6
0a
01
03
fd
ed
0e
fe
14
02
ed
04
09
00
f4
03
fb
04
00
19
f8
02
f0
0e
04
f6
04
fd
02
05
14
04
10
07
07
0a
04
f2
f4
f1
0a
14
0c
f6
07
f6
ec
f8
04
f4
ff
f8
ff
01
fc
24
ed
01
fd
02
ee
12
03
fa
f4
f1
f6
e3
11
ef
f3
e4
e4
f4
fd
f9
03
19
fd
f0
f9
f7
ff
f2
0d
04
0e
03
fd
0b
05
eb
f5
fc
01
1e
0e
00
01
f9
eb
f8
13
00
fb
fc
fe
f3
0e
0b
f7
f8
02
0a
07
e8
15
02
e4
11
10
03
0f
08
f1
0b
fe
03
f4
0c
fd
0c
f5
fe
13
f7
01
05
17
f5
f4
15
07
f2
f6
f4
07
d7
18
0e
fa
ef
05
02
ec
ff
f6
f7
06
09
03
0f
09
f1
f3
05
f9
03
f0
ee
fd
fc
fb
21
0d
f2
fa
0d
08
08
0a
f8
01
0c
01
e0
0e
07
fe
07
f5
f4
0a
01
f9
0d
1d
f1
f4
15
fa
02
fe
0a
0c
08
06
04
07
fd
e7
09
f7
0c
06
14
01
f3
06
11
ec
fd
f5
e6
03
fb
00
eb
f2
04
df
09
19
05
00
c8
fc
f8
10
f9
02
f8
09
0a
f7
07
08
0b
02
03
eb
f6
1b
0e
f9
ff
fd
fe
f1
01
f5
13
06
f2
06
09
0c
fc
f1
16
fb
fd
f1
da
f2
01
04
06
0f
e0
e1
f2
0b
fa
e0
06
f2
f1
0d
e6
fc
fd
08
f0
f9
ee
ff
fd
00
ee
e0
f6
fe
f7
fd
f5
02
f7
fd
14
0b
ff
0e
07
00
02
05
11
ef
e9
ee
0c
ec
06
fb
0c
f0
01
0e
ff
ff
1b
fc
17
f6
f5
f8
04
fd
10
09
ed
24
00
fe
09
f8
fa
06
f4
f1
14
f2
0e
03
01
09
0a
04
fa
ea
1c
00
06
ed
fc
e6
f2
19
f0
00
00
10
0b
ef
03
f2
0a
18
02
db
f7
00
eb
fe
05
16
10
fc
09
e6
1d
f6
e7
0c
03
e4
0a
f5
ef
01
f4
f3
0d
18
dd
ff
fc
f4
f6
e4
fe
1d
01
fc
09
fa
fe
fe
03
0e
fd
04
0e
f8
f9
fb
05
f1
f3
0b
ff
04
05
08
1b
03
ff
08
ff
07
0d
fe
06
00
ea
0a
fc
1c
15
0d
02
f5
f1
06
f6
0f
0f
08
ff
f9
07
08
ff
eb
1a
f6
13
0b
f6
0e
14
fe
08
f5
fc
14
16
04
0a
05
02
0a
00
04
09
ff
15
f6
ff
f7
07
16
0c
09
04
07
0b
0a
e0
07
0d
01
1d
f2
f2
0d
04
ef
15
05
00
f6
f8
0d
fe
00
f5
0b
e0
ec
fd
f0
00
e9
03
11
02
fb
f1
fe
02
fd
fe
d9
12
fe
f3
ee
0a
0b
00
e3
0e
f5
f6
01
f2
da
08
f3
0a
18
f9
f8
f3
f4
11
16
f6
f8
00
f7
0a
e1
01
f1
10
06
ed
17
0e
06
fc
ef
12
fb
fe
f0
fc
f6
fc
fd
f8
ec
fc
fa
fc
04
ea
14
fc
13
f1
13
0d
06
02
f9
10
f3
1a
04
f7
00
09
04
0c
1e
05
fc
f9
f3
12
f9
0b
06
06
08
fd
0d
f4
f7
05
04
00
f4
0e
ed
f3
f9
24
e2
f4
f1
17
07
e2
04
09
fb
0b
f6
fb
e5
f7
f1
07
f0
0c
06
ff
e6
fa
11
03
ff
f5
01
f3
fd
ea
04
13
0a
f4
fa
10
f7
f3
fa
00
01
0e
05
ff
e7
f4
f3
f7
08
0e
05
0d
06
f0
ee
08
ef
fb
13
fc
03
01
f5
20
f7
0a
f6
f3
fd
f7
13
ff
00
f6
06
ea
ed
0c
08
0b
f3
05
05
13
f8
f2
fd
0b
05
f1
23
f5
13
05
f3
02
f6
ee
05
f6
f9
0b
fb
00
f8
0d
ef
fd
f7
f3
f5
03
09
07
ea
f2
0b
00
05
e1
19
0b
f1
0a
0e
0a
f0
de
dc
05
09
07
ef
f2
f6
da
06
0b
14
f2
02
f5
f6
ec
02
ee
09
07
f6
f0
f6
05
0f
ff
22
f7
f6
f9
fa
f5
fc
f8
02
08
0c
04
f5
f1
06
05
f6
02
06
04
ff
02
0c
00
ff
f1
01
ff
11
fc
06
ef
02
fe
f4
ed
04
1f
fd
f9
01
15
f9
08
00
05
17
01
00
0c
0b
00
fd
09
00
09
f9
01
fd
01
de
ff
03
0d
00
23
fb
f2
01
ed
19
fa
f5
f1
1e
ef
f8
15
0c
1a
03
e8
ef
19
f4
09
02
fc
0b
f4
1a
e9
01
f5
0b
fa
f6
0f
04
fb
fb
f9
f9
05
f9
00
e7
de
12
01
f0
1d
ff
e0
f4
f2
f6
e5
19
f4
0e
fb
1e
0b
ff
ec
0c
f8
f8
fa
f5
f5
0e
fc
0a
00
ef
ff
fe
05
fa
ff
09
f9
fd
fb
f7
ef
02
08
16
16
fa
12
ff
f2
01
1b
fa
eb
05
05
fa
04
f6
14
01
08
f4
f9
f2
f8
f6
fc
f3
fe
11
ec
14
ea
12
1c
0a
18
f0
ef
f2
ee
f8
ed
f8
0d
12
f7
0e
0b
ee
17
fb
f4
f6
fa
ff
0f
07
f8
f4
fe
fb
01
fe
0a
11
ff
20
04
01
ff
fb
fe
f8
0d
06
0b
fe
01
07
e2
14
0d
13
03
00
ef
0b
33
e7
05
16
04
03
ff
fc
10
01
03
fa
19
00
f1
f1
f5
03
f2
ff
18
0e
08
04
f3
14
04
ff
f6
05
0a
12
ed
f0
fd
05
0d
fb
fb
07
3e
f4
e8
09
23
1d
f5
fa
10
f8
ff
de
0a
00
0a
29
0d
0f
12
08
ef
06
f8
12
07
ef
ed
f2
02
f4
fd
04
d8
e9
21
e9
05
e8
0e
06
06
02
11
fa
1a
f7
16
eb
05
06
f6
fc
0c
07
0d
f8
02
ff
08
08
f9
0b
0e
f7
10
05
06
0c
f1
ee
09
f8
f5
2b
0a
0c
01
13
06
00
23
fd
02
02
f9
02
09
f5
fe
0e
e0
0d
f0
fe
00
fd
ed
01
03
fe
01
05
e0
fc
05
fb
1b
f4
09
15
f2
ed
19
13
05
fc
00
f6
ea
ee
0e
12
05
f9
f7
0b
f5
eb
05
0e
f9
f7
19
f8
fd
f9
05
05
00
07
f2
fe
ff
fb
fd
18
fb
f3
08
f1
f5
f3
f4
e8
04
1b
f5
f6
10
00
f9
f2
f2
02
f5
17
fa
1a
f9
f7
1b
11
e9
fd
09
04
11
f6
f9
0f
0d
e6
06
09
f6
02
0e
00
0f
fe
ee
0f
08
fd
fa
00
00
00
e8
f6
fd
fb
0e
fd
1a
04
f4
f1
e7
e7
fa
fd
0e
04
0f
06
ee
e8
e9
0d
0d
0a
f2
fd
fc
fb
01
fa
02
1a
03
07
05
fc
f3
0f
0f
e3
00
04
fd
06
f4
fa
00
fa
f0
05
00
06
0c
f7
ff
03
f8
fa
ee
df
02
f8
0f
f4
04
08
0a
1d
f7
0a
16
ed
f6
07
e7
fc
f7
08
e2
08
fd
01
06
f1
10
00
03
0e
05
f8
12
ec
1d
fc
09
0e
fe
f7
0e
03
19
0c
06
02
f1
fb
15
fc
e8
0a
00
02
09
12
00
0e
f4
02
01
f6
13
f6
08
fa
00
16
01
00
09
fc
f8
0f
17
e8
06
13
10
f6
fe
fb
12
f4
14
f3
09
f0
0a
f2
f3
fe
f1
04
01
fe
0b
19
09
f5
0d
fd
fb
03
ff
f4
02
e8
f6
f2
e7
08
08
01
10
f7
0b
f1
20
f7
0c
09
f7
f1
e9
0a
09
f3
16
0b
12
fe
00
0a
f6
28
fb
f0
eb
f9
f5
15
f8
fd
1a
f4
f0
fe
f7
15
f5
f3
f6
0a
ef
00
e7
f8
07
15
e5
f0
db
1d
fd
10
e5
cd
f6
0a
f3
03
12
07
17
f0
09
f7
fd
ee
01
0f
ec
fb
0c
0b
13
06
fd
fc
00
0f
08
02
00
03
1b
02
20
17
08
02
25
0c
00
e4
f8
fd
0e
fb
20
f2
0f
02
ff
1a
f0
03
f1
15
0a
0d
f7
04
05
05
0b
0b
02
fe
00
f8
00
13
f3
04
fe
03
f5
e3
fc
17
fd
f9
0c
f9
ff
f5
ff
07
ec
07
d2
0d
ff
0b
19
0b
01
0d
fd
fe
07
0a
09
f7
03
f2
f6
01
04
07
f7
e3
f7
ef
12
fa
eb
f4
0f
06
0b
f7
0e
00
fb
fd
f7
03
eb
0e
03
1a
02
18
08
d9
f8
f6
18
ed
f4
09
0e
0e
f3
04
06
00
04
0c
05
00
1d
fb
15
01
05
dd
be
08
0c
f3
04
fe
0c
02
e4
00
ef
1c
09
fd
0f
f9
f7
00
e9
01
09
ef
f6
f1
fe
16
29
fd
02
fa
03
01
02
f3
ee
ec
07
f5
f6
ee
f8
0d
03
03
11
08
f2
f7
02
02
fd
0c
ed
04
fb
e9
e5
fc
ed
e5
0d
0f
fd
18
fa
fc
0a
ee
01
0e
f6
12
01
0c
fb
01
23
06
f6
fb
0c
00
d7
10
0d
ff
f2
fa
f0
fb
16
ec
07
fc
0b
03
05
1e
fa
12
0f
f8
f8
fc
f6
fe
0f
01
f7
f0
00
04
e2
f9
ef
0b
f4
04
ea
04
15
01
02
0a
f9
ea
0d
18
f8
00
e4
0d
05
dc
e5
0a
10
fe
fe
f4
08
12
db
f6
0c
fe
f2
ec
0f
fe
fe
06
03
f6
fc
ee
1f
02
08
05
05
d8
08
1b
01
fa
12
01
f0
d9
fd
00
fe
f2
01
03
20
f3
12
0b
1a
07
0f
f3
ec
fd
2f
ea
0b
fa
f1
f2
e6
0c
03
00
fe
fb
02
0c
e8
1d
02
2b
03
11
1c
0b
06
23
1c
0a
00
e4
05
0b
10
f9
17
eb
f2
fc
1a
fe
0d
e6
14
02
05
e8
07
05
27
0c
05
10
05
04
08
ff
04
fe
08
e6
06
04
f7
00
fd
f7
cc
13
f2
11
f5
ff
02
f5
06
fd
20
02
1f
f5
04
21
06
ec
11
08
00
ed
16
e9
e2
00
f8
e6
06
fc
f5
f8
11
0c
00
21
eb
17
fe
0c
f9
0b
03
ff
00
11
e3
04
f4
1b
07
01
03
f7
13
03
0e
fe
12
05
01
04
e5
02
0c
fb
fd
e8
e2
e8
f0
0f
0a
fe
f9
17
fa
01
0f
f7
fa
fe
07
ec
0d
f3
e9
f9
ee
fe
f4
18
f8
0b
f7
0c
04
f7
09
13
f5
f4
e4
0a
f7
0c
f4
f0
fd
f3
04
0a
18
ec
1b
fc
f5
ea
fc
06
01
04
f1
fd
f7
0d
fe
01
f3
f1
f8
f8
fb
f9
07
07
14
f7
08
0c
ed
fe
0e
0f
01
11
ff
fc
03
f3
06
0b
0d
07
f4
fb
0a
00
f7
01
f2
05
0d
08
08
ff
01
00
f5
df
03
15
e9
06
05
f6
0d
fa
0d
fd
00
0a
0d
06
df
00
06
fd
f3
fb
f5
0a
11
ff
15
fc
0a
e4
e5
fb
00
fa
13
d8
06
05
e2
fe
fe
ff
fa
f5
ff
fb
f5
f5
13
03
02
fc
05
f0
f8
ea
f1
fb
f3
ee
f6
fc
00
08
f8
0d
ff
02
f7
00
fa
f1
04
05
f4
0c
f1
fa
f7
0f
14
04
cf
05
10
1f
07
ff
fd
fe
f2
05
06
fb
fd
08
0c
f6
08
f3
17
09
fb
e7
f7
14
08
f9
0a
f3
ee
f7
17
0f
fa
02
f7
fc
00
ed
fd
ee
00
02
02
07
0b
fb
13
0a
f3
02
00
f8
e9
f6
0f
18
ea
14
13
fe
f6
02
fd
e0
e4
06
12
ec
03
03
e3
f7
0c
fd
0f
06
11
f8
f9
fd
e7
09
ea
f6
f2
00
15
0a
0a
fb
f5
ef
ee
06
ee
07
f7
0f
0a
08
f0
10
ea
0c
06
fa
01
11
0d
19
ef
f6
05
00
16
07
f9
e3
09
f8
06
06
fb
ea
02
fb
e1
fd
fd
01
f8
07
e5
fe
e1
05
ea
f9
fc
f7
f2
ea
fb
f7
fc
08
10
0c
0a
0e
fe
f4
ff
ec
ff
1a
fc
00
fe
fc
fa
f2
ea
f9
ef
0e
10
00
04
08
f6
f6
17
ff
02
f3
0c
f7
ff
03
0a
18
f9
f8
ff
1c
02
11
f7
f8
09
03
fb
07
0a
ff
ea
f5
f4
fd
f6
fd
06
00
fb
03
09
05
e4
f5
f5
e8
fb
f8
03
f9
00
f6
0b
f5
02
fa
0c
03
01
ec
fb
05
f3
07
fd
10
ee
03
01
f5
0b
f9
0a
01
0d
ee
00
09
06
e9
00
03
eb
0c
eb
0e
f8
08
24
f9
f6
00
d8
08
09
f9
06
07
0a
fd
09
fc
28
01
f3
fd
09
0b
ef
e8
f4
f9
02
10
02
f2
1d
f7
01
01
06
eb
0b
f3
1d
f7
fa
fe
03
04
ed
ff
f7
04
f6
fc
05
0f
02
13
f3
ff
04
0a
09
f9
10
23
fa
0a
f8
f2
f6
ec
04
f8
11
11
ea
fb
ef
00
ff
05
fb
f4
04
09
09
f7
f3
ea
0c
11
f8
26
0c
ec
00
05
0a
f7
fe
07
fa
eb
00
f5
11
f6
fe
00
1f
10
f4
f3
09
0a
0d
ff
ef
04
10
02
07
f3
f8
ff
fe
16
fc
0f
0c
fc
13
f9
fe
06
18
06
fa
0e
05
fc
fa
fe
e9
f8
05
f8
11
f8
01
01
fd
fb
01
f9
01
f9
f4
fb
f9
ee
0d
fb
f7
fb
f4
10
14
ee
17
02
0f
fb
06
fb
f0
fa
00
02
ef
08
ff
ec
02
ed
08
eb
f6
0e
0b
0c
1f
02
0f
fa
f2
05
f9
fc
f0
f0
05
fc
03
fe
06
05
05
04
03
08
11
06
02
fd
fc
0d
f2
17
ff
05
2e
01
08
fe
10
fc
de
06
ed
f2
ee
f8
f5
02
0d
09
0d
ea
e9
06
15
eb
fe
0d
e3
00
12
f9
e7
03
dd
11
0b
f0
02
05
1a
09
f0
02
02
04
e9
09
fb
0c
01
f7
01
0f
fd
0d
fc
ed
f1
18
00
f4
f2
e8
fa
ff
ff
0a
05
f6
0b
f0
05
fe
0a
fd
ff
18
e4
eb
ed
f5
f7
03
07
f5
f5
1d
fc
f6
ee
05
f6
00
0b
04
09
ef
fb
02
f2
02
05
1c
f6
ec
09
fd
1f
f8
ed
f8
ec
06
fb
f5
17
e7
f4
f1
1e
0b
fb
03
fb
00
fb
0f
ed
00
00
fe
03
0f
f8
e3
04
fb
04
01
1c
06
fb
0e
06
f9
0a
f0
09
14
03
fa
fc
0b
06
02
0c
fe
08
df
0a
0e
ff
00
f9
14
0b
f4
0d
05
0b
fe
fa
fb
f1
f0
df
f7
17
0c
0c
ec
0c
f2
fc
fd
1b
ff
00
fd
fb
1a
02
16
fc
0a
e7
04
00
00
02
e9
12
fe
0b
08
e4
ff
15
ee
00
f5
0e
10
f6
fe
f7
11
f3
fd
fd
df
09
0c
ea
02
08
d8
02
fb
03
18
fb
0b
04
04
fc
0c
0d
fc
f9
09
03
0e
0b
ff
0c
02
f2
14
f9
1e
fa
f3
ff
07
0a
fb
fb
16
01
08
02
f7
0e
0b
f9
01
11
f4
eb
02
f7
fc
02
f4
ec
0a
04
04
05
01
f3
14
f6
0c
19
e7
00
03
fd
f7
f8
0a
05
20
eb
f8
e2
fc
00
01
14
0e
14
f2
ff
00
02
05
13
19
f9
f6
06
0d
0f
1c
0a
f8
f2
07
06
10
fb
fb
13
ee
f6
f0
06
04
12
ea
0b
03
f4
11
f9
f8
fc
00
f7
06
00
01
df
e2
05
06
0a
02
07
0c
f0
f6
f6
13
08
1c
f6
05
e6
0d
04
0a
06
04
f3
18
05
05
0e
04
04
06
f6
fa
ec
f8
0f
1b
ff
f1
fd
10
fa
01
f1
1b
04
13
05
14
fb
fd
02
16
ef
0f
fe
fb
f2
f5
0a
06
11
ff
16
e9
e4
fc
08
00
f2
f1
ff
fa
ea
ef
04
00
09
f4
1c
01
0b
f5
0f
f6
f9
f6
fb
f7
fa
04
02
f3
f1
f5
00
00
0b
14
f0
f6
fc
17
e8
fc
06
f8
09
ec
e1
02
09
f6
03
0f
21
02
ff
0c
fb
fe
02
ed
e6
fe
06
ed
02
0f
0c
23
0e
ea
04
1b
09
04
f8
09
11
ff
02
25
09
00
fb
1a
0f
0d
f1
0c
ef
fa
f2
06
1b
ff
fa
fa
e9
11
ff
f8
0e
f7
ec
04
e8
00
f6
ed
fb
ec
f7
f7
04
07
f5
0f
f4
10
0a
f3
1e
04
11
f3
02
1a
08
01
0b
fc
01
09
05
02
14
d7
18
ff
f7
02
fb
ef
fd
e7
0d
06
0f
ff
01
1d
10
f6
e7
f1
15
f9
02
09
e9
03
ff
f5
df
03
ff
f5
02
01
04
2d
08
f5
fe
f9
05
fc
04
04
e2
fe
f2
f2
f1
eb
da
06
f6
19
0c
f8
03
02
f4
ff
04
03
f6
05
fc
07
09
19
fe
f1
f2
f3
f3
20
f8
f5
fa
0e
02
f1
f4
f4
00
13
1b
f8
f9
15
0b
15
03
f5
ff
f5
fd
f2
03
fa
e1
fb
0b
f1
e5
fb
08
0e
11
02
ea
fd
16
ee
12
ea
f1
04
05
fe
f5
10
f5
f8
03
18
fb
01
00
00
06
0f
fb
ef
f3
ef
01
ff
02
f0
ea
f1
0f
00
03
08
f0
fd
0c
fb
12
fb
07
0d
f9
f6
f3
eb
fe
fe
f6
17
ec
e5
04
f6
01
03
f4
04
03
ff
fc
fb
05
0e
e6
e7
09
fb
12
0f
eb
09
f6
ff
12
fe
04
fb
ee
09
0a
08
11
ff
fd
09
f1
fc
f2
05
02
13
e9
fd
05
e3
f8
15
17
18
ef
ef
f7
13
ef
fa
d7
03
10
07
14
06
f4
00
f5
15
07
1c
f3
fb
20
05
00
00
1d
12
f7
01
01
e7
f3
01
0c
10
03
0c
fb
de
f7
06
17
d2
11
e1
fd
01
f7
e3
13
02
13
fb
02
05
05
e5
06
04
07
fd
e2
ec
f8
02
f7
09
f1
0d
f5
05
07
ff
0c
0a
f5
f7
f0
19
ff
ed
22
fd
ff
04
f6
ec
02
f5
f3
e9
e6
08
0f
fd
02
08
f1
21
f6
03
0b
01
0b
05
12
00
04
24
f9
03
03
ff
09
00
02
ed
e2
08
0d
e9
fa
04
07
fe
06
fe
0b
ff
01
0b
f5
fc
ef
09
0b
04
fa
fd
e8
1c
08
10
04
fa
f6
04
0a
02
0e
f9
fa
00
f8
f7
f4
fe
10
fb
fa
03
f7
05
05
15
02
f9
06
13
0a
0b
f0
ff
00
f3
ff
ef
09
ff
12
05
ff
f8
20
07
06
e8
0d
07
ff
09
ff
fb
f0
f4
03
fd
f4
07
02
0a
f2
01
03
01
09
02
e3
03
ea
14
fb
1c
f7
ff
05
ef
23
04
01
04
f2
06
f8
02
fc
04
06
f7
0e
fa
13
0e
0e
22
0a
0a
0a
ec
05
f2
f9
0a
20
fe
0b
01
04
ff
f7
f4
1e
1c
11
0a
01
f0
fa
fd
03
f7
02
1c
04
0e
01
fb
08
2c
01
fc
1e
20
06
f1
0d
04
f3
f7
13
fe
f1
ee
fb
03
f0
f1
0c
f5
f9
18
10
e8
0b
ff
f7
f9
05
fc
e4
fc
de
fb
1a
f9
fe
06
05
00
e9
0b
02
13
f8
14
02
00
06
fd
f9
07
fb
fb
f8
08
09
0a
11
fc
16
f0
0e
fc
03
f8
fa
0c
03
04
05
05
01
f6
02
0f
1a
01
0e
f4
ed
0d
1c
07
f2
10
09
ef
02
fc
13
fa
02
f2
02
12
f4
14
05
0a
0b
15
05
f0
f1
f3
f7
06
fc
f4
fd
fa
03
fa
f3
19
fb
e9
f5
23
f7
e9
f1
02
05
0b
27
f6
e1
00
04
0c
f4
15
f7
01
df
fe
05
04
ee
f4
07
11
15
f6
f8
08
0e
f5
0f
07
f1
f8
07
0f
fd
e3
f5
19
f8
ed
05
20
07
f8
05
f0
0c
01
f2
05
31
04
03
f6
15
f4
18
17
0d
08
f4
ea
08
02
f3
0c
04
13
f9
17
09
0c
06
17
fd
12
df
f2
f0
00
fb
fd
f8
fb
06
08
f6
fe
0b
09
f6
08
fb
00
ff
03
00
fb
f8
08
e8
09
09
07
f1
f8
eb
0e
f6
08
f3
03
13
f9
f5
0f
04
fd
f7
00
f7
fd
03
1a
fe
fe
04
fd
11
0c
fd
0c
0b
fd
f4
09
11
09
ee
03
01
01
05
f3
1e
fe
0c
00
0f
f8
05
fe
04
20
ec
ed
0a
f5
05
02
f6
fd
13
05
02
01
f2
17
fb
08
fe
09
11
0c
f6
15
ee
08
f0
ec
f5
f9
fd
06
f2
16
08
dd
15
fd
18
fa
04
06
00
f3
fe
07
f4
01
05
12
04
fa
fc
02
03
f7
1e
fc
fb
f7
11
07
0a
00
fc
04
ee
f2
f3
f5
05
1a
00
05
f5
17
f9
fb
09
31
fc
14
14
f8
ef
f9
fd
f8
0a
f9
ed
fe
0d
fa
08
fa
0b
ff
08
fb
09
06
07
ff
00
0b
ff
d5
fe
fe
fd
f3
ea
fd
03
e9
02
06
ee
0d
03
f7
05
f0
fc
ff
f5
f5
02
02
17
f9
e3
02
05
11
f9
fa
f5
22
01
f8
f4
17
00
08
15
f9
0a
fb
eb
f2
f5
f3
f2
f9
f6
2a
03
07
fa
fe
09
f2
f4
f8
12
e8
fa
0d
05
09
04
00
fe
ed
0a
07
dc
0c
03
06
0b
09
02
f8
00
01
08
fa
fd
e8
00
01
f6
ff
f9
e6
01
d9
f1
00
07
f7
19
f8
0f
11
09
fa
f3
f9
f5
06
0a
f3
28
08
eb
f4
08
fe
f5
f9
02
11
12
11
06
05
04
0b
f9
f5
00
e4
fe
fe
19
fb
16
0c
11
d3
10
0e
05
01
0c
00
0f
23
f0
0a
f2
f5
fb
e8
e9
e1
1a
fa
12
fe
0b
f3
07
eb
ff
f2
03
11
fd
1a
0b
1e
19
16
09
f3
fe
e3
eb
fd
07
19
f7
11
fb
0c
09
0b
ff
ea
e8
1e
ea
fd
0d
fc
f8
f5
04
02
f6
fd
0d
f4
02
f2
f2
00
e4
ef
f0
de
f6
f5
02
07
ef
f6
05
e3
fe
f9
07
0d
fd
17
02
12
dc
16
fd
07
01
f3
0f
e5
02
10
07
04
19
f4
fd
0f
fc
ed
fd
14
29
fd
17
02
f2
e4
f3
1c
29
ec
f7
fd
0a
1b
10
f8
02
01
fb
07
09
05
ef
ff
06
f2
08
04
fd
18
03
15
23
04
fe
08
ff
07
f6
f9
0e
05
f0
00
1b
04
13
12
00
00
fa
f9
fe
05
fd
f5
f0
07
f4
ee
06
07
f5
fb
0a
ef
0c
07
01
fe
f6
01
fe
f1
05
0b
02
05
0b
fa
03
fe
18
37
05
ed
0b
06
f1
eb
fe
12
ee
f7
08
03
0c
f3
05
15
05
0c
e4
00
03
02
02
fc
13
f7
f8
0c
02
ef
04
02
f3
13
f9
e3
f6
19
f7
f9
03
e4
fb
fa
0f
e7
fe
0c
08
f3
f3
0e
fa
eb
09
e8
03
d9
05
f7
f4
03
fe
fd
07
2b
ec
ff
09
18
1b
f4
fe
07
f3
04
01
09
f9
15
f6
f1
05
fb
03
1c
04
0a
fd
ee
f0
f7
02
f1
f9
03
f2
09
f5
01
fd
e7
03
05
0b
01
ff
ff
f7
01
e6
23
0c
fb
0c
fc
ff
0c
08
02
0b
0d
f2
fb
f6
00
1e
fe
da
0d
1d
03
fe
0e
0e
d5
f9
fb
13
05
0b
13
f5
e9
f3
24
03
10
0f
ed
fb
ec
f4
eb
15
1d
f0
fc
fe
0d
db
11
14
fa
09
f7
fc
13
06
f3
12
f3
ef
f6
ee
f3
ef
f7
0b
06
06
14
08
07
01
0b
10
10
09
d0
20
3c
0c
04
0b
f7
f7
f8
0c
ef
09
e8
08
03
f5
fc
ff
05
0d
0d
de
ff
00
06
fa
f2
13
ef
01
ee
fe
eb
f1
16
03
0f
ea
17
10
e5
17
fc
f9
0d
1b
f5
10
05
f1
04
f8
11
d7
02
1b
05
e9
fd
0b
11
ea
08
0a
02
0e
07
f9
fe
10
36
ff
13
27
03
e8
10
0d
21
0b
05
0c
e3
e8
06
18
fd
e7
f2
f7
11
f5
13
f4
e4
05
02
10
05
ee
01
d9
04
16
16
ff
f6
0a
0c
06
10
fb
ef
fc
fb
fc
fb
d6
fc
e2
02
f6
10
20
f0
09
01
0c
10
03
ff
00
10
fb
f6
f7
17
12
18
f7
10
e1
24
e3
04
1b
00
fe
07
03
06
04
fd
0b
04
12
0d
03
16
ff
1a
07
f8
02
f1
0d
05
ea
f3
fc
10
1a
f0
14
0b
02
07
fd
ec
f4
f4
0c
04
0a
fb
ee
e3
fd
0c
00
06
ff
f7
ef
0f
05
f2
02
19
fc
fe
07
fd
ff
00
22
05
fb
0c
1c
1b
09
0a
08
00
0c
fb
0b
f7
ed
06
0c
e4
ff
e8
0d
e3
f3
07
0b
fd
1a
0d
ef
fd
e5
0c
e0
e6
fc
ef
08
08
f3
f5
f6
07
09
03
05
f7
10
0a
fb
ff
ff
f4
f5
fc
08
0c
e3
00
fd
00
07
eb
05
fa
eb
f4
00
e8
09
f6
04
05
fc
fe
0a
17
03
01
02
f6
fe
f8
0e
f6
fb
fb
12
f6
fa
04
00
16
fe
fe
f2
f8
fc
f3
ea
fb
02
0b
f3
0e
11
ff
0c
f1
24
f5
0d
00
01
0c
e8
fb
05
05
02
08
fa
fc
f8
08
f5
05
05
06
f5
ef
01
02
f4
fa
f4
08
fd
e5
ed
fd
0c
f9
e9
1e
10
fa
04
f7
03
14
0c
12
01
0c
02
fe
0f
0a
0b
fe
09
0e
ee
fc
ff
fd
01
f0
f7
04
18
00
08
f3
06
fa
19
06
f9
18
03
00
f7
00
eb
09
14
15
ef
12
fc
fd
14
f7
00
07
1a
fd
03
f6
13
fc
1c
00
06
1c
f2
13
ef
f2
fd
05
12
f3
09
fb
fa
fb
01
f9
fd
02
f5
12
ed
0b
f7
fd
00
01
13
0b
0f
f9
f0
07
08
f7
03
eb
08
09
04
01
1b
e9
0c
0d
09
01
ed
da
f7
ff
01
f4
ff
de
f7
01
e0
20
fe
10
0a
03
13
06
f4
0a
fb
01
fb
f7
00
f6
05
f4
f1
1f
0f
10
13
0c
fb
04
f2
0e
07
00
ed
f8
09
f7
0e
f9
f6
09
17
f9
0d
ff
0c
02
08
0e
0d
f4
fe
05
02
07
fd
f2
0a
f7
fa
06
07
04
db
fa
07
ff
f8
04
08
fd
fc
06
f0
fa
fe
f7
f2
0c
11
0c
0d
f5
fd
f8
f3
07
06
fa
f6
0a
0a
00
ef
04
ff
f0
e9
07
09
09
08
f8
03
ee
0e
06
10
f1
0f
fc
ff
03
18
16
fe
14
f6
0b
07
1c
05
0f
f6
07
05
f3
00
fa
f5
0b
f9
f9
0b
eb
fd
27
13
0b
0b
fb
ff
f7
fc
fe
f9
09
ed
ef
18
f7
f1
0a
fd
f4
0a
fb
ed
02
15
e6
10
10
03
f5
ec
f3
0e
f4
02
d8
fc
f8
eb
f8
00
fe
e6
f7
03
08
ff
04
11
00
ff
f6
04
00
f9
08
03
05
f9
01
0e
0a
fd
fe
17
06
eb
fc
09
09
0d
e0
f6
ff
fd
f2
ed
f9
f7
0f
e8
0c
fc
fb
ed
04
fa
0e
17
fb
ff
01
fb
f2
e0
f2
fc
de
09
fa
f2
00
ec
10
ff
f7
e3
ed
01
03
08
10
f4
f8
ef
01
05
fb
f9
fa
fb
00
e2
02
22
fb
06
14
07
06
01
fd
05
00
00
fc
12
0a
06
0b
f6
2f
f9
07
ff
09
26
fe
00
10
03
fc
09
ff
ef
05
f7
fa
15
02
02
fa
fc
fb
fb
16
fe
ed
01
fb
0c
f3
fb
07
0d
f7
e9
fe
fb
17
10
03
0e
f8
f0
f7
00
fe
ef
f7
f7
ec
f5
05
13
fc
19
f7
04
f8
ed
0a
fe
08
fe
05
12
fd
0b
f6
19
09
fb
fe
13
fe
0a
f8
ff
f8
fd
fe
02
07
1f
fc
fd
f1
f9
df
fc
ec
0a
f2
13
ef
12
fe
fe
13
05
fb
ee
01
fe
f0
06
18
f7
f8
10
0a
08
0e
f4
0d
02
e8
00
f8
f8
ff
f7
00
09
05
fc
1a
08
fa
fa
10
ff
fe
fd
f7
01
06
fc
03
fb
04
07
09
04
02
00
0d
f2
ea
06
0c
f9
04
f0
09
ed
02
07
f8
f6
f3
f5
f5
f6
00
0a
10
f9
00
f2
f9
17
0a
fc
01
0d
ff
11
00
07
f5
f8
09
f6
e6
f6
fa
02
f1
fc
e8
09
08
0c
10
01
fd
0f
f9
16
f7
fa
0b
04
19
15
f9
04
f1
fa
f4
f4
00
03
01
f8
f8
1a
fe
06
ff
07
f6
08
25
00
04
fa
f2
ff
07
e9
f7
e9
f9
f1
fe
f9
f4
04
fe
10
01
fb
f8
ff
f1
02
f2
0c
f8
11
fe
fe
f6
13
ee
09
f9
ee
07
f9
ef
f8
f7
f1
0b
0c
f7
01
06
09
03
0f
02
06
fc
fb
ef
08
ef
fe
17
f7
11
fd
fa
00
09
f2
f3
06
0a
00
e4
f7
00
01
f4
ff
f9
0d
02
01
09
1a
f2
fa
d0
fd
fe
10
ff
09
fd
00
ee
fb
ea
04
ff
f4
02
fe
fc
06
08
04
03
07
03
01
fc
f0
f6
05
ee
fa
08
f3
fc
0d
12
f9
fd
08
e9
fb
04
03
f9
1d
fe
40
27
01
f9
f5
ef
0b
07
1a
ed
d3
ed
ff
e8
f6
0f
f6
f8
f0
f7
04
f7
06
13
f2
05
fd
fe
0a
fb
fc
0c
fc
07
ea
fd
d5
d1
0d
f4
08
0b
19
fb
fe
03
fd
10
16
df
1a
e0
e2
f1
0e
0a
d5
eb
eb
fb
19
f4
f9
0e
de
d9
e2
35
f1
db
01
ff
da
e7
10
f7
f1
f4
0c
0a
dd
f7
10
00
ff
e9
fa
f5
f5
fe
f3
fe
1d
e3
23
04
16
fd
e9
02
f2
f7
3c
ec
05
08
f9
1b
f0
f6
f3
f9
01
04
02
ea
07
10
12
00
e4
f7
ee
e5
fd
ef
02
f6
fd
f4
0d
ea
f5
03
fe
f4
04
ff
10
0a
ef
ea
08
fb
e2
fd
eb
11
f6
25
04
f8
db
ea
fe
d3
f4
00
00
de
03
19
f6
09
0c
f8
25
e5
03
18
0f
f8
f5
d2
0b
fb
e8
f9
09
04
0f
0f
1d
0e
23
0e
00
fb
ff
15
03
00
ec
ff
01
f5
02
00
f8
06
fe
0a
22
fc
05
0d
08
0a
18
e4
fb
06
02
fe
0b
fd
f6
07
f6
0c
19
0b
fb
04
09
ef
00
f6
ee
f6
1a
00
0f
fe
02
02
f9
fc
03
eb
02
ff
f3
01
e8
01
08
0a
0f
fc
04
fa
f1
fb
04
0e
fd
0c
f5
07
0c
fc
f6
14
fc
f3
ee
03
f9
1b
04
e8
10
13
0d
00
eb
f9
03
00
06
f7
05
fb
0b
05
0b
05
05
03
f5
fe
f5
05
e9
18
08
07
12
12
02
1d
02
05
ee
06
02
09
f9
eb
ff
e2
e6
0d
f7
0b
ff
02
0c
fb
09
0d
17
fe
0a
fa
0d
06
03
08
0c
03
00
f8
06
f9
f9
fb
1e
f6
09
1a
09
ef
12
02
fe
08
1a
fe
12
fc
fa
fa
05
f9
00
fd
fd
fe
f3
1b
ff
05
ff
ef
04
07
0b
f4
0d
05
04
ef
f3
fb
ff
0f
0c
0d
17
ff
f4
15
1f
0a
0c
f9
0f
07
0a
ef
12
00
f0
fa
16
0d
01
07
ff
eb
13
fe
04
0c
01
ef
07
03
f8
1d
e7
00
01
0d
11
17
f4
01
20
e9
f3
f8
ed
fe
f1
f1
01
fd
01
fe
f1
0a
07
0f
fc
12
00
de
32
f9
08
00
02
18
e4
f5
f9
f6
fb
f2
fd
fb
e2
f9
ec
10
08
f3
04
f1
f4
0c
0d
08
05
0f
f5
f8
00
12
e6
15
ed
fb
02
f2
e6
05
00
f8
f4
ef
f4
02
06
01
0a
18
e7
15
f6
03
f7
fe
f0
ff
08
fb
f4
fe
e7
f8
f5
21
f5
0b
f9
e1
1a
f3
11
fd
ff
02
fb
08
01
13
13
14
eb
f7
f0
11
f0
04
03
f9
0a
08
f6
f7
f3
da
e6
18
10
08
09
0a
03
0d
12
05
fa
0c
01
fb
eb
ff
fa
fb
0b
02
f8
fc
fe
0f
09
03
f6
07
fa
ff
09
fe
0f
fa
0d
02
00
0a
0c
ef
f7
19
00
0e
06
06
00
13
f0
21
ef
ff
15
f7
f7
04
07
10
f6
03
0f
fc
fa
fc
0c
e8
f7
03
07
00
07
f7
0f
06
02
07
ff
ed
14
03
fd
fb
0a
08
fd
06
0c
12
12
f6
09
0c
fd
f1
01
f9
04
fb
fa
07
e4
ee
f7
07
e8
06
06
18
07
e7
e0
0c
fa
06
17
fd
03
1b
f2
fd
09
fd
ef
ed
f4
07
ec
15
00
ec
f5
05
04
fa
fb
04
ec
08
04
09
f0
12
16
0c
fd
f7
12
f7
0d
ec
04
0d
02
0c
f1
0a
04
0c
08
1c
1c
12
f7
0a
1a
03
f6
03
02
1a
0a
04
06
f8
09
f6
fb
fc
fe
d7
ff
08
01
0c
ec
f9
02
eb
07
d7
06
ea
fa
07
f4
fa
ef
f7
0e
f8
08
ee
11
f1
0b
01
0f
09
eb
fd
0d
02
0b
05
e7
e7
0a
fd
fd
d0
ff
17
f9
f6
f2
0b
fd
fd
f5
f9
f7
0d
ff
f7
03
fd
f0
fd
11
e8
e6
fd
f0
fa
f4
01
05
0b
00
f5
f1
02
1c
ef
03
0e
0b
09
f3
1b
0a
06
09
08
03
fc
fe
fc
f9
10
f6
f0
0d
fc
f5
0b
e4
08
f2
e7
1f
f8
0a
fa
06
00
04
fa
ec
12
0a
fc
0a
f1
12
21
11
f7
e7
00
10
15
f3
f2
ff
f9
fd
f8
02
0f
f7
09
07
fa
f5
f7
f3
02
04
25
fd
e3
fc
13
03
f7
f2
12
10
f9
09
0a
fa
10
fd
0b
ff
05
00
19
08
f4
fb
fb
f1
01
08
f9
1c
04
ff
ea
fb
05
01
e5
08
f8
06
fa
fe
f8
f7
f2
d8
0e
06
0e
07
05
f4
e8
1c
ef
00
fa
f9
01
f2
e9
00
e0
05
e8
ff
02
f2
f7
06
f6
f5
00
f8
fc
fa
fc
04
ea
09
ff
14
0b
01
f3
e8
0c
11
f3
0a
10
ef
0a
08
ff
ec
06
0c
14
06
00
16
fe
f4
02
1a
01
fd
10
10
0a
19
e5
d9
ef
11
ef
1e
0b
fe
fc
13
f1
f9
06
02
06
f2
01
fb
12
ef
ee
f6
1c
0c
01
01
16
0b
fc
09
f4
fb
03
15
f4
ea
0a
eb
0b
22
04
f6
e6
f8
00
0d
0c
03
e9
21
26
f0
e9
f3
22
f5
fc
03
f3
f7
ea
fe
fc
fe
09
de
0b
04
12
f8
f5
fb
f1
ea
10
08
da
14
fb
fc
f8
02
f6
10
13
f8
f0
01
f2
ec
eb
16
00
1a
ed
06
e4
11
28
e4
fc
fc
09
1d
f3
04
04
0a
fa
02
f1
f7
ec
04
13
0c
f8
ff
fe
12
05
e8
0c
f7
00
0c
0e
00
fc
03
09
0d
0e
10
fe
11
f3
ee
0d
f6
0c
14
fc
f7
da
fb
f0
01
fd
07
db
e4
0c
ff
f8
08
eb
06
0f
0d
0c
13
0b
06
07
01
ff
f2
e5
06
f6
13
20
de
12
d8
fd
10
fb
0c
04
03
f6
ee
f4
f4
f0
08
ec
eb
f3
23
f3
0a
14
08
06
10
f3
e6
02
18
e2
07
f6
fc
ff
f2
fb
09
fb
e5
eb
f1
07
fd
fa
f6
e9
18
ee
24
08
13
eb
0a
f9
04
f2
f3
08
10
f2
0c
0d
ee
fc
05
fb
03
05
28
e1
00
03
fc
e8
00
03
f3
03
f2
01
22
f9
08
15
01
d6
04
08
04
fd
f0
0d
fb
ed
fb
18
0e
f8
f6
f4
f9
0f
ee
f8
f6
0c
f3
fa
f5
f5
04
0b
00
f4
01
06
0b
06
30
f1
fa
fc
00
03
d2
fe
eb
08
08
f3
0c
0a
0b
f1
03
05
e7
e9
f8
f5
16
f7
26
0c
00
f9
0b
fb
f9
f6
0b
07
1d
e7
ff
13
07
14
0e
dc
fe
fe
fa
10
09
ea
ef
0f
0e
05
fd
29
01
03
fa
f8
09
f4
fb
f9
04
13
fe
ea
03
e4
00
11
fb
f2
ff
e9
18
12
1d
ea
05
04
09
00
04
ff
f6
03
02
17
02
07
f1
03
fb
05
0f
f1
f8
02
ee
06
05
ed
07
18
fe
ef
eb
0b
05
13
06
07
1a
fa
1c
fc
f8
0b
fb
fe
06
04
f4
08
fa
f9
02
0b
fd
ec
26
06
0b
ef
01
f1
ec
f5
20
06
0f
f5
fe
f5
fd
ef
f9
fb
f9
07
00
05
f3
18
f3
02
f4
f5
f6
1c
1d
f7
e6
0d
03
e8
04
fa
e4
fc
00
12
f9
ef
f1
f3
f8
f1
04
0b
12
f7
0b
e8
04
ff
0d
0a
16
18
0b
ff
f9
04
00
08
