0c
04
00
0b
fa
03
ff
04
04
05
fd
0c
03
00
03
05
02
05
fe
01
03
f3
fd
e9
0e
06
fd
02
07
02
06
02
01
fb
e6
05
02
01
0d
fd
ff
06
f8
00
0c
ff
03
fe
f4
f7
05
07
0c
05
00
01
f8
00
08
03
fe
fd
0a
01
fd
04
03
04
ea
01
08
08
ef
00
03
01
fe
03
04
03
fc
03
05
02
f6
01
04
fd
02
01
03
02
07
03
02
f7
05
f5
06
01
00
04
04
02
07
00
0f
02
fb
0a
01
05
00
08
f9
02
02
05
db
fd
04
08
00
03
fe
ff
06
03
09
01
fe
f4
01
f7
01
f5
02
04
ff
06
00
02
fd
01
fe
fa
03
05
00
03
ff
03
ef
00
0e
00
01
03
03
02
ff
fc
03
ff
00
03
ec
01
ff
fe
f9
04
01
02
01
fd
fe
fd
03
01
05
00
00
0a
02
07
f3
00
03
04
03
01
02
f8
03
fd
ff
f9
01
ee
03
03
11
09
07
00
f9
00
03
05
f9
00
03
02
04
0d
00
0a
05
ff
f3
02
f2
01
ee
00
02
fd
f8
f3
04
07
ff
fe
02
ff
f3
fe
f4
05
07
fe
00
fb
f4
fb
fb
01
01
0f
f9
f8
00
03
01
03
02
03
04
07
0b
03
06
02
ff
01
06
fe
fc
03
ff
f9
03
03
04
00
09
fd
f4
f4
04
fc
f1
02
fd
f5
fe
02
06
03
01
00
ff
02
05
06
02
ff
03
0e
fe
04
05
07
11
ff
05
08
01
fe
ff
04
04
03
02
fe
00
10
02
03
fe
ff
f7
fe
01
02
00
06
fe
02
03
fd
03
05
01
04
fe
fb
01
fc
00
01
09
03
f3
fe
05
11
00
09
f6
fe
02
03
0a
fe
09
01
00
01
00
00
05
f7
01
05
fc
04
ff
00
00
fa
00
05
00
04
01
01
02
fe
fe
01
06
fd
02
01
01
06
f3
0e
02
00
fe
fe
03
04
00
00
01
ff
00
00
03
01
02
05
05
fb
15
f0
0f
04
02
01
f4
08
04
02
ff
0c
fa
02
00
01
ea
01
fe
02
f2
0a
00
09
08
0c
04
fe
00
15
03
f2
04
00
02
01
06
02
04
fb
fc
06
fc
04
fc
0e
07
fe
04
f6
01
09
04
f2
fa
12
04
00
01
04
03
04
fb
fc
00
00
04
01
03
02
fd
fe
00
01
fe
0a
f6
02
01
fc
06
04
00
fc
01
05
02
fb
01
e8
06
fd
00
06
fc
0c
07
07
01
04
06
03
01
06
05
ea
04
00
01
fb
02
03
05
04
02
02
02
03
01
03
02
09
04
02
04
02
06
02
0c
fb
ed
04
fe
03
04
0d
06
03
03
fe
01
05
06
01
0a
00
04
00
03
fa
01
fa
01
05
f9
02
02
f7
00
03
03
fd
05
ff
02
04
ee
f7
fd
01
0b
02
00
0d
00
f3
09
01
fe
03
02
01
06
01
05
04
fe
f9
ff
01
ff
ff
fb
fe
03
02
02
04
02
f6
02
03
05
01
e7
fe
03
0b
01
ee
01
00
f1
06
01
00
05
ff
ff
02
01
07
f1
f2
01
f0
02
03
f4
03
f6
09
00
ee
fe
fe
04
ff
00
03
07
04
ff
01
03
00
01
03
f4
fe
02
04
01
ff
08
00
01
04
f1
0e
03
06
04
f6
f4
01
05
fd
0d
fb
0e
0b
fb
07
01
00
f2
02
ff
03
fc
00
f4
04
04
01
09
00
01
04
e3
f4
01
01
15
f7
02
06
02
f6
12
fb
03
04
fc
02
01
00
07
00
05
05
01
ff
f1
fd
05
fd
05
06
03
f7
f6
03
01
fe
04
03
05
06
fa
06
01
fc
01
05
03
02
01
00
01
00
07
0b
03
00
0b
fe
11
0e
ed
0b
01
fd
04
02
01
02
00
04
03
03
02
02
ff
f5
08
f5
00
fb
08
05
03
05
01
01
fc
02
fd
ff
fe
09
fe
01
03
ff
fe
07
02
02
02
00
f1
03
fc
01
00
fb
00
01
0a
f4
f8
08
04
e6
03
03
03
03
01
02
03
fd
02
0a
fd
f1
02
03
06
04
0b
00
02
f2
0d
ec
04
06
09
03
02
03
ff
03
04
03
03
f9
f2
00
0a
fd
f4
03
02
fd
fd
01
01
01
03
03
04
04
12
03
00
ff
00
05
fe
00
0d
03
09
02
f0
04
03
05
03
08
fc
03
f7
01
05
03
0b
05
06
02
05
ee
02
fb
01
00
03
03
ff
05
04
06
f4
f4
fe
ef
04
01
00
fa
05
04
00
00
00
00
06
03
00
f7
0a
04
01
ff
05
fe
05
fe
00
f8
04
01
02
fe
00
00
f8
02
01
f7
ff
02
fc
00
04
01
05
fe
00
03
09
fb
02
07
03
02
00
06
03
03
fe
fa
03
03
00
04
06
00
ff
fc
ff
0b
00
f5
00
fa
00
04
03
09
04
03
01
03
00
05
00
07
02
04
02
03
03
03
ff
0a
00
00
04
fe
fd
01
07
01
04
03
02
02
fd
04
00
f6
03
01
01
04
fb
05
fa
01
07
14
01
e4
07
ff
32
02
fe
01
04
00
ff
02
03
ff
07
fe
08
02
04
02
02
e5
07
02
03
f7
01
04
00
02
fe
07
fd
01
00
00
02
03
01
01
ff
0e
03
05
03
01
01
03
03
f8
f6
08
ff
ff
fe
fc
00
08
fc
fb
ff
04
02
00
07
00
00
04
01
02
01
00
02
03
f4
03
ff
f6
0a
04
00
00
01
08
04
04
01
02
00
05
01
fe
fa
01
00
f9
02
04
02
01
00
03
fb
04
00
03
00
01
00
04
02
05
fd
01
01
fb
02
fc
fe
fd
01
00
08
06
f4
ff
02
ea
fe
02
00
12
fb
06
f6
06
05
03
fd
0a
0a
05
03
03
04
03
fe
06
0c
ea
fd
ff
f9
09
fd
01
15
01
0b
04
04
f7
ff
0c
04
07
23
ff
17
07
09
01
fd
fe
05
ff
ed
f6
06
02
04
09
04
06
ed
01
18
06
04
fb
09
06
05
0d
05
0a
eb
05
12
25
05
01
0c
05
fd
07
00
09
ff
1c
04
02
03
05
0a
fc
03
09
07
02
fe
08
03
f4
09
ff
08
06
01
05
0d
0a
fe
01
1b
02
f6
12
08
0e
00
09
db
05
04
06
08
fd
08
10
04
07
01
00
13
0d
fc
02
ff
ef
03
f9
00
dd
07
0e
04
fe
01
07
f3
06
fe
f5
07
05
09
02
11
07
fc
03
20
00
00
02
04
07
fe
fc
04
01
07
06
05
01
ff
00
ed
05
05
03
03
fc
fe
03
04
02
0d
08
03
00
06
06
fa
f4
0d
07
03
05
03
fb
06
fe
00
f5
01
d4
05
01
0f
00
00
00
15
03
04
09
fe
fc
04
05
06
16
05
10
06
02
fd
00
fe
f9
03
03
08
f7
e6
f9
04
08
fd
f7
05
04
00
fd
fb
08
07
fe
03
fd
fa
02
f8
05
01
13
f3
07
ff
03
02
0c
08
04
04
0f
04
04
07
04
fd
02
06
fa
fb
0b
0a
f2
03
07
fd
fc
0e
fe
ea
f0
05
fb
ea
0b
fd
f7
f2
ff
06
08
02
01
03
00
07
10
05
fc
09
03
fb
07
fe
05
f7
01
06
1c
09
00
f9
0a
09
0d
ff
fc
01
1a
06
0a
00
00
f0
06
07
04
04
1a
fe
fe
06
fe
07
06
05
01
fe
26
05
fc
fa
04
19
05
e2
02
0b
19
fb
0f
03
fe
04
06
0b
fe
03
fe
02
03
01
01
07
fc
00
06
0c
05
fe
03
01
fc
fe
06
fd
02
02
08
03
01
fd
ee
0c
fa
08
02
05
09
e8
1b
06
03
06
f8
05
0e
05
fd
07
ff
01
fe
06
03
06
06
ff
fb
ef
c3
17
0c
06
03
02
19
09
06
fb
02
e8
ff
09
f9
19
03
fa
04
f4
02
04
12
12
08
02
fe
01
01
04
fa
06
00
05
06
06
05
f8
fa
01
03
fc
02
fc
11
06
04
06
fd
07
0a
07
02
f6
1e
07
01
02
05
0a
05
f7
f8
04
06
06
03
05
04
fe
fc
05
08
fe
04
fd
04
04
fe
0b
06
01
ff
02
0e
05
f9
04
ea
0c
fb
00
20
fa
1a
fd
0e
01
12
09
04
07
0c
0b
00
08
04
07
fc
09
04
fa
07
03
03
04
04
07
09
03
08
11
05
0f
08
0c
09
0a
18
01
0a
fc
0b
06
13
ff
0e
03
ff
04
07
10
05
fc
02
06
01
06
ef
05
fb
03
04
eb
03
04
fe
00
03
0e
f5
0d
fd
01
09
f8
f4
00
04
01
0b
ff
0b
fe
fe
19
08
fa
04
01
07
07
08
fc
07
fb
f9
fe
04
0c
07
f3
00
02
05
03
06
0d
ed
07
fe
05
00
00
fe
06
21
06
f8
04
06
f1
09
ed
01
07
f5
01
09
ff
09
09
f0
03
05
03
03
09
09
f1
14
01
fe
fd
06
03
fc
00
0d
05
0b
ff
09
03
06
04
03
f2
f8
02
08
01
fe
10
03
05
0a
e9
14
fa
0c
04
e2
e7
03
04
ff
0e
fb
18
fa
f7
0b
03
01
00
04
03
f7
fe
06
03
02
06
02
0e
0c
01
03
08
02
03
06
f9
01
06
05
03
f4
00
fb
03
fa
01
05
02
0a
0a
fc
06
07
03
fb
fb
f6
05
fc
06
05
03
f9
e4
02
01
fb
04
04
04
06
fb
05
fb
02
01
07
04
06
07
0e
fc
06
13
23
10
02
00
fe
f5
f2
ec
f5
04
fc
07
08
03
06
03
06
05
02
0a
04
06
03
06
f0
fe
fa
08
08
05
03
05
02
fb
0c
ff
ff
ff
15
09
02
04
ff
fd
15
09
08
06
01
ef
f6
07
01
09
f5
ff
fc
19
fa
f5
08
00
f0
01
09
06
06
05
06
08
aa
06
01
ff
eb
0c
02
05
0b
17
02
04
03
0f
0b
05
02
03
09
03
02
fe
06
05
0c
06
f0
02
0a
04
ff
ff
04
03
04
fd
02
06
02
04
03
03
06
19
04
00
01
0c
0c
05
07
17
03
12
02
ff
05
05
05
03
01
03
06
f0
03
08
04
18
05
04
03
0a
fd
06
04
ff
07
07
0a
fc
08
06
07
ff
03
03
f7
0b
03
00
fa
07
ff
ff
02
0f
f6
f9
06
00
eb
17
05
06
05
06
fe
05
fe
06
f0
06
02
04
02
05
0b
f8
04
08
fc
fe
02
fc
01
0e
06
05
f8
08
04
0a
02
05
0c
07
04
02
0d
01
05
05
ed
07
09
00
06
07
02
f9
09
03
0d
00
f7
05
fb
00
06
0a
0b
03
07
07
04
fd
08
f0
0b
fc
02
02
06
07
06
02
14
00
03
04
fb
f7
05
11
03
04
07
06
04
f7
05
02
02
03
fb
02
06
f9
02
f6
04
08
1c
03
01
0c
fa
01
05
fe
03
03
06
03
0a
06
07
07
f2
01
f9
06
03
08
db
05
07
04
f0
f9
0d
02
04
fe
03
f8
07
f9
fb
06
03
05
00
00
06
e6
04
04
05
03
03
03
ec
f8
fd
02
fd
01
f9
fb
09
f5
01
07
08
04
02
06
01
01
05
03
03
04
03
02
05
08
01
05
f6
fd
05
ff
01
05
0a
0f
03
00
03
01
0b
06
ff
fd
07
04
e7
03
08
06
f7
05
04
fa
0d
00
08
03
04
05
03
02
06
fb
00
00
fe
01
fb
fa
fc
03
fa
07
10
02
01
07
db
f3
04
00
0a
fa
04
01
03
02
05
fc
ef
02
00
02
04
01
06
fe
01
03
f0
fd
0e
f5
05
fe
01
f8
02
04
02
01
fb
14
04
02
00
0c
fd
fc
03
03
00
f0
00
04
fe
f5
f9
04
07
0c
05
ff
02
f9
00
08
03
fe
fd
0a
01
fd
04
03
03
e9
01
07
06
06
01
03
02
ff
03
03
03
fc
02
04
01
08
00
04
fc
01
03
03
01
f4
04
01
fa
05
0d
04
00
00
04
04
02
f6
ff
0e
02
fb
0a
01
04
00
06
f4
02
02
05
1d
fe
04
08
ff
03
fe
00
05
03
f5
00
fe
f5
00
f8
01
f6
03
03
00
04
01
01
fc
01
fe
fb
02
04
02
03
ff
02
0f
00
0e
00
01
02
03
03
ff
fc
03
ff
02
01
0c
01
ff
fe
fa
03
01
02
01
fd
fe
fd
03
01
03
01
00
fa
01
f0
0c
01
04
02
fa
02
02
f8
03
fd
ff
f9
00
f0
03
03
10
f5
06
00
02
ff
03
05
f9
01
03
01
03
0b
02
08
05
00
05
02
0c
01
0a
01
01
fe
f9
09
04
07
ff
ff
01
01
0a
fe
0d
05
04
fe
00
fc
0d
01
fb
00
01
0e
fa
09
00
03
01
02
01
01
03
05
f2
04
06
02
ff
01
05
fe
fd
01
00
f9
03
03
04
00
08
fd
f4
f4
02
fc
f3
02
fd
f8
fd
03
04
03
02
00
00
02
03
05
02
ff
02
ea
fe
01
06
07
f6
ff
03
08
01
ff
ff
04
03
02
00
fe
00
0e
03
03
ff
00
f6
ff
01
02
00
04
fe
03
03
fd
02
04
01
03
fe
f6
01
fc
f7
01
09
04
f4
fe
05
0d
00
07
07
fe
01
02
08
ff
f1
01
00
01
00
00
05
06
01
04
fe
03
ff
00
00
fb
02
04
00
05
01
00
02
ff
fe
00
04
fd
04
01
01
05
f4
0e
00
ff
fd
00
02
03
01
00
01
ff
ff
ff
05
00
02
04
05
fc
f2
f4
0f
03
02
01
0e
07
02
01
00
f1
fa
02
00
02
e5
01
ff
03
f1
f0
01
07
05
ea
04
fe
01
e6
02
07
03
00
02
00
05
01
04
fb
fb
06
fd
03
fe
0e
f3
ff
02
0b
01
09
04
0c
0d
11
03
00
00
03
02
04
fb
fc
02
00
04
01
03
01
fd
fe
00
02
ff
f7
08
02
01
fd
07
04
00
fd
01
04
02
fb
02
eb
06
fe
00
05
fc
0d
f3
06
01
05
05
04
02
05
05
14
05
00
02
fc
03
03
fc
02
02
02
03
03
01
02
02
0a
03
02
05
02
f9
02
ef
fb
0c
04
fd
02
04
0d
05
02
03
fd
01
05
06
01
f0
01
03
01
03
0e
03
fa
01
04
fb
03
02
f7
00
02
04
fd
05
ff
02
03
0d
f8
fc
02
f2
02
01
0b
01
0d
09
01
fe
02
02
01
07
fd
04
03
ff
f9
ff
01
fe
ff
fd
ff
01
02
02
04
ff
f5
01
03
06
00
11
ff
02
09
01
0c
01
fd
f0
06
02
00
04
00
00
02
01
07
08
f3
00
0a
00
02
08
02
f5
0a
00
13
ff
01
03
00
00
03
05
05
ff
02
03
00
01
02
f7
fe
02
05
01
ff
08
00
02
04
f4
0d
04
05
04
f7
f6
01
05
fd
0d
fe
0a
f7
fc
02
01
00
09
02
ff
03
fc
00
0c
04
04
00
09
fd
01
04
0d
07
01
01
e8
09
02
07
02
f6
eb
fb
02
03
fe
01
01
01
07
00
04
05
00
ff
0f
fa
05
fe
07
06
02
f8
f4
02
01
fe
04
02
06
05
fa
05
02
fc
00
04
02
03
01
01
01
00
05
08
ff
ff
f4
ff
ec
ee
ef
f9
01
fb
04
01
01
01
00
02
02
03
02
f6
ff
0a
ee
f8
00
fc
08
04
03
04
02
00
fd
03
02
ff
fe
07
fb
00
03
ff
fe
04
01
02
01
00
ef
03
00
01
fd
fa
00
01
08
f5
f6
08
f5
e3
03
03
03
04
01
03
03
fe
03
f3
fe
f4
01
01
06
04
09
00
02
0e
0d
0c
03
f6
f4
04
02
fa
ff
01
04
01
02
f8
0d
ff
ed
fd
0a
03
02
fd
fd
00
01
01
02
02
04
04
11
02
00
ff
fe
04
01
00
0b
02
08
02
0c
04
02
03
03
f3
00
02
f8
02
05
03
0a
04
04
01
04
10
01
fa
01
ff
02
02
00
05
02
05
0a
0a
ff
f0
02
01
00
f9
03
03
00
00
02
00
f7
03
01
f8
09
02
01
00
04
02
04
ff
ff
fa
04
01
02
00
00
01
f8
02
01
07
fe
01
fc
ff
03
02
04
ff
00
03
07
fe
02
07
02
01
00
06
03
03
fb
f9
03
03
00
03
05
ff
ff
ff
00
f7
00
f6
00
fc
00
02
03
09
04
02
01
03
01
05
02
06
02
03
03
03
02
03
00
09
00
00
03
fe
fc
01
f5
01
03
03
02
02
fd
03
ff
07
03
01
01
03
fb
06
fa
01
06
11
01
e4
06
ff
ca
03
fe
02
04
ff
01
01
04
fd
f4
fe
f6
02
04
01
01
e9
05
02
02
f7
02
03
01
01
fe
f3
fd
00
00
ff
02
04
01
00
00
ec
00
05
02
01
ff
03
03
f8
07
f6
ff
ff
ff
fb
ff
08
fb
fb
ff
03
01
00
06
00
00
03
01
03
01
00
01
03
07
02
ff
f8
fb
04
00
00
02
07
03
04
01
03
00
06
01
fd
fa
02
00
f9
03
03
01
00
00
01
fb
03
00
03
01
01
ff
04
02
06
fe
01
03
fd
01
fd
ff
fc
01
ff
f0
07
0b
fe
02
ed
1b
04
01
07
01
07
05
04
06
04
fd
19
03
03
04
07
02
05
fe
08
04
f9
05
de
1c
03
fd
02
0c
03
07
04
04
fb
e6
03
04
04
fc
04
ef
07
ef
02
23
fe
04
01
07
f6
04
01
09
07
07
07
01
01
fd
06
03
00
09
04
06
ff
04
07
ff
03
0a
f7
de
02
06
08
02
05
07
03
00
06
03
02
dd
04
03
03
03
09
05
03
20
01
03
f9
08
e2
06
06
02
06
04
ff
1d
04
00
06
07
04
07
fd
00
06
0a
02
03
05
05
f8
08
0e
03
01
01
07
07
ff
f4
02
00
03
01
06
01
02
07
ff
02
0f
01
06
f2
04
fe
f4
07
06
05
03
f9
09
e1
04
05
00
02
05
06
08
05
fb
06
01
06
08
de
02
fe
00
05
04
07
04
04
fd
fd
03
04
03
05
04
06
1e
02
1b
e8
f5
02
01
17
07
04
ff
08
fd
02
f7
06
1c
07
04
0b
1b
0a
04
f9
03
03
04
01
0c
06
02
05
02
08
05
08
06
df
fe
dd
0a
e6
04
05
f9
00
ec
04
05
fc
08
04
04
e0
fb
d6
0a
07
fe
00
fc
ee
06
03
07
03
0c
f3
cf
ff
03
03
0c
08
04
07
05
19
04
06
04
ff
03
09
04
fe
0b
09
f4
06
07
06
05
0b
fd
f0
f1
08
03
06
fd
05
f4
06
05
06
02
03
00
03
03
09
07
03
fb
03
17
fd
0a
08
09
1a
02
07
01
07
03
09
01
05
08
fd
02
01
00
06
08
06
01
f1
08
03
05
05
fe
00
0c
00
fd
05
07
03
04
fe
b3
03
fb
f6
05
fa
04
03
02
fc
0b
08
07
eb
fc
04
06
06
fe
1a
02
01
03
01
fd
04
e4
08
06
0d
08
fe
04
03
06
06
04
04
07
01
08
06
01
01
09
04
ff
09
04
ff
08
02
02
05
04
08
06
06
0a
00
08
05
00
de
fe
0b
06
04
09
05
fb
1c
24
fe
00
07
02
cb
04
06
f9
00
15
09
09
fd
fc
ee
02
f9
03
05
1b
07
03
0b
1e
03
fe
02
00
01
e0
05
03
06
09
0b
05
06
fb
f5
0a
fd
03
00
0a
15
06
05
ed
02
07
04
1e
ef
04
04
03
04
06
03
05
f5
02
05
04
06
02
05
07
fe
fa
01
06
05
19
da
03
05
fc
07
05
02
0a
02
08
07
03
05
f4
0a
07
02
03
ff
09
22
05
02
00
01
05
07
03
ff
e0
06
04
06
fc
06
03
0c
06
04
03
05
05
ff
fd
04
09
00
05
14
fe
1e
08
0c
0d
e3
05
fe
05
07
0a
0c
06
08
00
05
07
08
05
1d
04
08
03
04
dc
06
01
02
09
06
05
02
f9
ff
03
fa
05
07
02
01
0d
e8
f1
f9
04
18
04
05
0a
fb
e9
01
08
05
03
04
05
08
07
0c
07
f8
01
ff
01
05
07
f9
01
03
03
03
06
ff
07
05
06
07
01
dc
ff
04
07
05
e3
02
0b
ef
06
11
06
03
fe
03
02
03
0a
eb
ef
04
d3
07
04
e7
03
f2
10
03
0d
fe
0d
0b
fb
01
04
0a
0c
00
03
04
07
03
01
ef
fe
04
02
03
fe
f7
03
04
0a
08
ff
0b
03
04
04
08
02
05
02
e4
08
0a
1c
f8
09
02
02
d3
03
00
09
07
05
dc
06
05
02
02
00
01
05
05
ea
06
02
22
e2
01
09
01
fc
00
fd
03
0a
01
04
00
06
06
fd
04
05
03
08
dc
06
04
ff
07
0a
02
05
fd
03
07
ff
03
04
04
04
ff
04
09
f1
05
04
02
04
08
fc
02
05
06
00
0e
08
1b
fe
24
25
02
17
04
07
05
00
03
06
00
00
05
02
fc
0c
04
e5
19
f6
04
fa
09
07
04
05
02
01
fa
04
fc
01
f8
ff
0e
05
07
03
01
05
05
02
04
01
fc
0f
0b
02
ff
03
07
04
ff
fa
03
09
1b
fb
0b
02
08
04
04
05
04
16
0c
1e
02
01
01
05
09
03
03
02
05
db
0b
0d
09
1e
22
02
02
0f
02
05
02
08
03
f1
ec
fb
19
04
e4
04
01
07
ff
03
06
04
06
05
03
06
03
04
03
00
0d
03
05
04
03
06
05
03
e1
05
05
0b
05
15
0b
07
f3
04
05
04
01
05
0a
07
04
ee
07
06
03
09
04
04
fa
05
05
05
f0
d1
05
05
08
03
01
04
04
0a
02
02
07
0c
14
03
01
05
09
07
05
03
04
fb
03
ff
04
f3
08
02
04
03
04
07
09
04
03
e4
fe
01
fc
06
01
02
07
03
07
03
08
03
05
0d
06
04
02
03
07
06
10
05
07
02
02
03
08
02
fb
0a
02
0a
00
f3
07
fa
01
06
03
05
09
05
05
04
05
02
ee
05
07
05
05
03
06
07
02
fc
01
03
05
fb
03
02
02
00
05
09
03
04
fd
04
02
df
05
07
00
06
02
07
07
05
06
fc
02
00
08
f7
ea
05
fe
07
06
06
05
00
06
0b
10
ff
1a
fb
05
04
05
00
07
fe
06
f0
09
08
02
04
fe
17
ff
05
08
06
06
05
01
02
00
19
0f
05
06
05
05
05
04
04
e5
12
01
02
f7
fb
02
0b
f2
f0
03
01
01
03
07
01
00
06
03
04
08
03
05
03
ed
06
03
fd
1d
04
ff
01
02
04
fd
07
05
05
01
04
08
02
07
05
03
08
04
06
04
09
05
05
fe
03
05
06
05
00
07
05
03
05
01
02
05
fc
05
09
fc
fc
02
03
10
fe
ef
01
05
05
00
05
f5
06
f5
0e
f0
08
0d
0d
fe
f9
08
03
00
f4
08
05
ff
14
ff
2f
0a
f7
f9
fe
00
0f
02
03
07
09
20
fc
02
0a
05
0d
f2
fb
2c
16
0f
08
f4
fe
12
03
03
fa
0d
e8
c5
0b
15
04
ee
03
fd
04
04
02
cf
11
12
04
02
10
08
09
04
de
05
0e
08
18
ee
06
f2
0e
18
0a
0a
0a
01
0c
02
06
09
13
04
02
fa
23
09
f9
0f
f9
0b
0d
09
09
12
fe
09
0d
e6
05
0a
f0
06
fe
05
15
f9
04
08
0b
fa
fc
f7
bd
12
e7
0e
12
fa
04
fc
0a
0a
0f
0a
00
05
ef
0f
04
0f
cf
04
10
e1
0e
fe
d2
0a
06
0e
d6
f0
0c
ff
05
fb
f9
0a
05
05
0c
f8
fb
0d
09
1c
11
12
08
fe
0a
04
05
1d
02
0a
fd
ff
0a
05
05
13
0f
1d
fa
0b
05
f9
01
09
01
ff
11
0b
23
10
00
01
1f
08
35
09
06
d9
09
e9
0c
14
19
07
ee
0a
f3
0e
05
09
f4
15
fe
07
12
0d
d2
00
f3
01
11
0e
fb
df
07
ff
0e
fe
ed
0f
0d
fd
fd
fe
07
0b
fe
0d
00
fb
07
fc
08
07
c8
fe
0a
ff
0a
09
2c
0f
19
00
fb
02
09
06
09
01
04
08
fe
f3
12
0d
fd
02
0a
f0
fa
07
ff
f5
f2
18
ff
07
f4
0f
f6
09
04
07
fe
09
04
07
08
0d
0d
08
ee
07
0e
fa
12
ec
06
f2
06
09
f9
0e
05
f4
fb
12
0c
dc
00
09
fb
10
10
0a
06
1d
26
0a
08
08
f2
02
e7
0a
ff
0e
11
10
01
ff
43
12
f9
fb
09
f3
0b
10
0c
e5
ed
f9
06
f5
ff
08
09
f1
00
03
fd
06
08
05
0a
07
05
ff
09
1a
1e
fe
0c
07
02
01
fd
fd
0d
08
fe
e3
0b
fd
09
02
0c
0b
07
03
0e
f7
04
0f
1c
16
00
15
0d
0b
f9
0c
0a
01
fd
15
06
06
0f
ed
fd
fe
4f
fe
06
0a
06
0d
f2
0c
f2
f6
09
f3
ef
fa
d9
55
07
fd
02
09
fe
14
f0
0d
0e
06
ff
0a
f9
07
f9
0d
0e
09
0e
10
1c
ef
fe
22
13
ff
0b
0f
cb
fd
1a
09
f4
07
ce
02
03
f8
0e
fe
04
0b
08
0f
0d
ef
11
13
12
08
09
0a
11
00
fd
05
0e
06
05
08
ff
0c
ff
0d
11
08
00
01
12
10
08
0d
22
05
06
06
ee
ff
0c
f0
f8
0e
f4
fe
11
0b
0c
0d
01
03
0c
14
fe
17
ff
fa
fd
04
08
07
09
fd
fd
07
0c
04
08
a3
fc
08
12
0c
16
fd
04
fc
0d
12
bf
c7
11
07
0f
0b
06
06
08
01
11
04
08
04
fc
0c
07
05
11
e8
0a
14
2b
09
07
f5
0c
0e
04
07
0a
f4
f4
f0
03
fc
1d
f7
06
fd
ff
05
17
f9
0b
03
19
c2
18
e0
06
e4
18
00
06
02
12
f8
09
11
06
0a
05
0c
fe
0b
09
0c
07
07
ff
02
ed
0d
fd
09
13
f1
0b
e0
0a
0c
08
08
00
f8
0b
08
f4
0b
0c
0a
05
06
06
ef
18
06
f2
fe
0b
07
11
09
11
ff
0f
01
15
ff
16
0d
0c
f5
fe
06
06
0d
ff
f5
0d
0d
0a
01
09
fc
fc
fb
26
07
06
08
06
ed
10
e2
f6
f8
11
09
06
00
07
01
fa
0a
0b
00
0b
0a
06
f6
04
03
07
eb
fd
05
08
f0
fb
0e
16
09
f4
f8
ff
08
03
09
12
01
15
f9
03
ec
e7
09
f4
fc
07
ff
fe
0c
04
08
12
ed
06
04
08
08
08
0a
08
ff
02
ec
e9
10
03
08
12
2b
f2
02
0a
ff
e4
13
f6
f3
ff
f3
fd
fa
f8
09
05
03
0c
09
1b
0d
15
0a
08
f9
15
0c
f7
03
f6
f8
e1
f1
0c
1a
0d
05
05
01
0f
ff
02
f7
f5
32
15
07
08
ff
08
0d
05
04
07
f3
dc
1e
06
0d
08
03
fb
e6
01
fa
0b
06
07
f0
0a
19
0f
0a
0b
08
4c
07
fb
05
0b
2f
07
0f
09
f9
0c
f8
fd
dd
ee
0c
0a
fb
07
05
fc
03
0c
08
1e
02
ff
f1
fc
fb
07
fc
08
f7
1a
0f
05
13
02
15
0a
bf
09
00
04
09
0c
01
13
0b
10
f1
10
03
06
06
0e
0b
0c
fb
0d
07
0a
e8
05
08
0c
07
09
18
09
08
ea
17
15
f9
10
0c
10
f5
08
06
06
f6
0c
11
12
20
07
02
ff
09
f0
04
06
11
ec
00
06
f0
10
1b
13
0f
0f
14
fb
06
ff
10
f1
06
06
0a
0a
0b
0c
05
10
02
0b
fc
05
fe
0a
02
07
09
fb
11
07
fd
14
0e
09
0f
10
0e
0a
06
09
fc
f3
07
0d
04
f9
05
0d
06
23
10
0a
05
ee
16
f3
05
0a
09
06
0d
05
07
09
f4
03
ee
12
0a
07
0c
0a
07
0b
09
ff
07
07
05
fa
00
0a
0b
03
0e
11
08
07
fd
06
0d
fa
01
01
06
0f
02
05
02
04
10
f6
0b
2f
02
f2
ff
0c
00
0b
e5
19
0d
07
10
16
f7
f0
02
fd
00
09
fc
01
0f
fe
f5
f1
f2
0e
0a
14
ff
09
ff
0a
f6
f3
09
13
00
04
0a
04
eb
0a
11
02
14
09
09
05
fe
fc
07
08
00
fd
07
04
ed
02
09
0f
06
0a
d6
04
07
10
07
05
11
06
08
0a
f4
09
0e
0a
ec
0e
08
07
0a
05
f5
09
0a
16
06
00
10
04
11
0c
11
f8
03
09
08
f3
0b
12
29
06
04
0c
0a
01
12
0a
06
06
fa
0e
00
fd
f7
06
f7
fa
09
04
0b
0c
f9
1b
0a
06
ec
04
01
09
03
06
05
05
06
03
fd
ea
03
03
04
07
01
05
fe
05
04
fb
03
1b
e6
03
fd
02
f9
03
09
04
06
fb
1b
03
03
03
fa
04
f0
06
0c
01
e8
fe
03
01
06
f7
03
03
09
05
06
06
02
02
fc
06
02
01
0b
04
04
ff
03
05
00
03
09
f9
1a
01
05
07
02
03
07
03
00
05
04
03
1d
04
03
02
03
08
04
03
df
00
03
f7
07
1b
05
04
01
05
04
ff
de
04
01
05
07
06
07
fc
00
06
0a
02
02
04
fc
f8
08
0f
03
00
01
06
06
ff
0d
01
ff
03
01
04
01
05
07
ff
02
12
01
05
f5
04
fd
f5
06
04
05
03
f9
08
19
03
08
00
02
05
05
06
05
fc
05
01
04
07
17
02
fe
00
04
03
06
04
05
fd
fc
02
04
02
05
04
02
e2
01
d2
1e
f5
02
02
ea
05
04
fe
08
fe
02
f8
06
1a
06
03
0d
e0
09
03
08
02
02
05
02
0c
07
03
05
02
06
04
07
05
1b
ff
1c
09
19
03
04
fa
ff
0f
04
05
fc
08
04
04
1d
fb
23
08
05
fe
ff
fc
18
06
02
07
03
0a
f3
16
ff
02
02
08
07
03
08
06
e2
03
06
04
ff
02
08
04
fc
09
08
f4
06
07
06
05
09
fe
f3
f5
08
02
06
fd
fd
f4
05
04
05
03
04
00
02
02
08
08
02
f9
03
da
fd
09
07
09
f4
01
06
ff
06
02
08
02
05
07
fd
02
01
00
04
07
05
01
f3
08
02
04
05
00
00
0c
01
fd
04
04
03
04
ff
ba
02
fa
09
04
fb
02
00
01
fd
0b
09
05
1a
fd
03
06
07
fe
e3
02
01
02
01
fd
03
1b
07
04
0d
07
fe
04
03
04
05
04
04
05
02
07
08
00
01
09
03
00
08
03
00
06
01
02
05
03
06
05
05
09
ff
08
04
00
df
ff
0a
04
03
08
05
fc
e2
1d
00
00
07
02
21
03
05
fb
00
e5
09
08
fd
fa
ee
02
f9
03
04
e2
05
05
09
d2
03
fe
01
07
00
23
05
03
05
07
08
03
06
fa
f4
09
fe
03
ff
0b
e4
06
04
18
02
08
04
d4
16
02
03
03
03
05
04
06
f8
02
04
03
06
02
03
05
fe
fa
00
04
05
df
19
03
04
fb
04
06
01
0a
02
08
06
03
03
f2
08
06
02
04
ff
07
e1
05
02
fe
00
05
07
02
ff
1b
07
04
06
fc
05
03
0c
07
04
02
04
04
ff
fd
03
07
00
04
0f
fe
c8
08
f2
0d
1f
04
ff
05
07
0b
09
06
09
01
04
06
06
05
db
03
08
02
04
1f
03
01
02
07
05
05
02
fa
ff
03
fb
07
07
01
01
0c
18
f1
f9
03
e8
01
05
08
fb
16
ff
09
05
02
04
05
08
02
0b
07
f8
02
ff
00
05
06
f8
01
04
04
03
04
fd
07
04
06
05
01
1c
fe
04
07
03
20
01
0c
f1
07
10
05
03
fd
03
02
02
09
0f
f1
04
1e
06
03
16
03
f5
10
03
09
fd
0c
0b
fc
00
03
09
0b
00
01
04
05
03
02
f2
fe
04
02
03
ff
f7
02
03
09
08
ff
09
03
03
03
07
02
04
02
e8
07
0a
e5
fa
0a
02
01
22
03
00
09
05
05
1d
05
04
02
02
ff
01
06
0a
14
05
02
e0
1d
00
07
02
fe
09
fd
04
0a
00
03
00
04
05
fd
05
06
02
08
1d
06
04
fe
08
08
02
05
00
03
06
00
02
04
01
04
ff
03
08
ec
04
04
03
04
07
fc
01
03
05
ff
0d
08
e5
fe
df
dd
01
e9
03
06
04
ff
03
06
00
00
03
03
fc
ee
03
19
e3
f6
04
f8
09
06
03
04
01
01
fa
04
06
01
f8
ff
0d
04
06
03
00
03
04
03
04
01
fb
11
09
02
00
02
07
04
00
fa
04
09
e0
ff
0a
02
07
04
04
04
05
18
0b
e2
02
00
02
05
09
03
01
02
04
1e
0d
fc
07
d4
df
02
02
f3
02
04
03
06
03
f3
18
fb
e5
04
1b
04
01
07
ff
03
05
03
04
05
04
04
02
03
03
00
0b
03
05
04
04
06
06
04
19
03
04
0b
05
e5
09
06
f3
03
04
04
02
05
07
06
04
1b
03
05
02
08
04
04
fb
04
04
04
14
21
04
04
08
03
01
05
05
09
02
01
07
0b
ed
03
02
05
0a
06
05
03
04
08
04
ff
04
f6
08
02
04
02
04
07
07
04
03
10
ff
01
fc
05
01
02
07
04
05
02
08
fd
06
0b
05
04
02
04
06
05
12
03
05
02
02
02
07
02
fc
07
02
f1
ff
f3
05
f7
00
07
02
04
08
04
05
03
05
01
ed
05
06
03
05
04
05
08
01
f9
00
02
05
fc
03
01
f8
00
05
06
04
03
fd
04
03
1e
04
07
00
05
02
06
08
04
06
fb
02
ff
06
f7
13
05
fe
04
06
04
04
00
05
09
f0
ff
e6
fc
04
03
05
fe
06
fd
05
f1
0a
07
02
02
fe
e2
fe
04
08
06
06
03
01
02
ff
e1
0e
05
05
05
04
06
04
05
1b
f0
01
02
0a
fc
01
0b
f5
f0
03
00
01
02
08
01
00
06
02
03
08
02
03
02
15
06
03
fc
e6
03
ff
01
00
03
fd
07
04
03
01
04
06
02
06
04
03
09
04
05
04
09
04
05
00
03
05
06
03
00
05
04
02
04
00
01
05
fc
06
07
fc
fc
02
02
ee
00
14
00
04
03
0c
03
03
f3
07
03
05
03
05
04
fc
07
03
04
03
04
ff
00
fe
00
01
00
03
ec
06
fb
fd
00
f4
01
05
01
02
fb
ef
fe
02
01
f5
03
00
01
f9
00
0d
02
02
03
07
f9
03
06
08
04
02
04
13
01
fd
02
fe
02
04
01
01
00
01
06
16
00
fc
fe
e7
01
01
03
05
01
03
03
ff
f8
03
01
f5
00
00
06
02
02
00
02
0d
f1
02
f9
03
f4
03
03
ff
01
fe
ff
0c
03
f8
03
08
00
01
fd
00
ff
13
01
01
03
1e
fd
04
07
03
07
ff
03
ff
fa
f7
02
fd
08
00
06
01
13
07
fe
ff
05
01
00
fb
01
fe
fa
01
03
04
03
01
06
f5
00
f3
04
ff
03
03
02
05
fe
02
00
01
02
f0
01
ff
ff
07
02
02
01
02
fe
fe
00
03
02
fd
02
00
06
fe
08
f8
00
fb
fd
0b
02
02
fc
ff
fd
04
f6
04
02
03
03
02
0b
04
02
fb
01
02
ff
06
07
03
01
fd
f7
01
f5
02
01
f4
04
f0
00
f4
00
04
fd
09
f3
01
05
ff
06
02
00
f6
fc
f0
06
01
07
00
fb
f6
05
04
02
03
fe
f6
f2
00
02
02
04
01
ff
05
00
0e
03
03
01
01
01
fb
03
08
02
00
f5
01
04
fe
ff
f9
fc
f6
f4
02
0a
07
00
01
fa
07
03
03
ff
01
00
01
02
02
fd
02
ff
01
0d
fe
05
01
03
0a
ff
04
f7
03
06
00
fe
ff
01
09
03
ff
ee
fe
01
03
00
f4
01
00
04
04
fe
01
02
02
ff
01
07
00
02
fd
f6
fe
fb
00
03
f3
02
08
00
03
f0
04
f4
f2
fe
02
03
fa
fe
08
01
01
01
00
ff
00
f6
01
02
f9
00
ff
00
01
08
06
00
01
06
00
02
03
00
03
08
fc
03
01
01
ff
02
10
f2
02
00
00
04
00
03
01
01
05
ff
fe
ff
03
04
02
00
03
fe
fd
f3
f3
ff
02
00
f9
f6
01
03
03
0a
0a
01
00
02
ed
00
fe
02
0c
0c
fe
fe
06
07
00
fe
00
e4
02
f0
02
fe
02
01
07
00
04
fa
ff
06
fd
02
fe
0c
08
ff
02
ee
02
0c
00
1e
f9
f0
fe
03
02
03
ff
04
fc
04
03
00
03
01
02
ff
ff
00
fd
01
04
0c
f8
01
01
fc
01
04
01
0b
01
02
02
ff
01
eb
00
09
04
fe
05
f0
0b
fc
04
fb
fb
04
ff
ff
fc
ef
04
01
fe
fc
03
03
05
00
01
01
00
04
ff
ff
02
ff
fb
02
07
ff
06
03
05
05
f3
ff
fd
00
03
fd
06
00
06
fe
01
04
ff
00
12
00
04
01
01
ee
02
04
02
ff
0c
03
00
f1
00
03
00
08
04
04
02
06
f1
f9
04
05
05
f3
01
06
ff
f5
f5
06
05
03
05
05
0b
fd
03
04
00
06
ff
01
03
04
fa
00
03
02
02
01
01
08
00
04
03
00
eb
ff
01
fa
fe
ea
01
04
f0
04
02
06
05
04
00
01
01
02
f0
f5
01
ef
02
01
f7
00
f5
ff
02
0f
03
06
03
ff
00
00
05
06
00
02
03
01
01
03
f7
fd
01
ff
00
00
fd
00
02
05
0d
f3
04
fd
04
02
08
02
06
04
03
06
fc
03
f8
01
00
01
ee
03
fe
03
05
00
f0
02
02
01
f7
00
01
02
10
f4
00
01
0f
f2
01
05
00
0c
e5
fe
01
06
04
02
ff
fe
ff
00
00
08
02
01
f6
06
06
03
05
05
04
05
08
01
06
00
05
01
05
01
06
04
02
fa
03
01
02
03
fe
00
01
00
f9
fc
03
02
09
fe
0c
08
10
08
00
07
fe
fc
02
05
01
02
01
00
01
05
fe
f2
07
fa
02
fc
fb
05
f3
04
00
01
fc
04
fe
03
05
fe
fb
ff
06
02
02
fa
ff
fe
01
01
10
02
fd
00
02
06
04
01
fd
11
08
02
0e
e6
00
f9
01
05
01
00
01
f8
04
08
05
07
f4
06
01
00
f3
ff
02
f1
0b
0a
01
06
08
05
02
06
04
ff
01
04
02
f9
fa
ff
08
04
f2
03
01
fe
00
01
00
02
01
01
08
03
f0
03
02
ff
02
f9
02
02
f4
02
f3
02
f2
02
04
fc
04
0e
06
00
f8
02
04
04
f5
03
04
04
fc
f2
01
01
01
02
fe
01
00
05
03
04
f5
fc
fe
07
ff
03
00
06
06
03
02
00
05
01
06
02
05
06
ec
05
02
00
ff
fd
01
ff
00
f7
03
01
01
02
fe
03
04
03
00
f5
03
00
fe
05
fe
03
05
06
02
01
02
03
01
01
02
00
ff
f7
02
05
0b
0c
02
fd
01
fd
01
00
ff
03
00
03
00
fb
01
fd
00
05
ff
fa
04
00
04
03
04
00
fc
fe
01
02
02
03
02
04
ff
fd
00
ff
04
fd
06
02
03
01
03
05
01
03
03
02
ff
f4
03
03
ff
05
04
04
0d
02
05
ef
01
e6
fd
fc
e1
ff
fe
01
04
02
02
fb
03
00
05
07
06
ff
04
02
01
08
04
fd
01
f2
03
00
ff
01
fe
09
05
02
03
05
02
02
ff
02
00
0a
ff
06
03
05
ff
02
02
06
f2
09
ff
02
fd
fc
02
07
f7
00
fc
fc
00
01
09
01
00
00
01
02
05
01
02
ff
f3
04
01
0b
0a
05
ff
01
02
ff
ff
01
03
fe
00
ff
02
04
07
00
02
09
02
00
04
00
03
02
f9
fe
04
05
00
fb
00
04
02
08
03
fe
05
fc
02
05
fc
fc
03
05
04
f8
f5
fd
01
0f
fc
02
06
e2
12
05
09
05
08
05
fe
02
fe
0a
03
03
01
ff
fd
04
fc
09
07
fe
ff
fb
fe
02
f0
ff
06
04
06
fb
fc
03
03
05
e4
03
1d
04
0a
03
fa
06
05
05
12
f5
06
04
0c
08
03
07
21
02
fa
fb
03
07
0c
04
06
f9
05
09
16
03
f5
03
05
07
01
03
0d
03
08
0b
04
e4
04
03
fe
05
fd
07
02
09
01
03
fe
f0
01
f4
06
fd
05
03
01
04
00
fe
ff
07
f1
03
13
f5
07
f8
01
09
1a
fe
03
04
f9
fc
06
09
04
06
02
07
fb
f9
01
01
ff
14
01
09
00
1e
0a
fc
05
fa
00
0a
f3
04
fe
f3
07
07
0b
03
0a
08
01
04
cf
04
02
04
03
06
08
fc
02
00
07
08
fe
00
fe
00
0d
06
05
06
05
f9
fd
02
05
06
fe
03
05
fd
01
ff
ff
f7
f7
fc
ed
0a
04
02
00
fe
04
f4
05
05
06
04
00
07
fd
03
0c
01
02
fb
0f
07
09
02
ff
f3
07
ed
01
06
fc
fc
00
f7
fa
02
01
fd
2b
f8
fe
07
fe
10
06
02
ff
fa
fd
02
07
08
ff
fd
00
0a
09
03
04
f5
f2
06
04
06
02
08
04
04
06
f9
02
03
05
03
06
02
fb
08
15
09
0a
f4
ff
06
00
fc
f8
fe
ed
f1
09
0e
16
03
07
f7
0f
05
03
fe
04
00
03
07
06
04
03
fa
fe
04
fc
09
fb
07
fa
02
07
f0
01
06
fa
fe
05
0b
18
0e
ff
ed
05
02
09
01
f1
0f
ff
07
06
fc
06
f5
05
fe
03
06
03
00
fe
2e
fd
fc
0f
05
f1
03
19
01
09
ea
15
f3
fe
fb
04
06
ef
fe
03
fd
01
03
00
ff
03
00
ff
0a
0a
04
fe
03
03
12
0d
fd
fd
09
01
06
03
00
04
27
f6
08
03
01
fc
01
16
da
06
04
05
0b
05
08
05
fd
08
01
02
fe
07
08
04
07
02
f9
04
c3
e7
fb
04
03
fe
e7
05
07
00
03
1e
fb
00
f6
15
ff
fb
04
12
06
03
fc
08
01
02
fe
02
05
05
f9
03
02
05
07
09
01
fa
fc
0d
0a
fc
03
06
07
07
03
05
f9
05
0b
ff
fc
ff
ef
fd
04
00
03
fd
0a
f6
0b
06
04
08
02
00
04
fd
f8
fa
04
06
01
01
03
06
fc
02
05
02
fd
02
07
08
02
06
e8
01
10
09
f2
0b
e7
fa
fd
05
06
f9
06
04
00
fe
01
07
04
07
fc
02
04
08
fa
04
02
05
09
fd
fc
05
fc
fa
03
14
fc
09
07
03
0b
fd
fe
fd
01
08
02
00
00
04
00
02
03
f6
03
ff
02
04
03
02
05
13
10
03
0c
1d
06
01
f2
ff
03
00
15
07
08
01
07
fc
f0
12
07
02
f1
fd
09
fe
fa
f2
0b
09
03
04
05
0f
02
fa
08
f6
06
ff
00
f9
09
f5
02
04
02
02
02
14
10
04
07
06
01
fe
fe
04
f5
06
fa
03
0e
f0
02
ec
0b
02
0e
02
01
ff
ff
06
ea
02
ff
04
03
06
fa
f5
fb
04
0e
0d
0e
03
fd
00
04
08
0c
01
03
03
05
05
07
ec
fb
03
00
02
fe
02
00
05
fb
13
ed
14
fd
05
10
16
02
06
09
ff
10
f1
04
f9
07
02
01
fe
03
fc
03
07
04
03
00
03
01
f1
09
01
08
06
fc
04
01
ff
ff
fa
0c
00
1a
04
fe
04
fa
0d
05
ff
04
fd
fd
fa
09
03
fd
ff
0c
06
05
05
04
00
0b
2c
01
0e
01
03
01
04
03
0d
03
fb
02
08
04
01
04
0c
0e
09
03
f1
f8
0a
f3
06
fd
f3
f5
14
05
03
09
fd
fa
03
06
0a
08
03
04
03
03
03
fe
03
f1
ff
fa
f7
04
ea
03
fe
01
fc
0a
fe
0e
0f
fe
16
01
08
06
09
f2
01
fd
05
01
22
ec
06
01
0d
15
07
fc
f8
1d
13
05
fa
e8
f5
f9
05
04
03
fd
05
fd
0b
fe
06
12
dd
0a
0b
fb
e8
02
01
04
0e
05
04
09
00
09
03
fe
07
01
04
05
ff
f3
ff
fe
08
09
fb
03
fe
06
00
02
03
02
04
03
02
06
e5
04
03
fe
fa
f2
05
01
ed
04
ec
05
00
04
04
0d
03
03
0c
03
f3
04
03
03
dc
04
12
09
fb
00
05
00
fe
02
04
07
fb
04
03
05
03
ff
03
09
03
04
01
0c
08
01
05
01
05
f3
fa
06
07
13
ec
06
01
03
07
ff
03
ff
05
f8
04
01
03
07
05
08
08
06
ff
03
08
02
fd
09
fb
04
07
12
08
00
02
00
07
06
05
02
01
f6
02
05
bb
22
06
fd
07
fe
fb
02
f8
08
00
07
ff
f9
08
fd
00
06
00
fc
09
01
04
05
f9
fd
f0
06
07
05
05
05
03
08
00
fd
01
02
05
fb
13
05
10
02
04
03
00
03
0b
05
03
04
05
09
ff
05
08
00
0d
06
07
ee
02
fc
fb
fb
f3
02
fd
06
04
04
04
f9
04
09
0c
1f
06
fb
05
05
fe
2a
05
fb
ff
f5
f8
06
01
01
fd
fc
0c
07
f9
09
02
03
ff
01
ff
fb
05
04
03
09
02
08
04
16
01
fd
01
07
f7
fa
0b
0e
f7
e9
f9
ff
02
03
07
01
01
07
02
01
04
02
04
03
02
07
ff
0c
03
04
fe
01
0b
fc
01
02
07
02
01
ff
05
07
0b
04
02
1a
03
ff
03
fa
07
05
f6
fb
04
04
04
fb
07
00
02
02
06
01
08
fd
fb
0d
fa
fc
04
0c
fc
ed
00
00
06
22
f3
02
03
f3
06
02
04
02
03
02
fc
f1
03
04
03
04
00
00
fe
00
01
00
04
0a
f8
fb
fd
01
12
02
04
01
01
fa
12
ff
02
01
f4
03
fe
00
09
00
f0
02
03
03
07
fa
02
07
08
04
02
03
12
00
fd
02
fe
01
03
01
02
ff
01
06
14
00
fb
fe
0e
01
ff
01
05
02
03
02
ff
f8
02
00
09
01
ff
05
02
03
00
02
ef
f3
02
fb
03
0d
03
02
00
01
ff
ff
f4
03
fa
03
07
00
01
fd
00
00
12
00
01
02
dc
fd
04
07
02
06
ff
03
00
f9
07
01
fd
05
00
05
00
10
06
fe
00
04
01
03
fc
00
fe
fb
02
04
01
03
01
05
03
ff
f2
04
ff
03
03
02
04
fd
02
01
00
02
0a
01
ff
ff
06
02
02
01
02
fe
fe
ff
03
01
fd
03
02
fd
fe
fa
07
01
fc
fd
f9
01
01
fc
00
fd
04
f6
03
03
02
03
03
ec
05
02
02
00
02
fd
05
07
02
01
fd
f8
00
f6
01
02
05
06
0c
00
0c
00
02
fe
08
08
01
04
ff
06
01
00
09
fd
0e
06
01
07
00
fb
06
05
04
01
02
fc
f7
0a
00
03
02
00
01
00
04
01
f2
03
03
01
01
01
fb
02
08
03
00
f6
01
02
fe
ff
fa
fc
f8
f4
02
09
05
00
fc
fa
06
04
02
00
00
00
00
01
01
fd
02
fe
00
e8
fe
05
01
03
f4
ff
04
f7
05
05
00
fe
fe
02
08
02
ff
f0
fe
ff
04
00
f4
02
00
03
04
ff
00
03
03
00
02
06
02
02
fe
f4
ff
fb
06
03
f4
02
0a
00
03
f3
04
f5
0a
fe
01
02
fa
ff
f0
01
01
02
00
ff
00
06
01
01
fd
00
ff
ff
01
07
06
ff
01
07
00
01
03
00
03
09
fd
03
02
00
ff
03
10
f2
01
00
00
03
00
02
00
02
05
ff
fd
ff
05
04
03
ff
03
ff
01
f5
f3
fe
02
00
0d
f8
01
02
03
f4
08
00
00
03
ef
00
fe
02
0b
ea
fe
fe
06
ee
00
ff
00
12
02
0c
02
fe
02
02
06
00
04
fb
fd
06
fd
02
ff
0b
f4
fe
02
12
02
0c
00
e1
09
ef
fe
03
02
03
ff
04
fc
03
04
00
02
01
01
fe
ff
00
fe
01
03
f4
0a
02
02
fc
01
02
01
0a
01
03
02
00
00
ee
00
07
03
fe
04
ee
f7
fc
02
fc
fc
02
ff
fe
fd
0e
04
01
00
fc
01
02
05
00
01
01
00
03
ff
fe
02
ff
fc
02
08
ff
f8
03
f8
03
0d
00
fd
00
02
fc
07
fd
04
fe
01
04
01
01
ee
01
04
01
02
09
00
03
02
fe
0b
03
00
ee
ff
02
00
05
04
04
02
06
0c
fa
04
05
f7
f3
01
08
ff
0a
f6
04
05
02
05
05
09
fa
03
02
01
06
ff
02
05
01
fb
00
02
01
02
01
fd
07
00
03
03
00
0f
ff
02
f9
fe
11
01
02
f5
04
04
05
06
03
00
01
01
04
08
f7
02
11
02
01
07
01
f7
01
01
f3
03
06
04
ff
00
ff
05
06
00
02
03
00
00
01
f8
fd
01
ff
01
00
fe
ff
02
04
0d
f3
02
fe
04
01
08
01
05
04
02
07
fb
f1
fa
02
01
01
11
02
fe
03
04
00
0f
02
02
01
f8
fe
01
02
e4
0b
00
00
ed
0d
02
03
ff
09
11
fe
01
04
04
02
ff
fd
00
ff
00
07
03
02
0a
05
04
03
03
06
03
04
08
01
05
00
05
01
05
01
06
03
02
f9
03
01
01
01
00
01
01
00
f9
fa
02
01
f2
fe
f3
f4
10
f1
01
06
fe
fc
02
03
01
02
01
ff
01
f9
fd
0f
f5
f9
02
fd
fd
05
f4
04
00
01
fc
04
02
02
04
fd
fc
ff
06
02
01
fb
00
fe
01
01
13
01
fd
00
01
06
04
01
fd
0d
08
03
f4
e6
01
fa
03
05
01
01
01
f6
03
f4
04
07
f6
05
00
ff
f4
fe
01
0b
0a
f1
02
ed
f1
05
02
fa
03
ff
00
05
01
f9
09
ff
ef
04
0b
03
01
00
00
00
00
01
00
01
08
03
f1
03
01
ff
05
f9
02
01
f7
01
f4
02
0a
02
04
fc
04
ef
06
01
fb
02
04
03
f5
02
04
03
fa
0e
03
02
01
03
fe
ff
00
04
04
05
09
03
ff
05
ff
02
00
05
03
03
01
00
04
ff
f8
01
05
05
e9
03
01
01
ff
03
01
ff
00
f8
04
01
01
02
ff
02
05
03
00
06
02
00
fe
04
fe
02
05
06
01
02
02
05
01
01
02
00
ff
f7
01
03
0d
0d
01
fd
01
fe
01
00
ff
02
00
f8
00
fa
00
fd
00
05
ff
fb
04
00
03
03
05
01
fe
ff
01
03
01
03
02
05
ff
fc
00
ff
03
fd
05
02
f4
01
02
05
02
02
03
01
00
09
03
03
ff
04
04
05
0c
01
05
f1
01
e9
fd
fd
22
00
ff
02
04
01
03
fc
02
02
f5
06
f4
ff
04
03
01
08
05
fd
02
f2
02
02
fe
02
ff
f4
04
01
02
05
02
02
ff
01
00
f1
ff
08
02
05
fe
02
01
05
0a
f5
ff
02
07
fd
02
06
f8
01
fc
fd
01
01
09
01
00
00
01
02
04
01
01
fe
0e
04
01
0a
f7
05
ff
01
03
ff
fe
01
04
fe
01
00
02
03
08
02
01
06
02
01
04
00
02
01
f9
fd
03
03
01
fc
00
03
02
07
04
fe
04
fd
02
05
fb
fd
02
04
f3
f8
0a
fe
01
0f
