e5
1e
bb
c4
16
f7
c5
e3
d8
10
f6
e0
d3
00
f3
21
dc
e7
7a
cf
9a
ef
fa
b9
9d
bc
eb
f4
f5
ab
c3
fd
02
e6
17
e0
c8
db
db
12
f5
0b
e2
d6
db
d6
1c
bf
cd
cc
06
eb
e3
e5
18
01
d8
39
15
e9
0e
f9
08
e4
b2
49
f6
01
b2
0a
d0
04
e2
00
09
e7
bd
b2
c9
be
b7
41
be
f5
d7
1f
4a
fc
db
2a
a7
4b
91
c6
17
29
12
ac
e0
e7
23
d8
e1
24
b5
fa
04
c5
cb
e2
e0
0f
b8
9c
f0
64
24
de
a5
09
b1
0e
f5
a6
22
fb
51
c6
ca
0a
fa
c0
cc
21
0c
e3
c3
b4
5d
a8
fd
cd
12
b1
5e
e5
09
f0
f8
e9
cd
06
d8
be
08
c5
60
ab
b7
e0
ee
bd
28
b7
db
ef
b4
05
ec
b8
a1
ce
cc
16
26
b8
47
cb
9e
47
2d
2b
e7
e9
1b
ec
2d
f9
f7
ce
00
39
d1
17
0f
f9
ef
12
be
05
c1
dc
07
4a
ad
df
dc
7d
f4
87
11
cf
10
07
02
12
dd
04
d7
14
fc
15
54
dc
df
13
23
d1
f2
22
c5
0c
0b
07
c5
e0
ec
26
bd
f7
0a
41
e5
f4
0d
d3
3d
d3
c1
f5
d8
f4
be
e1
d0
c7
f2
0c
ec
c1
bc
17
fa
0c
0e
c2
0e
ee
18
a7
ba
0b
8a
db
f7
be
20
d3
f7
db
e5
c6
1a
d6
ce
08
9e
88
a4
79
ce
ed
2e
b7
f3
e8
13
b0
b2
3a
3d
60
95
c9
c1
dc
cc
14
e3
1b
f6
e5
fa
ea
c9
ba
00
c3
ea
f5
2c
f2
29
c6
c3
10
b2
c3
fa
a9
fb
af
00
0d
fa
0c
0f
ca
05
cd
ce
e0
e8
0a
c4
93
c2
d6
da
da
a7
b1
57
2e
f5
fc
02
e9
05
d9
e1
f7
94
ee
0b
ad
05
06
c8
d5
a1
f6
10
97
cd
8a
c5
d8
d1
e3
ed
cf
2c
28
f3
de
46
d9
f9
12
f9
15
1e
36
1c
15
cd
c2
02
f2
d3
ad
00
f0
3b
2d
c5
0e
1b
c8
99
b0
e8
a9
0b
f0
43
b8
c2
f6
eb
c6
99
4d
f2
f3
37
bb
02
d5
99
c5
ee
cd
0b
01
f1
e6
93
21
2a
b9
f0
ee
d1
b7
ed
ed
5a
15
d0
b3
34
01
b9
fd
42
a2
d5
f0
2f
f2
d1
d9
cb
e5
9c
13
83
f5
d3
e5
fb
2e
c2
c1
d4
da
08
d0
e0
03
91
9f
da
e4
d5
13
90
ba
87
e2
c7
10
1c
9d
b8
de
0e
00
0e
b5
28
b8
8b
1c
bd
cc
f2
e4
d3
ef
df
12
d5
fd
07
11
ab
a3
b4
d6
04
9d
c9
28
e1
ca
84
0d
d1
d4
c4
1f
db
a3
e3
be
41
01
a0
ac
2b
af
ad
c9
f6
c4
06
0f
c1
f4
b8
be
0d
ef
bb
cb
f9
e7
dd
1a
00
bf
f1
e0
b7
e9
d9
eb
eb
c5
f8
39
f7
db
f3
6e
fa
db
03
1e
01
05
d4
de
08
d6
d7
be
f8
f7
a0
e5
9d
fb
da
04
a6
bb
0c
e7
f6
b9
81
0e
dd
1a
bd
ca
d3
e4
a7
50
ea
e0
2b
b0
bd
95
bc
fb
c4
f5
1e
09
fc
f3
07
ba
af
4f
d7
3f
b0
0c
c1
02
e1
7c
ee
f8
b8
4b
c3
cc
d8
d6
e9
f1
10
aa
fb
0f
e6
cb
bb
f1
b5
15
e3
20
a9
28
c3
e7
f9
00
dc
a1
ee
ac
