fa
07
02
0f
fc
fb
03
0a
01
f4
f7
f7
11
fc
04
df
05
f8
fd
fe
e8
f5
f4
e8
00
f3
fa
0c
fc
e4
f2
0b
0d
00
06
00
f8
2f
07
f8
fa
e9
fc
fb
0b
03
ff
f7
00
f5
fd
07
03
0f
ff
04
05
11
07
ea
01
10
03
f7
f1
ee
f8
05
f0
08
ef
f7
11
f9
ff
f4
f1
f7
f6
ef
02
02
05
02
fe
06
0b
02
f3
00
fc
fd
03
fa
ff
fb
16
fc
0a
02
08
eb
08
0a
fe
0f
04
06
00
ff
f9
05
0b
e1
ff
16
06
14
0f
f4
fd
fd
fe
fe
fe
ff
fc
02
f8
f7
fb
fc
02
fd
ff
fc
f5
e3
01
04
02
f7
06
0a
03
e2
fe
ff
01
f1
f8
00
f5
06
02
fd
fc
f4
02
fa
ee
f0
f2
f8
ff
f5
ff
00
05
03
f1
f8
06
17
07
07
02
fa
f9
07
09
f3
02
09
01
0c
00
f7
ff
05
1b
16
ff
fd
03
06
0a
00
de
02
14
07
02
07
05
09
ed
08
21
f8
0c
04
03
05
00
06
03
f9
0a
13
0a
05
07
01
fc
00
fd
f5
fa
0a
f4
03
fd
fd
04
f6
ee
06
eb
10
03
0f
0a
f6
04
12
fc
ff
0a
16
f5
05
f9
0a
f5
f2
e5
00
f6
ef
f9
1b
f9
e2
06
ef
02
ff
fe
f7
f5
00
e7
ff
f4
11
3a
f0
ef
fa
02
08
f8
fb
f9
07
ec
05
e9
07
03
09
fb
fd
03
00
08
ea
f1
0f
ff
09
0d
fb
fa
e1
fb
fc
0c
09
f6
fc
e9
20
f2
fa
f9
f7
f8
ee
fe
0c
01
07
f3
f9
f7
f2
fd
fc
06
f9
fc
fc
06
0c
03
03
03
ee
f3
09
f5
fc
09
09
04
f9
fe
0e
f1
fe
18
01
02
01
04
fd
fc
ff
ff
fc
0e
03
fc
0d
fe
03
0a
ff
09
fc
fc
03
f8
ed
03
00
01
ed
03
f5
e3
fe
fd
11
06
04
18
00
fd
fd
ff
04
03
02
fe
e8
01
f9
f6
01
ff
f6
08
29
03
03
02
f9
f7
ef
fb
18
ff
fb
08
f6
01
0e
01
fd
e8
fa
f8
16
00
12
fc
04
e8
f0
0a
f1
f5
01
14
03
f8
03
0a
f2
fe
13
fa
f7
ee
00
f9
ff
ef
06
0a
14
fa
f1
f8
f4
0e
ed
eb
06
ec
0e
e9
08
fd
ff
f1
f4
02
00
ed
16
07
fe
02
01
f9
fa
f8
02
0b
eb
03
ea
11
02
f2
f1
f3
0b
e7
fb
fc
f0
f8
02
f8
01
00
f8
00
fc
fb
04
f5
fd
01
07
01
fb
05
ec
02
fb
01
0e
f9
1e
23
e5
f1
f9
fb
0f
05
d9
e5
03
ff
02
ef
fa
f2
fa
f5
07
0a
03
01
ff
04
e6
1b
fe
f0
f7
fb
e8
f8
f6
f9
ef
fe
01
08
fe
ef
16
ff
fe
fb
f8
02
ec
f7
00
f6
fa
f0
fb
04
16
fd
02
f2
f7
f9
fb
ff
ec
06
f6
f6
f5
ec
17
01
04
02
08
13
ec
f0
ff
fc
ff
ec
ef
f4
f0
f4
02
01
f7
01
fe
ea
07
f6
eb
f8
02
0b
ff
e6
fc
fc
fb
fe
ff
26
fd
0a
fa
ff
02
0a
f7
fd
f6
fe
fe
fd
02
13
07
fa
fd
fe
e5
06
0f
f8
f9
01
fb
05
03
03
db
04
0c
01
03
04
ec
f2
18
da
fe
fa
e3
fc
f7
e9
ec
e8
0b
0d
01
f4
fd
07
ef
fd
08
f4
f5
fb
fa
0b
f4
f2
fb
11
f1
09
03
02
f6
ff
01
09
e5
f2
14
f9
fe
00
12
03
fa
f6
fa
f6
db
08
e5
05
07
09
fc
fe
f5
00
e8
ff
1e
04
0c
fe
18
22
04
01
f8
fc
11
02
f3
f7
fa
fd
02
fc
07
e9
f5
23
0a
05
ff
fc
fd
05
0e
03
0b
fe
f5
f6
fe
16
f1
00
06
01
fe
eb
03
e8
06
f0
f6
f7
f5
f1
f9
0f
01
fa
fa
03
0e
e6
09
07
fc
0b
fb
ff
fe
18
ff
fc
0c
1b
09
fa
f1
ff
fc
ff
0d
fc
01
09
00
f3
f8
05
0f
05
f9
07
15
04
fa
09
05
02
16
02
02
09
f4
01
09
09
04
08
00
09
f7
fb
ea
0e
ff
fe
09
f1
14
11
0d
fd
18
05
06
01
15
05
e8
fb
20
eb
f5
07
f3
01
fb
ea
e4
fd
03
fd
f9
fb
03
f6
fd
fc
fd
0c
06
0a
ff
02
05
fa
06
1f
f7
00
00
ed
0c
0a
15
f8
fb
f5
04
02
fd
06
00
f7
04
01
f3
f2
f9
0c
e0
f8
f5
0a
23
fc
00
0f
09
06
fb
12
03
11
fa
ee
fe
0c
de
03
01
03
09
ff
f3
12
06
0e
02
02
04
fc
06
12
05
e2
00
04
00
fe
f1
fe
15
0f
00
07
fe
e6
02
f9
0a
0b
09
03
fb
ee
fd
fe
13
ff
fe
f4
01
ec
f1
e8
04
f8
10
14
04
fa
05
fa
fc
e1
f5
ee
0b
fb
f0
08
fa
01
f9
09
fa
08
04
f3
04
fc
00
05
fb
0e
04
02
08
ec
f5
e1
11
15
07
f9
f9
02
00
0b
f5
ff
fb
01
04
f6
09
09
e9
07
f6
ef
0e
f8
29
fe
f0
01
11
ea
f9
01
06
f8
04
08
01
01
f8
1a
08
fd
06
f3
fb
0f
f4
20
fe
fe
09
fe
16
ff
16
16
f5
15
f4
16
03
fc
00
00
f9
08
fe
0d
f5
02
02
04
06
f8
ed
fc
00
ff
ed
00
eb
01
e7
fc
05
00
ff
ff
ef
00
0f
02
fb
fe
09
1d
f2
f3
ff
1c
09
ef
08
fd
00
ed
fb
0b
22
f6
fc
f2
02
fc
fe
f6
02
00
00
05
04
f9
e6
dd
f8
fc
00
05
00
f7
f4
1d
fe
f4
0d
0d
09
0a
fb
e8
04
08
0d
13
fb
09
13
08
f6
fb
00
1b
fb
0e
1d
fc
01
fe
01
ef
11
02
ec
0a
00
fe
18
0e
01
f9
05
ee
12
f2
10
1b
fe
ff
fe
fd
f4
1e
fd
f9
00
04
09
0c
07
09
1d
ee
fb
0c
0c
12
09
16
0b
07
f5
10
0c
f7
05
06
08
f8
01
ff
f2
f0
fe
fb
11
fc
07
07
e6
05
06
f7
fd
f6
f4
ff
f8
09
fe
05
17
fd
ff
0b
05
f9
fe
02
02
ff
06
1c
f3
f8
eb
fe
f5
ed
f8
f0
0a
ff
02
fa
12
f5
10
05
0a
fa
05
0f
01
f4
02
09
0b
09
f0
03
1f
09
f6
fb
05
fd
08
fb
19
f8
ec
fc
02
01
f7
0e
ef
fd
f7
ff
f5
f1
eb
f0
1f
f8
fe
0b
01
ea
f4
f2
05
e8
01
fc
0f
19
0c
00
ff
fd
04
fd
0b
f3
fe
f9
04
fd
f9
ed
e9
02
fd
10
fd
01
01
ff
04
ff
00
f4
f7
f6
f8
eb
00
23
14
01
02
fc
f0
13
fd
07
1c
fb
fe
05
f2
f8
06
f2
f7
0a
02
01
f0
e7
08
f9
f8
f2
03
fc
0b
f7
fb
29
14
23
fc
ee
02
ea
fd
01
0e
0b
15
fb
15
f1
06
09
07
f8
00
f8
f2
07
f5
03
12
00
ea
f3
f6
f4
17
fb
05
fb
fc
ff
01
04
01
ff
01
fa
0e
ed
05
06
05
0e
fc
08
0d
fe
f0
06
f2
08
10
f6
f6
e3
06
f7
fd
ff
fd
ff
00
02
09
fe
0e
fe
f7
f9
f8
f0
ff
04
ec
f5
12
0c
f5
0c
ff
f4
0c
07
f7
01
03
0d
e8
f9
15
f6
08
f5
03
01
02
07
01
fc
15
04
fe
fa
01
0a
f9
f6
ef
f8
ff
12
0d
00
01
03
04
fa
ef
05
ff
fe
07
fc
fe
05
fd
fd
06
f9
08
f9
24
f5
12
e4
f6
e3
03
f9
01
f9
ff
01
14
08
ff
fb
09
06
06
07
f5
03
fb
0a
23
ff
f5
ff
01
06
ee
04
08
00
0e
f3
fe
02
05
fe
0a
09
fb
fd
02
fb
f6
10
14
f9
15
07
fd
09
01
03
fb
fa
02
0e
07
f4
02
fe
f7
0d
f3
fe
03
ff
f0
e4
ff
0b
03
f6
fa
fb
00
1e
02
0e
13
fb
04
01
02
fd
15
ff
09
ff
04
f1
fb
0c
f7
e7
08
f8
01
fa
14
ee
0a
fe
fa
0f
f5
15
06
0b
00
f8
0a
02
fb
0d
04
0a
06
f6
fa
fa
f9
ed
f4
03
0b
13
f8
07
f3
06
f9
03
17
13
f8
17
fd
fb
04
00
00
fb
fe
01
ef
17
01
fe
f6
d7
fc
f1
e9
fd
1d
03
12
02
05
f1
04
f7
09
00
14
f1
fe
f5
fd
0d
0a
0b
fa
fa
15
03
05
fc
f9
00
03
fa
ea
0b
ed
fa
fe
02
fb
fc
00
06
02
fb
0e
11
14
fe
f9
f7
17
ff
ec
fb
04
08
fd
e5
04
04
09
2c
df
f3
f4
fe
03
09
06
02
15
01
fb
02
06
03
fd
fe
fb
ff
fb
01
01
f6
05
01
eb
08
00
01
fa
fe
fd
f9
fa
f9
0c
17
03
08
ec
f6
f4
fe
11
fd
0a
fb
01
f5
04
fd
e1
f9
f8
16
fc
f4
0d
fc
f7
f3
04
e1
ff
02
fc
05
fb
05
f4
0a
0f
2b
fb
f4
07
e8
1c
02
ff
f0
f9
0e
09
0b
e4
11
fe
03
03
0b
08
14
00
fa
fb
fa
f6
ed
07
03
f2
fd
f7
08
07
fe
03
f8
e9
07
ff
fa
fe
12
04
0e
fb
f9
fd
12
0d
07
00
08
03
03
0e
fa
02
f4
00
07
2b
03
15
fd
03
0c
f9
ff
ff
18
f4
ee
fa
0d
00
fc
1c
02
f9
ff
07
0f
fd
fb
00
f6
02
fa
0d
fa
1f
f7
f9
f5
eb
09
0a
01
f5
de
ed
07
09
06
08
f7
f2
fe
ff
0d
00
f5
04
0d
fb
00
03
0f
09
00
fd
07
01
01
03
f7
03
e0
f9
1a
f1
03
f1
f1
10
fe
05
f3
fb
0a
0b
0c
fd
03
d9
fe
0e
f0
03
f6
02
07
17
fa
09
f7
02
f4
f5
f4
f8
10
00
09
03
fe
05
03
1e
04
0e
fb
02
f8
03
ff
f6
06
11
04
19
04
0d
16
fa
09
03
07
fd
05
06
08
02
03
01
fb
05
fb
12
f3
07
06
fb
fd
f6
00
0e
0d
03
00
f1
00
05
17
ff
e4
16
04
fd
11
fc
fe
03
08
13
fb
cd
e4
0b
fb
f3
fd
f9
0e
09
fc
09
07
03
09
f5
06
fa
0c
00
00
05
e9
25
0f
02
f3
fb
ec
18
03
02
fa
01
1f
02
fa
f6
fa
f8
fd
b1
fc
fc
f7
ff
fe
03
e6
03
01
26
12
fb
f8
0a
f2
0a
fc
f6
00
f4
fc
20
f6
f2
d6
ff
f1
07
f9
fe
0d
f7
ff
00
f7
f0
0a
0f
f7
0c
ff
fc
ff
fa
fe
00
02
fe
fd
ff
ef
11
eb
1e
03
fb
fe
04
fa
ef
f5
ee
f6
02
13
00
10
f9
09
07
02
09
03
11
d9
d8
ec
17
e6
02
fe
e5
05
ff
f8
eb
e7
0f
d6
0a
fa
09
03
e3
fc
09
0d
f3
03
fe
03
f2
10
02
ff
07
01
e6
fb
00
ff
09
00
ea
e4
0e
02
f7
2c
06
ea
f8
05
0f
e5
01
fc
f8
01
04
fa
08
22
f3
da
0e
cf
e8
16
05
ea
e9
fe
0f
ff
00
f4
e8
0d
e1
0b
eb
fc
fe
fd
06
fd
03
f5
df
02
02
09
f1
03
fb
f0
da
fd
ff
04
03
00
f6
ee
f5
e4
fb
f8
fe
f7
fe
f1
f7
fb
01
00
0f
f8
fa
04
06
f8
02
0f
fd
d7
d9
05
f6
e5
07
fe
ea
e9
f6
e1
0d
fd
ff
dc
fa
ff
ef
12
01
1b
04
ee
01
0a
0f
f9
fb
f7
f5
0c
13
f3
fe
10
f7
ee
e4
00
ee
fc
ed
fc
f0
09
fe
09
fc
03
f3
04
f8
f3
01
f9
f7
fc
00
fb
ea
f6
0e
03
0e
0d
04
fb
f7
e7
f8
ec
1a
fd
f4
08
05
f3
0e
f3
d9
f5
08
fe
fe
f3
fc
ee
05
f2
0b
fc
06
04
f7
f9
0c
fe
f5
f4
ec
f1
01
fe
ea
00
00
f9
f9
ee
0a
f5
e2
cf
ef
23
ff
f7
03
07
05
fb
f5
fb
fc
08
f3
04
f2
01
00
e9
fa
fa
f0
ff
f8
fc
0a
ef
ef
02
ef
fd
06
fa
f1
ea
0e
fd
0e
f4
fb
fa
02
fe
f4
fe
03
04
05
fb
f8
00
f7
0c
1c
ff
ef
13
00
02
fb
0d
08
ff
d8
01
02
0a
10
05
ea
f2
05
1e
08
e9
0a
00
e2
fd
f7
05
04
f5
f8
05
fb
fb
04
fc
fe
02
f0
09
fb
01
dd
cd
f0
ea
02
fb
fe
d8
f5
fa
f3
09
f1
fd
f6
07
05
f3
ed
23
e7
06
04
09
04
fc
e3
f0
e4
fe
00
09
fb
09
ef
05
00
0c
e6
f7
e5
02
01
f9
fc
01
eb
0a
03
0c
04
d9
fd
f3
f9
fc
f1
ec
e7
ef
07
fe
ed
f9
fc
fa
e5
0c
09
f4
05
f5
eb
f6
d0
cc
fa
05
13
05
07
03
1f
ef
f6
fd
10
0d
e9
f8
f5
f4
f5
07
04
00
bb
0c
06
c3
f5
ec
01
04
0b
f6
f8
0e
fa
04
fa
ff
08
21
09
07
00
03
f2
f1
fd
fa
e7
00
fe
f2
f5
09
03
e7
03
f8
0e
fb
07
f8
d9
eb
d9
f2
04
00
0a
f5
fd
fb
0b
f0
02
0c
ea
f8
02
07
ef
fb
fa
06
04
eb
f5
06
01
e3
d6
fe
fb
09
eb
e7
03
f2
fa
f1
02
fb
05
0d
06
f5
00
f0
de
e2
10
ff
06
f4
fa
ff
03
f5
fc
fd
fe
df
18
fc
d1
fb
ea
01
f2
05
01
fb
0f
07
10
dd
05
fb
f9
05
01
f8
0e
05
1b
05
03
10
f5
de
f4
06
f9
02
fe
f8
f7
fc
09
03
05
02
06
ff
e6
05
03
0b
09
fc
fe
0b
05
00
06
e5
03
05
fd
0d
f8
f5
12
fb
0c
10
08
fa
07
fa
0f
fe
0c
09
05
17
11
fa
eb
03
eb
11
08
f9
07
15
12
01
05
04
09
02
f2
02
19
06
fc
f9
18
fe
fa
f0
04
f4
04
e7
06
04
29
fa
f9
03
0b
f4
f6
e9
02
fb
02
fd
f9
02
ff
03
06
f0
0d
02
2f
f9
01
0a
ea
f9
07
ff
fe
fb
14
fa
ff
29
01
03
fc
0f
0d
08
fa
fd
01
f6
28
fe
06
02
08
fe
04
fd
ef
00
06
14
18
00
f8
fe
1f
00
03
01
0a
fb
3b
02
04
fc
19
03
03
06
03
04
fc
f7
08
fc
fb
04
08
04
01
fb
06
f4
0d
26
01
17
fd
fc
11
fd
ff
fc
f3
ee
02
0c
02
ef
0f
03
f1
e5
02
01
18
15
f4
0c
06
29
07
00
10
09
fb
0e
fe
fc
02
08
01
fb
ee
14
f6
fd
e5
f6
11
f6
06
fa
fa
fc
f3
fb
fd
ee
0f
0d
03
08
0a
15
0d
07
fa
fa
02
e3
ff
06
03
02
0c
f4
00
fc
f0
00
07
19
0d
ff
f8
fc
f5
0d
02
fe
fc
11
fb
10
04
f6
04
e7
06
ef
dc
ee
10
f5
fa
ff
fb
f8
03
0e
00
f0
04
ff
1a
e1
0b
f9
f7
02
00
01
fd
e9
f6
fc
01
e9
e9
fc
11
fc
fb
05
01
e5
15
f9
e8
ee
00
ff
fb
04
ff
ee
03
0f
fe
fb
03
17
f3
01
fb
f7
0a
06
08
04
00
09
fd
08
0c
04
05
05
02
f8
07
07
f2
0c
12
ff
01
04
fb
f9
ec
fd
01
fb
e9
e6
10
10
0c
03
fa
07
f5
04
04
fc
f8
05
04
04
fb
09
02
04
f7
06
f8
f7
fb
f1
00
05
08
13
19
f0
ef
f0
00
f2
f6
f0
02
09
f6
05
0e
d7
07
0c
fb
02
1c
fe
07
00
db
01
fe
fc
03
05
05
01
c7
0a
01
0c
f8
0f
eb
f8
ef
fd
07
17
ff
02
0e
05
e5
fb
ff
f9
e9
f7
00
ea
fa
12
00
00
00
01
04
08
00
03
03
0d
eb
ff
ff
f7
ec
06
08
12
04
0e
07
ef
eb
ff
f9
f5
03
fd
fc
fc
02
0e
f8
1d
17
28
fa
0c
08
0e
ea
0c
01
12
06
0d
fc
03
fe
02
fe
e6
14
fc
ec
fb
00
fb
0a
00
06
f6
07
f1
28
26
00
04
05
f7
19
13
1d
e1
ff
fd
22
f6
ed
f8
11
10
05
02
fb
11
1c
0d
e6
0f
0d
f2
fc
01
fa
00
1e
1e
0b
f4
0c
f5
0f
ee
18
01
db
f4
fe
0b
12
f8
24
f9
ef
f1
f9
fd
27
10
01
0b
f6
fb
00
fe
fd
0f
f8
fa
fd
09
0f
10
f1
07
0b
ff
09
fc
02
08
0f
f4
12
03
03
fb
06
fe
08
fe
29
f9
01
fb
f0
03
f6
03
f9
fd
fa
04
0a
1e
f9
f4
0b
fd
db
1a
13
fc
01
f5
09
26
08
ff
f5
03
08
f8
01
20
ef
f7
01
06
01
fc
00
fb
0e
09
f8
05
f9
1b
f7
0e
15
0b
fc
d6
07
01
01
08
08
00
0d
08
06
10
05
04
01
fb
23
f4
18
ea
0a
f9
f7
2b
1d
f7
03
0f
36
09
03
1a
1a
09
22
12
eb
0e
01
f6
06
f9
fb
f6
ff
f7
01
1d
e8
fa
14
fa
0e
1e
04
fc
fc
fd
f6
f5
06
ff
ff
e2
fd
10
fd
fc
f7
11
0b
04
ff
ee
f9
10
e3
03
e9
2a
0d
f7
45
fd
20
fa
1e
fa
f7
14
0b
fb
10
02
05
f4
f8
fa
ea
ff
01
05
01
fd
14
00
fe
00
fe
f6
f6
07
03
fd
e9
00
06
f2
ee
f3
01
00
ef
f8
ff
f0
fe
ef
ff
09
02
16
fa
06
f3
0f
fe
fd
f6
13
fd
11
f0
01
f9
e3
f1
fc
01
07
0f
01
ff
10
f7
e5
0f
d3
fa
0a
12
05
01
f9
03
ff
ff
01
02
fe
ff
02
02
07
08
f8
ee
02
e9
f4
ff
fc
fe
00
00
f9
f9
f5
fa
0e
ff
00
19
06
fa
fe
0c
07
fb
07
fc
f8
f9
f9
07
fc
04
f4
12
e9
fd
14
f6
0a
0d
0e
0b
e9
14
f8
ff
03
21
0b
f5
f9
f4
09
06
34
f3
0c
01
01
0c
e9
06
07
f4
03
0a
ea
f7
f5
15
26
fb
f4
1c
08
04
09
06
fa
f9
03
e7
eb
fe
ff
02
f6
f8
0e
eb
f7
05
fe
0a
04
0b
f1
0e
e6
fb
f8
f4
f5
09
f8
e9
09
11
f9
0c
01
03
16
05
f4
fd
09
0a
07
f8
fc
12
fc
08
fa
e9
06
e9
0e
04
03
f4
ef
01
ed
f2
ea
07
23
03
0f
0b
fe
04
fc
03
08
0f
f8
23
0a
fb
10
02
fd
0f
00
fe
0a
f4
07
05
fb
24
e5
f9
f3
fb
ee
fc
fd
fd
f8
fc
f2
05
e1
17
0c
fa
00
f2
ff
0f
0b
f4
e1
f1
e5
11
16
02
08
f2
10
ed
03
02
05
01
de
0b
fc
e9
f8
0a
f4
19
05
11
fa
f5
01
04
0f
fe
04
07
2f
26
08
f4
fe
0a
fc
0d
fe
f9
04
06
0e
09
f1
06
f9
e2
e7
f9
fe
11
0f
05
07
fb
ff
1f
0e
0c
09
f5
e4
f1
f6
0b
01
eb
02
03
03
06
fd
f5
0a
ff
00
e5
00
1e
04
06
fc
fb
02
28
09
fd
f8
f6
15
fe
0f
0e
ec
f9
0a
f9
07
12
fe
fe
00
f6
f3
ec
15
f6
f5
fc
f5
04
1c
fd
14
05
08
03
01
fb
06
02
ee
f2
f4
f4
06
06
13
fe
10
fe
09
f7
09
01
0c
fb
f7
de
e8
08
ef
0b
fe
27
fb
f8
fa
01
06
02
00
ef
15
07
14
fb
ff
0d
fe
03
06
f4
0e
01
dd
ff
15
01
f8
00
0e
ff
fb
fc
ef
eb
15
00
e7
14
fd
0b
fe
f8
00
0d
ea
04
02
ff
f1
fc
f7
f7
0a
ec
fa
01
16
08
02
fb
19
fb
02
f8
03
fd
f9
06
13
02
fa
ed
00
ea
05
f3
0a
eb
05
0d
e3
00
17
ea
01
fc
f3
04
fe
0c
fc
fe
f0
0c
f7
05
f5
0e
f8
fb
02
fb
06
0a
06
02
20
17
08
15
ff
01
07
ed
0c
0b
08
f7
03
f6
e8
20
e0
f5
fd
e2
07
0c
fb
fe
0a
1f
18
01
f9
f8
e7
00
03
fa
14
f4
f7
01
f0
08
e6
06
ff
02
ff
04
15
08
f2
05
0c
12
f9
43
0f
01
fb
02
0e
01
f8
20
fa
04
f3
ef
0b
e6
eb
fb
03
02
04
09
02
03
01
0c
f5
fc
fb
03
fa
f0
09
02
0d
f3
05
f6
f5
ed
ff
f0
fe
f5
05
0c
07
06
fa
0d
11
01
f3
01
f2
04
fd
06
1c
ed
ff
eb
02
fb
04
fe
f3
eb
22
0a
0d
02
fc
06
16
fd
fe
07
01
f5
00
05
1e
f8
fb
06
f9
02
14
e2
01
ff
fc
fd
04
f5
06
fb
00
fb
01
08
fd
fb
05
04
03
02
f4
fc
fd
01
dc
02
05
00
0b
fa
03
f5
fb
18
0a
e9
08
e3
06
f7
fb
fc
05
01
09
fd
02
04
fd
00
1b
02
fc
0e
fc
0b
1e
07
ee
0a
f9
00
08
02
0a
0a
f9
12
00
19
fa
fa
fa
00
23
07
0a
02
01
f0
07
01
fe
f9
fc
e7
02
17
08
06
08
f4
eb
fc
fe
e2
fb
08
06
e8
f9
02
00
06
02
fa
08
11
02
0c
ff
06
f9
ff
0e
00
fe
0e
f1
17
0d
f3
f7
02
05
05
04
16
05
f6
fc
0e
fd
fc
fc
05
02
e5
f6
08
ff
f4
02
12
eb
f0
2b
da
f4
09
0b
00
f9
00
ec
03
0d
0a
ff
09
0e
13
f7
ef
04
1f
f4
00
fc
fc
03
07
f6
ff
fd
0b
fd
03
fc
fe
e7
0c
04
0b
f5
00
03
04
06
02
ea
fc
0d
02
f4
08
0d
f8
04
fe
fa
f6
00
1d
0d
f6
0b
03
02
fb
01
eb
02
fb
f5
07
f0
fc
01
02
02
15
f7
00
0c
f3
fd
04
f3
f6
03
08
0f
ec
00
ef
fe
f9
fd
fa
fd
f8
ee
f2
0b
f7
f5
14
fc
01
fb
f3
fe
ff
1d
f1
01
fd
e1
1c
fe
11
fe
fa
02
fd
0a
04
07
f6
e7
07
0c
06
08
fb
00
f0
00
db
01
fe
16
0a
06
0a
fc
e8
10
06
0a
e5
03
04
02
ff
17
07
f9
fc
01
fb
16
ff
07
0e
0c
e2
ff
00
ff
01
04
01
0f
f5
01
fd
fc
02
00
06
13
00
ff
05
10
fe
fe
06
07
19
02
07
ff
eb
d2
09
f4
f9
e1
00
00
e7
ed
fb
09
00
01
06
00
f5
f7
ea
e7
08
f5
06
02
eb
f7
13
06
06
fd
09
eb
d2
f6
05
0a
13
09
e7
fd
ff
f1
f9
12
f1
f4
01
08
0f
f1
06
05
f8
05
15
03
02
fb
03
f4
fe
05
fb
fd
e8
ee
f3
03
04
f8
09
0f
07
ec
01
05
00
f4
14
02
eb
0a
00
fc
ea
01
04
1a
05
07
03
0b
f6
10
06
07
f4
04
08
fc
fd
fe
01
05
03
16
db
02
00
13
0f
00
0b
ec
02
f5
0b
0d
03
06
00
02
0d
fc
11
fc
01
fe
02
08
09
03
04
19
1a
20
ff
ef
00
07
07
0c
f0
f7
fd
02
f6
fe
fc
01
01
19
10
f6
04
01
1e
ff
0e
f1
fe
d8
02
01
0f
01
0b
f9
fc
03
f2
19
06
fa
19
ff
04
f3
0c
08
02
fe
05
08
fa
0c
0d
e3
fc
ef
10
fc
03
fb
ec
fb
08
1a
1a
11
f9
fd
11
06
01
f0
ff
0d
03
06
0f
07
06
05
3a
ed
01
f7
02
ff
f1
fc
0b
fa
05
07
0c
00
ff
fd
08
ea
fc
13
02
fa
fa
fa
19
f9
ff
0a
02
00
f8
15
fd
f7
08
f9
06
0c
05
f4
f7
f3
08
ff
fd
06
fe
03
f4
0e
24
0a
0c
fc
0e
0c
fe
06
fc
fe
00
f2
0b
f5
e9
0a
05
0e
01
e6
ef
f2
10
ed
12
f2
0d
07
00
fa
fb
08
fd
fa
07
f7
fa
08
fe
f6
fd
03
08
fb
06
07
07
fe
14
0d
f8
0d
f2
00
fe
f4
03
f8
f8
f6
06
f0
ff
f7
0c
f7
14
fe
02
02
17
f5
ef
f4
0c
fd
02
0f
0e
fd
f5
fc
fe
fd
fe
10
f9
fc
f8
00
ea
fa
fb
fa
0b
f6
f7
20
ff
00
fd
f8
01
03
08
fb
fe
f2
06
18
f5
ee
00
12
fb
05
fe
f5
00
fc
fe
12
02
f0
05
01
03
f7
fa
fd
f6
fd
12
f4
fa
f8
fb
10
01
03
03
01
0e
fe
20
00
fa
06
f6
f1
ff
02
0e
fe
ff
fa
09
f7
f2
0c
01
0c
fe
02
08
fc
f3
03
fc
00
05
04
00
04
ff
ff
05
fe
ff
ff
06
0a
eb
02
fe
03
03
02
f7
fe
0b
01
03
f2
df
fb
ff
08
f6
04
fc
eb
03
08
01
15
01
fd
01
0b
ef
0a
f2
ff
f7
ff
05
ff
d7
f4
05
0a
ff
fe
ff
f1
03
fb
fc
fd
fe
fe
06
0f
ed
02
d6
02
23
05
0b
fe
fb
04
06
13
00
fa
03
12
fb
07
08
06
08
fb
1e
f5
fc
04
06
04
04
14
fe
f9
f5
1d
01
12
f8
07
05
fd
fa
fa
0e
fc
08
f7
fd
10
02
01
fc
f5
fe
0b
fd
f7
ef
0b
0b
03
0b
ff
03
0b
e5
08
fe
16
f8
0b
02
eb
dc
00
02
f8
09
01
0e
f9
fe
f0
de
e3
f8
eb
f0
fd
06
03
fd
05
0e
f3
f0
09
e8
10
02
14
f0
01
fb
f9
14
fc
f0
09
f4
ed
f7
05
ff
fe
09
04
02
f7
01
02
04
03
ec
06
fe
0b
07
f9
0f
02
06
ff
08
ed
f2
f0
ea
03
f1
f9
e9
fd
18
01
06
e5
fb
f2
fc
02
04
fe
17
ff
f9
01
ff
0e
00
ff
02
01
fd
f6
f1
0d
0a
fe
26
0b
f5
f3
f5
f8
f2
fa
06
0d
fe
00
09
fe
00
fc
0c
0b
f8
00
00
ff
fc
02
09
00
fb
f8
13
fe
ff
f6
e7
f4
02
04
08
10
08
03
02
06
08
06
fb
03
03
f9
01
f8
f9
04
e2
f3
03
ea
19
f8
f4
00
0b
ea
fe
fc
fb
f9
fe
ec
f4
05
0f
ee
09
f3
fe
f4
03
f0
05
19
e3
05
03
0d
f9
0f
fb
ef
ff
fa
00
fd
ff
fb
01
0d
05
fb
01
02
09
01
f9
00
11
08
0e
ec
fa
fc
0a
07
f4
fb
00
03
01
ed
08
01
08
f2
ee
00
0a
06
ff
f6
09
08
04
14
f6
07
ff
0b
03
04
01
fe
f8
09
fd
0f
02
08
05
f6
f8
fe
02
06
06
fb
14
df
09
03
f3
01
08
00
0c
04
ff
e6
fd
f6
0e
f5
10
ff
f1
02
df
01
f2
fd
04
ff
dd
ff
03
00
f5
f5
0b
ff
fd
fe
f6
f9
05
04
0a
f9
f9
09
04
ef
04
fa
07
fd
e1
fe
02
0c
0b
fa
01
fd
03
e7
e7
07
03
f6
f9
02
01
10
09
fa
05
1b
f8
0b
01
04
05
12
06
09
00
fa
05
ef
00
01
fa
ff
f3
0b
e7
fa
fe
0e
00
f6
fd
f5
06
ff
01
ff
1a
13
08
02
f4
fe
f8
03
05
09
ff
0e
fb
ff
e6
ff
16
f4
ed
06
fe
05
f4
fb
ff
fd
0d
fb
fd
f5
fd
fa
fd
e7
f4
f8
02
04
1f
fe
0b
07
0b
06
08
ed
fe
02
fe
fc
fa
f4
f8
00
e5
ff
ff
0b
f1
fe
f8
08
0c
09
0b
02
fc
00
00
09
f8
e7
0d
04
f7
f3
f4
09
f2
06
ff
13
f5
f7
08
f0
f8
05
0d
02
00
0c
0e
03
f5
08
fe
fd
07
f2
04
fc
02
ff
02
ff
01
f2
ed
04
03
fb
f6
18
f1
f8
14
01
02
1b
ff
04
01
00
03
18
ff
10
08
04
02
f2
fe
00
fe
fe
0e
fb
11
0e
f5
0c
f7
f1
f6
f0
fb
14
fa
0a
03
e4
f3
08
01
00
10
f3
07
f2
fe
0a
fa
fb
09
00
f7
0a
fe
f3
f2
0f
ea
ea
f2
0c
fe
fd
fa
20
07
f0
f7
fa
0d
0e
0c
00
0b
ff
01
f6
03
03
04
fa
f3
00
06
04
00
f3
0a
08
0c
0e
0a
12
09
f3
05
12
1e
10
01
10
0d
00
fd
02
08
ef
08
01
01
13
f7
fb
f6
ef
04
08
0e
23
02
f9
f4
fa
ff
07
fd
05
fa
09
05
02
06
f2
05
09
13
0e
fc
01
00
fa
fa
fe
00
15
09
f9
03
06
06
06
f8
fb
16
f1
f8
f2
0f
fe
03
08
00
ee
18
fd
03
fa
fe
0d
f2
04
10
04
fd
ee
ff
f2
02
09
ff
00
02
06
07
16
04
ee
04
f5
1b
f9
ee
fe
e7
0a
00
04
fe
05
ff
f8
f7
fa
05
03
0e
05
0a
11
0f
fc
08
fd
05
07
0d
fa
fc
fe
06
08
03
fe
02
e1
ef
0c
fb
0a
e3
eb
06
fa
0c
fd
fd
02
d1
f7
f7
e6
f6
fb
0d
fe
fa
05
fb
06
07
02
08
13
fc
04
12
f1
fe
e5
08
02
fb
fd
fa
fa
06
1b
05
0a
10
f4
03
05
0b
1c
ed
12
11
16
ff
0e
ff
07
00
04
fc
f5
03
06
00
fa
ed
fd
0b
f3
04
f9
f9
03
fd
ff
01
d7
1d
08
0e
08
f6
eb
fd
0b
0d
02
27
02
f2
fd
f9
02
14
03
fd
fd
06
fe
e3
00
03
04
0e
02
e2
02
0a
0b
fc
ff
fa
fd
f8
09
dd
06
05
08
02
15
13
fb
02
19
fb
02
2f
02
ff
ff
13
17
fb
f2
12
e9
f9
04
06
12
fb
05
11
fe
07
0d
e9
15
06
e0
02
1e
00
fe
1d
1a
fd
05
0a
f9
f9
f4
ff
fc
fc
0b
15
01
03
11
0a
0b
f3
1c
10
f8
14
fc
0c
e0
14
ff
ff
08
08
09
16
f0
fa
0c
fc
10
04
0e
06
07
1d
08
02
f8
00
04
f1
09
fd
f6
ff
05
f7
00
fd
fc
0b
0b
ff
02
05
ed
10
11
e4
fd
07
ff
fc
fb
f7
fe
fe
10
05
10
11
00
06
02
12
19
f5
05
fb
fa
f8
fe
09
e9
e9
03
ff
03
04
15
03
15
06
ff
fd
02
07
03
21
05
04
f0
08
03
15
09
0c
11
07
02
11
e8
0f
21
01
09
06
fd
0b
fc
08
0a
0e
f5
f6
09
f3
12
0c
f7
00
f8
fa
3d
06
fe
ff
0e
f6
f6
03
00
fd
28
1f
ed
03
05
f8
f0
0f
08
f8
08
05
09
fa
0e
f9
00
fd
12
fa
fd
f7
00
01
03
fc
e7
03
04
fb
ff
f8
fc
f2
15
06
f6
f6
17
17
e9
05
fd
0a
0d
03
04
0b
0f
0c
e9
fb
00
ff
fb
14
0d
00
0e
03
10
10
02
fa
fa
17
11
14
07
ef
f5
ff
ff
07
07
f7
04
03
ef
0a
04
04
27
0c
f9
f5
0f
11
fa
fe
0e
0d
d9
0b
0f
11
07
16
0c
fb
0b
0b
ef
e9
03
ec
fa
03
06
17
0a
14
fc
05
01
0b
06
ef
f3
12
ed
09
fa
03
04
02
fe
f3
fb
f6
02
04
e2
06
f8
10
f5
10
ea
01
0a
ff
fd
fa
07
0b
f6
0d
01
de
14
fb
f9
fc
0c
fe
09
fc
0c
f1
fd
0e
02
f9
f1
00
01
00
e6
f6
f8
e9
ef
0e
e0
0d
03
12
03
0c
f5
18
08
15
f6
e0
00
e8
fe
02
05
03
07
00
0a
06
fc
12
0f
03
18
00
00
10
06
e9
0b
05
04
10
0d
fa
20
ea
00
0b
04
fb
fc
09
f9
0f
03
f1
00
02
0f
fc
08
17
09
f4
19
0c
f2
03
14
fa
08
f5
f0
f7
fa
0a
05
f7
03
04
03
00
02
06
02
18
10
06
08
03
f9
1c
fa
07
14
03
fb
00
fe
02
0b
fd
fe
10
ed
03
0c
e5
f7
02
f1
08
ff
05
fa
05
03
02
05
d0
0c
f9
07
f9
00
0d
09
f9
05
0c
ef
fd
06
02
15
07
f7
07
e7
0e
f4
ed
29
0c
02
01
fb
f6
02
07
07
03
29
11
06
10
fa
0f
0a
0c
fa
18
08
0b
07
00
fb
ed
ff
04
fa
02
ef
15
09
04
06
1c
fd
0f
14
f5
00
fe
f2
08
f4
0b
fb
f4
f7
0b
01
0b
02
00
e3
11
e6
e4
08
00
10
fa
fd
05
0a
07
1b
ed
01
00
f5
08
ed
ee
06
0f
09
0d
ff
fd
05
f1
06
f9
03
fa
06
fa
1b
05
ed
fd
0b
0c
11
01
0b
f3
f1
12
00
01
fb
ec
fe
04
21
f8
0b
07
00
fb
05
04
f0
09
03
18
04
fd
10
09
00
0d
fc
06
fd
03
0d
01
01
fe
20
1a
f4
f6
07
05
05
08
0f
e9
01
fa
05
08
04
02
00
f4
03
f7
ff
fc
ed
16
00
0c
fe
0c
04
02
0b
08
0c
fc
02
00
ff
fe
11
0e
01
17
09
fb
10
0c
ed
ec
19
08
04
08
0c
04
02
00
15
f8
fd
f7
06
01
f0
fe
fd
02
0a
f7
13
11
fc
09
ea
08
f5
10
1d
fe
03
01
01
f7
06
ea
05
fd
08
02
da
0a
05
06
11
ff
30
09
02
f8
14
0d
1f
f3
08
18
05
f8
f7
fb
14
20
04
f7
16
01
09
07
00
0d
f7
03
f6
14
00
0c
ed
fc
fe
24
f9
13
17
fc
04
2b
07
f8
e7
f8
f5
11
04
fc
11
fd
05
22
2f
07
f8
f0
04
11
04
0a
10
12
eb
0b
ff
2c
07
1c
07
16
f2
04
05
15
f3
13
07
ff
df
04
f6
0c
11
f9
fd
fb
f9
07
08
fd
00
0c
0b
01
06
0b
09
e5
08
15
f4
f8
05
f7
07
10
fe
0a
07
20
00
00
1b
06
f3
fe
00
04
f0
01
f4
f1
12
05
ff
f0
07
01
ed
fc
fe
fc
f4
ec
14
f9
06
fe
ff
02
f8
fb
f8
f8
fc
09
15
f8
14
ff
11
f2
07
07
e1
09
fe
03
06
23
07
00
16
06
ff
f2
04
f2
00
02
fd
00
fc
fe
04
f7
14
f9
10
09
0e
04
00
18
07
03
14
07
09
fb
17
03
fa
0c
01
09
03
fd
0e
fb
f3
1c
16
e4
f4
ff
fd
fd
f8
10
02
01
10
03
08
fb
04
12
06
f2
08
f9
00
f8
0e
04
f3
04
0e
0e
f4
00
03
05
f5
fb
15
f5
ef
1c
ff
f2
f4
04
12
06
ff
fc
08
f3
fe
f5
0b
0a
04
f4
00
06
03
fd
06
fd
fe
fc
02
00
00
00
fe
04
05
02
11
ff
0e
05
02
f9
04
fc
f2
f5
ec
03
f5
00
ed
00
e6
f8
01
01
f9
ff
0d
01
f1
f0
ef
06
fd
01
fb
06
1b
f6
01
0a
f0
0f
e2
ff
03
f0
fb
04
eb
04
fa
ed
07
00
f3
0a
06
00
00
f4
fd
01
fa
05
fa
f5
0a
fd
0b
ff
f6
02
f6
01
04
0b
01
fe
fc
28
fc
f2
ff
03
03
02
01
fd
fa
f1
03
f2
f3
fc
00
06
fa
09
f8
08
f1
fd
ee
fe
01
0b
07
01
ff
f8
f5
06
0a
0c
08
05
12
f4
03
05
01
03
0b
00
fc
fd
ea
05
f8
0b
01
03
00
ff
df
fa
ff
fb
ff
06
08
09
f4
0c
17
02
02
06
01
02
fe
05
11
fd
02
05
0a
f8
0d
13
0d
eb
09
fe
f5
fb
04
06
ff
02
f7
04
20
01
06
0c
f1
f9
04
00
f7
f7
ff
fb
fe
fc
07
04
ff
fb
00
ff
01
fa
fd
ff
05
06
00
02
03
0a
ee
fe
05
ef
f6
fe
f7
ff
09
fa
f2
05
f6
01
02
fc
f9
01
06
f7
fb
1d
f9
fc
f0
f8
f8
01
ff
fb
f4
fc
ef
00
f2
f0
08
ff
03
02
ff
fc
00
06
fd
01
08
18
ff
ed
01
02
04
01
ff
13
f7
06
f5
f7
04
f7
fd
01
f8
f4
0a
14
0b
0d
04
0d
fd
0c
ed
f8
03
04
09
03
ec
0b
fc
0d
e9
10
f9
f8
ff
00
fa
f6
01
f0
fe
f4
00
07
ff
e0
e8
fc
0d
10
03
04
fb
f9
0a
f0
f6
fa
ff
f1
27
f1
0e
10
00
fb
04
ff
04
03
05
fd
01
fa
fe
f5
07
ff
fe
fa
f1
01
00
f6
fb
fa
f8
09
fe
ff
0c
e2
01
08
06
ee
0e
f3
e1
08
04
06
00
03
0d
fb
14
f3
f2
e8
fc
e8
ee
ff
02
02
0d
fe
15
01
fc
07
ff
fd
fc
00
02
01
0a
01
f6
1f
e6
f9
09
05
f3
fc
1c
ef
fc
04
14
e6
07
e6
f8
02
17
fa
f8
02
eb
ff
05
f9
f2
f4
02
08
f5
ff
f6
0d
04
f4
00
06
ee
04
e1
01
ee
fa
f0
f0
f9
06
fb
fe
02
0e
ff
f6
0a
fb
18
fe
03
09
f5
dc
f7
ff
f8
03
ff
ff
f1
09
09
f0
fd
fe
00
f5
f7
06
f8
08
f0
fe
06
f5
fd
ef
f4
fb
f7
05
1e
07
f5
fa
09
03
f8
04
00
02
f1
04
fd
f0
fe
00
15
03
09
f2
fd
ff
ff
0d
f8
f0
fa
f8
05
0a
06
ee
1b
f6
fe
06
0f
03
ff
fc
0b
f1
f6
f7
01
00
ed
f8
fc
14
0b
26
0d
f2
ec
f5
ea
00
14
0d
f9
12
02
04
de
09
00
01
05
f4
0d
fa
ff
0c
00
03
ff
ed
fb
fd
08
02
f6
01
eb
fd
f9
0d
ec
ed
fc
00
07
ef
f9
06
fd
f4
05
fe
00
f7
04
f9
fe
f3
03
06
0b
00
04
11
fc
fe
f7
f9
07
0a
ff
04
0d
00
06
04
f8
fa
e6
00
04
ef
fd
1f
03
f3
f6
09
00
00
06
f8
fa
04
10
f8
03
fd
ed
f9
02
fa
03
02
fe
f2
ec
e8
1f
09
f9
f2
ed
fe
08
07
f6
20
fb
05
f5
f3
fa
01
0a
f3
0f
fb
ff
fb
01
04
02
00
01
13
01
fd
06
11
fa
05
fc
fa
06
fc
01
03
f5
f0
ed
03
00
fe
08
f9
0f
fe
05
16
eb
07
03
f6
03
0a
03
01
02
00
ff
02
fd
ff
05
fa
02
11
18
0e
ef
12
00
13
2a
08
f6
02
06
09
e8
ff
02
00
f8
07
0e
16
ef
fc
ea
f4
02
09
10
05
00
fc
00
fc
10
fd
05
01
f6
0c
1a
07
03
e8
06
f5
13
fb
03
0a
f8
f1
0c
03
ff
f8
f7
f6
08
fa
02
f3
fc
16
10
ed
00
00
18
08
ee
0c
07
f7
06
02
03
02
06
0a
2c
ff
0a
02
fe
01
f9
fa
14
07
ee
10
03
15
fe
fc
f5
13
01
0e
f5
f3
08
00
f2
fc
0f
fc
fb
fc
02
0d
f5
f6
f8
f6
07
ef
09
05
0a
fe
02
fc
fe
05
ee
f1
03
04
fb
0f
11
fc
0e
05
08
f7
03
08
04
ff
d8
07
f9
05
06
fa
f5
12
04
0b
fa
ff
08
0b
f5
f6
fc
ff
08
fe
09
1b
14
fc
ff
07
03
f9
fb
00
00
09
04
02
03
fd
08
04
ee
f6
fd
fa
1d
06
08
f1
08
fd
f1
fe
fa
f9
06
e9
0b
13
0e
04
14
e6
f2
f6
17
f4
1a
f7
02
f6
ff
03
ef
14
ea
13
10
fc
12
0d
02
f8
fe
10
fe
14
fb
06
01
fc
03
f4
f0
0a
fe
08
08
fd
f3
04
07
0a
fd
f3
f0
01
f1
00
fe
19
04
0f
08
07
e9
f7
f6
fe
fc
02
12
04
ff
00
0a
09
f3
01
00
04
fb
f4
00
06
05
01
fd
f1
ec
fe
01
fd
05
03
0b
ea
0a
01
ff
0c
f8
01
0f
eb
08
05
09
fe
0d
00
00
f9
05
03
fb
fc
02
ef
f8
f1
04
fb
00
f9
fb
fd
01
fe
f1
07
15
f4
05
00
fb
0c
11
fa
fa
07
02
fd
08
0e
13
fb
f4
03
ff
07
06
f0
03
01
09
fe
ea
03
00
d2
fb
07
00
09
0e
04
0a
01
fe
f9
15
14
0e
02
08
10
fd
14
12
01
00
f1
0a
f5
fd
00
fe
07
fe
f6
19
ff
13
fd
ff
0d
08
f5
ff
04
00
f9
0c
f1
fb
fc
f7
18
11
08
0e
03
02
fe
fd
ff
fd
ff
02
0b
00
f4
08
03
19
ff
11
f6
04
fe
00
0c
f9
fa
24
0f
03
e7
03
12
fb
ff
00
fe
00
14
26
fd
ea
02
fe
fd
02
0c
01
f3
f4
04
04
01
01
f4
f5
06
f8
f9
01
f8
0a
07
f5
09
01
fe
07
01
fc
ee
fc
01
fb
03
e6
fc
06
1c
03
0c
f9
0c
fb
01
fb
fd
0f
e3
05
ff
07
15
ff
fb
01
f9
f9
08
f8
fc
fe
02
00
03
0c
ff
07
fe
04
fc
06
fe
0d
ff
fc
f2
14
fc
00
fc
0a
f9
f2
fe
0a
04
03
10
e9
02
00
ff
d2
fb
fb
f8
10
f0
ef
fb
06
f8
f6
06
f7
fd
f2
fd
fb
ff
ef
0a
03
f0
ff
fe
08
f0
ea
f3
ff
ff
05
05
08
13
06
ff
f5
fc
0f
05
ef
e9
03
fc
f4
15
12
fd
08
f2
11
fe
04
05
ff
f8
10
0c
09
01
0f
f9
01
0d
fb
e7
fe
04
fd
f5
1a
10
f2
ee
f7
f5
14
01
06
1f
08
04
ff
02
fe
f3
fa
f7
01
fc
05
07
11
0f
07
d2
fc
f5
ec
08
03
f9
ee
ff
fe
f3
10
ff
fd
fd
ff
05
06
08
01
02
fc
ff
f9
fc
00
ff
fc
f6
05
f8
fd
08
fe
08
ec
fd
00
02
01
fd
fd
00
fa
ff
07
04
fd
fe
ff
03
08
ec
03
06
ef
ec
f6
dd
08
fc
34
00
f4
ec
f4
0d
e8
06
11
11
01
03
04
f0
01
fc
fa
df
0e
ff
fa
fb
04
f0
fc
01
06
ff
fa
f5
f9
e4
f8
ea
00
f7
05
11
fe
0b
02
01
01
02
02
fe
f6
03
fc
fb
f8
01
06
01
06
fc
19
fd
05
f4
f5
05
00
07
09
23
fc
02
fe
f7
fb
05
07
e3
15
f2
fa
f9
05
08
ff
fa
0c
06
ef
e2
03
03
f8
00
fd
02
00
01
06
04
ff
02
fc
09
fd
f1
01
02
06
06
fc
05
05
01
ff
fb
03
1e
f5
02
ff
f5
db
f4
04
0e
0a
fd
09
fa
01
02
1a
0f
00
04
00
fd
f8
04
ff
f7
00
1e
fb
07
f4
f3
05
ff
f7
02
ee
f3
02
ff
fb
0c
09
01
fd
0b
09
06
ec
1d
12
1a
f8
01
fd
04
f3
e9
15
0b
fd
ed
fa
db
fa
07
07
f7
08
ef
fb
00
f0
0c
01
e9
07
fa
f5
1a
e6
28
01
13
e0
07
0a
f7
f5
fa
fe
13
fe
03
07
f6
14
03
02
0c
01
f9
ff
f3
09
0c
06
fb
f8
15
06
f7
fd
14
ff
fe
13
1c
fa
13
fe
03
31
00
ff
00
00
11
fb
fb
fe
fa
0c
cf
ff
ff
fe
04
0e
0c
02
fb
00
ff
ed
09
fd
1c
f9
fd
ff
fb
0f
fc
fe
f9
0b
fb
00
fc
09
f7
11
fc
f3
16
00
fa
05
f9
fc
04
01
08
00
fd
02
ff
e9
f8
08
f3
00
f2
01
f8
fb
08
02
05
03
eb
06
df
08
ef
02
18
02
ff
04
09
20
05
fc
02
14
0b
02
f1
f9
04
fc
06
0b
0a
fc
03
ff
01
fa
05
fd
05
03
ea
f4
fd
17
07
f5
06
08
f1
f2
0a
ea
fc
fd
14
04
08
e5
01
0b
08
f4
f4
16
ff
fa
fe
04
fa
08
00
0e
fc
0a
01
fa
f1
07
04
13
f1
0a
da
0a
00
0a
10
16
00
f5
ff
ff
16
1e
03
f5
ff
fb
eb
0d
03
ff
fe
df
0a
ec
f3
05
fd
ef
07
0f
ff
ee
0e
0a
ff
f4
f9
f7
06
01
f6
02
01
e2
04
e5
0a
03
0a
f8
0a
f9
04
f4
05
21
15
ff
06
f6
f6
fb
fa
f5
fa
ff
f7
f7
08
fd
fe
04
fd
ff
02
ff
fb
fc
fc
f1
ec
0c
fc
fe
14
f5
03
f7
fd
f5
0a
07
17
03
fd
fe
f4
0d
0e
f4
fe
18
f4
09
fc
fe
03
02
f1
0b
05
0b
04
01
0e
0e
c7
fb
fb
fb
04
08
00
06
02
03
f4
10
0a
f4
fd
0c
e2
fe
ff
fc
fc
03
f7
09
01
f5
02
1a
0d
07
02
03
fa
ef
12
ff
0b
fe
03
f3
04
0b
10
10
fc
fe
e5
fd
f6
01
f3
05
03
02
13
ea
04
fe
fe
f7
01
05
f1
00
03
06
00
00
10
fe
ec
f9
e6
fe
07
fc
0c
fb
fe
08
0a
0a
f5
ff
f8
29
0b
0c
f5
f9
ff
f6
1e
fc
0d
04
f4
01
05
ff
10
03
0f
10
ef
f6
02
11
fb
ff
03
02
f0
0d
03
0d
f1
f9
1f
06
24
03
15
14
f7
06
fb
f3
19
01
0b
f8
0a
08
f3
04
fc
f8
14
0c
ff
10
ff
f9
f4
07
15
f2
f9
08
07
0e
eb
11
04
00
0c
f5
00
01
fe
f6
0e
f2
15
12
28
0d
ff
06
0c
17
14
0a
00
f7
16
08
f9
05
0f
ef
00
03
13
0d
f4
00
11
05
2b
05
fa
f8
06
f8
00
fb
2b
12
15
07
17
27
fd
05
ff
0d
1f
fb
f6
06
10
ec
03
fe
f4
fd
00
09
04
06
06
01
f8
fc
06
15
0e
0d
f9
fc
fa
02
06
00
0d
09
01
fc
0e
01
fd
06
05
06
03
12
02
0d
ff
0d
f9
0c
f2
06
fc
11
02
fe
ff
07
fe
01
f8
0a
f8
18
fe
1a
03
05
13
02
00
f5
0d
1c
f8
f7
0d
f7
0d
0a
07
fe
fe
04
fd
02
04
05
02
06
0e
02
01
06
fe
e0
fc
28
16
fd
04
05
2b
0c
05
0d
0e
ff
05
00
15
f6
04
01
09
0b
ff
ff
02
f9
f7
f9
02
0e
fa
f9
01
03
1e
16
0a
05
0a
f5
03
2f
11
ea
ff
f8
04
ff
f8
1f
fa
fb
05
0b
01
0b
03
05
0b
11
0e
0a
1e
11
06
06
fe
08
02
f8
ff
06
06
ec
ff
03
fe
03
0a
02
05
fe
11
fb
0c
04
0a
04
f5
02
10
07
0b
06
0e
fd
04
1b
fc
12
0e
f1
07
eb
ea
fe
05
04
14
09
10
fc
fe
fb
13
04
ff
04
0c
0d
04
0c
fe
ff
ff
dd
fb
02
01
0a
fe
f7
10
ff
0a
fb
01
09
e8
f2
fe
06
07
24
fd
00
04
f5
15
16
0d
18
ea
f9
06
ff
07
fe
07
00
13
f6
0a
fe
24
01
f1
04
08
f0
06
f8
eb
04
04
00
05
fb
fb
0d
09
fb
0e
18
fd
09
00
06
fa
07
08
0a
f1
02
ee
15
02
15
1f
e7
0f
02
f8
22
16
01
01
08
01
19
fc
08
00
1b
08
0b
09
fc
24
fb
0c
04
f9
18
09
e6
18
f6
06
0e
fb
00
06
f5
00
f5
fb
fd
06
f4
05
01
04
10
21
e7
fe
04
fe
f8
e8
1f
fc
ff
01
f3
0a
05
06
f3
00
09
0a
fa
fb
e3
ff
f8
00
f8
f7
f7
05
00
0f
04
09
12
fe
fe
1f
05
12
1e
03
14
f3
05
04
03
fa
ee
19
22
05
fd
17
ff
0b
04
06
f8
02
02
f8
d6
e8
1a
07
12
13
f7
02
05
05
fb
25
10
02
19
24
08
28
ff
f6
12
fb
fe
fd
00
10
fc
df
0e
03
00
05
11
07
14
ef
06
03
00
00
04
16
16
05
12
fc
08
07
f2
0f
fb
fe
0d
0a
e9
09
f9
01
0f
f6
08
f4
0c
f2
0c
ff
06
1f
00
1c
14
ff
07
fe
09
02
eb
07
0b
fe
fb
09
05
09
df
0e
ef
07
04
0a
12
fc
dd
f3
08
07
0e
04
00
0d
fd
05
fa
fd
f6
0b
fa
02
07
0a
fc
03
01
ff
05
0e
20
09
fd
0f
fa
1c
17
0d
0a
02
06
05
e0
04
ff
17
0b
ff
0d
05
0a
f3
ff
f9
f6
0a
00
f3
01
06
ff
07
04
09
0a
06
ff
e3
fc
0d
fe
fa
fd
f0
19
03
e5
ff
08
fa
fe
04
04
f9
f9
0b
f8
f2
fc
08
06
15
fb
fe
fc
ee
f7
02
ff
fc
01
03
04
fc
fe
f1
13
f1
fc
04
f2
ff
fd
f9
ff
05
f7
04
fe
f6
0f
02
ec
07
14
02
07
09
fe
05
f6
00
06
ff
07
fd
fc
f8
05
00
02
02
0c
02
0a
fc
f5
0b
f8
0b
f7
15
fe
00
23
f5
f7
f2
16
fd
fe
fe
05
f0
01
f5
e6
ed
f5
ee
fd
0d
0b
0f
07
07
fd
f4
04
02
06
04
fc
f1
f4
04
fb
00
02
0c
03
f4
09
10
07
f5
fd
fc
0a
f4
00
fc
07
01
01
f4
fd
07
fe
fe
fe
fb
0a
10
04
08
ec
fe
ff
17
09
ff
fe
05
17
ff
0d
0e
f0
0a
08
01
fa
12
17
e9
02
ff
01
f6
f6
08
fe
16
d3
f0
f9
f4
ff
01
03
fa
0c
00
f3
03
01
0b
fd
00
07
ff
0a
f3
05
02
fd
01
04
00
e9
01
f8
08
00
04
f9
09
e5
06
f4
f9
eb
0a
0c
04
ff
fd
24
f8
fb
01
fe
f3
06
03
ff
f2
01
08
04
fe
fd
fe
07
00
04
03
11
ee
09
06
fc
03
0e
03
02
f6
ff
ec
f9
f8
f2
00
01
03
fe
f9
ef
10
09
f5
01
fd
09
f3
0f
ff
fb
0c
02
1f
f2
fa
17
fa
fc
ee
04
02
04
fb
ed
ef
f4
fa
ed
09
fd
f0
fa
08
08
f8
fa
0c
ee
10
fd
ee
ff
fe
ff
00
ff
08
f8
0a
f9
fb
f3
fb
03
f5
f9
0a
05
00
07
f6
07
fb
00
0c
1a
00
fe
f2
05
0c
e2
ef
f1
fb
ee
fa
f7
03
00
fd
fe
f9
06
00
01
0b
f9
f5
fa
f9
e8
08
08
0b
ed
fc
00
f7
f0
24
07
11
09
ff
16
f8
26
03
0e
fe
05
00
1c
fc
03
04
00
fb
ff
06
05
f9
04
ef
06
0d
00
ff
02
0b
04
06
ff
05
f0
e7
fc
07
04
01
04
0c
08
fe
0d
04
fc
0e
07
25
07
08
12
0a
fc
07
f0
fa
01
fe
fb
01
03
03
11
fe
00
04
e9
e6
fa
fe
fa
fe
f9
f3
ff
0a
02
04
fe
12
0a
ed
02
fc
04
02
0a
f3
10
fc
f9
f9
fd
02
18
fa
fe
13
fc
fc
f9
f2
08
01
fd
13
33
e7
03
00
f0
f5
fe
0a
00
fd
01
fa
e7
fa
03
01
02
12
f3
f4
08
03
08
fc
05
fe
f5
fd
f3
11
12
02
16
fe
f5
07
06
fe
01
f2
0d
17
03
08
f1
fc
0e
07
03
fb
05
05
03
e8
10
fd
09
f3
fe
06
02
08
08
0a
02
fa
04
fe
06
05
02
01
07
12
fe
0b
fb
03
09
fb
04
17
08
fa
00
0c
01
f3
06
f9
05
06
13
f7
0c
02
0e
ff
0d
07
01
f7
0f
09
05
09
0e
0e
05
fe
f7
ef
f0
fb
0a
0d
fe
f7
04
f7
f8
05
03
04
fb
f5
18
fa
11
05
0d
0a
f8
1a
03
00
fb
fe
fd
04
e4
fb
f6
0e
16
f1
f7
fb
01
f8
f9
fc
f9
0b
03
fe
07
fb
08
f1
11
f2
fa
f5
fe
05
00
00
01
fe
fc
06
0d
f4
04
00
eb
07
1c
ee
f3
03
fe
e2
05
07
fd
25
06
08
ff
f3
ff
0d
f7
fd
eb
00
e3
ea
ef
15
0a
1a
f9
ff
01
09
02
fe
0c
f3
04
f0
12
f7
f1
ed
13
f5
05
f6
03
fe
f4
07
f6
07
f6
0d
e0
fe
e5
d8
fd
fd
f3
f9
00
fe
01
16
fd
09
0a
03
f3
fa
01
08
02
01
e7
fa
fb
07
0c
fc
01
05
05
14
fc
fa
0a
fb
f7
f3
15
0b
ed
02
ff
f0
fa
ff
03
00
ed
00
02
05
f5
f7
fc
fe
02
f9
ec
fb
07
02
0f
f6
0f
05
0c
00
08
05
e7
f9
fa
09
f5
01
eb
ee
f6
00
01
f0
fe
04
01
e9
03
16
fc
05
08
f8
fe
f7
03
f4
0b
e1
05
f4
f7
0c
00
09
ff
fd
00
04
08
06
0e
fe
04
e0
fb
06
0e
fc
f8
12
f1
1e
08
fa
0f
fc
05
02
00
0f
01
08
e6
f0
f7
f6
09
f2
03
11
f1
07
fd
f8
07
fc
fd
e9
01
fe
03
fe
f2
02
0a
fe
0d
01
0a
ff
02
01
f4
1b
01
f8
04
01
00
08
07
00
00
05
07
03
f3
28
fb
fe
08
34
0d
f0
f0
f3
f3
f4
f4
fc
01
04
03
fe
ef
05
01
07
07
00
16
0d
00
07
02
06
01
08
f6
fd
00
fc
fb
00
ed
f4
e2
06
02
fd
f3
00
fe
f7
04
f9
fa
eb
1a
fb
f9
ee
fe
12
fd
fd
ff
e7
03
e5
0d
f4
f5
01
ec
ec
f2
0e
0b
09
0a
d9
05
fd
f5
19
fe
02
07
f5
17
f9
e7
f6
f1
07
f5
03
06
f2
04
fe
fb
07
06
fb
05
05
00
0c
fd
01
18
08
02
ff
13
02
f5
fb
fb
0d
f7
0e
11
15
e8
f8
1a
08
0d
24
f7
ef
05
00
19
02
02
ed
0a
03
01
07
03
0d
fe
0a
00
09
f7
f6
04
07
0b
02
fe
fa
f4
fc
fd
13
f7
f3
05
f6
fa
f5
09
ff
fd
0f
01
f9
06
f2
f1
00
02
fd
03
11
04
f5
f8
e5
07
ff
ff
08
00
07
0a
e3
fc
fe
0d
07
06
f7
0c
ff
fe
02
ff
15
e4
f0
14
00
f4
00
e9
0f
f5
ff
fb
08
0f
09
fb
f8
0d
fa
d9
fd
2b
05
0e
09
06
f1
08
13
e6
00
1a
f9
03
05
0f
09
ed
fa
fa
f1
fd
f8
fe
fe
07
03
00
0a
fb
fa
10
1e
03
f2
fd
08
09
eb
f0
09
fb
10
f8
fb
f1
09
00
0b
fb
ff
0e
f5
ff
f9
04
fc
0c
f8
04
f3
03
03
ff
f9
05
f6
ed
06
13
09
ff
f7
f3
fa
f6
13
07
fe
00
fa
03
05
03
12
ee
f7
01
06
f8
fd
fc
07
f1
fc
fa
00
03
f6
09
0a
f5
02
02
fc
0d
f6
fc
fa
00
f7
ff
06
08
fa
07
f4
fe
fd
09
01
03
fd
ff
01
fb
0a
1d
ed
06
f5
0d
04
09
12
f3
02
0c
fa
08
f1
fd
07
ef
25
fb
16
f7
f4
02
fc
00
ef
fc
00
f1
1c
ff
0c
20
00
01
f7
f2
0e
00
01
fc
03
f1
07
fd
1d
f0
fa
09
00
f7
00
13
0b
0b
01
fc
fc
fd
03
1d
02
08
0a
13
14
1d
fe
fc
ff
f7
02
fc
0f
f0
fc
14
0a
fa
f9
f1
0a
fc
e7
fa
fe
02
f0
04
01
f3
0d
08
01
0a
fb
17
00
00
01
01
fc
f6
18
08
14
fe
e1
fe
08
0d
f5
04
04
09
13
12
04
fe
fb
fa
02
12
0c
02
0c
fc
00
07
ef
dd
fe
ed
01
fa
fe
00
01
02
fc
04
f6
ef
0d
fd
fd
e6
00
fe
01
11
08
ff
fb
02
e9
07
0b
fd
f9
06
0f
ff
fb
11
fc
01
01
01
f5
fd
00
0c
01
fb
10
f8
01
0d
05
fe
fa
01
f4
f8
fa
f9
07
f5
03
02
fd
f8
01
fd
02
01
03
f8
02
eb
17
07
ff
fd
ff
0a
f0
f9
fb
05
14
07
0d
fb
04
0e
06
00
f9
0b
15
0c
de
00
02
f2
03
f2
ff
03
0e
fe
03
0b
f9
03
ed
fc
fc
04
ff
06
fd
f4
0a
04
04
07
0a
f7
f2
f9
05
ff
09
fb
06
01
03
06
f6
fc
27
0e
f0
03
f1
fa
0d
0a
0c
ec
04
ea
fc
00
07
05
0b
fc
03
f8
10
0d
ea
02
fc
26
1b
02
19
ff
f6
11
09
01
ea
06
01
10
f8
01
03
06
02
fc
02
07
fa
02
fd
11
0a
0a
f3
0d
f3
06
03
05
07
03
fb
01
fd
01
ff
f3
fc
03
eb
1b
fc
0d
0c
ff
fd
fd
f8
00
01
e3
fe
0b
02
12
02
08
02
10
f8
07
12
fb
00
ff
fe
04
00
06
fd
ee
06
03
06
f5
fe
09
03
fe
06
01
00
0a
fe
03
fd
ef
03
02
0c
09
10
08
04
fe
e7
03
fd
ff
fa
02
06
04
f4
f4
09
fb
f6
f8
0e
04
09
03
f0
fe
08
fc
06
f0
f0
f0
01
fd
f2
ef
07
fd
03
ed
e8
0e
f8
03
0d
05
04
05
04
fd
ff
0b
f7
0e
0a
ff
fc
f2
f9
17
fe
07
0b
f2
0a
04
f6
f9
fe
fb
02
f4
15
0a
fe
fa
eb
05
f8
03
fc
fe
ff
ff
10
ff
f6
00
fd
fb
09
fc
01
fb
fc
01
04
f4
06
01
0a
fd
f9
03
05
04
01
f8
01
03
0d
06
fa
fd
06
fc
00
fe
08
ff
fc
02
09
10
f8
fb
fc
04
13
ff
ff
fd
ec
f6
f9
ff
02
04
1c
e3
07
ff
f2
ff
07
03
f6
f0
05
0b
fe
fe
01
fb
fc
08
fd
00
25
0d
f6
09
04
ef
00
f9
ff
03
ff
fe
0d
f6
01
dd
fb
fc
fc
fc
22
f8
04
0d
fc
02
f1
fd
07
10
04
05
f4
00
fb
fc
ff
16
ec
00
fd
ff
fd
ff
02
09
fd
01
0f
ed
08
fc
f7
fe
fd
fe
01
fd
02
f0
04
04
fb
fb
f9
f5
05
f9
06
00
08
fa
01
05
ff
02
f9
ff
02
f8
fd
ff
ec
fe
04
1d
fb
f9
08
00
ed
fd
09
fc
09
fe
01
0b
04
03
fb
fd
f9
fe
ed
05
01
fe
ff
fc
08
11
0b
fb
06
f3
ff
07
17
f2
f0
fc
00
01
fc
04
ef
04
03
fd
fb
03
13
01
04
10
00
18
f4
f2
07
0b
0d
09
f9
07
0e
00
f1
03
09
f8
07
0b
fd
f1
fc
09
ee
02
f6
f6
09
fa
10
0f
00
fa
00
fd
08
01
e4
fc
f5
0a
fa
f7
f5
08
fb
0b
0c
f7
05
ff
fb
fd
02
0a
02
e8
fd
fa
03
f9
ff
0a
0c
ff
f9
fa
07
f5
0f
f6
fd
ff
fd
ec
00
ef
ee
0f
09
02
11
01
fe
fd
0a
fd
04
ff
f3
15
05
04
05
16
02
fa
16
f9
06
09
e6
08
ea
f8
e8
f8
0d
ff
01
00
fc
09
01
f3
03
01
fa
fe
fa
f5
00
f9
00
fc
f1
0c
fb
0a
0f
f7
06
07
05
f3
14
13
04
f4
03
f8
ee
04
09
0a
12
fc
f7
ef
0e
f5
f4
fc
24
02
fd
01
ef
ef
fc
03
0b
fb
ef
f8
fc
06
01
0d
fb
09
04
09
e8
f4
f9
fa
02
ee
03
fc
f9
eb
0e
fb
02
11
12
0b
fb
05
fa
f6
00
0f
02
27
02
f8
f6
13
fe
0f
f7
f0
f5
fd
fb
07
00
e6
fd
15
01
01
03
f6
00
fa
07
00
f8
16
11
08
ff
fc
fd
00
0b
fa
00
fb
f7
0c
06
fe
ef
0a
02
08
0e
05
eb
f8
05
01
03
fe
fc
09
01
ff
fe
fc
08
0b
03
f7
03
ff
fd
fb
02
f9
ff
f7
11
07
f9
f7
f9
15
fc
f9
0e
fc
07
fa
13
ff
fe
fd
ea
11
fb
0c
ff
f1
15
03
08
fb
05
07
08
f9
1e
0d
02
fe
ff
09
fa
fa
01
f2
0d
ff
00
f3
0a
ef
f0
10
04
06
04
02
04
ff
00
07
05
fc
0b
08
03
07
19
f4
12
f9
01
f9
04
e1
fe
01
00
08
05
fa
ff
f5
04
04
0d
f2
ec
fd
fd
0d
07
08
fe
06
02
fc
fb
01
fc
02
fd
fa
f7
fd
f3
01
08
03
09
f7
00
08
fd
f6
03
fa
ff
f6
05
0a
f9
01
fc
fa
09
02
02
f2
fe
0a
fd
fb
0a
ef
02
fe
ff
02
ec
c6
f8
f8
fb
fe
f0
f4
0d
04
04
04
01
f1
ca
09
0d
fa
09
fe
e2
09
e8
fe
f9
02
f3
04
f9
05
0c
fd
00
ff
fd
1a
17
01
f3
13
03
00
fb
f9
fb
0b
02
0c
04
04
0f
ff
12
f6
ef
fe
fe
ee
08
04
fe
1a
0c
ff
fe
ff
06
ff
f5
06
fa
07
fe
08
08
05
fe
fa
06
08
fa
02
ef
f6
0e
fd
fa
f5
08
0b
ff
02
f6
f7
f0
04
0d
00
08
02
fb
16
eb
01
0c
09
06
00
14
1b
0c
06
00
fb
fe
f3
f8
0e
ff
05
11
f8
f4
0c
f8
fb
06
11
01
06
10
fa
05
08
0b
f0
fa
05
0d
e3
fe
ed
fe
f5
01
fa
08
f6
01
04
f5
fc
0b
10
08
1b
fc
0b
fb
f1
fe
f7
08
00
ea
ff
00
fa
fa
e4
0f
01
fe
15
01
ff
ff
02
fb
f4
07
04
fc
fe
06
01
04
f4
00
04
fb
00
fc
eb
06
0f
f2
04
f4
fe
f3
f8
f2
fa
ff
07
ff
02
03
e4
0c
04
ef
05
06
0b
f4
fc
f9
00
00
0d
04
f6
11
0e
f8
fe
06
03
f5
fc
00
f3
f8
0c
06
03
e4
f6
0e
fe
0c
f7
fe
05
05
03
09
07
0d
02
fd
fe
f9
fd
02
f6
f3
02
00
0a
04
ed
f6
04
fe
0f
01
1e
01
00
06
fe
0f
f4
f9
0c
1a
03
f1
0c
fa
fd
ea
ee
f1
03
03
fb
f2
05
ff
03
0b
d8
f8
08
f8
06
08
f5
03
e5
fb
12
ea
08
0a
0a
f5
01
03
f6
02
f8
08
09
01
f3
01
02
fd
01
03
03
f8
05
06
fd
fc
03
0a
fe
fd
08
e8
02
06
f7
01
ee
02
fe
ff
0f
ec
0c
12
05
0a
fe
f6
eb
00
ff
ed
fe
f4
ff
e3
fc
e5
f2
01
f8
05
f1
f2
03
07
0b
ff
0d
03
fa
16
f6
01
05
0f
fe
02
11
01
d8
01
08
fc
17
f9
ca
06
00
e2
0c
0c
37
e9
03
15
e7
13
ec
02
e7
1c
21
e1
06
10
00
fb
fb
0a
18
08
ff
ff
eb
0a
f8
ea
fd
f7
19
fb
06
e8
fc
02
fb
10
1c
03
fe
f3
01
fb
0f
f6
f4
ff
08
06
09
03
19
03
e6
fd
ff
00
fb
14
18
0f
ef
0e
00
f9
f8
f8
05
fd
09
fc
fb
04
01
ff
fb
f5
02
2d
05
fb
ee
11
fb
23
eb
f7
28
02
00
15
e4
0a
ec
18
04
11
06
0e
24
e9
09
ff
0a
29
ff
00
02
04
02
34
0e
03
0a
fc
fb
00
01
f1
fb
22
fc
ff
04
ff
02
02
ff
fc
fa
05
08
fa
00
0d
04
34
25
f3
e9
16
f1
e5
12
17
1a
2b
fb
fe
07
06
1a
e6
c7
f0
ed
06
e8
ee
f2
39
f7
0b
03
11
f6
1e
fe
1b
e3
e9
10
11
ea
09
fc
00
ff
fd
29
05
fe
0c
00
f3
f1
08
06
d5
02
0f
0c
fb
f7
fa
fd
08
fc
fd
06
e5
cf
f9
fd
f0
f2
47
0c
0b
fd
f4
05
fe
fe
01
ee
f6
f0
fe
07
04
e1
fb
10
f5
00
f3
08
0c
e7
18
03
02
1d
f7
fa
0c
f5
0c
0d
fe
0c
02
00
02
00
0b
07
00
f2
23
01
fe
ff
f6
06
13
f4
f6
04
ff
00
f1
f1
ef
fb
10
f3
36
e8
f6
24
e8
03
0e
03
fa
03
d2
10
13
fe
01
f8
02
e8
f3
f0
fa
f7
fd
fc
fb
f9
f7
f7
0e
fb
0c
03
fd
fd
f0
12
01
24
fd
ed
f9
01
10
0e
ca
17
f2
ff
ed
fe
f9
14
fc
cf
09
f8
02
01
fe
14
00
06
15
15
2b
01
f8
fe
02
ec
fc
0d
ff
03
02
07
f9
01
00
cc
ff
ef
f2
e8
12
fb
ea
18
0a
06
09
f5
fc
04
ee
0d
02
0a
06
0a
05
27
06
05
05
00
12
03
0b
fd
0e
01
f8
e8
00
ff
f2
04
0a
0b
fb
f9
0b
11
12
01
fb
03
0b
ec
fe
14
0a
d2
0f
0c
f8
e3
00
f8
ff
db
0d
f6
f5
05
fe
f3
03
09
01
fb
fa
fc
01
08
fc
01
15
16
03
0f
01
12
dc
31
f7
0c
f5
01
c8
05
fe
14
fa
c9
03
f2
02
11
f9
0a
02
03
10
10
09
fa
0d
04
22
fa
f0
f6
00
01
13
f5
fa
11
ff
fb
01
16
10
f4
06
f6
19
0f
0b
04
ff
fb
fc
0d
0b
0f
ff
1c
05
10
06
01
1f
fa
03
12
f3
ff
ea
19
0d
fc
09
e6
0b
f6
ee
f8
de
f9
03
45
00
e2
0a
fa
11
07
06
fc
00
c5
14
ef
ee
05
1f
01
e9
09
0c
11
0a
0d
f1
02
ff
10
0c
f1
fe
04
04
19
fb
fa
13
e1
18
10
df
f7
0e
f7
14
0c
03
ed
00
f0
ee
0f
02
00
fb
00
fa
05
ee
e2
1b
e9
f3
05
1c
f7
05
01
ff
12
de
f1
3a
0c
fc
07
0f
06
f6
fa
fc
e7
03
06
fa
f6
f3
0d
46
0b
f8
0c
f8
20
01
f3
fc
02
fd
e6
e8
2d
f1
07
f5
21
fb
02
0b
0c
fb
f9
f2
e2
1f
ff
26
05
14
04
fc
06
ed
01
fa
e8
2b
1e
04
18
0e
28
ff
16
00
f3
0a
11
2e
fa
12
08
da
ff
0b
00
02
03
fc
16
f8
ed
08
07
eb
01
fa
f7
12
1e
1a
fe
fd
fa
fc
01
ea
0b
ff
05
04
e9
0b
0e
0b
0e
19
04
eb
fb
fe
fa
fc
fe
03
f7
03
10
fd
00
f8
fd
19
0b
11
00
f2
03
f8
03
f8
06
0b
03
18
fb
ff
05
f8
fc
1d
03
f9
10
fd
03
fe
03
1a
fc
f1
0d
f4
05
fa
11
01
ff
fc
fc
03
04
01
f3
07
04
fb
08
05
fb
02
01
e8
f9
09
02
06
25
f5
10
09
06
ed
fa
08
12
06
f5
fe
fb
ed
f3
06
0c
01
02
f6
ff
02
02
06
ef
04
1f
01
26
01
fd
f9
fd
00
f8
fa
f3
26
0b
15
f4
1a
fa
fe
f8
05
f1
fc
fa
e7
07
0f
0d
f6
f1
16
fc
f4
e8
fc
0e
f5
00
01
02
0c
10
0b
02
fa
09
f6
f6
0c
0d
0c
16
1a
04
fb
fd
06
02
00
f8
03
13
ec
fc
0e
14
02
00
ff
e7
00
02
04
03
0b
fe
04
03
03
0f
08
f8
f4
03
00
f3
05
01
fc
15
0f
f6
01
04
05
f4
15
03
ee
f3
fb
23
03
ff
fe
f9
1d
08
fe
0d
fb
03
fc
ff
0b
fb
08
04
e5
06
ec
06
fe
fc
f7
08
f6
0d
ff
0e
09
02
19
0e
e9
fb
f8
f5
05
00
12
02
ff
ed
0b
11
0e
1a
f3
05
f3
07
0e
fc
15
04
ff
f3
ff
fe
10
fa
f4
0f
01
f4
f4
07
f9
06
f5
05
fa
fa
09
ff
fe
03
10
fe
17
08
00
14
05
09
12
02
ed
f0
fc
02
0f
f7
07
fc
f5
fe
f4
ef
06
fd
fb
fb
0a
f3
e8
fe
fc
f4
fc
03
fc
10
0f
01
01
f6
02
03
07
02
07
0d
06
fe
ff
f8
f7
0f
05
04
f4
00
fb
01
f5
01
fc
00
fa
f4
00
fe
f2
f7
f5
09
fd
20
14
03
ee
09
fa
10
f8
fa
f9
08
01
f1
06
01
23
02
05
03
fd
01
01
fc
f6
ff
0e
fc
fe
0f
ff
03
ee
ed
fa
05
f9
04
f5
f7
f6
ed
fe
01
ef
02
00
ee
f5
ec
01
08
05
05
fc
0d
f8
07
02
f4
01
e9
ff
f2
f7
fa
fd
ff
0f
f4
f8
fd
fb
11
0d
07
0e
f7
02
fc
fb
e7
fc
0b
04
0e
fe
f8
e4
13
fd
14
f4
04
00
f4
fb
d5
04
12
fb
03
05
05
01
fd
0c
00
11
02
08
f0
02
08
00
ff
01
07
f8
fc
fe
fa
08
06
fd
fb
ff
0a
03
e6
03
f3
fe
fd
0c
04
f3
f1
ff
e9
02
ff
fe
10
0e
03
11
fd
f0
ff
f3
ec
09
0e
fa
05
18
f3
0c
00
05
f6
fe
fb
fd
01
0a
06
f6
17
22
03
ec
f9
05
01
16
00
ff
01
0b
07
f1
06
fd
05
03
e5
04
02
07
06
f5
02
fc
ff
fc
0e
0b
15
02
fc
0e
02
13
03
14
e9
18
fd
0a
0d
06
03
01
fb
f1
fe
fe
00
fb
09
ed
f7
05
f3
fa
01
e2
04
f5
fe
08
ff
0a
0c
05
0c
0c
fa
14
f7
00
00
02
0e
00
fe
f2
02
02
05
04
eb
0b
fc
e8
05
0d
05
ea
06
fc
f9
f6
f2
05
01
01
06
10
f0
ff
00
05
fa
01
e6
f3
fb
f8
f9
0a
18
06
e7
06
f6
0d
08
f2
e7
fc
0a
fe
14
01
fb
0f
03
f3
e8
03
fd
fd
fb
08
04
1a
08
0f
14
fd
f8
fe
fa
04
f9
03
f9
0c
ec
f7
24
f7
fd
f0
09
f8
07
f9
f0
ec
f5
fd
06
f7
f0
ff
fd
fe
fd
f4
f9
14
09
08
07
08
01
0a
f0
0f
08
f6
fc
f3
07
08
03
fb
05
17
db
ff
e9
07
0d
03
01
0b
00
ff
f5
f3
f8
d9
f1
fe
fa
03
fd
02
02
fe
f3
00
eb
f3
10
0d
09
fd
01
0c
fc
08
ed
e7
0d
f7
e7
02
06
f1
f8
03
fd
06
fd
fa
13
df
f6
0a
fe
03
0a
19
05
fd
f5
ff
fc
e6
14
01
19
ff
03
fe
04
18
fe
16
fd
eb
fd
f2
fe
10
fd
04
fc
f9
f3
fb
ec
f5
02
0b
ed
03
07
ea
15
e7
0f
fc
0f
f9
e7
02
00
14
f3
f5
fc
10
06
08
f6
04
16
e2
08
f5
e0
ed
05
d3
0b
fd
06
0c
14
11
02
fd
e8
02
fe
01
00
ff
f2
f4
04
f6
e8
00
15
00
de
fa
fc
f1
f8
ff
04
03
f4
13
13
f2
f4
01
ef
f9
04
06
05
07
06
fc
0f
0c
f5
fc
fc
05
06
f8
ed
09
f8
07
f4
f7
fe
e9
fe
09
03
fd
fa
fe
fb
03
07
f6
11
fe
ee
f8
f5
f9
14
0b
03
0e
07
12
14
f9
fd
00
07
ff
0e
ff
05
12
fa
fa
07
01
01
02
12
03
07
17
1a
15
e9
f5
09
ff
f8
f6
f2
fa
0d
f6
f9
ff
f8
05
13
01
0d
0c
f9
fe
02
fb
06
e9
13
0d
0b
ee
0a
f7
ff
0c
00
00
f5
03
0c
0c
07
fe
fa
0c
00
00
08
12
01
05
01
fb
07
fa
12
10
00
0b
e9
ef
f3
09
f9
10
f4
04
f9
00
04
04
01
fb
ff
fa
e6
f6
04
f4
fb
01
02
f0
16
fe
03
f6
08
03
16
07
20
18
05
f4
e3
f8
01
05
ff
f0
12
fc
f8
fb
00
fc
06
fa
ea
08
fc
07
f9
04
fe
ec
fc
fd
f8
00
06
09
dc
01
05
17
05
00
00
08
f1
fe
f8
ff
ed
0c
07
f3
04
f3
fb
fe
f8
e9
fc
0c
f5
fb
17
01
0e
03
f7
1d
fb
03
f2
f0
08
fd
13
fd
fb
19
e0
08
11
f6
06
ea
e5
1a
0b
02
07
fd
fc
1d
f9
01
00
fe
fd
f6
05
0c
f8
11
fb
f9
fb
fa
0b
fb
ed
fd
f4
44
06
05
f5
f8
fe
07
0c
04
f8
f3
e2
03
fb
fe
03
04
ee
eb
fa
02
f1
fa
fe
e9
0c
ff
fb
f0
f8
fa
1a
ef
fd
f6
f7
fb
07
f7
f5
f6
f0
f8
09
ff
15
ff
04
f7
f9
f0
e7
08
03
02
10
ea
f6
ff
0d
0a
0f
ef
01
ef
08
00
0d
ed
02
fc
09
f8
f3
ff
fe
ff
00
02
06
f8
ff
01
02
f3
05
01
fd
f4
14
0d
f4
0a
02
05
02
e7
03
28
ff
0c
f0
03
ff
09
10
f0
05
f1
f3
f7
ed
02
0a
fe
fd
ed
e8
04
f7
01
0c
06
00
fc
0d
0b
14
0b
03
fb
fc
f7
07
03
fd
02
22
ff
f9
fc
15
ec
f3
01
e8
04
f9
04
f8
ff
04
ef
f6
fe
f0
f0
09
f4
04
f0
fa
01
f7
f6
01
17
00
ef
1b
f5
f6
09
ed
f2
f1
02
01
eb
fe
00
f2
f8
07
03
fb
f5
01
e7
0b
0a
ff
f4
f7
fc
ee
fc
02
fd
ef
ed
e7
0d
03
ef
fd
f1
03
ef
03
dd
e0
fb
f8
f7
f9
fb
e9
e7
df
f6
05
f2
04
f0
e9
ed
fd
dc
f5
e8
00
0e
01
e1
e3
eb
f6
fc
e7
e3
05
fe
f5
f1
f7
02
01
f8
f7
08
0b
20
fd
ef
0b
ed
e3
f6
f1
fe
01
05
fb
f9
00
f1
08
ed
0a
02
fd
ff
00
f9
02
fe
ec
01
f7
e9
ff
ef
f6
ff
0a
fc
ff
f6
e6
e9
09
02
f4
f4
eb
fb
f1
f8
f5
ec
ea
05
ef
f2
f4
09
0a
00
f5
e6
08
fd
02
e9
1f
00
01
10
ee
03
f9
ee
f2
f8
f4
f3
f3
f2
fa
f5
08
0a
07
06
ef
f5
f0
fe
10
fe
00
f7
fc
12
07
fe
1a
0f
02
e9
f7
eb
ea
01
ef
fa
fe
e5
fc
eb
1d
ff
e8
fd
fd
e6
09
0b
e9
ed
06
dd
fe
06
fa
f4
ff
fa
f6
1a
ed
f3
fa
fd
f1
05
fb
f1
f6
05
fa
02
fb
08
eb
ee
fa
dd
fd
03
ff
fd
f8
fe
fc
f6
ed
03
f7
f6
ed
f5
f3
f6
f4
fd
e1
0b
fe
01
fa
21
05
01
05
fe
fb
02
d7
f5
fe
d6
fe
f2
e9
ef
e2
02
de
f0
fc
e3
17
f6
f9
f8
0a
f4
04
20
f8
02
15
ff
ff
f8
09
05
0d
f2
e8
e3
12
1a
08
ff
ef
f3
0b
f0
e4
08
f2
f3
e5
e3
fb
f7
f2
07
04
f2
ff
e1
ed
0c
08
da
16
fd
e0
f2
03
05
12
f6
f6
04
f2
f7
05
ed
01
10
f1
fc
fe
fb
e9
ff
df
05
f9
fb
01
fe
fe
f2
f3
02
f0
f6
fd
06
ff
05
f2
e3
f7
eb
05
27
d1
f5
ea
f4
f1
e8
f4
04
0a
fb
ff
02
f2
00
fe
fc
f4
1c
fd
04
00
06
fe
fa
fa
fa
03
06
fa
04
e7
fe
e2
f6
0e
f2
df
0a
04
f2
f9
e8
e8
ff
f4
13
fc
ea
ff
fa
f3
09
fe
01
06
fa
03
f1
00
14
fc
03
f5
05
e5
15
f9
c6
f3
01
fa
ff
03
f9
f5
14
1d
06
06
02
10
f9
fe
f9
e5
ee
fb
f5
ea
fb
fc
fc
0e
fd
03
f9
e0
14
f6
ea
fe
f0
fe
f9
0a
fb
f6
e6
06
05
07
e9
f0
f8
04
03
f8
e7
f6
ef
e7
ff
f2
e8
eb
07
15
0c
eb
08
05
fc
f9
f8
ef
ff
0d
cc
03
1c
e8
fa
ed
0a
02
f8
ff
fb
09
01
dc
fc
ff
03
0a
f1
f1
e4
1c
01
03
24
06
de
14
fc
f6
18
f7
02
fa
f5
fc
df
0a
f2
00
0b
0e
f4
ff
eb
02
ed
01
f2
10
e8
fc
f7
e9
0a
03
f9
f0
dd
07
02
ec
19
ec
0f
fc
03
f3
fd
18
ea
02
f9
09
f1
f4
12
f9
ff
0b
f2
f1
f5
ed
f5
f7
ef
01
fe
eb
e2
05
e8
e3
ef
03
f9
fb
f9
f4
f6
0e
f6
0f
e9
fd
f3
e3
e5
04
10
f9
f9
ee
ff
fa
ed
16
0c
ce
fe
ec
07
03
f7
e5
04
06
05
fa
e9
0b
fa
dc
00
f8
01
fb
01
f2
fa
00
09
fd
0b
dc
02
ef
e9
fa
ff
00
f9
ee
ed
f3
f9
ef
09
fb
cd
ff
ef
03
eb
ef
f6
fd
fe
fb
f3
06
02
01
08
ef
fa
e7
09
02
f4
ff
f3
ed
e2
11
ee
fc
f9
fd
0d
f9
0f
00
08
03
0b
fb
fb
15
0a
fd
ec
05
02
fb
09
05
ed
0c
fd
e6
f2
e6
05
fb
ff
03
f3
03
fe
fb
eb
0a
f3
fc
0e
fa
ff
ff
ec
15
07
09
08
05
04
04
f5
ff
0c
27
0e
fe
fd
15
0c
fe
0b
fd
1d
f0
fd
03
0e
fe
f6
04
f9
14
11
14
06
00
04
1e
0c
05
f1
01
02
eb
fa
f3
fe
08
f9
05
02
06
f9
f6
08
ea
24
fb
10
fb
17
03
02
23
0c
1f
0b
e6
0b
f0
eb
00
fb
f0
03
09
05
07
fd
19
1c
ed
06
f9
ef
09
06
00
02
f5
ef
06
f9
cf
02
01
f0
f4
ee
fc
f6
fa
dd
0e
fd
f8
07
05
f3
fc
f7
ec
01
fd
1a
fd
06
f6
f9
04
02
0e
f6
eb
0c
e9
01
06
fd
17
f9
f6
fe
01
15
06
03
f9
01
eb
f9
02
f3
f5
fb
f7
0f
0c
02
fb
0d
e7
06
e9
10
01
fd
0e
01
f2
04
01
06
fd
f9
fe
14
fd
f4
fb
f2
ff
13
01
f2
00
fd
08
fa
f1
11
00
ff
06
09
ff
06
f7
f3
02
07
fb
08
01
f9
1b
e9
ee
00
01
02
fc
ff
04
fc
01
ef
f9
ec
f1
e6
f9
fc
04
02
0d
f6
fd
fc
0b
f5
fe
c7
f6
28
fd
f8
0b
ff
e7
f1
fe
fd
04
08
f5
19
e5
e0
fb
00
03
fe
f6
0a
ff
00
f4
ff
fc
cf
02
f6
f5
00
fb
06
01
f0
15
eb
0c
03
ff
05
fd
0e
f5
f8
07
f7
01
fc
fe
13
f2
02
05
f4
f1
f4
ff
ec
f9
f4
08
f3
ee
ee
0b
f8
f9
0e
00
10
0f
00
0e
06
02
08
06
e5
fe
11
0d
e7
02
fc
f9
0b
e4
09
13
04
fd
fd
d9
f9
f9
e3
03
fd
fa
09
fe
02
14
fb
f9
ea
fd
f7
04
0a
07
12
01
f4
e6
f7
f4
13
15
0d
ed
fd
fc
07
f2
0a
f9
00
03
1a
03
05
0d
ff
f6
f9
f9
0b
ff
0c
04
e0
fe
00
00
f9
f0
fc
eb
fb
f9
fa
0b
fb
16
0f
fd
fb
0b
f6
de
f8
1c
f6
08
f5
20
d9
fb
0b
15
fb
0e
04
fa
03
fa
dd
f7
06
03
f4
11
ed
f8
fe
f2
fe
18
eb
f5
06
03
00
1c
eb
fe
fe
f4
09
04
f8
01
fb
10
0f
fc
e6
0d
f2
00
ff
f9
f4
ee
03
fa
00
06
f1
ff
09
03
05
fc
ed
f9
0d
0f
f7
08
00
e2
fe
d8
00
05
ed
e9
e8
f9
fc
fd
11
05
07
ff
ee
03
0b
fa
06
0f
15
03
00
da
03
08
01
05
03
05
13
0f
fd
17
fd
ee
ef
f5
fd
08
ee
fe
03
fc
f2
ff
e4
ec
04
f3
0e
05
f2
fd
07
0c
06
02
ff
f7
01
1a
05
f8
ff
fe
00
01
ff
fa
0f
14
ff
ff
f4
fa
04
f2
f5
f1
dc
01
f9
f6
1b
07
0e
f4
f6
06
1a
ea
06
12
0b
fb
fb
0c
f5
01
02
00
f0
f1
10
1c
fa
f9
03
fc
f9
05
f6
01
fa
f9
04
eb
00
0f
1c
fc
fc
f7
ff
05
05
02
04
09
06
f8
08
0e
02
f3
fd
ef
fe
0e
f6
02
02
f3
07
08
01
0f
f6
fd
fe
f9
0b
01
f9
fb
10
11
e3
04
e8
e2
13
e6
03
f8
ec
f4
f8
eb
ec
eb
ef
f8
fa
fe
08
08
fc
f9
08
12
0e
01
fe
f6
0a
fe
21
ef
f8
05
03
ff
03
14
fd
09
fc
e4
05
07
f8
e7
0f
14
e7
0c
06
f1
05
fd
f2
fc
0e
01
19
1d
0e
05
15
fd
f7
0d
fd
06
ff
fc
f5
fd
07
0c
02
fd
02
04
fc
fd
fe
09
f5
02
04
f8
f7
0a
08
03
f9
ff
fc
ee
fe
ff
07
ff
f6
0d
f9
01
00
01
01
fa
00
fe
fa
03
11
e8
fb
fc
05
0d
01
ea
fc
f6
08
0c
fb
00
02
08
fe
f5
16
e8
f7
fd
fe
07
e7
10
e8
00
06
02
f0
fb
00
f4
ff
00
fe
f6
05
08
fc
02
14
fd
f8
06
0d
03
15
04
0f
fd
0b
00
0a
ff
07
ff
07
fd
f8
01
08
f9
02
06
02
0c
0e
d9
0c
04
ff
fe
05
fc
13
0c
f5
ef
08
fc
f7
f5
02
06
ff
1c
eb
ed
11
fd
04
04
00
02
ee
f9
09
06
ee
ff
04
01
fc
06
fe
14
11
01
f1
05
f8
15
0c
12
13
fa
14
f9
fc
03
04
f9
f7
f0
13
fd
fd
f4
ff
03
0e
09
05
00
f4
04
f4
fc
fe
f9
f5
08
0a
02
f6
03
eb
03
f1
00
fe
01
05
fd
03
06
03
0b
f9
fd
0c
01
00
f4
04
0f
f3
f9
00
ff
fe
ee
fe
f6
fb
fc
01
09
01
02
f7
1a
04
ff
06
ef
fe
fe
f6
fd
08
fb
15
f2
09
fd
fd
01
03
06
02
05
0c
fb
d9
fe
01
ef
00
fb
ea
fa
05
e6
1f
06
12
13
f9
0b
e9
07
06
04
fd
00
f0
fc
ff
fa
07
06
05
08
0d
ff
fd
f0
06
05
04
03
fd
0c
03
fe
17
12
01
01
1f
fd
00
fd
11
0c
11
f4
fe
00
03
f7
05
03
ee
ff
04
05
f8
ff
12
fe
f6
0a
11
fd
02
fd
0c
05
0a
02
08
f7
09
01
02
f8
01
f0
00
09
f8
11
f8
fe
02
ff
f2
04
fa
f2
05
fd
02
fc
22
00
f0
fb
f8
fc
06
05
f4
0e
0b
ff
fd
00
00
03
f7
ef
fe
f9
0b
f4
fe
eb
16
ed
ea
13
ff
f9
ed
0e
00
f0
06
09
ff
05
ff
01
fd
01
09
f3
09
06
00
16
04
f5
d4
0f
09
fa
fb
fa
e1
0f
fa
1d
01
f9
0f
f3
fd
fe
fd
1b
f8
ff
03
fa
fd
f0
00
ff
09
08
05
f4
01
f5
f9
ee
e9
f2
01
05
14
f3
05
fd
fa
f9
ec
02
02
ff
fd
05
f4
fb
0e
fc
f8
07
0f
04
f9
f3
16
f9
05
01
06
0d
03
0d
00
fc
fd
04
0b
fb
f8
0a
ff
fe
06
fd
f7
0e
ef
00
f5
06
f3
01
04
ef
f1
02
ed
0d
03
0d
0f
fd
ec
05
fd
0d
0e
04
02
fc
08
02
fc
f7
00
07
fc
f5
07
03
f2
04
f5
f9
f8
fe
02
ee
f4
cf
f9
ff
11
fc
23
0b
ff
04
05
ee
01
04
fd
18
04
01
f8
01
ff
da
fe
05
fa
05
06
01
01
09
f4
0d
00
f1
fa
fb
fe
fd
07
0a
f9
0a
02
0a
00
fa
00
f7
fc
18
fa
ff
e9
f9
0a
e2
01
0a
01
0a
0b
10
0e
e3
00
fa
fc
de
f1
fc
0a
0b
05
f4
04
06
ed
08
fd
ff
ee
10
0a
03
1b
02
ff
f3
04
f9
0b
f2
ff
f9
06
00
ff
ea
eb
02
fe
0e
fd
02
fc
fa
0b
2e
01
f2
f2
fc
fc
01
f2
03
03
fe
02
0d
f6
f2
08
06
0d
04
0c
fc
db
f1
e7
f7
f6
f6
0a
00
f4
03
0c
1f
03
f4
44
fa
0c
19
01
00
e4
0a
16
03
f4
0a
01
fc
18
06
ef
f6
00
09
0a
00
03
13
fb
00
00
f0
ef
03
05
dc
07
fb
13
d9
f3
0f
00
f5
fd
fe
00
f2
fd
e0
fc
fa
07
1e
05
04
f0
04
0c
02
d8
09
0e
06
e7
ee
07
db
f1
f6
03
f6
0e
05
e2
04
f8
ed
0d
f4
f0
fc
04
00
01
f7
ef
03
fb
f4
0e
09
fe
fa
10
f5
09
f9
11
fc
f3
f8
f9
f5
f3
00
00
f3
fd
f4
f6
f9
f0
fe
ef
0c
f7
fb
f8
04
02
e4
ea
fb
11
df
00
01
04
01
fb
f8
f0
fb
ef
d7
00
01
0d
0b
fa
f2
e7
06
29
15
05
fd
08
23
0c
14
fe
07
fe
f5
ff
f4
fe
fe
f9
ff
f6
ea
f2
03
03
f4
02
f4
ea
09
fd
f9
fe
0a
f6
f3
fe
f5
01
0d
e7
0c
0d
1f
f2
06
fb
02
ff
f9
03
10
0d
06
0c
fc
f2
f5
04
0c
11
ff
12
fb
00
04
f7
06
0b
0a
fd
0a
13
36
01
10
eb
e8
15
ff
05
03
00
fc
f3
11
e3
e0
00
04
00
fc
f9
0b
0c
02
07
0c
13
06
01
09
fb
14
d7
f5
0d
f0
f8
06
f3
06
e7
ea
12
ef
e1
05
fe
f0
10
17
ef
f9
f7
08
ff
01
05
09
0f
fd
ee
fd
fa
fa
ff
fa
06
fd
f2
01
f3
ed
06
fa
04
f4
12
f1
14
fb
fe
f2
fc
01
05
e7
04
f8
0b
f6
f8
1a
f0
e7
e9
f0
0c
02
fc
fd
02
1b
f5
02
f7
01
03
f3
20
fd
e7
f8
fb
f3
0d
01
fe
fb
15
06
01
00
f6
02
df
f4
f2
12
11
04
0d
13
02
f8
00
f6
0a
ff
f8
ff
04
fa
10
fa
e7
02
f4
ff
f3
ff
f2
f2
03
f1
ff
08
16
05
f5
f8
fc
0d
f7
f0
22
0b
00
f8
f8
15
1f
0b
f8
ec
f4
06
04
10
1d
e6
f8
0e
fe
f6
fa
fd
00
07
04
e9
f7
02
fa
0b
f6
fe
0a
e3
05
08
0a
fe
17
02
05
ff
fe
fd
dd
ff
c8
04
fd
15
ec
06
35
f8
ff
fa
1a
fd
0f
05
fd
fb
04
04
ed
0e
00
04
03
f1
0c
08
f6
ea
f7
f6
04
e5
fc
f4
ff
fe
f2
d8
de
08
fc
e6
fb
f7
17
12
f5
01
e9
f3
05
fa
f1
f2
0c
fa
10
1a
0d
0e
fa
14
fd
06
fe
08
ef
02
07
0d
0d
f1
18
05
fc
f8
f8
0a
e2
13
db
f2
fc
05
09
05
0a
05
14
fe
fc
e6
fb
08
f8
ff
fd
fe
07
f7
03
ef
f3
06
ff
0c
ee
d2
08
06
ee
fc
10
f8
fe
10
1a
f9
09
07
09
07
de
fc
f1
ef
ed
ea
f4
e7
d8
ff
04
02
12
00
f2
10
04
f4
f2
f7
f1
f5
f0
00
02
19
13
ef
0d
05
11
ea
00
fb
04
fc
08
19
00
fb
f0
fb
17
0d
15
03
01
f6
02
02
fa
00
04
f2
ff
ff
07
f2
ee
f3
00
02
0d
fc
1e
fc
00
05
f2
13
09
fe
03
e2
ff
12
0a
0c
05
07
ef
04
fc
fb
19
fd
02
09
11
06
00
01
ea
ff
0f
10
0f
04
ec
06
05
07
ef
00
fa
21
f8
09
15
f1
f9
00
0a
13
fe
f6
fe
fe
f9
fd
25
02
dc
fa
fa
12
f6
fc
fb
06
10
fb
0f
fa
fd
05
0f
fc
ef
09
16
fe
f8
02
ec
03
10
ff
02
05
00
0c
ff
1c
f9
16
00
ff
01
fb
11
0a
03
f5
14
06
f1
29
fe
fe
08
ff
00
fe
fe
f5
fe
0e
f3
0f
f7
ff
ef
0b
0c
fe
fa
fd
f2
1f
0d
00
f9
03
03
fa
0d
f1
fb
07
10
ed
e4
f9
07
0e
ff
05
ed
fb
fe
fe
0a
06
02
f9
0c
04
07
01
ed
ed
f8
fa
f9
ff
00
01
0f
03
04
00
08
f8
f7
f5
f7
0b
fe
03
19
ef
0c
1b
1e
0e
ec
0f
f3
08
ff
fa
00
02
11
12
f5
f1
fd
14
0d
f9
fb
fc
00
f6
06
f7
0a
01
01
fb
fd
fb
09
1d
f5
0a
05
ef
01
05
fb
f8
ff
fd
f6
ff
0c
06
e9
f1
10
12
ff
1a
e8
f7
05
00
fd
11
fb
05
f1
01
ff
ea
10
fa
03
00
fb
f2
06
fa
06
fb
fe
fc
06
0f
01
03
fa
f1
fb
04
06
03
fa
00
27
ed
10
ed
04
13
f7
01
f1
f9
02
1c
ff
f3
0e
09
07
00
fc
1b
06
00
06
14
fc
06
09
f8
00
0e
0a
04
13
ef
e9
f2
05
05
fa
fa
fa
1b
01
ef
0c
0a
ff
02
fb
08
fc
e8
fb
09
09
04
0f
0b
f0
ff
fa
f2
05
fd
00
12
0e
f1
14
fd
f5
fc
fd
f9
e5
fd
fe
e8
f4
08
08
01
06
1b
02
e6
e2
00
f0
fb
03
07
01
0d
fd
14
13
02
1b
fe
fb
f5
ff
ff
07
fc
f8
02
fc
04
f6
fd
08
00
06
ed
10
06
fa
02
01
03
f7
f7
ff
fd
e8
09
0b
08
f5
ff
0e
03
07
1f
f2
0b
0c
00
fd
06
fe
f5
09
01
01
01
fe
fc
19
ff
d9
f5
01
fe
0a
00
11
00
fb
f0
03
ff
eb
06
fa
04
10
fd
1f
03
05
07
02
1c
ff
01
1c
04
de
fd
f7
f8
f7
fe
02
fe
ff
f6
03
f0
ff
fe
12
05
05
07
0c
0f
fd
0d
0c
fe
0b
f2
fd
fe
10
f4
e8
0f
fb
00
ff
09
ff
fb
f4
0e
fe
f9
ff
fa
14
24
02
09
fd
10
0a
02
ef
0a
fe
18
00
0d
f0
fc
00
03
05
00
f1
f9
fe
0d
04
ff
06
f6
f9
02
ff
ff
ff
16
fd
f9
0a
03
00
ff
fe
10
0c
0e
04
04
fc
04
11
05
16
05
ed
0f
09
12
00
34
fe
ef
03
06
f6
0a
fd
01
fe
0a
ff
ec
02
0a
fd
fa
05
15
1e
01
0d
04
0b
04
f8
03
02
fc
01
ef
01
01
03
07
fc
08
e7
00
12
fc
f2
fd
e7
04
16
f2
f5
2b
14
f4
f6
05
07
0d
f1
01
0f
0a
f5
01
09
f8
ec
03
0f
f0
ed
05
fe
05
fa
0c
f9
07
f4
fc
fe
02
fd
fd
f5
02
03
00
fd
04
1d
f9
07
09
01
06
05
1c
f6
eb
01
ec
fa
0b
04
ed
05
f8
f6
03
07
f6
02
16
02
08
fd
1b
f6
07
f0
0d
fa
02
05
04
e9
07
10
13
f7
0b
fd
fa
0b
ee
01
fb
f8
10
04
08
df
fc
f8
f8
da
eb
fe
04
fc
01
07
ff
02
f5
02
f2
07
fb
fb
04
0b
f5
fd
01
10
f8
f9
f2
da
f9
0f
00
0a
fc
0c
10
ea
fe
fe
00
f7
04
e8
0c
f9
08
09
15
06
fc
ea
fb
fc
06
f3
fd
de
f8
f8
fe
01
fd
f8
fe
f8
02
fd
02
ff
f4
01
0f
ee
f1
02
f2
fc
f8
fa
fe
ed
12
0b
fe
09
12
0d
0d
02
fa
00
03
ff
09
ff
f9
fd
f7
13
00
fc
fe
f7
00
fd
eb
f4
fa
06
02
0c
2c
ff
f0
fa
fc
01
0b
15
09
ff
14
f6
ff
f6
fa
04
03
14
fc
ff
fe
f4
0b
00
f4
01
f5
02
00
01
23
fc
ea
03
08
ec
01
18
f7
f4
02
08
01
07
0c
f6
f9
fa
03
ee
fa
05
fe
11
08
02
fe
23
ff
f5
02
fe
08
ef
ff
fe
ed
f1
03
17
05
d7
04
f8
fe
f8
fd
f0
fa
06
fb
04
fd
ee
12
02
fb
fc
ff
ff
02
01
f6
f2
04
04
ff
f9
ea
0b
fb
07
18
f5
09
ee
f8
f9
fc
02
fc
ff
09
e6
01
fc
f9
08
d9
01
ee
fc
00
fd
0a
fb
fb
fe
1a
00
f6
fc
06
04
fa
ee
fe
f0
fe
01
00
f7
fa
fc
06
00
04
0a
f5
fc
ed
fa
f8
f8
fc
00
00
06
04
f5
e0
f7
f6
0a
03
ff
fe
07
fc
00
f0
0b
08
04
f8
07
08
f7
fb
09
15
f6
07
fa
e9
06
e9
f1
07
02
e5
04
f7
e1
05
03
00
f2
fe
00
0a
03
f6
04
f8
fc
fc
06
f7
fe
01
f7
f1
f6
fc
f7
09
06
f9
f6
0c
e1
ff
06
0c
05
fc
00
ff
f9
05
fc
0d
04
05
04
05
fe
f9
04
fe
ff
f2
13
00
de
f2
fb
ff
fd
ef
f9
02
02
01
02
06
fe
fe
f6
ed
ff
00
0d
07
0c
00
0c
fd
f1
01
05
fb
18
0c
f2
12
ea
15
fa
fd
05
fe
04
fb
fe
00
f3
02
f7
ec
0f
fe
f0
fc
12
fe
fe
02
02
f6
00
fb
14
fd
ff
f3
f4
fc
12
fe
02
f4
05
f7
ff
0c
06
f8
11
0e
f4
04
01
fd
eb
ed
08
fb
fd
03
01
f6
fe
00
ff
07
f0
03
f9
06
fe
1e
02
04
17
03
01
08
f6
01
04
09
fd
15
01
f1
04
ec
07
08
03
06
09
fa
10
13
09
fc
fb
08
02
01
01
fe
ff
02
1a
00
00
fb
f9
15
fc
fd
07
f3
fe
06
0c
03
0c
05
05
01
fc
f2
08
05
f8
07
f2
05
f4
fb
0a
08
f5
fc
00
f6
f4
e9
0e
fa
fc
02
fa
0b
06
06
e7
05
03
0c
00
fd
06
03
f8
fe
db
06
04
01
f3
08
07
0c
f3
06
fb
fc
f1
fd
00
ff
0f
02
02
06
01
f3
f5
07
00
04
01
da
f2
fd
ff
04
f0
fe
00
02
ef
f9
fa
2d
fa
fe
f4
0c
06
f9
fa
09
ff
fa
eb
0b
e5
f8
04
09
0f
f0
f0
f1
00
12
ff
04
ef
fd
0c
07
fc
f7
fc
e9
de
f8
f9
fa
01
ff
e8
fa
0b
04
ff
05
00
0a
04
e7
03
1c
03
05
f7
ee
00
06
f3
f7
fd
f3
06
03
00
f3
f3
f9
f4
ef
01
02
11
ff
00
04
05
00
e6
f1
f6
f6
13
05
00
0f
fe
fa
f4
04
0d
03
ef
fb
fb
fd
06
08
04
fd
f5
ff
f9
06
06
fb
fc
eb
17
fb
fc
f6
0e
f9
0e
fd
fe
fe
f7
0c
01
f0
0d
fd
08
f5
13
01
f3
f6
1e
07
f4
01
f5
f9
06
00
0e
fe
ef
f8
01
01
10
02
dd
03
f7
f9
09
fc
f2
fc
12
fc
00
fe
f6
06
ff
f7
f7
06
eb
0f
01
f9
fd
05
02
fd
f8
ed
11
02
01
fe
26
f7
fe
01
fe
fd
fe
0c
02
08
f9
0a
fa
14
eb
ff
07
fb
2c
fd
07
09
02
f4
03
07
fc
fc
fe
02
25
06
f9
04
09
11
0d
06
f6
f7
00
09
12
03
02
ff
0e
20
fa
dd
03
ea
fe
01
fc
00
00
f7
f9
fe
16
04
08
00
03
0b
06
ff
02
f3
04
13
0d
00
09
10
ff
05
11
08
0a
02
fe
06
e3
0d
ff
04
11
fe
06
05
03
0b
04
12
f8
16
fb
f2
0b
f4
fd
00
0c
f8
12
fe
0d
1e
00
0c
f5
ea
05
f7
fa
02
05
f9
fd
ff
03
f9
f2
05
fe
0a
f7
02
00
0a
03
02
03
f8
06
01
fe
ff
fc
02
f0
12
04
fd
f0
33
f5
f6
f2
fe
fc
10
f8
04
13
04
06
fb
f6
fb
ff
00
0b
03
07
f3
07
f7
ff
09
06
08
0b
f8
07
fe
fe
f7
f6
e3
23
00
fc
ff
06
13
03
ff
00
ee
03
06
09
16
2a
06
fc
f7
0e
05
07
10
fb
f1
fa
1d
0b
0c
fe
f9
09
fe
f9
fa
11
09
fc
ff
07
f1
07
08
0a
fd
01
00
ed
f5
fe
00
06
f1
fe
02
fb
06
f7
01
db
0e
02
01
f9
ff
ea
f4
05
03
fa
03
ff
ff
04
fb
fe
f2
02
09
31
f6
06
01
f3
06
07
01
f9
e2
0c
0f
fd
fb
00
10
f5
fc
f6
00
02
09
1c
fe
02
f6
fc
07
05
0b
ff
00
f4
25
23
21
fe
e4
f6
04
fe
ff
fc
11
f6
fd
ef
ff
fe
05
ff
ff
08
fe
0b
07
f0
00
01
01
17
ff
f8
fe
01
f2
fb
04
fc
f7
f6
04
03
f2
14
ff
f1
09
0c
f7
fc
f6
00
0e
20
fe
f0
ff
0c
f4
08
01
f6
f0
fe
ee
fe
06
fb
f5
fc
f7
07
02
02
e6
06
09
0d
1b
0e
02
0c
02
10
fd
fa
fe
ee
01
05
0f
f1
f9
fe
02
f9
15
ec
11
0e
1a
07
0a
04
0b
06
07
f7
fb
02
13
07
05
f6
05
fc
ef
22
0e
0c
09
f9
fd
09
09
f8
08
fe
01
fd
04
fd
09
00
00
06
ff
f9
0c
0b
05
07
09
fb
f9
04
ff
0d
fd
00
fc
f9
07
03
f8
f9
f6
02
14
03
10
0d
0c
03
fe
05
00
fe
fc
09
04
f0
0d
12
09
00
00
ee
f3
0a
fd
02
01
01
01
02
f7
08
01
05
05
04
0b
fd
01
01
fc
f8
11
15
fd
0b
d5
0b
f9
0d
0b
f8
05
05
fc
19
f8
0a
05
fb
09
fe
f7
f8
0a
0b
fc
ef
0a
ff
fb
f9
08
08
06
f8
f2
fc
ff
02
08
0b
08
f7
08
05
ff
05
ed
02
f4
02
0d
ff
f9
01
fa
0e
04
fc
0a
06
15
0a
fc
fd
0e
06
fd
f9
04
ff
12
02
00
eb
03
ff
fb
02
05
05
0a
fa
16
fb
04
05
fa
f8
fa
f5
08
02
17
e6
f7
10
fe
e2
06
07
09
e1
06
06
0a
f2
ff
0e
06
15
0e
fa
f3
08
f6
02
df
f3
f9
f2
07
fa
eb
e7
21
f4
14
18
f9
f6
f9
e9
0f
f2
00
02
08
01
fd
fd
0b
f2
03
0d
fe
06
ff
11
00
fe
08
fd
fb
01
1a
04
fe
0c
ff
02
08
00
ff
e8
fa
00
1e
fd
00
fd
ff
00
09
fe
fd
fc
ff
fc
f3
06
ef
06
fd
11
11
fc
ef
0f
02
01
f6
ff
f7
fb
09
fb
04
03
02
25
ff
ff
f5
08
f5
0c
10
0d
05
fa
02
05
fe
fd
01
0d
f7
16
0d
00
16
ed
f4
fe
ff
06
fa
fe
f7
eb
0d
fd
f1
ff
09
f8
fb
07
fe
06
fc
e9
f2
03
07
12
0d
02
00
fb
fd
06
06
f0
0a
fd
fd
f6
14
15
10
fa
fe
1b
ed
0e
06
dd
f8
fd
01
f4
f3
f8
f1
fb
fc
04
f6
0c
fc
07
01
fe
f5
e9
ff
f7
fe
06
f6
ee
05
0e
17
f4
03
01
f2
05
f9
ff
08
12
02
fa
10
04
08
db
ef
fa
f7
fa
01
fd
fc
f7
06
fe
02
27
0d
fe
04
f7
fe
12
ff
12
11
0c
fe
fa
fc
02
fd
07
f6
08
fa
00
ed
f7
04
03
01
00
f7
f3
04
fc
0a
fe
1b
fc
13
10
0f
0b
fe
ff
07
10
0b
02
f3
ff
fb
f9
0e
18
05
ff
0e
08
08
08
0f
06
fb
0e
fa
11
f7
f7
08
06
f9
22
0a
10
fd
ed
03
04
05
f1
f0
fc
1b
ee
01
08
0c
f2
17
fd
01
fd
0a
01
ff
ee
fc
00
fc
01
02
11
ed
04
00
09
03
f1
f4
0f
ff
0a
ed
18
04
02
0f
14
0e
18
f4
10
0c
02
f1
18
07
fc
03
ea
0a
28
08
02
f2
fb
f4
02
02
01
0f
19
f1
0c
03
05
04
01
04
13
fa
fb
fe
16
00
fb
00
fe
0b
fa
f4
ee
01
03
09
ef
0b
f2
01
fb
00
fc
e2
08
fd
0e
01
15
01
01
fa
ed
08
11
00
06
00
f8
01
1e
fe
00
f7
09
1b
f7
fd
f9
09
f8
05
f9
ee
00
fe
f7
01
f8
fb
00
ea
10
fe
f1
f5
e0
11
10
e8
fd
e4
fe
ee
03
0d
fd
01
fb
f4
f4
ea
08
f0
0f
02
f3
17
0c
04
08
07
07
22
f4
f6
00
f4
07
0c
03
fb
03
2a
0f
02
ff
10
09
13
ff
00
1f
04
fe
ef
ff
f5
fe
f8
fc
fe
01
1f
06
fd
01
fe
0e
fb
0c
fa
0c
0c
01
fc
0b
02
0e
03
f9
15
02
00
f7
0a
14
03
1c
00
03
f7
fb
0c
f2
03
fe
07
fe
01
ff
03
ff
f4
00
29
04
0f
04
03
fe
03
fb
eb
fe
12
fe
00
1d
03
05
f4
e3
06
fe
0d
00
04
05
00
04
15
01
06
07
fd
01
02
08
17
0b
00
fd
fc
0a
12
11
12
06
07
f2
ff
dc
f7
16
f8
21
0f
28
e8
fa
fb
fc
02
f4
1a
13
f1
19
f0
ff
04
01
09
10
08
08
07
03
e9
03
f5
fc
f5
f5
fa
f9
00
fc
eb
ed
0b
1e
0a
fd
01
fb
10
07
fc
02
06
eb
ea
25
fd
ff
06
ff
02
02
f8
13
f5
fd
fc
06
fe
e6
fe
0b
14
09
02
02
f7
06
fd
f5
e0
f6
02
01
01
10
0e
ff
04
2b
02
f8
08
17
14
f8
12
09
03
09
04
07
08
f7
ff
03
13
00
e2
f4
fb
00
f0
15
ef
05
fa
fc
04
f3
ea
0e
e5
03
0b
00
f6
f8
fd
06
ff
ec
00
03
f6
10
09
ff
f9
f8
ff
02
fd
07
fc
04
0f
06
fe
f2
ed
1d
ff
12
00
f8
00
f8
05
15
07
05
03
01
ff
05
f8
03
f1
f1
04
08
fd
ed
fc
0b
09
02
f7
1f
01
ff
03
04
01
01
0b
03
19
00
06
1a
07
08
fd
03
f5
e1
fb
1d
08
17
08
ed
fc
02
16
f5
09
fb
16
ef
fd
07
dd
00
f9
0b
0e
02
fe
0b
f8
00
ff
f8
01
e6
07
29
1a
06
00
f5
f9
f8
0f
f4
0e
e7
fd
ff
0b
08
fc
03
07
f7
f4
f7
0b
f3
02
0d
0d
18
0b
ff
0e
ff
02
10
0b
0f
03
05
fb
0b
00
01
f6
04
03
0a
06
02
f9
05
ed
ff
03
0f
00
0f
fc
10
03
10
fc
fd
f0
13
05
fc
f9
01
ff
04
0a
fc
00
08
09
0d
fb
fd
ee
05
0f
12
ff
fb
fe
07
09
04
fe
0e
1a
fb
f9
11
f5
08
fa
f0
e6
09
0d
ff
0a
01
09
0b
f9
05
15
04
0a
03
05
f4
03
fb
fd
12
ee
02
01
02
15
03
0c
f2
05
00
0f
f9
12
24
0f
f1
09
05
05
fb
fa
03
02
ff
0a
fa
f4
0e
0b
dd
fe
f6
07
fd
03
fb
ee
03
1c
eb
11
08
11
04
fe
0a
fd
ff
10
07
11
0f
05
f6
00
f7
ea
fe
ee
00
05
0a
00
05
36
f7
02
05
ff
fe
fc
0c
fe
0a
02
07
01
02
1a
02
0c
04
15
f9
11
06
08
02
0c
06
fb
09
02
0c
10
05
06
0c
01
ef
f1
fd
f2
f3
05
f9
05
03
02
eb
07
23
01
0e
f8
01
00
e8
06
ff
f9
0a
04
fd
00
fd
f6
fc
e4
0e
08
1d
0e
00
0a
f3
04
fa
07
0c
06
00
fd
0c
ff
fb
ff
07
0c
0b
ff
f9
07
02
00
09
fd
05
04
fb
01
f6
fc
fc
00
ea
04
08
f2
f0
ea
00
06
00
ec
f9
ff
0d
f5
0e
f6
08
e4
ff
02
03
0b
fc
10
fd
00
04
08
fb
05
06
fc
0c
22
04
1f
ff
f6
05
15
ff
07
0b
f7
02
15
f2
fc
ff
f2
0c
fb
f5
1e
05
f6
09
08
f6
1e
f0
fe
0a
03
f9
0e
f9
ee
01
f6
07
08
15
f6
fd
fa
fe
fc
e9
11
fb
08
13
f2
fc
02
fd
fe
10
03
f7
15
02
ff
0b
fa
0e
f3
01
f8
0e
04
00
f0
00
f4
f8
15
ec
09
0e
05
05
00
14
0d
fd
11
0a
0b
0d
17
0a
fb
1e
0f
02
fa
f1
09
09
02
0f
fc
1c
01
e6
06
09
fd
02
00
03
0c
fe
12
e5
fe
08
fd
fc
10
04
ff
ff
01
fb
02
02
f2
03
0b
06
f2
ff
04
0b
fb
f7
0b
f6
f9
fc
0d
08
fd
fe
01
22
07
1a
f7
fe
09
00
fb
f9
02
10
0b
fa
04
fc
f9
03
2c
fa
04
fd
fc
0f
0a
04
13
0d
10
04
f8
02
f9
05
f4
fa
12
26
02
f8
f9
f8
ff
ef
0c
05
14
06
fa
04
0b
06
08
02
f3
ff
ef
ee
fc
0d
05
13
f6
21
d6
17
04
06
00
f7
17
ff
04
0f
ed
00
0e
bb
f0
16
ee
0d
fb
19
04
02
02
06
04
fe
02
03
f9
0f
fd
f5
f6
05
f5
08
04
02
f7
0a
db
f5
04
11
fd
0a
1e
ff
f6
15
ef
e9
ff
0d
f5
0d
08
fc
08
01
0a
0d
fe
0b
00
03
ff
eb
02
0b
ed
07
00
ff
09
05
fe
09
fe
05
fb
fd
f1
03
fe
07
e2
07
ff
05
e5
ff
ff
e2
f4
f3
03
03
06
f4
ec
06
09
f7
fc
ff
01
00
03
00
04
fd
11
fb
fa
fe
10
0f
03
04
f9
f5
f9
ff
ed
f5
ef
02
f5
f3
04
0b
fc
09
11
04
fc
fe
ff
03
fc
fb
fa
00
01
fd
f9
0e
eb
12
e2
07
fd
05
02
06
0d
0f
fb
bf
01
0c
0b
fd
01
02
fe
f2
f3
f6
f7
06
ff
ec
01
e8
00
fc
08
04
f9
0b
f3
fc
02
ff
06
15
f7
f1
e7
f1
f8
16
f5
06
fa
09
f6
05
11
05
ff
1e
f0
01
04
0a
2f
fe
0d
0f
fe
07
04
02
ef
fc
07
f3
01
0a
0e
13
f9
04
0b
f5
fa
f9
f5
03
fc
05
f8
05
04
ed
04
fa
fe
f3
fb
02
05
03
11
fb
ec
fb
fa
fd
fb
d5
0e
fc
02
fe
00
f6
1b
0d
03
f3
fe
f7
ed
f0
03
03
fa
02
02
0b
0b
ff
f7
05
02
ee
01
08
fe
09
00
fa
df
1c
f7
00
fa
0b
f7
10
0e
ee
f8
1f
0e
10
fd
f6
15
08
f3
0c
f6
e5
12
00
03
10
04
fa
ef
10
fc
f6
0a
ec
f2
fe
06
03
fb
06
15
12
fc
07
f7
06
f0
ee
f9
fb
fd
f4
02
f5
f7
f5
0b
0b
f7
0f
fd
06
11
fe
f8
02
fc
fe
fb
00
ee
0d
f4
ef
09
08
f8
07
17
fa
f7
ed
0f
0b
06
01
ff
01
fd
06
0c
06
01
02
f7
02
f9
fb
0c
04
f8
fc
03
06
fd
26
0e
0d
fb
01
02
0f
f9
02
01
02
16
f7
f9
fc
10
f6
fe
fa
ff
10
03
06
01
02
09
f7
05
eb
00
16
03
03
e1
09
02
0e
0b
05
f5
03
fd
ff
02
08
f7
fb
04
07
0b
ff
0c
ef
11
10
02
f4
10
f6
fd
00
fc
03
04
03
ff
04
fa
01
f5
fc
02
ff
e6
f4
fc
fd
f9
ff
13
f2
0d
f3
16
1d
10
03
fa
03
07
09
0f
ff
00
01
fb
ec
01
fc
ff
fc
1f
fc
fa
fb
f5
03
f9
fe
07
fd
0e
09
11
03
ff
e2
ff
02
de
fb
fd
f5
03
00
fb
ff
00
00
0a
fe
0f
fb
0f
f1
fe
fa
f8
04
0b
0d
07
0d
0a
05
f9
fb
c3
0b
05
0d
09
07
0c
0c
ff
01
00
fa
06
eb
0c
f7
ff
0c
f9
04
06
02
01
f2
e0
f1
f3
f0
fb
f7
ef
f6
0b
ff
fa
fd
e9
06
04
16
fa
ff
04
0e
f6
04
fe
09
f3
12
07
05
ec
0c
0d
f5
14
0a
05
f7
05
07
fd
dd
04
ee
e5
0d
f7
fd
fb
f5
02
e9
04
ee
18
02
08
09
09
ff
10
13
01
ea
02
05
0b
fb
fb
fb
05
f8
ed
15
01
f9
0a
fc
ff
fe
ec
09
0c
fc
01
0f
f6
09
13
04
00
fd
ef
f1
00
e2
f2
00
f0
fe
02
08
0c
00
08
0b
12
00
ff
ea
fb
fd
0c
05
1e
0f
01
f7
02
04
f7
f6
02
03
f4
ef
06
e0
f6
18
07
fa
f9
ef
02
f9
f8
09
06
f9
1c
fb
f9
12
ea
0d
fa
06
fe
f9
fb
fb
0b
f4
f0
03
03
f2
fd
13
fa
0c
fd
e5
03
11
05
fb
fc
08
0c
01
01
00
11
1a
03
ec
f3
03
fe
13
f8
f9
02
f8
12
fd
fd
fa
05
13
fd
06
0e
e5
03
08
03
01
0a
00
02
06
fd
dd
06
1b
0b
fc
09
17
f7
01
f8
ff
02
07
fc
04
0d
f8
fa
f0
ec
f1
07
07
ff
f8
02
fe
07
05
ed
08
fa
05
11
fa
06
05
1d
17
03
05
fd
01
fb
ec
19
00
fb
11
09
00
0c
03
03
14
e5
09
10
fe
0a
13
07
13
08
0c
01
ef
04
0e
02
08
fc
ff
0b
0e
f5
ff
fe
ff
00
17
0a
01
06
fa
03
17
11
f1
0c
f6
ff
ff
fc
06
06
fc
ec
f2
fe
fb
07
f7
01
f2
05
08
02
11
fe
0f
fe
fc
00
f8
f7
23
06
f9
fc
02
00
ff
17
ff
fe
f1
04
fe
14
07
fa
f7
14
f2
f6
f9
04
fb
fb
02
f9
fb
fd
e6
f4
fb
08
07
03
f1
fe
0a
fe
f9
e6
00
03
01
12
ec
08
08
03
f8
07
18
fe
0b
06
10
fe
f9
fd
ed
fe
fe
f0
f1
06
fd
fe
fe
ff
fc
f9
09
0a
e9
f9
0a
05
1d
e8
f9
1e
02
03
ff
09
fc
0b
f0
08
0f
f7
18
00
ff
fe
00
eb
f7
0e
f2
fe
f3
ef
14
09
17
fb
10
06
0a
00
ff
06
0b
ff
05
06
08
f8
e0
fc
04
20
0c
07
f9
08
f9
04
fa
ff
1c
fc
01
f8
ff
03
ed
01
f8
07
ff
0d
01
03
ea
02
0d
fd
05
ff
0a
f9
f7
03
11
f5
ef
fa
f9
e0
fe
03
03
04
fd
04
08
fd
1c
00
0e
0a
e4
fd
11
12
08
04
0e
f9
07
01
0e
ef
f0
f9
fe
fb
05
10
05
0c
14
08
fe
01
02
f0
07
05
04
ff
10
f9
f6
12
ed
06
17
fa
1b
03
1f
0c
ff
fd
04
fe
09
00
10
e9
03
07
fd
f9
06
0f
01
07
05
0d
0c
fa
19
1c
29
10
fa
00
0a
06
01
0f
05
0f
01
16
03
14
ea
fe
02
06
ef
04
02
eb
fd
06
f0
02
11
05
04
fe
f5
17
ff
08
fd
01
f3
f8
f0
fd
00
fd
fc
f6
fc
f6
f3
04
15
0c
04
f7
02
07
fc
fa
07
fb
18
f8
01
0a
e2
07
06
0a
fc
01
05
fc
fa
fc
06
08
f8
fb
fe
f3
00
f3
f3
04
fe
f8
f7
f8
f9
0a
fd
ec
08
06
f1
01
0e
ff
07
09
f0
0b
07
ff
f3
ec
08
0f
05
12
00
fe
0e
f6
01
f1
fb
f8
f3
f6
17
fa
0b
01
f5
ec
08
10
06
01
00
03
f9
13
0e
00
fa
00
fa
f0
fd
02
fe
ff
03
0c
ef
18
05
1a
08
0c
fc
f6
0f
0e
fc
fd
f6
08
ee
15
1b
f2
05
13
f8
fb
09
f1
ff
03
01
fb
07
07
0d
06
04
f2
0e
06
ff
f0
00
06
01
08
fd
00
ec
13
0d
f4
ff
04
00
e8
0a
0e
f3
0b
15
14
fe
01
f4
ff
f8
05
01
02
fc
13
01
19
fb
00
08
1a
02
08
03
f5
00
00
02
04
fe
14
0e
f8
04
06
0b
01
03
03
0c
fc
fc
f7
f6
08
f5
05
db
00
fb
05
fb
fb
05
f8
08
08
fe
0d
04
f1
13
08
fd
f5
08
f7
05
08
01
05
09
e8
ff
07
03
03
f1
f8
0d
01
13
fd
fe
08
0c
fb
05
f2
ee
05
02
09
24
01
0b
03
03
02
0e
04
fa
02
0b
0d
0c
01
00
02
ea
ff
01
fd
05
04
ff
18
ff
f5
fd
04
fe
04
17
fc
fb
f6
f7
08
fb
0f
fe
00
02
f6
fe
f5
ff
fc
14
09
01
08
f2
00
09
02
09
03
02
11
0e
01
10
0d
09
ee
02
0b
fc
fa
ff
06
fd
06
09
11
13
ef
fb
01
0f
f6
03
f8
fd
0a
f3
f6
0d
f7
ff
04
0f
fd
0e
fe
1a
03
20
f2
00
f7
f8
02
06
08
02
0b
05
0a
02
ff
17
fb
09
07
0e
f5
ed
ea
05
f1
ff
04
03
f9
f1
04
f4
11
e8
11
03
15
f3
fc
fe
12
fb
0e
fb
01
05
f8
08
03
07
00
03
08
08
03
fc
07
04
03
00
00
f2
fe
00
16
ef
0a
16
13
ff
f4
04
fb
ff
05
fa
ff
fe
08
16
ee
08
05
fb
fe
ef
0e
14
15
ea
f0
02
fa
fd
f4
12
fd
06
f8
0c
09
0d
07
03
09
fe
06
15
0d
10
fb
02
fc
01
ff
0a
f4
05
08
fa
fe
03
fa
0f
fe
0e
07
06
fa
12
f9
00
06
fb
12
f3
fb
1f
ff
f6
02
eb
02
f1
04
f6
fe
f0
df
07
0a
f5
09
24
f6
13
f4
f3
fa
f9
fc
07
fd
fd
df
02
10
ff
17
04
0c
f6
00
0d
03
01
fb
11
f9
02
05
fe
fd
04
05
13
0a
ee
04
fd
f1
fa
f5
02
fc
f7
03
0b
10
f6
ee
01
0f
0a
f5
f0
f7
10
f3
e8
12
02
06
05
fe
02
fd
01
0c
06
ff
fa
fb
07
fe
04
0c
05
fd
ff
16
03
04
f7
04
02
0e
f7
f9
00
0d
f8
03
fb
05
f9
02
0f
09
00
05
fe
00
05
05
ff
0c
0f
0b
02
01
fd
ff
03
fc
fc
02
07
f9
f8
04
0a
05
04
00
05
f7
ec
0b
04
fe
13
1c
06
ff
0f
0c
16
f2
01
11
f7
00
f8
0d
01
01
02
0d
ff
05
15
fc
02
eb
f2
20
fa
09
03
f0
ee
10
03
f0
13
06
f6
0a
19
f0
fd
0f
ff
06
f9
02
00
ed
10
05
00
e4
e4
06
04
06
04
03
f1
f7
00
13
00
01
f0
11
01
fb
11
f7
04
0c
03
01
fc
01
00
f9
03
fe
fd
07
f6
e4
08
e1
0d
fd
0d
fc
ef
08
fa
fe
ff
f1
0b
06
fb
0c
02
fb
f8
f9
00
08
fe
dd
fb
04
04
f5
05
fd
05
07
f1
11
09
f8
03
f8
11
ff
05
04
f5
03
0d
fe
01
f7
ee
00
00
fb
f6
0f
fb
02
00
f5
f5
03
fd
06
fd
0f
eb
fa
02
08
f5
fe
15
fa
16
06
08
05
15
f4
e4
05
ff
16
0f
08
04
00
01
0d
fb
f7
0d
f2
05
ff
05
f0
1b
fd
04
f8
f7
09
f8
fd
fb
0d
07
0b
00
fe
0b
f0
fe
fc
0a
04
04
04
f3
f9
05
f8
00
09
13
0d
fd
00
0b
0a
0e
0b
fb
0c
00
fc
09
fe
f3
f9
03
01
f7
07
04
ff
f4
03
f6
0f
06
00
f4
fa
ee
1c
fe
13
04
06
01
00
ec
0b
fa
08
fa
f7
f3
f9
08
fd
09
fa
e7
fb
fd
17
f7
05
ec
f9
f5
e4
0a
01
f4
06
f9
fc
0c
20
fa
ff
03
f4
f5
01
03
02
01
08
f3
e1
0c
07
eb
f8
fc
0e
f8
fb
0a
fe
03
fa
01
fb
01
06
ff
00
02
f4
02
07
03
06
d4
00
09
fb
f0
eb
ff
f7
01
0b
fa
04
fd
fe
e9
06
04
04
02
ff
04
e2
05
0b
01
ff
01
f5
ff
f0
f6
f8
fa
f5
fa
fb
fb
03
08
0d
fc
06
fe
f6
15
0c
06
f2
04
fa
ff
fc
ed
04
0f
0c
ee
0c
05
e1
fe
02
ec
f3
fe
fd
fa
f3
fe
fe
15
ff
08
01
e9
0d
02
0c
00
f7
e5
fd
f5
04
f7
fd
fd
fb
fc
03
03
09
fb
02
0e
f8
fb
f0
06
fc
fb
ff
0a
fe
14
f3
02
f4
fe
0c
0d
f9
fb
f8
fe
f6
0b
fc
07
f5
fc
fa
15
00
f8
0e
fd
05
fb
f0
f1
24
01
fd
00
03
03
07
06
07
f9
03
05
ec
fa
0a
f6
11
17
06
16
f7
04
fa
fe
05
ff
fe
ff
00
03
00
f1
ff
0b
fa
08
02
fc
0c
fd
f2
01
ff
00
fa
01
03
06
10
0d
00
ff
01
f2
fd
f2
f1
04
ff
ff
ff
03
0d
f7
f4
02
e6
05
13
0b
fd
ef
08
02
fb
fa
f9
da
01
02
ef
fe
fd
f2
16
01
01
fe
fb
00
fe
14
f7
fc
e9
0a
0f
fc
f8
03
fb
0d
04
ed
f6
e2
05
fb
03
e9
05
17
f3
ff
f8
06
0c
f9
00
ea
fd
fc
0e
16
06
ef
00
07
fd
f9
fd
ff
fc
f8
14
f9
ff
f7
f8
fa
07
06
00
f3
fa
06
f0
12
02
17
03
fc
f8
05
e9
e4
00
02
0a
03
f6
00
fc
07
06
17
07
0b
ff
fd
02
f6
fe
f9
06
fd
01
fd
02
f5
01
fe
f6
05
f5
ff
08
f6
fa
04
ef
f9
06
fc
0d
ee
fc
07
ff
ff
00
f0
01
fd
04
f5
fc
f5
f7
f1
01
f5
fd
f5
02
f4
00
fe
08
f9
f9
eb
fe
02
06
ca
01
0f
f3
fe
0f
00
06
0e
ea
f5
f0
0e
f1
11
14
06
fa
ff
0f
03
fe
00
00
02
fe
fc
05
fc
0a
fd
04
04
f6
11
f0
11
0b
f5
0f
fe
04
f5
01
03
05
00
f8
09
01
00
f6
ff
fb
00
04
07
12
ea
fc
02
fd
0e
0b
ff
fb
04
0f
fc
0d
fd
f5
f1
f7
01
f1
ff
01
15
f9
0c
05
00
f2
05
11
06
f1
06
ff
0b
fa
0b
04
05
fe
0e
02
fb
f1
11
f2
f4
0d
ed
05
15
09
fc
01
0e
1d
fe
e5
fc
06
ee
06
08
06
e6
00
ff
f7
fe
03
f4
00
f6
df
d3
00
03
05
05
dc
f1
fd
00
10
f4
08
e9
fd
01
fe
03
f7
0a
06
0e
ff
10
0a
fb
f2
0a
ff
ff
01
14
00
f6
01
0d
fb
f1
e7
03
03
fd
f8
10
11
f7
f9
06
f1
00
ff
05
fe
fd
02
02
01
0d
15
ff
f7
f9
11
ee
04
01
13
fd
e2
03
07
fc
fc
01
ff
02
03
fe
fb
02
0e
07
f0
21
1b
04
00
0a
fd
ff
f3
0e
fe
ff
01
ff
0d
10
ff
fb
ee
f8
ea
fb
fb
27
01
11
00
00
0a
02
00
04
00
01
0a
f9
02
fa
06
05
fe
02
0c
12
f6
11
ee
fc
04
f8
0b
06
fe
0b
fd
07
fd
fb
09
16
0e
ec
fe
0d
ed
ff
fd
02
07
f8
13
07
fb
02
11
ff
28
22
ea
17
01
1a
15
fd
01
f5
06
03
0b
04
ff
08
02
07
fe
fb
1c
08
fc
00
fe
f9
06
10
03
07
f9
fa
f9
03
0b
07
f4
ff
1e
05
ec
ff
00
26
00
0f
0f
09
15
0d
12
01
0d
00
07
ff
07
fd
f6
fe
01
10
17
f7
04
13
0e
07
f2
06
f7
0f
0b
1f
0f
02
01
0c
f9
09
18
10
07
fa
0c
11
08
ff
fe
02
f8
07
08
01
03
f9
ff
fc
0c
f1
0f
fd
fd
08
13
ff
fa
13
06
30
01
03
f6
fd
fe
f4
00
09
03
05
ff
fa
00
01
0a
0d
03
02
ef
f4
f2
f7
00
0f
ee
fb
01
06
04
04
ff
10
fd
07
07
12
02
12
f9
03
22
23
fe
0c
00
f6
f6
06
05
f7
02
02
00
fc
01
fe
18
00
1b
12
02
02
01
fe
06
0c
f6
08
f9
13
08
f5
fb
00
12
00
16
21
05
04
f7
fa
07
0c
f7
0e
05
fc
fd
06
0d
03
09
17
11
05
f8
02
19
09
f2
0f
ff
22
09
1f
1a
fa
00
05
f6
09
0a
f6
f8
03
06
00
01
15
0f
09
03
04
f6
08
0d
f2
f4
01
f7
f2
01
01
0d
33
03
08
13
0e
ee
11
05
fc
00
13
1f
16
12
0f
f3
01
02
08
ec
ff
fe
14
fc
1b
f9
06
15
01
06
fc
03
f5
01
fe
ed
e1
fe
18
05
f1
06
fe
02
12
05
ff
04
00
12
fd
0a
fe
fc
02
01
0d
03
f6
0b
f9
01
03
0a
fe
01
00
05
f5
1a
f5
04
03
0d
01
e8
fa
f8
00
04
fd
0c
05
01
ff
fa
0b
00
09
ff
fa
0a
08
0b
02
01
04
fd
f0
ff
00
02
0e
e8
07
11
04
0d
f3
03
0e
10
05
03
08
01
06
02
06
0f
f3
ff
01
09
10
02
07
07
25
16
fb
06
f6
0c
dc
e3
f8
fe
01
ff
f9
1d
f7
07
ed
16
fe
08
22
24
ec
03
00
1a
0f
00
06
ef
02
21
06
08
ff
09
1f
0a
ed
ff
f4
de
02
11
05
01
0f
fb
17
05
05
f9
0c
fa
fc
01
fb
1c
02
e7
06
19
05
03
f3
fb
13
fe
08
dd
fb
f8
06
ea
fe
10
fe
04
f5
0c
f4
03
08
fd
00
04
03
05
fc
09
19
1c
0b
f3
02
08
fc
1a
ff
fc
07
08
15
04
18
17
fb
07
ff
f8
ff
ed
13
fe
06
1c
fd
09
0f
f9
fa
07
01
ea
07
0f
0e
f8
0e
fd
06
12
02
03
fb
1b
0d
fe
10
14
fa
f4
01
03
0a
13
07
01
f1
00
01
05
ff
03
0b
fc
04
fd
05
ff
16
ff
0c
03
0d
fe
04
08
0f
eb
0a
fe
1e
06
fe
0f
fc
00
0e
08
25
07
fe
f6
0f
09
fc
0a
ef
0f
fd
04
03
f0
06
fb
f8
0a
f0
f2
fe
ed
fb
04
0e
08
01
ff
01
fd
fc
0a
ff
0a
02
02
00
0d
05
04
02
03
fd
0a
0a
15
0c
09
03
06
fb
02
1d
f8
08
f1
fe
09
20
13
ff
08
0e
f1
0b
fe
ff
06
ff
fa
ed
0b
02
11
07
07
ff
fc
03
06
ff
fb
df
0b
17
13
24
f7
05
06
04
f6
08
08
e7
fd
fd
0e
f8
fe
13
15
04
0b
fe
fe
ff
19
fb
01
fd
0f
fb
1b
01
08
f1
d2
01
06
0d
01
fd
f6
e7
12
f5
03
fc
f6
01
07
f2
ff
0c
04
07
00
09
02
e8
fd
05
f6
01
fd
03
05
00
ff
03
01
03
07
07
17
ff
08
fe
04
fe
fe
fd
06
07
fe
fd
07
0d
f7
fc
1c
f6
01
ff
fb
00
fb
00
ff
fc
c8
fe
01
03
01
fc
06
0f
03
16
06
02
cf
02
05
ff
ff
02
df
d6
ef
ec
03
f0
f0
06
f5
02
07
1b
ff
ff
03
f6
f9
e6
0b
10
fc
05
05
fc
1e
0a
fc
0d
fb
f2
fa
00
09
03
00
04
ff
02
fe
1a
fc
fa
05
f4
9a
fc
ff
08
04
00
01
02
fe
08
f9
ff
fd
ff
00
01
02
00
01
08
5c
f3
17
f4
05
02
17
0a
fb
1c
fc
05
fe
f7
9d
f9
04
07
f7
00
ff
02
21
fc
03
08
01
ff
00
fd
f5
f8
cf
f2
11
12
fb
ff
01
06
07
05
00
ed
de
f9
02
04
10
ee
fa
fb
04
00
01
03
06
02
09
02
fb
ff
01
fb
23
07
ff
00
05
02
fe
ec
fe
02
fe
01
03
fd
05
c4
fd
01
f1
01
10
03
fe
f3
03
00
f7
05
fa
ef
f9
01
02
ff
07
e2
09
09
02
06
05
e5
06
f8
04
05
f5
08
09
04
00
ec
fa
0e
06
fa
01
08
01
e0
f7
0c
f8
09
fd
00
fd
07
f9
03
00
fc
0d
0b
15
01
09
f8
ff
00
02
fd
f6
00
ef
01
fc
f9
07
fd
0a
fe
dd
f6
ff
ea
09
00
f7
10
dc
f7
00
0a
03
01
e3
ee
f4
0a
11
f4
fc
fa
ff
ff
06
09
fe
f4
00
00
02
0b
fe
f7
f6
04
ff
f6
f2
05
fd
08
f8
3c
00
ff
08
06
00
36
18
04
e8
ff
fc
f3
f5
03
fe
04
fe
0e
01
fa
0b
16
00
03
00
f9
ff
ef
04
1b
fd
00
0d
fd
02
f6
01
09
fe
0f
01
fd
15
02
fc
fa
f1
33
02
f4
f5
ff
0a
20
03
f2
06
fe
ff
ff
ef
00
08
02
ff
fd
06
27
0b
fa
f5
00
05
fa
e9
1c
f5
f8
14
00
f4
1d
11
00
08
fd
0b
04
01
05
f3
04
d8
05
d3
00
00
07
09
f8
07
07
03
f7
0a
00
fe
38
e6
0f
02
03
d4
01
00
f9
f5
01
04
fd
f5
00
fc
01
02
27
01
0b
06
ff
0b
01
0c
16
ec
ff
e3
08
14
fe
0e
19
f7
02
03
e4
01
f7
0d
f5
fc
15
1d
00
96
01
04
0c
00
07
04
fb
01
01
f4
f6
03
f8
12
1c
08
fa
04
f4
fe
09
0d
13
03
03
fb
fc
fe
09
fa
00
fd
e1
fa
fb
24
07
02
f7
fe
f4
17
fd
05
2c
b9
de
fa
0d
04
35
06
f5
f7
09
08
09
ff
09
f4
fb
04
10
16
08
09
01
15
02
03
02
ef
fa
25
fa
fd
00
06
f4
14
06
d4
00
fe
fb
ff
1c
00
fb
08
01
0a
0a
c9
02
0c
0c
f9
0a
eb
fc
03
f2
ff
0a
f9
f9
00
02
00
ff
01
04
02
10
fb
07
fc
05
07
0c
fe
1e
f2
1a
c8
0b
fe
01
0b
01
f5
f8
f8
fb
ea
f8
08
ef
fe
f8
f4
e1
02
f4
05
0b
fa
03
01
08
fe
01
f5
09
17
f6
04
00
fb
fc
0d
f7
fc
01
03
03
06
04
06
0f
f9
02
13
ff
00
f8
0e
0a
0e
0a
0f
e6
0d
11
0c
f7
01
0a
09
00
08
07
06
0e
02
fc
21
f5
ff
04
00
03
fe
00
1a
fe
0c
04
f2
03
17
02
f3
07
02
14
15
1e
0e
ff
fe
e7
13
fc
09
fb
02
01
04
01
18
00
e4
01
0a
0f
fe
f7
06
f5
03
01
04
17
e4
fb
02
04
11
0e
07
11
e9
13
fe
0c
fa
10
2f
0a
0a
fd
06
09
fc
fb
05
fc
f4
08
0c
fe
08
fc
02
fe
ff
e3
06
0f
fa
06
03
01
ff
fe
00
03
08
03
f5
fb
0c
f9
04
e1
f7
05
0e
fe
f9
0f
e5
11
0d
19
fd
00
f8
17
ff
ff
f9
f9
00
fe
0c
10
1b
fe
17
ee
fc
09
01
12
14
09
00
e9
07
f4
f3
0f
0e
01
0c
01
f8
0c
11
05
ff
0d
00
08
08
15
ff
03
02
fa
f5
07
01
0b
0a
02
00
01
03
fb
02
fd
16
14
f2
01
04
fb
03
fd
ff
fc
0e
fe
0a
05
fe
0f
fc
07
f6
02
03
28
0e
06
fd
fd
0c
02
0e
00
01
05
09
fd
0f
f3
05
02
05
f0
04
fc
02
0f
09
07
04
fd
20
1a
00
fb
fb
0d
fd
08
05
02
f3
fc
f8
09
fb
10
f7
06
ed
f7
05
f2
12
02
f6
f0
0f
f1
f6
05
0f
0a
f7
fc
0e
03
00
05
03
fa
fa
10
08
ec
09
0a
07
fe
fe
00
03
06
11
01
15
05
0a
02
fe
fd
02
18
fd
fd
11
0d
10
00
f8
f9
13
f6
0f
15
08
01
0e
01
f5
f7
dc
04
ff
fd
fb
fe
14
f4
02
ff
0c
fb
fd
08
fa
01
0f
1e
f8
05
fb
0f
fd
17
0b
01
11
f2
f0
07
d9
f4
03
fe
fb
0b
05
05
04
fc
ff
d6
05
00
f4
fc
fe
05
ef
23
00
0b
0f
1e
03
00
00
06
07
f5
0d
13
02
00
fc
ee
06
06
ef
fa
18
f9
02
fd
fc
e8
f7
16
ff
fb
ef
03
1a
06
f5
00
fd
fe
fb
01
ff
08
e5
f5
1b
07
fd
01
13
fc
ed
01
fd
f8
ec
0a
e7
09
fc
04
f5
f4
e2
08
15
06
f9
10
f9
ea
f6
0f
fe
07
f9
0a
07
fa
fc
fe
07
04
fd
f7
fb
04
28
04
07
09
0d
f9
00
14
05
f7
09
f9
01
fe
0f
fb
fd
fe
03
f7
00
10
03
09
0e
08
0c
fd
06
06
fc
0e
1b
0b
f8
00
01
0c
fd
06
04
fc
fd
04
fd
08
f6
04
fc
25
fe
08
fb
fa
f4
fc
19
1a
16
16
04
0a
fd
fa
0e
05
05
04
0f
02
08
ff
01
ff
0b
0b
0f
fa
07
ee
02
fe
0a
13
08
fc
f9
e5
10
25
05
0f
0d
1e
f6
0c
f3
0a
0d
fb
f1
ed
0d
07
18
f4
19
07
06
fd
f5
19
02
04
f2
f1
1d
fe
00
01
03
11
fc
0f
0d
0b
19
21
01
0f
ff
00
ff
06
ec
09
fd
fc
17
fe
fa
fb
01
fa
ff
04
09
fb
f2
f0
fb
03
0b
fd
f4
f7
09
0a
f4
11
fe
06
09
10
ff
f9
06
e5
0c
01
0c
08
0b
05
0e
07
00
0d
16
18
0b
11
f7
f7
fb
fb
03
ff
fb
ee
00
09
02
0c
fb
f4
fd
01
02
0b
f5
06
fd
00
10
00
17
ed
f2
f6
f6
fe
02
1a
f6
fe
e5
e4
03
ee
01
fa
02
00
fd
fc
f5
03
04
ee
00
e4
fc
fd
f4
ff
e9
0e
ff
02
e3
00
ff
ff
fe
dc
01
ff
02
ff
ff
ff
f0
00
fc
f7
f7
06
00
f2
0c
e7
0d
f0
09
05
f5
02
0e
06
04
00
05
01
02
04
01
ee
01
07
fa
f3
fa
f5
00
05
0d
f2
f8
11
09
fe
f2
00
09
f0
ff
f4
f9
17
06
05
f2
08
e0
01
01
f6
fc
ff
f7
05
0d
0e
fc
08
f6
05
fb
f2
ef
f4
ec
01
f5
db
07
fc
02
fb
00
00
ff
ff
05
07
f3
0a
fe
04
f5
0d
00
08
13
10
e5
ff
fd
ee
04
03
fc
e8
19
f8
0b
fe
02
f6
02
fd
fb
f9
00
fb
04
eb
ff
ea
f9
00
fc
01
f4
04
17
f3
f5
fe
f6
03
f3
fe
fa
05
ff
f4
0f
e9
f4
04
ed
0f
fc
f9
01
fd
00
fe
06
01
06
f2
06
03
f8
07
0d
f8
fe
1a
fd
06
fc
f8
f9
fe
0a
00
04
fe
f8
0c
01
f6
fd
07
ff
eb
fd
f8
f6
f3
f4
ff
f8
04
0b
05
f5
fb
13
1d
00
07
f2
eb
00
fb
f5
07
04
fb
f6
01
02
f4
fe
f2
d5
e3
0b
01
ef
f1
07
02
07
f9
15
fc
06
fc
0a
04
04
ed
ff
07
f9
14
dd
ed
01
f1
fd
09
ff
f7
06
f8
0d
eb
fd
ee
ff
ea
06
e9
fa
0b
f7
06
03
fd
12
f7
fe
07
01
04
fa
08
fe
03
00
04
0c
f3
fe
06
1c
00
05
06
ff
fd
fa
ee
f3
1b
fb
06
ed
0f
fa
04
03
01
f5
12
fb
10
01
06
06
f9
03
0a
f9
06
fd
f7
f6
05
01
fe
00
14
fb
02
f3
01
ec
f5
06
fe
ff
02
fc
ff
ed
fe
ff
03
00
fa
fc
ff
fe
08
fa
05
0f
f1
00
ec
06
08
fb
01
f5
f0
0f
00
f5
01
0a
07
01
f4
ff
fc
0a
08
06
fe
02
f6
fd
13
f4
05
01
12
0e
fd
1a
01
f6
fd
01
00
08
10
05
09
fb
01
05
09
f2
0c
0e
f1
f9
f0
f0
03
06
ee
ec
10
02
fc
0e
fb
fb
01
09
fc
01
1a
f7
fb
0e
00
14
04
fc
ff
05
f2
f9
fe
fa
f0
1b
f0
f4
fd
03
fc
06
f8
04
08
fd
ec
1a
05
11
04
02
09
01
f5
03
ff
f6
fb
f8
fa
f7
fd
07
f9
00
00
00
f6
0f
f3
f7
02
01
ff
00
f5
f9
0d
f5
fa
e4
fc
08
12
0c
f8
02
02
f8
fc
10
f4
f7
0a
0c
fb
07
d6
fc
fe
fe
03
07
06
fd
02
f1
04
f4
0a
06
00
f9
fc
f4
ff
f0
07
f6
f1
f7
0c
f7
f2
0f
06
f6
27
07
07
03
fb
02
1f
fd
f3
15
f5
0d
f7
f8
f7
fd
f3
15
f3
fc
05
f4
02
0f
ed
01
0c
fa
00
fe
04
f6
fc
15
06
04
fa
f5
03
f9
f3
00
00
04
fd
03
04
08
0b
fe
05
01
19
17
fe
ff
fb
05
fb
02
f1
0b
02
ee
23
0e
fe
e5
02
fd
f8
f6
f9
ff
ef
fa
06
e6
0b
01
ed
ff
ff
0c
04
12
08
01
10
ff
eb
06
f4
09
f2
fc
f1
f1
03
03
fc
f4
ed
0d
01
01
09
f1
f9
07
e7
e2
f3
fb
02
09
03
02
00
fe
fc
1a
f9
f2
fc
f9
fb
00
05
01
f4
ec
0f
07
04
05
f5
08
f6
07
dc
03
ea
04
ea
01
f7
1a
0d
fe
01
f1
e9
fb
06
fe
e9
06
03
fa
f4
fc
ee
de
00
26
f5
0d
fc
fb
fa
ed
ea
f9
ea
f4
07
eb
ff
ff
04
fb
05
0a
ff
ef
0d
07
fb
fd
0a
02
fd
fc
f8
fc
24
e2
03
01
09
dd
fd
18
fc
07
03
ef
fa
fc
fe
e9
01
fc
1d
ea
fd
ff
f4
02
04
05
01
08
f1
eb
e9
0a
04
00
e8
f9
ff
fc
fb
f7
07
f4
fb
05
f4
ff
fe
07
fa
ff
f8
fb
06
ff
07
f7
0f
02
f5
12
05
22
04
11
0f
00
f9
05
d7
01
f8
e0
05
fe
11
fe
01
ee
f6
06
e9
07
e9
06
f3
07
f7
fa
11
0c
17
00
f8
fd
fe
fc
07
f3
01
fe
0a
ff
00
ff
f8
e2
1b
eb
0a
f9
fc
fe
fe
00
f7
e9
03
ed
df
f0
ff
0a
08
fc
05
f4
12
f3
13
0c
fc
01
01
03
18
09
0e
f2
03
fb
ef
f5
00
fb
ea
ff
ee
f6
f7
f8
fd
fc
f0
f8
e5
06
0d
27
f8
ef
2a
0f
12
fe
fd
f7
00
02
d5
01
03
04
06
f5
f4
e0
13
fd
ff
04
05
04
01
f2
fb
03
e7
f7
24
f3
0b
ff
f6
fb
00
fc
f9
0d
f1
03
01
ff
04
fa
ef
1f
fc
f9
fa
05
01
01
06
f1
e8
f4
f4
ea
15
fd
f1
02
eb
f4
fa
ea
01
09
f8
fc
fb
00
ff
0b
e8
08
fe
0e
fc
fa
23
0e
09
ff
ed
fa
2e
08
f7
e9
fa
05
05
05
fd
fb
0d
fc
1a
02
ff
f7
fa
ff
ff
08
fd
ff
07
00
ff
05
0a
f0
fa
f0
fc
fc
fb
07
06
d5
04
fe
ee
f5
09
f6
fe
f9
02
00
11
03
fb
0a
f6
ff
f6
02
01
05
0e
fe
f2
18
00
03
ff
07
f1
fc
d6
f8
fb
f3
02
13
03
fe
fc
ee
fe
07
1c
05
e4
19
00
fd
f2
08
f9
04
fe
f6
00
f8
02
23
ef
0a
04
02
f1
f7
00
08
fd
09
06
ff
1f
f8
fb
08
1d
f2
16
fc
06
04
fa
1d
05
03
fc
00
0a
f3
fa
eb
04
f1
f7
fe
e6
08
05
12
03
0f
f7
ff
f4
d9
f9
ee
fe
06
f7
02
06
0b
02
08
fb
ff
00
09
0f
fa
fc
fc
f8
f6
ff
06
0f
0e
11
02
06
f9
03
10
ee
fb
fb
1a
04
fe
08
03
17
f5
12
fc
05
0b
fd
00
10
08
0a
0d
e1
0b
fd
f4
d6
06
10
ea
eb
ef
e3
06
f8
fa
fb
0b
f3
ff
01
eb
00
fe
e3
0a
fb
fd
f6
fb
ff
05
e9
00
09
ff
06
f3
e4
ed
f9
fc
ea
f0
f1
1d
01
fa
0c
0b
fc
08
06
eb
f1
0b
fb
06
ff
04
f2
05
05
fd
f3
02
fb
0f
f4
fa
03
fe
05
f5
02
07
01
01
fa
f5
fe
09
10
ef
05
f7
00
ea
f4
06
f6
f9
f4
ee
14
ee
0f
fc
ff
f1
e7
f6
f3
ea
02
04
12
fe
0d
fe
02
09
04
14
00
fc
1c
04
15
f7
f7
01
02
f6
df
e8
03
0a
25
05
00
03
f8
ef
0c
08
14
f6
05
05
0a
00
fd
08
02
fd
07
04
13
fe
fb
15
f8
fb
e8
04
05
00
02
02
ff
04
04
07
02
0f
fe
0e
fd
eb
0b
f6
05
03
fd
0b
0a
00
f4
fb
01
0c
03
01
14
0a
dd
01
e1
01
02
02
fc
fd
fb
fe
09
01
07
f8
f9
1e
0a
0d
fa
fa
0d
fe
0b
ea
05
fe
0f
e8
eb
16
0d
15
ee
de
02
01
fc
02
00
04
fd
f7
fc
07
02
01
f9
fc
ff
01
16
fb
fe
f8
06
10
00
1f
fe
05
05
f9
08
fa
fe
fb
fe
04
fd
08
0e
0b
00
fe
fa
f8
00
06
f9
0c
1d
f9
06
e9
02
fc
14
0b
f4
f5
fd
0d
16
02
05
fd
ea
08
fe
fe
0e
04
0b
fc
1a
fd
fb
fc
10
ff
ff
00
05
0b
01
01
15
07
fe
f6
fc
0e
f9
05
ff
fb
f8
fb
ff
02
05
07
0b
06
02
03
08
fe
f9
01
01
f5
f0
05
13
13
04
01
fa
16
00
04
0c
ff
fe
ff
ff
0c
f8
01
fc
f0
07
08
f3
03
fe
02
02
0a
0b
06
fa
02
28
fe
08
f8
01
2d
0a
11
f3
ff
06
f8
ed
f3
10
fd
0e
15
fd
12
f7
03
0b
02
00
28
fc
02
fe
fa
02
fe
fd
0c
01
03
06
f7
eb
ef
1f
fe
06
06
f5
17
05
18
00
e6
f9
0b
fb
0d
10
f5
f2
0a
00
ff
f5
10
02
22
fd
e3
07
e4
09
0a
fb
08
ff
ef
03
fe
f3
03
2e
02
f4
08
ea
f0
07
27
f2
f7
16
0a
00
05
01
01
01
09
03
06
f5
f1
10
f6
12
00
04
f3
06
03
f9
02
ff
0e
03
fc
02
fe
fd
0a
14
01
f4
04
0d
fb
21
fc
17
1e
fe
ef
f9
fd
fe
18
01
10
2e
fc
09
00
0b
02
02
fc
01
02
03
f0
06
04
e5
1b
fc
09
fa
03
01
02
03
16
11
fa
17
09
04
13
02
ff
02
03
f7
fd
fd
fd
11
03
07
03
07
02
fe
05
fa
f4
ff
00
fc
fe
15
00
1c
f8
fd
fc
0d
0c
00
f6
ed
11
03
04
01
fb
23
e8
ff
09
0e
02
11
f3
04
08
00
27
01
0c
14
ff
f1
04
f5
2c
f9
f3
0a
f1
06
fc
15
0c
f7
ff
f4
15
10
f4
00
04
07
ff
fc
1b
02
02
f7
02
01
e7
ed
25
0e
fb
e4
f2
14
f4
00
f7
12
fe
07
21
03
fe
14
f9
fe
f7
ff
f6
22
e6
10
13
04
08
0d
f9
08
fe
03
fa
12
05
ec
15
0a
14
06
f5
07
1d
fe
00
f8
0d
f4
09
15
f6
ea
fc
fc
03
f8
09
0c
f4
f7
01
00
05
f9
ff
00
0b
f4
fa
0a
0b
fc
03
0c
01
01
0b
f9
06
ee
fe
02
16
07
f7
07
06
fd
0d
0b
02
0c
11
04
04
ff
ef
fe
0d
18
ff
02
0c
07
fe
07
f4
02
0e
fd
07
f6
fa
00
0a
06
fe
f7
ff
fc
13
00
00
04
1d
06
04
fd
01
f5
1d
f7
07
05
0b
15
04
f7
fd
f9
01
fa
f7
06
0c
fe
01
01
ff
fe
db
00
fc
1f
04
0b
15
00
07
f5
08
fe
fd
10
09
03
0d
05
02
26
f5
03
01
00
fd
02
00
21
06
10
f2
fd
f8
0c
19
fc
fc
fc
ed
10
05
03
12
06
2b
07
01
fb
02
14
12
fa
05
f8
fb
06
05
03
e9
f7
fa
01
03
07
15
fc
02
03
ff
04
ed
09
08
05
ed
0b
ea
fa
fe
fc
04
f4
01
1b
fe
f6
00
0a
f0
08
0d
fc
0c
0d
fb
18
08
11
0e
e4
0c
fc
00
0d
0a
08
04
0c
ff
20
01
ff
f9
e2
09
fc
f4
f3
f9
f6
f9
06
ff
f4
fd
10
ff
07
0d
01
ee
fd
fe
fc
03
04
0a
fc
03
01
02
00
f2
02
08
ff
03
ee
00
fb
03
f2
00
dd
ef
f9
da
ea
fe
0c
07
03
0b
08
e7
ff
09
0b
13
ff
ff
fa
fd
fd
ec
f3
ed
fd
f3
f5
13
03
01
0c
fc
f8
fe
02
00
0c
13
ff
09
f6
f9
fc
03
01
ef
fd
f8
f4
fe
08
0b
e2
09
03
07
07
04
ea
f5
ed
ff
00
02
f6
0a
ff
16
f2
f4
04
08
f7
0c
ff
03
f0
0c
fe
fe
15
0e
01
09
04
04
0b
f1
ed
0b
05
10
fe
f5
05
05
10
05
05
fe
15
fd
e2
02
ed
08
00
f5
fb
fd
02
f9
f8
fe
02
19
04
fe
14
0e
fc
f7
ef
ea
fc
ff
fa
00
fe
00
0f
f7
00
10
f9
f6
f9
ef
09
04
f3
fe
fe
fe
02
06
01
01
ff
03
1f
f5
fb
13
17
07
05
0d
de
ff
01
08
f4
ec
f3
02
fe
04
09
07
06
f4
fa
02
fb
0b
16
f6
00
03
f6
f5
f9
0d
10
fe
04
f0
fd
08
f3
d5
fb
06
0b
fb
ee
02
ee
0f
0a
fb
06
d1
fc
f1
03
f8
1a
07
dc
06
00
04
fd
fd
00
05
fa
fc
ea
03
0c
05
f9
f4
17
03
fa
01
00
01
06
f7
f8
ef
05
fe
fa
02
ea
02
e9
08
00
06
fc
f3
07
fd
f9
ea
f2
f7
f1
ff
f6
08
de
04
f0
f8
f8
fb
0d
f1
04
fc
ef
dd
ed
03
ee
14
ef
f5
01
09
0e
06
fd
ff
01
1e
01
f9
ff
00
d9
04
ff
0c
06
03
f1
fc
01
ff
0b
0f
01
1c
ff
04
04
09
f6
f5
f8
00
08
08
12
fe
0a
07
11
f0
fc
fc
1b
fe
d4
f4
fb
ff
fa
eb
09
f8
02
ea
01
0e
fc
ec
08
00
0a
05
ef
1f
04
0c
f9
03
07
fe
0c
00
04
0d
08
fe
f2
fe
fa
0e
fc
f2
f9
f9
fe
00
ff
fe
05
05
0b
c7
05
0a
04
04
08
03
ff
03
f4
ff
e3
f8
03
f9
fd
01
0c
e5
f0
04
f5
12
fb
08
fa
03
13
08
0d
f4
ff
ff
e1
f5
00
04
f8
fa
fc
fc
ff
23
fc
f9
11
fa
08
fc
f8
00
0a
08
f8
f2
04
f4
0a
fd
07
f3
08
01
2b
f7
03
09
1f
03
db
1a
0a
1c
0a
03
f4
e9
02
05
03
06
01
06
f8
09
1d
f5
fb
04
fc
11
0b
fd
fc
fc
fc
ff
ff
f3
eb
ee
04
02
eb
fd
f8
09
03
fe
fd
ff
18
03
05
00
fb
02
fa
03
f9
0e
f3
01
fc
fa
01
13
fb
0a
0d
fd
f2
07
fc
03
eb
03
fa
f8
ff
12
f6
ee
f7
05
fe
fe
fc
28
01
fd
ef
00
e0
ef
ea
13
0c
08
0f
f6
01
fe
f6
f9
01
11
07
f9
ff
04
06
fa
0b
1d
fa
07
11
02
fb
07
fc
07
f6
f2
05
fe
ff
f2
f1
fc
02
00
fd
f2
fe
fa
ff
05
0d
0d
02
03
0a
04
0b
0e
04
01
11
04
f1
fc
02
12
09
04
fe
09
f7
f8
06
f9
f4
f1
01
f2
04
fd
05
20
19
0b
16
f4
1e
fc
09
01
08
04
0b
f6
ea
05
f9
f8
0e
04
1c
ef
07
ff
fd
0d
ff
04
fd
05
12
00
05
06
ed
f3
01
ff
ff
f5
0a
0a
0d
01
18
15
fa
04
fb
11
ff
e9
06
0e
fb
ff
07
03
04
0a
03
04
fb
04
f6
02
04
fe
f9
02
fc
10
0b
06
f2
db
fc
05
f7
16
fe
09
0a
00
0e
00
f4
f8
10
05
fe
01
10
0b
ff
ef
11
eb
10
00
0c
ff
08
04
03
fa
ff
fb
ef
ff
1a
08
f4
01
0c
fb
00
fc
f9
fd
0c
04
ef
fc
04
07
ef
08
02
11
f4
fe
f8
03
18
08
fe
f3
fa
13
f0
04
ed
1a
05
fb
07
f6
0c
f5
19
f4
06
ff
ff
fa
04
04
f8
13
13
fb
f2
fd
03
f7
09
06
fd
f6
ff
04
01
0f
20
f9
f3
04
01
0d
08
fe
05
fe
fc
fc
07
12
02
f0
ff
02
f1
fb
09
ff
05
fa
f2
e3
00
00
ff
f6
f6
05
ff
0a
f6
05
00
f5
0f
fe
01
fb
ee
02
f6
10
fb
0d
f9
05
fc
01
01
0f
fe
0f
ff
19
ee
05
09
18
02
ee
0a
05
02
0e
00
f7
fc
d9
08
06
00
10
f3
0c
fe
fd
02
08
0d
0d
17
0c
f6
10
f3
fe
0f
24
05
fd
15
1a
04
02
f7
02
f3
08
06
fd
06
02
0a
f9
f2
0c
08
03
0c
fa
04
ff
0b
e0
04
02
06
01
f8
07
02
f7
05
10
fb
04
09
07
11
f4
03
12
02
fe
fa
fe
fd
f9
ef
fe
00
05
08
08
02
f8
00
ef
0d
0d
f8
00
f0
fc
e0
fe
11
16
fb
01
ef
01
04
05
04
e9
06
0a
0a
18
15
fc
05
ef
04
fb
d9
f8
fd
fb
f9
f8
ef
fe
f9
ff
05
f5
17
08
fa
0c
fa
01
13
fe
06
08
05
06
08
f6
19
06
12
fc
fa
ff
21
0d
03
fa
01
fa
fa
f1
e1
eb
d8
16
0d
eb
04
05
04
07
06
0c
fe
f6
04
fc
f7
ff
11
0a
15
2d
f3
13
f8
05
fa
05
ff
05
fe
04
e6
17
1a
00
00
f9
05
fd
ed
f8
fb
fc
00
0f
fe
0d
fb
f5
05
04
11
ff
04
eb
05
f2
09
14
19
ea
05
04
ef
05
0a
0f
ff
f4
d5
f6
fe
07
ff
06
f9
0e
fb
26
fe
0f
f1
05
f5
f7
f5
01
fb
0b
03
f9
f9
13
0b
10
12
06
06
0d
0b
f9
08
0f
0a
09
f2
07
f0
dd
0e
fa
0e
e5
03
f9
f5
fa
f3
00
1a
f4
f7
02
fb
03
01
18
09
04
00
fe
f8
18
08
01
01
17
fd
fd
02
f8
07
f9
04
01
08
24
0f
f6
f0
03
fd
04
14
fe
e8
ff
05
0f
11
1e
18
01
ee
0e
21
fb
11
08
fe
0a
01
09
08
0d
0e
03
06
0c
fc
11
03
05
f9
fa
0c
0a
07
00
ff
11
fc
0f
03
09
06
10
0e
05
fa
01
e3
08
08
15
ec
02
f9
fe
f5
15
f0
11
00
f0
fb
0a
fe
0c
02
0a
ec
04
f9
fd
0d
fe
20
f0
2e
f2
06
fb
f1
f0
04
08
eb
fe
05
02
1e
03
05
f6
01
09
02
fd
fd
01
f7
f6
f4
f8
03
f3
fa
01
e7
f4
02
f0
01
01
03
08
05
fa
02
ff
ef
f8
fa
18
fb
06
ed
17
f7
18
17
08
0b
01
f2
04
e3
0e
06
e9
01
fd
f9
05
fe
f8
16
0f
f9
fe
04
fc
1c
07
03
02
07
fc
0d
fc
03
09
22
fc
17
fa
f1
14
ff
03
d1
0d
f0
03
01
f7
ec
24
00
01
00
08
01
fb
fd
f5
06
00
fd
05
01
0e
04
04
1b
ef
04
12
fd
03
02
f7
f0
f9
0a
04
f8
f3
ff
09
13
f9
ec
f3
09
07
fb
fb
08
02
fc
f3
00
0b
20
f6
09
fc
02
03
01
07
17
05
04
09
d2
f6
fe
0b
f9
fe
05
fe
fd
f8
fd
f9
09
ff
0a
fc
01
05
eb
15
f6
f2
06
06
f8
e7
05
fe
0e
0f
05
16
0d
1e
ff
01
04
1d
fb
fe
06
04
00
05
fa
06
ff
00
f8
08
fc
05
0e
1f
04
0f
03
05
01
fa
00
02
0d
12
0f
00
ef
00
ef
02
fe
fd
03
fc
ff
00
f9
26
05
02
ff
f6
fd
fe
0e
04
02
1b
00
02
02
06
ff
e8
fa
19
03
f3
1d
fc
07
f7
fd
fd
03
01
07
04
0e
0b
05
f5
fc
05
ff
06
fc
01
fa
08
26
fb
ea
01
fd
00
08
13
03
ea
00
10
00
f6
06
04
fe
0e
f8
01
f9
0a
fe
1d
08
13
f8
03
07
f8
fb
f8
06
04
ec
16
f2
fe
f8
fb
f7
0b
03
0c
11
f2
07
2f
13
ff
f0
e7
ff
07
fd
fa
08
04
05
fd
05
07
01
fb
f0
08
ff
0c
ff
fd
fd
f5
0d
fe
ec
05
ff
0e
f0
14
0e
fe
09
02
09
f0
e7
f7
0c
0b
00
ed
03
fd
03
07
02
01
19
fb
05
ff
16
fa
10
0d
01
08
00
ff
06
fc
f4
1b
f7
05
11
fb
0b
05
fc
ff
04
fc
01
05
0c
f5
04
f9
02
fe
0d
00
fd
02
ee
02
08
08
fd
03
f3
fc
30
f7
0c
f2
03
f6
fc
f8
0c
ff
06
0d
10
06
ef
f6
ef
f3
03
0f
fd
fc
1d
f2
06
db
fe
00
01
05
fe
0b
00
ff
04
f1
1f
06
03
04
03
fa
04
fd
02
fc
03
fc
04
0a
0f
04
13
07
f2
18
fa
fb
f8
eb
13
03
00
f9
09
09
1c
f3
00
35
06
07
05
05
02
04
fd
1d
fa
f8
15
20
06
f6
e3
04
07
00
04
06
f1
f5
04
f8
fb
f4
f5
ff
f0
11
03
fa
28
fe
ff
15
ea
f8
00
fd
02
e9
00
ec
e8
04
1c
01
f5
03
09
04
02
f5
f2
14
f8
07
ff
14
eb
fd
00
0a
00
02
01
03
ec
1d
fe
e3
08
03
1c
07
09
f8
0d
fd
fc
ff
02
06
08
f9
fe
00
fb
fe
fd
fd
e7
f3
01
02
00
f6
0a
fc
06
11
05
fd
1d
07
ed
f8
1b
0d
fd
12
fb
08
07
18
0e
f9
ff
0c
0d
10
fd
08
04
10
ea
fe
04
f8
0f
0b
fa
04
04
fd
00
03
12
14
01
e6
ff
06
00
fa
03
24
07
02
0a
07
2c
f9
fa
07
fe
fd
ff
0b
00
01
f7
f1
fe
fe
fb
f3
e7
fa
fe
fc
07
00
fe
f7
fd
f9
0d
f8
14
08
01
f7
0d
0f
03
fc
f8
ff
04
07
f6
07
ff
07
09
0f
28
fd
02
00
02
14
ff
10
05
0f
fb
ff
f5
f4
fd
eb
19
09
f2
07
01
13
22
09
fe
f5
01
fa
fc
02
08
fa
f5
08
10
f9
fb
ff
04
00
01
1c
01
f8
12
03
03
fe
18
f9
2d
0b
03
fd
f4
02
08
fa
02
08
f1
0a
fa
f8
0b
fc
01
f3
01
01
fb
fb
0d
09
0d
08
f7
fc
15
18
15
f1
fd
fb
ff
fb
fd
f9
03
ed
ff
05
1b
f7
ee
11
f8
06
fd
0c
04
11
0d
08
f7
ec
ff
f0
02
0d
f2
02
f9
f6
04
06
e9
eb
00
fb
fe
02
05
f5
ff
fd
fe
0c
2b
03
1c
f8
fd
09
03
f3
09
0d
f9
10
07
00
fc
f8
06
02
fe
02
fe
09
05
fd
ff
ff
09
09
f7
08
08
f9
f8
f1
21
10
01
0f
00
02
07
0f
07
1c
08
02
f6
09
10
ed
01
21
0d
fd
09
01
07
f8
05
03
01
e7
f2
09
0f
0c
f8
02
ff
04
01
f2
f9
fd
02
26
ef
fb
14
fb
0a
11
fd
00
0d
fd
02
06
03
fa
0a
e8
0b
0d
fc
f7
f8
fa
1e
f2
e9
12
05
03
02
fe
09
07
04
02
05
f5
02
13
10
ff
08
fe
02
12
05
05
fc
f4
f2
06
ea
00
03
f9
0a
08
16
fd
07
f7
fc
09
03
f7
0a
0c
01
ff
08
06
02
fd
f8
0e
01
fb
11
fa
03
f4
fd
01
02
13
f6
03
f7
17
01
01
14
0f
f2
12
08
06
ff
04
08
14
11
f4
13
1e
01
06
08
f5
13
06
0c
f5
10
fe
07
fe
f5
fc
fe
02
08
05
0c
f8
fc
fa
05
06
fa
ff
03
fb
f5
f5
14
eb
03
09
14
02
f2
f9
06
fd
f7
3b
f8
06
f9
05
04
11
0f
06
0d
fb
0e
fc
06
ff
e8
fe
00
f5
00
fe
fe
00
00
03
f9
ee
04
f9
04
01
f9
e8
05
f8
fd
fe
0f
1d
fd
0a
0a
01
15
04
04
03
0b
fc
03
f2
15
fe
1a
09
1d
f5
ff
f5
07
fd
fe
08
e4
06
fc
04
1c
05
12
fe
01
fe
04
fa
0a
08
16
0e
02
fe
ff
10
0c
0a
05
0b
ff
0e
03
07
21
fc
1d
0a
02
01
ff
08
0b
f7
18
0f
fd
0c
01
05
ff
0d
13
04
01
ff
08
1a
07
12
02
f7
11
f4
07
f1
e7
33
0e
03
02
f9
06
ff
01
04
fa
fb
ea
f7
fa
10
fc
01
10
12
07
03
ff
f1
fd
f5
00
fa
0a
03
fd
06
03
08
11
07
07
fb
0c
fc
f1
12
fc
dc
12
09
d1
02
f9
06
00
fd
f8
0e
15
fa
00
fc
ff
03
e4
08
f2
ff
f0
0a
0a
09
00
0e
08
ef
00
fa
f0
08
1e
fe
ff
f7
13
fd
fc
08
0f
0b
fd
ff
01
0a
f8
f5
04
fa
01
05
f9
0b
02
1b
09
fb
fd
e7
0d
ff
12
0e
f6
05
f0
00
ef
1f
0a
07
04
fd
18
ec
12
eb
09
21
05
03
fc
06
f9
f6
f6
fd
11
19
fc
01
1a
ff
10
f8
f9
f0
07
0d
01
1b
04
04
02
0b
05
ea
11
06
1f
fa
1b
10
06
02
fa
00
04
e9
03
1c
01
11
0c
f9
08
12
fd
0e
0c
fb
0c
fe
0b
f7
f6
f3
14
f9
fa
08
fb
05
01
00
17
04
08
11
f4
fa
ee
04
fd
fb
f9
fb
01
fe
02
f2
fc
0c
ff
f9
02
f6
f3
ff
f8
f4
0a
fb
00
ee
f4
f3
f6
08
02
f9
02
f3
fa
06
ef
02
ff
ff
09
04
fd
03
0a
08
0b
0b
16
e9
fb
fe
03
07
06
fb
07
fd
14
fa
03
19
11
fe
f5
01
f3
fe
fe
f1
0a
e7
f1
0c
fa
05
01
04
02
ff
f5
0c
f0
f9
10
0f
17
15
00
02
07
fe
fb
04
00
ed
fc
ff
20
ff
ef
02
f9
ff
fb
fa
0a
0d
07
08
e3
f4
05
f2
f4
f8
04
fe
f5
08
fd
02
fa
fa
f8
19
03
04
11
f7
03
02
f7
0a
e0
f8
1b
f3
fe
00
01
ec
f6
fd
fc
0c
24
ff
fe
fc
f1
03
fc
00
01
fe
f7
01
07
03
16
0a
ea
04
f6
f7
0f
03
04
fe
08
02
07
02
fb
f3
02
04
0a
fd
f0
fe
02
ed
fc
fe
f0
e3
fc
fd
01
ea
fd
03
05
14
00
f5
fb
f6
fe
fc
ff
f5
ff
17
f9
fb
fa
0d
08
11
06
f3
16
ff
09
fd
fd
ff
f9
f8
ff
f4
f8
f1
fc
f9
f0
11
10
03
05
09
f0
08
f9
08
00
f0
06
f2
05
07
eb
fc
fb
0f
f1
fe
07
fd
fb
09
00
09
00
0a
02
05
eb
fd
fb
04
ec
ff
e5
f0
13
06
0e
fb
03
fd
01
e9
03
f7
0a
05
ff
e3
23
0f
02
f0
fb
00
00
ed
f3
f0
f6
f8
fc
f7
f9
fb
ec
10
11
e6
ff
04
f8
fd
f5
fe
ff
00
ff
f0
0e
ef
f1
f6
01
ed
e9
e0
f9
06
f4
06
fe
03
ff
ff
fe
08
05
e4
fa
0a
02
e9
08
0e
fb
ee
11
f1
14
ed
0c
09
03
f8
e6
fa
f9
f6
d9
02
ff
eb
09
ed
f4
08
09
f5
ee
f3
fe
f8
01
fa
01
04
01
0d
fe
0c
fd
ec
04
01
11
05
0d
f4
f2
eb
f2
00
f5
ea
fb
0c
02
ff
0d
ff
fc
04
07
00
01
01
09
f7
f8
06
06
f5
03
01
f7
11
f6
01
fb
02
f2
f9
19
f9
f7
01
fc
fd
fd
17
ff
01
f6
10
fb
05
13
fb
f6
02
07
f2
f8
f3
06
01
04
f5
ff
0b
06
fe
08
ff
ff
fe
f2
0c
00
0c
07
12
07
19
02
01
ff
fd
0a
11
fc
f5
01
fe
ef
f4
0a
0f
fc
fe
f9
07
f6
1c
f5
04
fb
fc
02
03
f5
fc
01
03
02
f4
ed
f4
fb
11
12
0f
1a
f9
07
fe
03
00
02
07
02
fd
f6
08
ef
f9
fc
f7
1f
f3
04
03
fe
01
03
fa
00
02
09
f2
0a
15
e6
ff
0a
07
f6
fc
0b
fc
0c
00
fd
05
e7
03
17
fa
02
07
04
f8
e7
ff
f2
ef
e1
f5
0a
03
01
02
01
f5
06
fb
01
f0
f8
f8
f3
fb
02
02
05
f9
08
04
03
0c
f2
fd
0a
f8
08
ff
f5
13
01
fb
02
ef
fd
03
f5
fe
f8
07
e7
fb
03
fe
0b
04
01
fe
f6
1d
fb
fa
0e
fd
03
12
f2
f5
f7
02
fd
09
f7
02
f7
fb
00
0f
09
14
02
ee
03
ff
fd
10
03
f9
0c
fa
07
00
de
07
fd
fa
01
11
08
0e
15
01
00
e4
04
f7
04
fd
fc
fc
f4
f3
01
fe
f9
05
f9
e2
13
15
02
f3
e4
12
01
0a
0c
eb
f6
e9
01
12
13
09
f0
07
fd
fd
0b
06
06
07
fe
ff
06
fe
14
07
1d
f6
f5
f9
02
fd
fa
0e
02
07
fe
11
f5
0b
00
18
ea
04
02
0e
16
00
01
08
0e
00
05
f4
fe
f7
04
0e
fc
03
f9
fe
00
02
08
1c
f2
02
fd
06
f4
08
11
fd
0a
ff
f7
16
05
16
f3
fd
07
00
fe
00
09
ff
fa
08
f8
fa
0a
fe
01
09
ff
00
05
03
05
05
ff
04
09
03
10
14
2c
06
00
04
1a
21
1d
e7
03
ea
f2
fb
0a
fc
f7
04
0d
17
f8
05
f5
ed
19
13
07
09
01
fc
f4
09
ff
01
f6
06
0c
0a
fc
0d
05
f9
ea
fe
f7
f8
ec
f4
f8
08
12
fe
17
02
fa
03
01
01
02
02
fa
05
fa
05
0e
ff
f8
14
01
07
01
ec
f0
ec
04
07
0a
f8
f3
10
10
06
f0
0d
0a
fa
08
20
14
02
f3
09
df
fe
01
f3
fd
22
da
0e
16
02
02
fd
01
fb
00
eb
07
00
03
f2
fd
e8
00
f0
00
ff
f8
00
0b
ff
00
06
02
15
18
f5
05
0b
00
f8
f7
0c
0f
0d
12
fe
0d
01
04
03
07
00
01
12
13
fd
23
0d
ff
03
fb
09
f4
1e
f2
04
00
02
e8
09
ff
0b
f7
0f
14
0c
12
19
07
06
03
fd
0a
06
1f
09
03
14
f2
19
11
03
01
00
ee
00
ff
00
fa
17
05
08
0f
0e
f5
26
f5
f8
fa
f7
02
fc
14
01
18
fe
1f
10
00
fc
10
f8
07
18
ef
0d
0c
1d
03
00
05
07
07
04
02
ff
fc
08
07
f6
ff
0e
02
0c
00
0c
f9
f6
0a
fc
f8
09
f9
06
07
14
08
0a
ec
0e
0d
16
07
00
ff
f2
ff
fd
03
fc
fc
04
16
fd
17
06
05
f7
18
01
17
ff
02
f4
08
0f
f9
01
f6
0e
ef
f8
02
0e
ec
fc
f4
fb
20
0a
1f
fd
fe
13
05
fc
ff
04
ec
02
07
10
0f
fd
fa
f7
14
00
02
0b
0c
f5
0d
02
f8
05
f5
12
10
fe
f7
ff
fd
f7
f6
16
f2
05
fe
0f
fd
12
06
1c
00
06
0f
f5
fd
0d
ff
f5
03
17
03
0c
18
09
06
09
f9
e3
02
de
05
f8
fd
f2
1c
eb
09
ff
07
f6
12
02
00
18
e4
07
00
f9
0c
fa
06
05
0b
fe
05
06
01
f8
fe
fe
f9
08
00
09
f8
12
03
0e
03
ed
04
eb
fe
15
fd
fc
e2
f7
00
d4
fc
01
0f
01
07
0c
04
0e
ff
02
08
0c
f7
f7
07
16
fe
f6
07
0f
0a
12
05
04
03
00
fb
02
00
00
fc
1b
fe
ff
10
f7
ff
04
09
ff
05
05
0e
04
08
14
fc
f5
fb
01
fe
fb
fc
02
ed
02
fe
01
0b
0f
1b
fd
fd
02
07
f6
04
f7
07
06
00
02
fb
fc
01
fd
08
ea
03
00
10
02
0e
ff
f3
02
00
04
00
01
fa
f9
13
07
f7
ec
f2
0b
05
f9
f2
ee
0a
f5
03
0c
fb
fd
08
0d
fb
fe
0b
08
fe
0d
1b
04
f7
fb
fc
fb
fc
fc
02
fb
fd
f7
12
05
12
eb
08
fc
09
02
00
ff
f0
fe
fe
16
f7
16
fd
14
00
04
f2
10
fb
fa
27
03
01
fb
ff
f5
00
ff
fe
f8
00
10
ed
f7
fa
11
26
16
f4
fe
03
07
f2
ed
02
ff
f9
f0
ff
0f
01
07
1d
fa
10
ee
06
fc
09
f7
f8
fe
ff
fc
e0
0f
f4
fd
fc
fa
00
09
03
00
fc
fc
17
ec
f4
14
fa
f8
fc
fa
0f
0f
eb
fc
f0
fd
e3
05
03
eb
12
03
f5
f9
fa
fd
05
01
fb
f8
f9
07
13
f8
ea
f4
00
0c
04
ff
fa
00
f9
fc
fe
ff
fd
f9
fe
f1
ff
ff
fc
ff
f9
f6
03
00
0a
f4
02
f9
07
03
fb
ff
14
14
02
0b
01
00
07
08
02
f4
fb
02
09
10
f8
f9
f6
04
02
01
f8
f4
fc
f5
0b
fb
03
f7
0e
00
ea
0e
e4
d6
fd
06
03
07
08
f3
e5
fb
e9
fd
06
fc
fb
0a
00
04
fc
f5
f3
f1
0b
01
ff
06
e3
fb
f9
03
f9
17
05
03
fa
f8
02
03
08
06
0a
fb
12
fb
f7
fd
05
02
08
fd
fd
09
fb
00
09
06
00
05
07
ea
f8
14
0d
04
02
02
01
02
03
02
11
fa
01
03
09
f4
03
0c
f8
08
00
f7
f9
00
fd
02
fd
f4
02
09
03
08
f5
f3
06
11
08
13
fb
16
eb
03
fe
08
e8
01
05
0c
0b
f6
01
01
ff
f9
14
fb
f9
de
ec
0e
04
05
fd
f6
da
fe
05
fc
0b
fb
ec
e4
17
08
f8
f3
03
fe
fb
f4
ff
fe
f7
03
06
fb
eb
02
fe
fe
f8
f4
07
09
ff
fa
f2
f4
e0
0d
01
fe
ed
04
03
ea
fd
16
12
f6
07
03
0e
ee
10
08
ff
fa
ee
fe
f4
f9
fe
01
fb
0c
f4
f9
f4
ff
da
0a
fd
12
f1
02
01
00
01
03
0a
fa
fe
16
fd
00
fd
0a
fd
04
03
05
01
fe
07
fa
f3
0d
f9
f5
f6
fd
02
fc
ff
f8
0e
06
e0
04
01
fd
31
04
fb
f6
f6
02
0f
f1
ff
fd
ed
2b
fc
03
0d
da
fc
fa
fc
01
0a
06
f8
fd
ff
fc
fb
fc
f5
00
03
ff
04
f6
fc
01
f7
fa
07
00
07
0a
e5
e6
0a
01
f7
02
e9
fe
13
f9
ff
f2
fb
08
01
02
05
0f
06
06
f5
fa
e7
09
f5
0f
f1
06
fe
0e
ff
0d
01
01
03
e7
e6
06
f9
0a
0b
06
03
10
0b
0e
ed
ec
ef
e9
fd
00
fb
fc
06
00
fe
0c
01
f2
09
14
01
f7
ff
fa
fe
01
f6
fe
05
f5
fc
12
08
08
ff
02
04
06
00
13
03
e9
13
07
05
f4
fe
02
fd
02
05
fe
ff
03
0b
06
06
fa
fc
10
fb
fc
05
fd
f4
f8
ff
fd
fd
02
06
fc
06
e2
fd
fa
e4
ef
f9
06
fe
12
f7
04
fe
fb
1e
04
0b
10
18
f8
fb
08
f7
06
f1
15
fa
0f
e9
04
df
0b
02
f9
f2
01
02
f9
f9
f6
e9
03
06
f5
ef
f7
fe
ff
ff
05
fe
fd
ff
f5
f7
d7
02
02
0c
02
07
f4
00
fc
f7
02
0b
f8
03
f8
fd
fb
0a
fa
08
0b
f5
13
03
fa
05
f3
0b
0c
01
f7
f9
04
06
04
f6
f8
0f
f3
0b
fd
fe
f8
e5
f2
fe
f3
fd
00
02
e1
14
02
03
f6
17
f1
e9
00
f7
fc
07
ff
fc
02
01
03
f5
10
05
09
ff
f9
16
f8
02
03
05
01
f0
fd
ed
03
f2
00
04
0d
05
ee
03
ff
fc
f7
e4
e6
1b
ef
12
09
02
fd
03
07
f8
0b
f1
01
f9
ff
0d
f6
0f
08
0b
ff
03
fd
fe
07
0c
18
13
fa
fe
1d
fe
fd
08
f2
08
f3
00
04
f2
00
0f
f7
fb
fb
ed
ff
08
f3
09
fd
e5
00
fb
01
01
fa
12
05
0a
f7
fd
04
02
fe
04
01
fd
fb
fb
06
00
10
fa
01
03
09
ff
02
13
ed
ec
05
ed
f9
e7
19
07
f5
0e
00
ff
03
00
f3
09
03
05
f9
00
f4
03
0d
0d
06
fc
f7
f1
0f
07
02
f7
00
f4
0a
fc
01
08
f3
07
dc
02
18
03
01
ff
fb
fd
fd
fe
01
eb
08
f2
ff
fa
ea
04
fb
ec
f3
fd
f6
f6
02
03
f5
08
f7
10
01
fa
ff
ff
00
10
13
02
ff
08
06
0a
02
ee
0a
fc
f2
00
0a
e7
09
03
fb
ff
0d
0a
1a
e7
05
00
0b
04
f1
08
13
fc
14
de
01
fe
f6
04
fa
fe
d8
fb
18
ec
fd
05
fc
02
21
07
f1
ff
02
0d
06
fc
fa
05
e6
06
fa
09
ff
03
03
f5
f7
fa
f6
06
05
07
ed
0a
e5
d6
02
08
14
00
07
ff
01
03
ea
02
04
05
f7
04
14
09
f9
08
08
ef
02
fc
f7
01
fa
fe
ec
ff
1d
f8
1b
f5
0e
fe
13
0b
00
12
00
f7
05
09
f8
f6
01
ff
19
fe
fb
e2
07
02
02
fa
0e
fc
01
03
14
fa
f7
d7
03
0c
14
05
fa
00
00
fe
fa
e9
f9
0f
06
01
07
0a
fb
03
12
09
ff
02
fc
fd
0c
1b
12
06
ff
06
f6
ff
00
ec
03
f1
ed
f4
fc
0a
02
04
03
f3
08
03
01
fc
f2
02
0a
fd
04
14
fa
fe
0c
07
e5
0c
01
f9
fb
e4
00
00
ff
02
14
08
ff
fc
fe
02
f1
00
04
00
02
fc
fe
f9
f5
f7
01
04
f5
ea
0a
ef
f6
ef
0a
0b
05
e7
f7
f2
fe
f1
06
fe
f9
fe
01
0b
02
f5
18
f9
fe
f8
ff
0f
02
06
ff
09
f9
03
07
04
fe
16
f9
04
03
f7
ff
04
00
f4
0e
0c
f5
05
03
15
01
fc
f9
fe
0d
15
1c
ff
00
fd
df
01
f1
08
fa
fc
04
00
f5
10
07
02
0b
07
ec
1a
17
05
14
08
0b
0b
ff
13
0a
fa
06
f1
09
fa
f3
00
04
f3
f6
11
1e
fe
02
0b
05
f6
fd
fc
f6
01
07
05
fd
12
08
fe
ff
f9
01
00
14
05
09
e9
1a
f7
07
fb
f7
fa
01
00
f5
0a
f9
f1
fe
05
07
fe
f4
09
f3
fc
07
fc
11
fb
f1
05
f7
eb
00
fd
f6
0d
f9
00
dd
ff
f0
03
04
02
09
04
17
05
0a
14
fa
0f
01
07
11
e8
01
22
10
03
04
0b
03
ff
eb
01
06
10
fb
fb
fd
f8
11
f3
0e
02
05
03
fc
f9
fc
f5
fa
0f
f8
f1
fc
0f
08
0d
01
18
f7
03
f7
f8
00
00
fd
07
01
e6
fa
0e
0b
05
fe
06
ff
1d
fd
f4
ff
06
06
02
e7
f8
0a
0c
ec
04
f7
fb
07
fe
05
05
fd
fd
00
08
e7
07
05
e7
13
0b
0d
f2
fd
04
ff
03
fb
f9
f7
00
02
f6
07
e9
fa
fe
f6
fc
0f
fe
fb
12
07
f5
fb
0e
f7
06
00
ff
fb
07
fc
fa
07
07
f6
14
f8
f5
ff
fd
f8
02
02
0e
fb
f0
0c
f6
08
fe
0b
f8
15
08
09
15
e2
16
04
f6
0b
0a
f2
f6
0c
04
f9
fe
f6
17
fb
1d
05
00
08
ff
f9
05
fa
f9
f8
10
01
0b
fb
ef
04
01
04
01
03
0b
fe
0f
01
f6
fd
12
00
08
00
fe
fd
04
f3
f3
f5
07
db
06
ee
fc
09
05
03
e1
2f
1a
15
fb
fb
f9
dd
00
04
04
ff
00
f7
00
12
fb
08
e9
eb
f6
06
03
fa
15
fd
00
0b
f4
22
00
f3
00
f4
08
08
fc
07
1e
01
10
ff
fb
fd
00
f8
03
fd
f7
04
01
ff
07
fb
01
ed
14
fc
04
01
fa
fd
08
0d
03
00
07
04
00
09
10
00
03
02
ff
02
04
f5
0b
fe
12
fd
03
fa
f8
12
fe
10
04
0c
f8
08
06
ff
fb
f8
18
fe
02
10
01
07
f6
06
12
0c
ea
09
16
05
e7
fb
ff
02
fe
ec
24
f2
0b
fc
02
02
02
f8
03
e4
e8
02
fe
0b
fd
f0
f6
21
11
ff
05
fe
02
f4
00
f3
09
04
f2
1a
05
03
09
fb
ed
ff
01
0f
02
08
02
05
fe
fa
02
fc
08
13
04
03
fe
fd
08
01
f3
03
02
0a
06
06
fd
04
11
ef
00
e9
f7
00
17
fe
03
f5
f3
fd
01
02
f9
e6
0b
19
ff
ee
fb
ef
11
22
0d
f8
0f
04
fa
ff
f0
f3
ff
fb
0d
08
08
05
f8
1c
ee
fb
08
08
ff
fc
2f
06
f7
10
04
05
f8
ea
0a
0a
f1
06
ef
04
f8
f0
1d
ff
0f
00
02
ff
f5
f2
ff
05
05
f2
00
03
06
f6
0a
14
01
00
14
07
04
ff
f8
02
1c
12
13
07
e5
04
d8
06
fd
14
fd
0a
06
00
06
05
19
0d
15
00
fb
f8
f8
fd
f8
12
fe
ff
f1
ff
04
ff
20
03
1a
07
f3
fa
0d
f7
01
e1
0d
04
0b
0a
fe
18
05
ff
fb
01
fd
fa
01
ff
f2
00
04
fc
ed
00
00
f6
ea
09
fe
08
0c
0e
09
04
e9
f9
02
00
0e
20
f7
0b
07
0c
fc
fa
13
f8
00
fc
f4
f3
f6
09
04
1e
fd
1e
ff
1e
fe
04
fb
fd
07
fc
0c
0e
ff
eb
02
0c
15
e5
05
04
fe
08
f3
0c
05
f5
fb
02
02
0a
05
17
f9
14
12
f9
e8
f2
05
1b
f5
19
e7
06
fc
09
fe
01
04
07
10
04
fc
fa
09
14
03
ff
02
01
28
05
01
09
fa
f8
0f
04
09
15
f3
0e
23
ff
ff
f9
09
ff
f2
02
03
08
1f
01
f3
0a
00
00
1c
ff
f2
fd
1a
ff
00
08
08
07
fb
11
14
01
03
05
00
1e
07
f6
ed
f2
f4
f4
08
01
ef
13
f4
f0
f9
00
00
f0
0a
1d
00
f3
fd
07
f7
0a
fc
06
07
fe
06
07
07
ff
05
fa
fb
fc
22
05
07
04
d8
03
ed
05
06
0b
0a
ff
fd
06
06
e9
0b
23
ee
08
02
fe
fc
08
eb
17
ee
f0
00
08
05
25
0d
ff
02
01
03
fe
fd
10
fd
09
fc
06
00
f2
01
fb
09
fc
1c
fa
18
18
f9
f8
fc
ff
f1
05
fd
09
00
11
0c
09
fd
03
0e
ee
fe
09
f7
01
fa
08
01
03
ef
e3
ff
fa
0d
e1
0c
10
ec
f8
03
fd
ea
03
1f
08
1d
03
1d
09
f6
fe
08
18
01
08
fb
00
08
0a
11
ec
fc
fa
f4
09
00
f1
e9
ec
f5
07
07
fd
f7
05
09
fa
07
05
e8
fa
fb
fa
f9
ed
07
f9
1a
fc
ff
0c
f0
01
08
0b
10
fc
06
15
0d
00
ee
fe
f3
fa
fe
02
f7
09
ec
f5
0b
fe
f4
f8
ef
09
fc
ef
06
01
0b
04
fd
0d
06
f9
04
d7
ff
05
04
07
fc
0e
02
fd
f1
03
07
f1
fd
06
02
03
f8
00
10
07
0b
ea
04
e7
07
f5
0b
fa
00
09
0a
00
0b
ff
ff
03
fd
fc
fc
fd
0f
ff
fe
f7
fe
24
0d
05
06
10
fd
fe
07
f7
07
fd
fc
08
12
17
13
09
07
06
08
00
0a
04
ff
f4
00
ff
01
1d
12
e9
fe
f4
f9
11
ff
fe
f4
ee
fe
01
f6
01
f5
06
ef
f2
f9
17
01
f9
14
19
0b
f0
fc
00
0f
ed
03
01
01
10
fc
f9
fd
07
fb
fb
02
f7
fa
03
0b
fc
f2
fd
ee
f8
e6
f7
f5
fc
02
09
fb
ff
04
05
01
ef
08
0d
fc
0e
0c
0b
0e
0f
fa
ff
f7
02
fd
f9
01
06
13
fd
01
29
fa
02
f7
1c
01
fa
f0
fc
ee
0e
fc
fb
01
20
0a
fd
e7
fb
02
e9
05
08
ee
f2
fb
f8
07
f9
03
fe
fb
f5
03
f7
ec
15
18
e7
04
f5
fd
fb
09
f7
01
f8
fc
07
f7
06
db
06
0d
04
0b
f9
0b
01
15
f6
f5
03
e2
0b
fd
06
18
ff
fe
00
fb
01
f8
fb
fc
02
ff
f6
e9
f2
fe
02
e4
0d
05
01
0e
ef
fe
fd
04
0c
14
05
f0
fd
13
fd
ec
18
f5
01
03
fe
fc
02
ec
f7
f6
fb
f2
24
14
ff
f3
09
02
fb
02
fe
fd
01
01
09
0c
01
13
fd
fe
f9
f6
fb
07
00
03
19
14
10
f6
e8
17
ec
02
0e
19
f7
0c
0f
0c
1f
01
f8
0e
01
f3
fd
07
0f
fd
fc
00
f9
e0
ff
f3
05
