02
03
2a
08
06
fb
00
0f
ff
0f
ff
02
f8
04
06
ee
12
00
01
fb
08
13
ff
04
08
03
f7
0a
05
0d
fb
0d
04
08
00
07
08
fc
ff
02
fe
01
08
f7
04
03
f7
fd
ff
02
fe
0b
03
f6
06
0c
f3
f9
03
fc
fc
f4
fd
fd
05
08
02
0e
fd
01
0b
03
04
01
06
02
06
01
08
06
02
f2
02
08
fb
f6
ff
01
ff
ff
0a
00
fc
08
0e
11
01
fa
fd
f6
04
fb
01
06
04
ff
02
04
09
05
fd
f9
08
01
14
f4
07
f9
02
08
ed
05
09
ec
fe
08
08
ff
01
f4
05
04
0c
0b
fa
04
0e
fd
03
0b
ff
0d
0b
fb
fe
f6
05
02
ff
02
ff
00
00
06
f9
ff
0b
0c
fa
16
06
fe
01
f7
09
07
ff
00
ff
04
f6
f0
03
f9
ff
0a
fc
03
0a
0c
f5
f9
06
08
ea
01
06
fb
02
fd
02
07
03
f2
f7
00
f4
07
f0
f8
00
05
f6
00
01
f6
00
00
07
0a
fc
02
0e
f6
04
fe
fd
06
03
fd
f4
ea
fe
f8
fc
f5
06
0a
00
fe
05
07
ff
f9
09
03
fa
f9
ed
01
f9
ff
f9
04
04
05
fa
fd
03
07
ff
0b
ff
fa
f6
fe
fd
fc
fd
09
fe
00
01
fd
03
07
03
fd
fc
fe
04
05
fe
fc
04
fd
fb
03
02
f8
08
fa
06
06
f3
f8
fa
09
02
f7
fa
06
ff
08
06
00
fc
f6
ff
04
fd
fa
ff
f3
05
fa
fa
05
f7
fe
fc
02
fd
00
fc
00
f4
fe
05
07
00
04
fc
fb
fc
fa
00
04
f7
f1
ff
fd
06
fc
f7
07
f2
fa
07
00
00
fa
fe
07
fe
0e
fd
ff
f4
f5
f4
fa
fe
f6
02
0a
03
f7
09
02
02
fc
06
04
fb
00
00
00
fa
f5
04
f4
0d
f7
01
fd
04
0a
f7
00
05
f5
03
00
f9
04
03
fd
03
fe
fc
fb
03
02
04
ff
01
fa
fb
f0
01
f7
08
fd
fa
05
fe
0a
fd
01
03
06
fc
0f
08
03
fb
05
06
ff
01
05
fa
fc
fb
fe
f6
ff
fd
01
fc
fb
05
ff
05
fe
01
07
fb
05
fe
f8
ff
fe
01
0a
07
fe
ff
08
06
eb
00
02
fe
07
0a
f9
0e
fc
fc
f5
f9
ff
02
f6
07
f5
ff
02
0a
06
f8
0a
08
ff
f8
01
04
05
07
03
00
fa
f9
03
fb
06
00
ff
fe
0b
fd
01
fd
f7
04
00
03
fc
01
f9
00
0a
00
fd
fc
ff
ff
02
fc
fe
02
01
04
fd
06
ff
04
01
f5
fd
08
fd
fa
ff
00
03
06
ff
02
01
f8
01
fa
01
ff
ef
f5
02
08
00
ff
fe
03
fe
fe
0d
02
05
f6
fb
fb
03
fc
f5
fa
05
f9
00
03
f6
06
02
fd
02
ee
ff
f5
fd
02
f5
06
04
04
07
02
fc
0a
02
fb
01
01
09
fd
ff
02
00
fe
fb
01
fa
08
ec
04
05
02
12
06
04
02
06
fe
06
02
01
0c
fb
01
f7
01
fa
0d
02
00
05
00
04
fd
00
f7
00
03
07
fb
08
01
07
05
02
01
fd
fb
03
02
09
02
06
00
01
03
0b
10
08
fd
06
fe
02
fe
01
01
fe
11
fa
04
fe
fe
06
04
fd
02
02
05
ff
04
04
fd
ff
02
06
ff
06
04
fc
02
00
fb
12
fa
fd
ff
03
fc
02
03
fc
fb
fc
05
05
02
f4
08
ff
07
00
f5
ff
00
fa
04
fd
03
fe
fd
00
fe
03
f7
05
03
03
0e
f8
01
ff
fd
fd
fc
03
fe
02
fd
fb
03
fd
03
03
06
06
fb
ff
02
ff
07
02
00
fe
02
03
01
09
00
fd
02
07
01
fd
fe
00
06
04
04
03
00
0e
01
f8
04
fd
f6
fe
ff
09
02
03
06
00
f9
f9
06
ff
04
01
fd
01
00
05
01
fb
01
f5
03
fd
05
08
01
05
03
ff
ff
ff
fd
fb
f6
05
ff
00
03
fe
01
00
00
07
04
f8
f9
fe
f8
07
fa
00
f7
05
f3
fd
03
05
fe
fc
03
05
03
01
01
08
08
02
06
03
09
ff
03
01
ff
02
ff
02
03
fe
05
f4
06
00
05
00
fb
ff
02
0b
05
06
06
02
fd
02
ff
11
01
05
fd
00
07
fa
01
04
fa
01
04
ff
f8
07
0a
0d
01
fe
06
05
01
f6
01
03
fc
03
0b
03
f6
02
06
04
08
02
ff
01
04
f9
03
f8
fd
f8
f9
04
fc
09
0b
f1
ff
01
fc
fe
01
fe
01
04
fd
fe
04
01
03
f5
02
ff
fb
06
ff
06
03
02
ff
00
fd
05
03
fe
01
00
01
14
04
03
fd
fa
04
01
fd
fc
05
07
f8
03
00
03
fe
12
01
07
f9
f5
04
05
f2
00
02
03
fe
fe
0b
fe
fc
00
06
02
06
00
fb
12
fb
07
fb
fb
0d
03
ff
05
fe
fe
00
fc
00
03
fd
f7
f4
07
f8
00
05
fa
ff
fb
fd
fb
1a
04
0c
02
15
f4
f2
04
fb
fc
0c
f2
05
fa
eb
f0
f9
f7
07
ff
01
04
fe
ff
f7
f1
fc
fe
01
fa
f8
01
03
03
f6
03
02
04
04
f5
fb
01
f7
08
fb
fd
fd
08
06
01
0c
f8
07
10
fb
fe
fa
00
03
00
f8
01
fe
03
fc
09
f8
0b
00
0c
ea
06
0b
03
0a
00
fd
fc
07
00
03
00
08
06
fe
04
04
fe
09
00
0a
f8
00
0f
f7
fa
ff
03
09
0d
f5
06
01
f2
fe
0e
fd
04
ef
f8
fc
f1
02
f9
00
06
07
f9
01
ff
ff
fd
ff
12
01
fb
fc
fb
fb
fe
03
03
05
05
fc
f4
03
f5
f8
fa
05
00
fc
fe
fe
f7
01
04
02
00
04
01
fd
00
04
ff
fd
ff
07
f5
00
04
ff
01
01
fa
06
04
07
fc
f3
ff
06
03
fa
fd
ff
f8
fb
ee
f6
03
06
02
fd
00
04
03
02
05
03
f7
13
01
09
fa
fa
f9
fb
06
01
fd
0f
f8
ff
f4
fe
00
01
04
02
02
01
fb
f3
fa
fb
06
02
fb
ff
fd
02
03
fe
ff
fc
01
04
ff
04
04
fd
ff
00
03
ff
00
06
05
15
00
0a
fc
03
fe
fd
00
0b
03
00
ff
ff
06
fe
ff
00
01
f9
f7
fc
fa
05
fc
0d
fb
04
fd
f5
f9
05
00
fd
fa
f7
00
fb
fa
fb
fd
fd
01
fb
03
fd
05
07
ef
01
fd
09
fe
fe
fd
fe
08
f6
fb
06
ff
0a
fb
03
06
ff
fd
ff
f9
01
f5
00
01
f9
fb
f9
02
01
00
f6
fe
fc
01
00
ff
02
03
00
f3
03
07
ff
fa
01
09
05
06
00
03
01
02
00
03
15
08
e1
fd
fd
ff
fc
04
02
02
e9
fe
01
04
04
f7
05
03
02
00
05
f3
03
03
fa
08
fe
fe
00
ff
01
ff
fa
04
fc
0b
fa
02
00
fc
ff
00
00
01
f8
08
f7
05
06
06
fe
04
01
fe
fc
05
0b
05
01
fe
02
fe
fc
05
fe
f8
ff
fc
00
02
fc
02
fd
03
f7
01
01
01
00
02
fe
f8
01
06
fc
02
fa
fe
03
ff
02
06
0a
ff
fa
05
02
05
06
03
01
08
04
f7
01
07
0c
02
04
03
02
04
fa
fd
03
01
03
03
ff
01
04
fd
00
07
ff
fe
fe
14
06
fe
02
ff
fe
ff
03
fd
0b
03
06
fc
ff
02
02
00
fd
ff
03
00
0d
01
fb
fc
07
fb
fe
08
04
09
01
09
ff
01
ff
ff
06
fc
02
fd
ff
06
02
ff
fe
fe
02
fc
f9
0c
02
f7
03
08
03
fc
05
ef
01
0c
ff
f9
fc
ff
f5
06
f3
fa
02
05
fb
f5
02
0c
03
fd
04
fe
ff
07
f2
fb
fe
00
03
f9
07
fd
f9
fe
07
f6
00
ed
02
f1
ff
f6
fe
fa
f9
02
02
fe
fe
02
fb
01
fa
03
07
01
ff
f9
fb
fd
00
08
fd
06
fa
fe
f9
0c
09
f5
ff
08
0e
03
fe
ef
00
fd
00
00
03
04
fe
fe
f1
00
00
03
09
f5
01
fd
02
16
fc
fe
ff
0a
f5
ff
fa
04
f9
f8
fd
02
07
00
ff
f9
00
f9
f5
ff
f7
00
0b
02
04
0d
f7
01
f7
04
f1
03
ed
0b
00
00
00
f2
10
fb
00
01
03
01
0b
03
f9
05
01
fc
fc
f1
fa
ff
04
fd
ff
fb
02
02
09
fb
03
fb
fe
fc
03
fc
03
fe
f5
06
fe
0a
fe
f5
04
05
06
04
02
f9
ff
fc
03
00
f9
02
0d
07
f6
fb
01
fc
fd
07
03
00
0f
fc
fc
f5
05
01
fe
f6
00
f7
0a
03
02
fb
fc
01
fa
03
06
ff
fe
01
0a
f6
0d
09
00
04
fa
0b
0e
0b
04
07
fa
05
fe
f9
03
06
fd
f6
09
00
fd
0e
00
ff
fb
fe
05
00
ff
04
f5
05
04
fb
fc
00
03
ff
02
fe
fb
fe
02
0e
04
ff
03
09
05
0d
08
fa
05
02
fd
02
ff
07
fe
01
04
02
00
f9
04
0d
00
fd
f5
04
fe
08
ff
08
ff
ff
f8
ff
fc
06
03
00
f3
fe
fa
05
07
fc
fd
ff
f9
fe
ff
05
00
ff
08
06
00
05
f7
02
fd
05
f6
fc
04
02
04
01
08
02
01
01
03
03
fe
f6
ff
ff
03
04
03
05
fa
00
00
0a
04
03
01
ff
02
02
fa
06
08
01
f1
04
01
06
fd
fe
02
02
00
01
01
fc
f8
fd
08
02
fa
fc
ff
fc
04
0a
ff
f9
ff
fc
ff
02
fd
fb
f7
03
ff
01
09
fe
02
fe
f1
f7
08
f9
07
01
ff
f9
00
f5
fb
03
03
00
fa
0c
f8
f3
02
fc
f1
fd
08
fb
00
f9
02
f2
fb
f6
f9
f5
05
05
03
03
fe
f7
01
fa
00
ff
fb
f7
f4
f3
0a
f9
fc
fd
00
04
fd
03
01
fe
01
f9
f8
fa
fd
01
01
03
01
fc
f5
f4
01
02
09
fc
01
ff
fd
fd
fa
02
08
07
ff
f3
01
fa
02
0a
fa
04
ff
01
fc
09
f7
00
fb
10
fc
fc
02
04
00
05
00
03
03
00
fc
05
02
fb
01
06
f7
ff
f4
02
0b
06
02
fd
00
fb
ff
00
03
fd
f5
03
ff
00
f5
01
05
fd
fe
00
fb
fd
f9
fa
03
01
fe
f9
fc
01
02
02
ff
fb
f7
fe
f6
02
03
00
ff
04
02
fe
00
fe
00
0a
00
02
04
02
f9
f9
f9
ff
00
06
00
04
02
f7
03
f7
fe
04
fa
fe
02
fc
07
05
03
fd
fe
01
04
fe
09
06
04
00
f5
f4
fd
fe
fd
01
0b
f9
f0
15
fb
17
03
05
ff
10
01
02
ff
fe
08
01
01
f3
04
fe
07
f8
fd
0c
08
fc
06
05
f7
fe
fd
06
01
fc
0a
fe
0b
fd
ff
01
07
00
03
f6
02
01
01
0a
fd
02
00
fb
fe
fa
ef
05
04
06
03
fe
03
01
03
00
06
fe
fd
ff
03
0d
f2
00
06
13
07
00
fa
17
fa
00
fd
08
03
ff
f8
02
fb
02
00
00
fa
fc
07
fa
0a
04
00
01
04
08
f1
ff
fd
03
ff
03
ff
fe
fe
fe
ff
f8
00
01
00
02
fb
00
02
01
02
ff
fb
f9
fe
ff
08
07
00
05
fc
fc
01
04
05
fb
ff
ff
0a
fe
f9
fe
06
ff
fb
08
fd
03
04
fd
01
01
fc
fb
09
ff
ff
f6
ff
ff
07
fd
05
fc
02
fb
f6
05
03
01
fc
01
f3
01
04
00
fb
10
fe
07
01
00
02
fd
ff
00
05
fd
fb
02
f8
00
08
fb
f6
0b
f8
10
00
04
00
f8
08
02
01
01
fc
f9
01
fa
01
f8
00
fb
03
01
fd
fe
02
00
f9
fd
0c
fc
fa
f4
fe
fd
f7
f3
06
ff
01
fb
05
00
02
0a
02
05
04
fa
ff
fe
03
00
f9
05
fc
fe
f9
ff
fc
fb
ff
fd
08
f9
02
fc
00
f5
ff
05
f6
04
01
03
fb
ff
fd
04
01
00
00
03
f9
00
fb
ff
ff
04
ff
f7
02
06
09
01
00
01
02
f7
f7
fe
fe
ff
07
02
10
00
f8
fe
f9
f7
00
01
00
07
03
fa
03
f9
fe
f7
02
f8
f9
0d
02
fc
01
00
00
fc
07
f8
fd
fd
01
fe
01
f9
03
fd
ff
f9
f7
fd
fb
fc
00
00
03
f5
fd
05
03
ff
04
00
fb
01
f9
fd
03
04
02
fb
06
f8
01
f5
02
02
ec
fa
fc
fb
fb
02
fe
02
03
03
10
f9
fe
03
01
f7
f8
04
f6
08
ff
03
fd
27
fd
08
04
07
fe
f7
07
02
02
fe
f8
07
ff
0a
02
ee
fe
06
02
fe
ff
f5
05
fa
07
03
fd
00
08
00
0a
08
07
04
ff
fa
06
f8
0e
fe
f0
05
05
08
ff
02
fc
04
ff
0c
eb
06
ff
04
00
02
00
f4
fc
fa
06
fb
fe
00
00
10
fc
fc
06
03
01
03
01
12
05
ff
f4
01
fd
fa
ff
05
fd
ff
ff
fe
fc
f4
03
03
f6
fd
00
00
02
ef
f3
01
08
01
01
05
ef
00
08
fe
fc
03
07
fc
f3
00
09
fc
00
fe
f8
03
f9
ff
0e
0f
06
08
02
f8
fe
fc
f9
03
04
01
06
00
03
02
f9
01
0d
05
01
00
fb
03
03
07
fe
08
01
06
04
00
fd
fd
00
fe
f8
fa
f8
00
fe
f4
fd
f9
ff
02
04
00
0e
ff
00
f9
00
08
02
06
f5
f6
0f
01
02
ff
f9
03
01
fa
02
03
03
f9
03
04
00
fb
fd
05
06
f8
05
fc
01
fc
02
02
fe
fa
fa
fe
fe
fc
f9
00
fb
0a
f9
fa
f8
02
04
04
05
02
04
09
ff
01
ff
fa
00
fd
03
03
03
fb
ff
09
00
ff
fc
05
ff
05
f9
fc
01
f9
04
ff
ff
ff
00
04
00
01
ff
05
09
08
00
04
01
0a
0c
fe
f8
02
09
ff
03
f5
fb
03
f7
fb
04
04
03
fd
01
03
04
06
0a
f6
fa
09
00
06
f9
01
fc
03
08
fe
fb
fd
fb
06
fe
05
0c
01
ff
01
06
00
f6
00
fc
fa
05
fe
f2
f0
0a
02
03
04
fc
fd
02
fb
fd
0c
04
fe
fb
f6
f9
03
fc
01
fe
ff
0a
f5
fd
fb
fe
00
03
04
06
05
fe
fa
fd
fe
04
fa
06
00
f8
f8
01
f4
fe
ff
01
05
f7
f9
01
11
06
fb
fd
fd
05
03
f5
02
fe
00
fc
fa
02
f2
fb
01
01
fc
f2
04
fa
ed
02
03
02
fe
01
ff
fd
02
05
fc
fc
f6
04
f8
fb
fc
03
02
fc
02
00
fa
ff
02
f8
08
fe
00
05
fd
02
06
fb
f4
00
07
ff
f4
06
02
ff
02
08
09
ff
07
fb
ff
f6
f5
02
fe
fc
fd
fa
05
fd
04
fa
fa
fd
fd
08
fa
fd
fb
05
06
fe
f8
04
07
03
02
fa
f7
f7
f9
fd
02
02
07
00
f9
0a
f9
f9
00
fc
fa
fd
fe
02
00
fb
04
fd
00
f7
00
08
fc
f8
f9
00
07
05
fa
03
04
fb
03
fd
03
ff
02
02
f7
00
f0
0d
fd
fe
f6
f7
06
fd
03
fa
01
04
fe
07
09
fc
fe
05
fe
f9
fd
f9
f5
fe
f7
fb
0d
04
fd
00
f9
f7
fa
04
06
ff
fb
04
01
00
fa
fd
f9
fe
06
05
01
0d
01
00
ef
06
fc
02
fc
fb
00
fe
0c
fc
07
01
f9
fe
fd
fb
fd
fd
05
03
03
fd
0c
ff
fa
08
f7
fe
ff
fc
05
fb
05
05
07
02
fc
fd
18
ff
00
00
f9
02
00
04
fe
f6
f7
fd
06
f3
f8
01
00
05
04
0c
ff
02
fd
04
02
01
eb
f5
04
03
02
02
0c
fe
06
ff
fa
ff
ff
fc
f1
fc
fe
fa
0b
06
02
02
f7
01
11
03
f9
f8
fb
00
fb
04
04
ff
f8
03
fb
01
fe
fc
01
02
fe
f8
02
ff
ff
f1
fe
01
04
fe
0e
07
00
fd
f9
06
05
f9
fe
0c
01
09
ff
01
fd
01
08
03
f7
03
fd
06
01
fc
07
fd
0c
fc
fc
fe
fe
00
01
f9
fd
fa
00
00
fc
01
f8
01
fc
0a
02
00
00
fe
fd
01
fa
00
02
05
03
08
02
fe
01
01
02
0b
ff
fb
fc
04
09
fe
04
05
fb
03
fc
00
fb
fb
00
f7
03
00
ff
fd
04
10
fb
fc
fc
0c
08
06
01
0f
09
00
07
fc
04
fd
ec
06
02
05
0d
03
00
fa
ff
fc
04
08
11
03
04
fd
ff
03
00
03
03
fe
00
fc
0d
f8
f8
f8
f9
0e
0c
03
f5
01
05
07
08
01
fe
fd
f3
00
f6
f8
05
06
fe
f9
03
04
fb
fe
01
00
03
02
fd
fe
00
03
01
07
09
03
f5
fc
f5
03
09
ff
00
ff
06
fe
04
01
fc
07
f6
ff
02
08
00
fc
04
04
07
01
fd
fb
ff
f9
fe
01
11
fd
01
05
fb
08
09
fa
02
f3
fb
01
10
0c
fa
ff
02
01
ff
fa
07
fd
fa
03
f7
f7
00
00
fa
fe
f9
ff
06
0a
00
fe
05
02
02
04
fd
fa
fb
02
fe
07
fb
09
f8
02
05
ff
08
fe
0c
fb
01
06
00
09
f9
fe
f6
03
0a
01
ff
fe
ff
f5
04
fd
fd
fd
fd
00
18
09
ff
02
07
fe
04
0b
00
fd
ff
0a
fc
00
02
10
fe
05
02
02
0c
ff
fd
f9
02
f6
15
03
fc
fc
fd
fb
f9
03
ff
07
f6
fd
ff
01
f7
05
f5
f8
00
0a
02
ff
fa
05
f5
07
02
0b
f9
01
01
f8
04
01
05
fb
f6
fa
01
07
03
ff
01
fd
00
fb
fc
05
fc
01
ff
ff
00
00
03
ff
ff
02
fb
00
08
fe
fb
0a
04
05
05
01
f8
fe
fe
fa
fe
00
02
f4
ff
ff
00
f7
01
04
fe
f8
03
fe
fe
fe
03
ff
10
0b
00
05
03
05
01
07
00
01
fa
f4
02
11
01
fc
f8
fb
f9
02
04
f8
ff
fd
fe
fb
f8
fa
fb
05
ff
ff
fe
00
fd
01
fd
04
03
f9
ff
fc
fd
01
01
00
01
fb
00
ff
01
fa
02
06
0b
fe
02
fd
07
fe
00
ff
fd
02
06
05
f9
ff
ff
ff
08
fe
f9
16
02
fb
fa
03
11
00
04
ed
fd
fa
ff
00
fd
01
f8
f7
02
0d
fd
05
fb
02
07
06
05
f9
00
fc
f5
01
fd
fb
f8
05
fd
f3
f5
fc
fd
fb
01
fe
fe
ef
07
fe
00
fa
04
04
02
ff
0a
08
00
00
ff
fe
02
fe
02
06
f7
fd
06
fa
07
01
fc
fe
ff
fe
f6
f4
fb
02
fb
fc
fc
f7
0a
08
ff
f9
f9
fd
00
ff
04
f9
fc
fd
09
01
fe
fd
f7
fa
05
fd
fc
f6
f1
fa
fe
fe
04
f9
04
05
04
fd
06
0d
f7
00
03
00
02
f3
03
f6
01
00
01
04
00
04
fe
fc
ff
09
ff
fc
fb
03
ff
01
02
ff
0a
fb
f5
fd
fe
04
ff
ff
01
fe
ff
fa
03
02
fd
04
ff
fc
fd
fe
fb
ff
00
fd
01
fc
fb
fe
fb
fb
fc
f8
03
04
fa
f6
f7
fe
06
03
02
fe
fc
f7
f4
fb
fa
01
03
fb
fb
0a
05
fc
05
00
fb
01
0a
0b
f5
f5
f4
fd
fe
f9
f8
02
f5
fb
fb
08
fe
00
02
f6
03
fc
01
fc
f2
f5
ff
fc
10
0a
e4
ff
e4
05
fd
fa
0a
ff
03
fe
00
03
03
00
ff
f0
ff
fe
03
01
03
01
fd
01
fe
f3
08
ff
ff
07
09
fd
06
ff
06
fe
00
f6
01
08
0e
01
00
fb
01
02
f7
ff
fe
ff
04
05
00
09
f4
fb
fd
fe
0b
05
01
02
02
f2
fe
00
fc
f6
dd
fc
00
f9
07
fd
fe
04
fa
03
02
fc
fa
fd
fe
00
02
02
fb
f0
00
fc
fe
e5
f9
fd
fb
fd
0a
ff
07
ff
fe
ff
01
ff
00
ed
fe
fe
f2
f9
eb
fa
fc
03
ff
fc
16
00
00
fd
ff
ff
f8
fa
f7
08
0e
fc
06
f3
04
fe
f4
fb
03
fb
fb
f6
00
fd
03
fd
ff
ff
05
02
04
07
f9
f3
fe
00
05
fd
03
08
f7
0e
ff
04
0f
fe
fe
06
fe
f2
fc
05
f9
04
04
f8
f7
fc
04
00
ff
01
02
ef
10
fa
0e
fc
04
fa
03
ff
01
03
fc
00
f7
ff
fa
f7
ed
03
fd
fe
08
f8
02
0f
f5
05
fb
03
fe
f8
03
0e
ec
fa
fc
fa
fb
04
01
02
02
fd
0a
02
0a
06
fc
05
07
fe
f5
fa
07
fb
fe
fa
f8
fb
05
05
fb
ff
01
08
02
fa
13
fc
fe
f6
04
ed
08
06
08
fe
fd
02
f9
01
fa
ff
01
f9
01
08
fe
03
fa
03
f7
fa
fe
fd
05
02
f7
f2
fe
f7
fd
f8
03
f8
02
07
fb
02
01
fa
00
f8
ff
fe
00
ff
02
fb
f9
fb
03
0e
17
02
fe
01
00
00
fd
00
02
02
04
fe
fb
f8
01
fc
03
0b
fd
00
ff
f4
fc
fe
04
fa
fc
ff
fd
03
fb
01
f4
ff
fb
f9
03
05
fd
ff
fc
fa
00
ff
05
0a
00
f4
06
00
f5
05
f4
fc
06
fd
fd
05
fb
fc
fc
fa
f5
02
03
f7
fc
09
00
f6
12
fd
15
01
04
0e
06
01
ff
fe
07
01
fc
fa
f8
fd
fd
fd
ec
02
02
05
fd
04
03
fd
03
f6
02
01
00
ff
f8
fd
03
01
ff
0a
0e
04
0b
07
0c
06
0c
05
05
fc
f8
00
fc
fc
0b
02
fc
02
fd
01
fe
fa
fd
0c
f7
00
fc
ff
10
f3
f8
02
0f
03
ff
fd
10
fb
01
fe
fb
0a
fb
fe
09
02
02
fe
03
00
fd
ff
fc
06
03
ff
06
04
ed
f9
fe
fb
03
f7
03
fe
fe
fc
f5
f8
0d
f7
fd
07
fb
00
06
fd
f7
fd
03
fd
f6
f6
fd
00
00
ff
f9
fe
00
ff
00
04
06
0b
02
04
ff
04
03
00
ff
ff
01
fc
fe
02
04
06
00
05
fb
04
ff
06
06
03
07
f6
fc
fd
01
fc
f1
fd
08
fe
04
fb
01
fc
07
02
f7
03
02
ff
f4
ed
fd
16
00
00
03
04
04
06
fe
18
00
02
09
fe
08
fe
00
fc
02
05
fa
05
00
09
fd
ff
02
fd
06
f6
01
04
09
ff
08
03
00
09
00
0d
ff
0c
09
ff
02
0d
fe
fe
09
fe
01
fd
00
fe
fd
fc
fb
00
f7
03
fa
01
08
00
fb
05
f3
fd
01
fe
02
0a
04
08
02
01
01
f6
00
02
f9
03
fd
ff
f7
03
f8
03
05
fe
04
f4
fb
fb
f6
0a
05
04
03
fe
fb
0f
09
fe
f7
fa
05
fe
fa
fd
fa
f6
06
04
02
f7
f9
04
ff
fc
ff
07
fe
fa
00
fd
fa
fd
03
06
06
06
04
08
ff
ff
11
f8
08
01
0d
fb
05
ff
fe
fc
02
03
03
00
0b
fb
fa
00
fb
fc
fe
f8
ff
fe
fc
02
00
00
fd
f6
fe
03
f3
00
fd
03
f9
00
fd
f9
06
fe
07
01
fd
05
05
f1
0c
03
00
08
07
03
0e
13
fd
00
05
00
fd
04
04
00
0d
02
fd
ff
0f
04
0c
fb
f7
02
06
04
06
fc
01
06
03
02
0e
04
1b
01
02
ff
01
ff
01
09
0e
01
05
01
04
01
03
fb
05
04
0d
08
fd
ff
ff
fc
f1
03
07
03
fa
fc
0a
ff
fb
03
04
0e
01
05
02
ff
02
06
07
01
05
fc
04
0c
fa
01
01
01
0c
03
02
03
11
06
04
0a
0e
fd
02
04
06
07
f7
02
f7
fb
f8
00
0a
fa
00
fe
02
f9
10
09
06
fe
fd
07
fb
08
0c
fd
fe
01
05
01
09
02
fc
00
00
08
f9
fe
07
fa
02
fb
fd
04
06
05
02
0e
02
ff
02
09
01
fd
fa
03
03
fd
04
fa
fe
07
ff
fa
04
02
09
0a
10
01
05
02
f4
0a
fc
04
03
03
00
ff
fe
07
04
03
06
0c
10
fc
0b
ff
fe
ff
fe
f9
07
04
04
03
09
ff
f5
fc
00
f6
02
fe
02
fa
04
fe
f8
0c
00
02
f8
08
f5
02
04
00
fa
fa
07
0b
ff
fb
03
f8
05
fd
f3
fb
0c
02
05
03
fa
fb
fc
f8
00
f9
fe
05
f4
fe
07
00
06
f6
03
fd
04
f0
03
fe
fe
fb
06
00
03
fd
fe
01
fa
f9
05
02
08
00
00
fb
00
03
fb
f6
fc
f5
04
04
06
fa
06
fd
ff
fe
0a
00
fc
fc
f5
07
02
0b
03
fb
0f
f6
03
08
05
fd
f9
ff
0a
fe
04
0a
f4
fb
f6
00
0d
ff
fc
10
fb
02
ff
02
fe
fa
f9
ff
07
05
01
f9
02
fc
fb
f9
fc
02
04
fc
04
01
0f
00
05
02
fe
fc
0a
f5
06
01
fd
ff
fc
fa
f7
01
fc
03
06
fd
fc
fc
fc
01
06
03
ff
fb
06
02
fb
01
0b
02
fd
f8
ff
f7
07
fd
f9
07
03
01
02
02
00
11
08
01
fd
fb
ff
02
04
ff
00
fd
05
01
01
01
f3
02
02
fa
05
06
fd
f5
03
04
00
ff
03
05
02
00
04
02
02
06
05
fe
04
f9
f7
04
13
fc
00
fb
fd
02
fa
f5
ff
08
08
ff
ff
0f
fb
03
fc
02
08
f6
fb
04
fd
06
fd
fb
11
0a
fc
02
06
02
04
fd
fa
fb
00
08
ff
05
0b
02
04
03
00
0a
fe
f4
08
fa
03
fe
0e
03
fd
fd
08
05
01
01
00
ff
ff
fb
01
06
fe
04
03
ff
02
06
ff
0b
03
ff
fd
ff
0a
ff
03
03
07
0a
07
ff
ff
fe
01
06
fa
0f
06
f1
02
f5
06
f9
0d
06
07
fa
f9
f9
05
0a
fa
06
02
fe
02
00
ff
01
03
02
00
02
05
f9
fb
05
fd
03
fa
01
00
01
02
02
fe
02
00
08
09
01
fe
ff
04
05
fe
ff
fb
01
f6
f8
01
07
fc
01
02
fa
f7
03
00
fb
fd
01
01
f9
fe
01
05
fc
0d
00
fb
02
f9
01
fe
fe
fe
01
00
00
04
fe
02
03
ed
fb
06
fa
03
f7
04
f5
02
00
ec
05
fa
fa
fd
fd
ff
fb
fb
0a
01
03
fa
f9
05
f2
0e
07
02
fe
ff
00
04
02
fc
02
0a
07
ff
fd
05
fe
fe
01
00
02
12
ff
02
f9
04
01
06
0b
ff
04
01
04
fc
f6
fc
fe
04
00
00
f6
fc
08
f3
06
fd
01
05
fc
f8
fa
ff
fc
03
ff
fd
05
02
fc
00
04
f7
fc
00
01
01
0a
01
ff
00
ff
07
fa
03
07
f9
fc
fb
06
02
ff
fa
ff
fb
00
00
02
ff
fd
fe
fe
fb
09
ff
ff
fd
fb
fb
05
04
fc
f8
02
ff
00
f5
04
0a
03
02
fc
04
02
ff
00
f9
00
fb
ff
01
0b
05
fd
02
ff
00
04
fe
fb
f9
fd
09
f8
02
02
fa
05
fd
ff
fe
00
f7
fe
f8
03
01
02
ff
04
ff
fa
fa
03
06
06
0a
01
ff
fd
fe
ff
fc
10
f6
00
fc
0a
13
fb
01
ff
01
03
f5
fb
fd
01
00
f5
fa
01
fb
ff
fe
f8
fb
ff
fd
ee
02
04
fd
04
04
05
fe
fb
f7
03
0e
01
0b
fe
00
ff
f6
f8
f2
00
fd
09
f5
00
01
02
00
00
fc
fc
04
01
fd
fb
ff
fb
f8
fa
fa
fd
fd
03
fd
ff
f8
02
ff
07
fa
fb
04
fd
ff
fc
03
05
03
ff
f8
04
06
03
00
0f
f0
0a
04
00
05
02
fe
fd
f7
07
01
ff
06
02
f8
00
00
02
ff
f3
ff
fd
01
fb
04
02
01
00
f9
ff
fb
03
02
00
f9
fd
09
fb
00
08
00
04
fb
fb
00
f6
fe
ff
02
fe
02
ff
08
fe
fb
04
02
06
07
fa
fd
03
fd
04
05
00
ff
05
01
fc
03
fc
ff
03
04
fe
fc
09
00
fa
f5
03
0b
ff
fb
04
03
14
fe
fd
04
df
fa
03
07
fd
ff
f6
03
ff
de
07
02
00
01
fb
1f
fa
00
ff
02
ed
05
07
f4
ff
ee
fe
fb
04
11
04
07
04
fc
08
00
fc
ee
06
fc
e8
f4
09
fd
fd
02
05
07
05
05
01
05
08
04
f9
03
05
03
04
04
04
1d
ff
01
08
ff
01
fc
07
fc
ff
f5
0a
05
01
05
05
fd
03
0a
ef
ff
0f
05
fd
fd
f8
02
03
01
08
fa
fb
ff
05
03
ff
00
07
f9
ef
08
04
fa
fa
e6
0e
00
06
f8
02
ff
06
04
f9
fd
02
fd
f8
fd
03
06
05
f4
f7
fb
04
08
00
01
10
0a
fc
03
fa
03
05
f3
ff
fa
ff
ff
ff
00
fd
fb
01
22
0e
05
01
ff
fb
04
01
03
00
03
04
fd
0e
ff
01
ff
01
fc
f6
07
fb
fe
02
07
09
06
00
fb
09
ff
fb
fe
02
f9
08
f3
ff
0d
fb
fd
f4
ff
00
fd
fb
02
03
ff
fa
04
00
f5
02
f8
fb
fd
fd
f8
f8
eb
fc
03
01
03
fa
01
fa
02
fc
f8
0b
fe
fd
fc
fb
07
fe
fb
06
fe
f9
fa
f5
01
f7
0e
f6
f5
fe
f5
02
fe
ff
02
00
02
ff
fa
fe
fb
f8
07
fb
09
09
fe
09
ff
ff
02
fd
fd
fb
03
f8
03
ff
fa
08
fa
04
05
fb
fc
fc
07
02
f7
06
02
04
03
ff
fb
00
ff
01
fa
fd
f9
fc
fb
00
fc
fb
f7
fd
03
02
0e
00
ff
fc
05
05
05
fd
fb
01
05
00
07
07
ff
ff
fe
05
fd
01
01
05
fe
01
04
e9
0d
01
00
fe
fb
01
02
f9
06
06
fa
fd
00
fd
01
03
03
ff
01
fc
01
0a
00
fc
01
fe
fe
fb
03
06
08
00
fe
01
06
fe
fb
00
ff
f9
0b
02
02
fc
08
05
fd
f9
fd
04
0c
fe
f3
00
00
00
f7
01
fd
00
fb
f2
fa
0a
fc
f3
ff
ff
fd
fd
fd
01
10
f9
00
00
06
05
fc
03
fe
05
fb
03
fa
f1
07
06
f3
ff
02
07
fe
01
03
04
fe
0a
07
07
03
f8
f6
f5
01
03
ff
01
01
ff
ed
04
0d
fe
03
0a
fe
f8
fd
ff
04
00
07
02
03
0d
f9
02
f6
fd
02
02
ff
f8
f8
04
fe
fe
03
04
fe
04
02
fa
09
03
00
f8
fe
fd
f6
00
07
04
fe
fc
fa
05
fd
01
00
01
fb
fe
fa
fe
e9
04
01
03
fb
fb
fc
fc
fe
ff
fc
00
ec
ef
04
08
fb
0b
03
f9
f9
00
fc
02
ff
04
01
f7
04
05
03
fa
fe
fb
f8
f9
fa
04
fc
06
00
08
0d
f6
fe
fd
03
f4
00
ff
fc
f7
fa
f7
fc
fe
07
f8
06
f6
04
f3
f8
01
08
fd
f2
05
fc
00
fb
00
01
ee
0c
04
fb
0b
08
f8
fa
fd
01
fe
f7
fa
02
f7
fc
05
fb
02
03
fd
02
00
f9
fc
fd
ff
fc
05
f8
f4
f5
fe
fb
ff
ff
fd
fa
01
00
00
fc
01
00
00
05
03
fe
01
00
fa
fc
05
ff
fe
07
fa
f9
00
fe
02
03
f9
03
04
03
fc
02
03
08
fe
03
02
fa
fa
fa
ff
00
06
03
fd
01
03
fe
f7
fa
fb
fb
05
f6
0c
fd
02
fd
fa
f9
03
fb
04
01
01
01
fa
06
01
fd
00
ff
fc
f4
01
ff
02
00
fc
03
fe
fe
00
00
00
ff
02
fb
ff
fd
fe
06
01
ff
fb
04
00
fd
ff
03
fe
f9
fd
fe
00
fd
fd
00
09
fb
fd
01
fc
fc
fe
fc
f9
00
fc
ff
f6
fc
04
03
05
fd
f8
00
fc
ff
05
fe
00
ff
05
01
fd
02
fe
fb
02
06
00
fe
fb
04
ff
fc
f7
05
08
fd
fc
fc
01
fe
08
06
04
10
01
ef
00
fd
fc
fb
00
00
00
fd
ef
f5
fc
fd
fa
04
02
fe
00
f8
fa
14
01
fd
07
ef
ee
06
01
ff
06
fc
fc
fc
04
f8
00
fb
ff
0e
fb
0a
04
f9
05
f7
00
f9
01
f7
f4
fb
07
f6
fa
fb
fc
fa
fd
f8
f9
03
fa
fc
07
03
02
fd
04
02
f6
04
fd
01
f9
ff
fc
f9
05
04
f8
fc
ff
06
08
fe
02
f8
f9
06
ff
fb
07
fb
03
ff
ff
00
ff
fe
04
fb
f7
fd
04
04
fb
f8
02
f9
f1
0c
01
03
05
fb
01
fa
fa
08
03
fd
f8
fe
05
08
f9
fd
fb
01
0c
03
fd
fd
07
f9
f5
01
01
fc
f7
f9
08
f7
02
02
04
f7
fb
00
fa
fc
fe
02
03
fc
01
0d
03
09
fd
09
fe
02
fc
02
00
fd
02
f9
03
02
01
03
01
00
f2
ff
0a
fc
fc
fd
08
04
fc
fa
00
01
12
02
05
f9
06
f3
ff
03
fa
00
f1
fe
03
08
f9
fa
fd
04
03
fa
06
02
08
07
fa
0d
fd
04
fe
e8
10
ff
03
fa
02
fb
fc
ff
f8
f6
f8
00
00
fa
03
07
0b
03
ff
0b
08
03
03
fb
f4
f7
01
09
01
02
01
f6
04
09
12
0c
01
0e
0d
fc
fd
02
fc
09
f8
05
fe
ff
04
02
02
07
ff
01
06
fe
fe
f8
02
09
03
08
02
07
fc
04
fb
0e
05
fd
05
02
02
0e
03
fd
fe
fd
03
fc
f6
ff
f9
06
05
0c
03
04
01
ea
fa
00
fc
0a
f9
fe
04
ff
0a
0c
06
05
ff
06
0a
fa
fe
03
fb
fb
01
05
fe
fb
07
f8
05
fd
05
fb
06
fc
ff
f8
04
06
01
00
f6
fc
17
04
04
fd
05
fc
0a
04
ff
05
01
f4
fe
f7
08
00
01
06
fc
02
f9
09
00
fe
02
01
06
07
02
01
fa
fd
fe
0d
02
fa
fd
fb
01
f9
f6
f3
f0
fc
fb
fd
fd
fb
fc
05
01
02
06
fc
fa
f2
02
0e
fe
ff
0d
eb
01
00
fc
00
fd
fa
01
f9
fd
01
04
fd
06
fc
f3
f7
05
03
fb
ff
00
f7
02
fc
f6
0d
09
f8
fb
fe
fa
fc
fe
fb
0c
0d
07
04
fb
fd
07
fc
01
fc
f8
0f
fd
04
fe
01
fb
04
fb
fd
02
04
01
ff
f6
dc
01
02
02
f9
fe
fb
fc
f4
f7
ff
fc
00
f9
05
fe
02
fa
07
fe
06
00
0a
05
06
0a
01
02
fb
02
fd
06
00
f8
fe
05
03
f6
06
05
ff
fe
f8
fd
fd
fb
fb
f9
fb
f6
fc
00
f9
fd
f8
03
04
00
03
fd
f8
04
05
01
ff
00
fa
04
00
09
fc
00
09
07
05
00
03
07
0b
ff
fe
02
00
04
fe
02
f9
02
05
05
04
f3
00
05
f5
01
fb
04
03
03
fc
00
05
0c
06
06
f6
f5
00
04
f7
0d
01
01
fa
01
ff
02
03
07
00
fa
fe
0c
f9
fb
fb
09
07
01
00
06
f1
09
05
06
03
fd
02
00
03
01
f2
01
f9
02
07
fb
00
08
fc
0a
05
fa
fa
fe
03
ff
fb
fc
0c
07
02
04
00
03
fe
06
fe
02
08
07
05
00
07
03
06
09
04
fe
00
01
03
ff
01
05
03
08
fb
0a
04
07
f9
04
00
02
0b
03
02
fd
09
f8
02
07
00
05
06
fd
ff
fe
fd
03
02
f9
fe
03
fd
fe
02
fc
fd
03
06
00
02
fe
ff
fe
01
05
03
f2
02
00
fb
09
04
07
fc
fa
fc
00
03
fe
f7
03
fd
fa
05
0a
fd
fd
ff
00
05
01
fb
01
01
fa
05
05
ff
06
03
07
00
03
ff
04
ff
ff
02
03
fb
fe
00
07
fe
01
03
fe
fa
fa
fb
00
00
06
02
06
fe
f8
ff
02
04
eb
fc
00
02
00
00
fe
fe
f0
fb
ee
fd
00
fd
11
fe
f7
f8
fc
02
00
02
f6
11
02
f3
05
00
06
08
03
02
ff
ff
fe
fb
03
02
01
fe
03
f9
02
f4
fa
04
fd
fc
01
06
05
02
f6
06
17
f1
fa
f9
fd
fb
f7
02
ff
fa
fe
fa
ff
00
02
fe
fb
02
ff
fc
f8
f4
fe
01
fd
fa
01
03
f6
00
fd
02
00
fa
06
0a
f9
fd
fd
fc
fd
fb
02
ff
06
f9
fc
03
04
0c
fc
06
fc
ff
01
06
fe
03
fe
fb
ff
fa
02
fd
00
08
f1
04
05
fa
00
00
ff
fe
02
fe
fe
fe
09
01
fc
02
fd
08
fe
04
08
fc
00
01
f4
ef
03
fa
ff
ff
fb
03
fa
fe
fc
00
04
02
01
06
f4
f1
ff
f5
ff
04
01
02
03
ff
02
ff
fc
06
f4
fb
01
f1
fc
03
09
fe
03
00
01
ef
f6
ef
f9
f8
f9
06
fc
f2
06
f2
ff
fa
fe
f8
06
fe
18
fd
01
01
f5
08
0a
fd
01
06
f8
08
08
f0
08
f5
01
02
fa
08
fa
04
02
0d
ff
fb
fa
ed
fc
04
00
11
03
04
06
f9
00
09
f9
ff
fe
09
06
fa
fb
fc
f6
fe
fd
f5
04
10
fd
fd
fb
f4
04
f6
00
fe
ff
fb
fe
ff
15
03
04
06
fa
02
03
07
f7
fe
fb
03
04
05
03
fd
06
02
fa
f6
06
00
00
f8
00
fb
07
03
02
ec
ff
fd
03
05
05
fe
0e
07
00
01
f8
02
fd
fb
fc
f3
0a
02
fe
01
05
fd
08
ff
f1
f9
07
ff
fa
01
07
07
00
f6
00
fc
fa
f9
01
ff
09
09
02
f9
02
02
00
0b
fc
07
00
fa
06
02
01
fe
fd
09
f9
fe
f9
05
06
01
fa
f9
fc
02
fa
01
03
fc
fb
03
00
08
08
fd
ff
07
03
04
07
01
0a
06
14
01
fc
f6
f6
fc
04
eb
05
fb
f9
fa
0a
fd
f7
fb
f5
f7
fa
f8
fb
00
fc
f6
06
ff
00
f8
fc
ff
03
10
04
00
01
ff
03
fd
fc
f8
01
02
05
fe
fb
ff
fb
fa
f9
00
fd
00
02
fb
f4
02
f7
02
fe
f8
06
f8
06
01
06
fe
fd
fc
01
02
fd
f8
fe
01
fd
01
f7
ff
02
01
02
ff
f7
fc
fa
01
f6
03
ff
00
03
0b
fc
fb
ff
04
fe
fb
f3
fb
f8
fc
f7
06
01
f6
fb
fe
f9
fe
f6
03
00
f8
fa
05
00
f7
04
fa
ff
f8
03
fd
fd
fe
03
ff
fd
02
0c
01
fe
01
04
fd
fe
fe
14
f7
f9
fe
03
00
fa
01
01
0a
08
ff
02
fe
ff
fc
02
01
00
f9
02
00
09
00
fb
04
fc
05
05
00
04
03
01
02
08
07
fc
07
04
03
0a
fe
04
fd
f5
fc
fc
03
fe
f0
02
f7
01
00
fb
fc
03
fd
03
fc
05
03
01
00
0a
03
02
fa
fb
00
07
04
fa
fd
01
04
00
04
02
1c
fd
f5
00
02
0b
ff
fb
02
fe
04
00
f7
ff
08
04
f3
0b
01
fb
03
0a
13
03
f9
f9
0c
f9
06
02
fc
0d
f8
fc
07
09
0b
fe
fe
07
fb
fe
fc
f4
07
08
08
00
0d
fc
01
00
e5
fb
03
fb
ff
fe
ff
fe
05
04
f8
fd
ff
08
08
04
fc
fd
1a
fa
fc
fc
1d
ff
ff
05
02
00
02
ff
fd
f9
ff
fd
04
fd
fa
01
06
ff
05
03
f0
01
0a
f2
02
fa
0d
04
07
08
fc
01
00
06
fd
15
03
03
fe
04
09
03
06
02
ff
02
03
fb
04
fe
fc
fb
07
08
0a
08
02
fc
f9
ff
02
14
f9
06
ed
f1
02
04
fe
0a
03
00
06
02
fa
fc
00
06
fd
06
fe
05
00
06
0e
00
09
07
05
f9
fe
05
f3
f9
0d
fb
fa
0a
07
07
fd
00
07
03
f5
00
09
ff
ff
f2
00
fe
fc
f1
ff
01
f9
ff
f1
05
08
01
fb
fa
0e
f7
0c
05
03
02
03
01
f2
ff
09
fe
ed
00
0b
0a
fa
ff
02
03
fb
07
01
03
01
f2
fd
fb
ff
01
ff
00
fc
00
03
fd
0a
fe
00
02
fe
fd
fb
f7
fb
f8
09
fd
f2
ff
fe
03
fd
fe
ff
04
01
f9
fb
fe
fc
02
00
fe
f7
fd
03
fd
05
fe
fe
f6
f5
f9
ff
00
01
f7
02
f7
0a
06
fd
05
fc
fe
02
fe
00
00
ee
04
ff
04
ff
fe
fb
04
fe
01
fe
fd
05
f0
00
03
01
08
fd
00
ff
07
f8
fc
fd
05
05
05
f8
00
0a
fa
ff
fe
f8
ff
07
01
fb
f4
0c
03
0f
f4
01
ff
fa
ff
f5
03
fc
fe
00
05
f9
02
07
fb
0a
f9
00
fa
fb
fc
ff
08
02
04
ff
05
ff
03
fb
f3
04
f8
f4
ff
fb
fe
04
fc
fd
12
03
07
fe
0e
fc
00
0b
08
02
fc
0b
fc
05
f4
e9
02
fc
02
0a
0b
07
04
09
05
fe
fb
03
ff
0c
00
11
fd
f4
04
f6
fb
05
06
02
04
08
fc
06
16
07
09
08
03
f9
02
fb
fd
02
fa
f1
02
e3
f3
f9
fe
f6
03
03
ff
05
fe
fe
06
06
fa
00
f9
00
03
0c
01
04
fc
f6
f4
08
f9
f0
06
00
fa
f2
06
04
0a
03
06
16
03
0a
f7
ff
07
07
f7
01
ff
00
06
fe
0a
ff
fb
0f
f9
01
04
f8
0e
fc
f1
00
0a
ff
07
f3
00
07
04
02
f6
05
fc
fe
ff
ff
ff
09
01
f0
08
fe
05
08
07
0b
f2
fe
06
02
ff
fd
03
fa
fc
f7
09
fc
05
07
04
09
03
00
02
f9
02
00
f6
ff
fe
f7
fd
00
07
fd
fe
fa
fc
f9
f8
f0
fb
00
03
05
04
03
ff
08
f6
11
04
fc
fa
fa
fc
ff
02
02
f3
ff
fc
01
f3
00
04
0a
09
f9
f7
00
02
03
02
00
f0
f9
f9
02
ff
fd
05
fa
06
00
fc
00
fd
09
fa
14
08
fa
0a
04
f7
f4
ff
03
f9
01
01
04
00
fa
03
06
00
fa
11
03
02
10
02
03
00
0c
ff
f8
ed
01
04
fd
ff
fd
fe
02
f1
01
04
00
04
07
03
00
06
f7
08
0b
f6
ff
04
03
05
fd
04
04
03
19
00
fd
fd
07
fd
fd
ff
fa
05
f7
f7
03
01
fe
05
f3
fa
fd
05
02
f7
04
05
00
05
05
f7
fd
00
fa
fb
09
fd
02
f7
fe
00
fd
03
fb
ed
f5
06
fb
f8
fc
02
fa
04
05
01
fd
04
02
05
05
06
02
01
03
03
07
03
00
02
03
fe
06
f8
f7
09
00
f6
06
00
05
f5
fa
ff
f8
fd
09
04
fe
fd
08
01
ff
17
fd
fe
0a
07
ea
04
f1
ea
f9
17
04
07
fd
fd
fb
fd
00
fd
fc
01
0a
02
fd
f5
fe
fe
00
06
0a
0c
02
0b
fe
02
08
02
00
01
f2
03
ff
f9
08
01
f2
00
fe
04
04
ff
fd
f7
01
fe
e3
04
03
03
f9
09
05
00
fd
fc
f5
00
fa
ff
f7
07
ff
02
00
02
fe
fe
04
02
fd
05
f5
03
fd
f9
fd
01
fb
02
0f
02
05
f4
fe
fb
0d
fa
09
f2
ff
fd
f9
04
e3
01
fe
f4
fc
05
0a
f3
f3
04
f7
f1
06
05
fd
01
fb
f7
05
f2
fe
05
ff
07
01
09
0b
02
f2
f5
02
02
06
fd
00
fc
01
11
f0
03
f5
02
f0
fb
01
09
fd
0b
ff
f8
fb
fb
0d
fc
02
01
0b
fa
fc
0f
f8
f4
06
05
04
03
08
fc
f3
09
fe
00
ff
0c
03
f9
ff
fb
f8
01
fb
fe
0b
07
ef
02
f6
fa
0c
f9
04
fd
08
f9
08
ff
02
f8
f7
03
ff
fc
ff
01
fd
06
00
f7
01
01
00
ff
fe
fa
f1
04
fc
0f
fa
fe
fb
03
f3
fe
02
ff
ee
f6
02
fc
00
ff
ff
ff
07
fa
01
fa
f5
ff
fc
fc
0c
01
fb
fe
fa
03
f1
f6
06
02
fc
09
04
fc
ff
fa
04
ff
01
fc
fc
09
fa
fb
02
ff
02
fd
fe
fc
00
fe
06
04
fd
07
09
fb
ff
01
0c
fd
fc
03
fa
f3
fb
fd
fb
f9
0b
03
fe
09
04
fc
f9
07
fc
fe
02
fd
f9
02
02
ff
05
f8
00
f8
03
03
01
ff
f7
fa
fc
fe
fe
01
fe
01
02
04
03
fe
fc
fc
fc
fe
05
03
f6
fd
fe
02
02
00
f3
05
fc
01
04
04
fe
02
fd
00
ff
f7
fc
fb
f8
0d
fa
fb
04
02
fc
ff
fd
fd
00
04
f9
0a
fd
fe
08
03
06
03
fc
01
fc
fa
fb
02
02
03
f3
fc
f8
fd
00
f8
f6
f8
f5
e4
00
01
06
03
fa
f9
fc
fa
09
0c
ff
fd
11
f7
06
fc
ff
ee
ed
f4
f2
f7
ff
fe
08
02
fd
0c
f2
fb
f0
fd
07
fc
05
ff
00
f8
04
fc
00
02
06
04
ff
fd
fd
f2
ff
f8
0d
ff
fd
02
08
fd
02
00
fc
ff
fd
fc
f5
fe
fd
0c
00
f5
fe
00
01
fb
01
00
fe
01
02
fc
02
ff
f8
09
16
ff
00
05
01
fe
fd
06
00
fb
0f
fb
01
02
0c
01
ff
06
f8
04
02
06
fb
fe
fb
04
00
f3
fe
01
07
08
0b
0c
0d
fa
fa
fa
07
10
fb
fd
00
0b
01
fa
fa
01
fa
01
fe
ed
fa
f8
fa
fe
f1
fa
05
03
0d
04
f6
05
02
01
fb
01
fc
01
05
f4
f8
09
fc
fb
f8
fd
0f
03
04
09
f3
fa
02
04
04
f9
06
02
fd
f8
02
fe
fb
05
13
04
f6
08
00
fc
fa
03
f5
07
04
fc
f7
03
00
01
f9
05
ff
00
07
01
03
06
fa
fc
0c
02
ea
ff
02
fa
f7
09
00
04
02
ff
fd
06
13
fe
fa
fe
e8
05
ff
06
fc
fa
f9
06
02
ff
01
03
01
0a
f1
02
fd
04
ff
01
fb
f9
00
00
f9
fd
f1
ff
02
00
fd
00
00
ff
ef
fb
01
08
ff
02
f6
f1
fc
04
f8
fc
fe
03
f8
fb
fd
00
f9
08
01
00
00
05
fe
fa
ff
05
fd
04
03
fc
f8
06
0f
01
03
fb
00
01
04
02
fc
ff
0f
fe
03
fe
04
05
ff
f7
04
fe
f9
01
f9
05
fc
01
ff
f5
00
f1
fd
fe
fb
fd
01
01
0d
fc
02
00
07
03
ff
02
f9
fe
02
fe
ff
ff
01
fb
f0
04
ff
03
fb
01
02
02
05
ff
02
00
00
fa
fa
03
07
fd
f6
04
0b
03
03
08
fe
fd
06
f8
00
fa
01
fa
fb
fb
00
fe
0d
00
f7
0d
0a
e3
00
01
13
09
02
01
0d
f1
00
00
01
05
0a
07
07
fb
0b
05
e9
09
07
fb
00
ea
02
03
03
06
f7
10
f9
fd
01
03
dc
00
17
01
f7
02
0d
05
03
f6
f5
fe
05
00
03
f9
f3
06
ff
ff
fa
00
ff
f7
fb
02
00
08
08
f9
0b
fd
f7
fb
01
fc
0b
03
ff
fd
fb
02
f7
04
05
19
13
01
0b
00
ff
09
0b
04
fc
0b
10
02
fa
fc
fd
ec
f5
0f
fc
f9
01
02
f7
eb
f8
0a
fc
01
04
ea
05
04
f4
fe
0b
fd
07
1d
0f
fc
f2
01
00
ff
f7
02
e1
05
fc
01
00
f0
06
f3
0a
f9
09
04
ff
0e
f8
ff
fe
00
01
ff
ff
02
14
0b
f6
10
f4
07
11
0b
0e
ff
01
02
f7
0c
1b
06
f5
ff
f9
07
04
fb
fd
ff
04
fd
01
0c
04
01
f9
f7
fa
07
02
f9
f7
02
fd
01
06
fd
f4
14
05
0f
00
fb
0c
01
01
f6
f8
fa
fd
16
09
fd
0c
f7
fe
0f
fa
00
0f
fc
fd
ed
06
fb
f4
03
e7
fa
12
05
08
fd
fd
fb
ef
04
f0
18
10
f7
f7
02
02
fa
fe
03
f1
04
ff
0a
07
f4
06
fe
10
ff
fc
0a
f6
0e
08
ff
00
07
fb
ff
ff
07
ec
03
02
03
fe
00
02
fd
f3
10
05
00
07
04
ff
01
03
03
0a
07
fa
fd
02
01
ff
ea
03
01
03
01
ff
fa
fd
01
05
00
fd
fb
0e
f0
f9
0b
ef
fb
f6
01
03
fe
f6
f5
07
0a
01
08
03
01
f2
ff
02
f7
f9
0b
01
09
fd
f7
0e
ff
f8
03
0b
f1
f7
fc
ff
08
f7
04
ff
fe
04
f7
fd
ff
f5
03
01
01
ff
0d
11
07
ff
05
0b
fa
fc
18
fb
03
fe
f7
ff
03
f3
e3
08
f3
f0
11
f9
ff
00
ef
e8
fc
00
1c
04
00
05
02
04
05
0d
14
f7
05
00
0b
0a
fe
fa
e3
04
fb
e7
07
ff
ff
0e
07
0d
fd
04
ef
ff
fe
f5
fb
06
fb
06
02
fa
f6
ee
07
0d
fb
eb
fb
07
fc
f4
f3
08
fd
f2
00
04
03
07
f4
00
0d
f9
01
f4
fb
ff
ff
fa
fc
f8
fd
04
f5
02
fd
fe
ff
0c
fb
02
f6
00
fe
05
f6
0b
03
f6
ff
fa
fd
05
fb
ec
07
04
f6
fd
0c
01
01
05
fb
06
03
ff
fe
02
00
00
03
ff
ff
01
00
ee
f4
05
0a
fb
02
fe
f5
03
01
0a
f5
01
f5
fd
f9
00
f2
fe
03
00
01
fd
fb
04
f5
03
06
fd
fe
04
07
fc
f8
02
00
07
04
00
08
05
06
04
fc
04
0f
05
fc
05
07
01
fc
fd
04
06
fd
f3
01
0d
01
f6
fa
fa
ff
f8
09
f5
14
f3
fd
04
e9
0c
07
ff
05
f0
fb
f6
fd
ec
09
e8
0a
fb
04
03
07
f0
04
fb
16
0b
18
fa
05
07
03
01
06
04
00
f5
01
01
08
00
07
0b
08
f9
fb
06
fe
0a
ff
04
04
ed
08
0a
01
10
fe
fe
f9
08
08
0b
f9
09
01
08
01
fe
ff
fc
00
f4
fb
04
fe
fe
00
fb
00
ff
09
03
0a
0a
fe
01
08
13
f3
fd
03
f8
01
fe
f3
05
08
f8
0c
00
fe
02
fe
06
04
f7
00
08
ff
0b
06
fd
10
f9
f7
0b
04
fd
01
fe
0c
ff
05
fe
fe
f8
f5
03
fd
fb
00
06
01
fe
16
03
05
0b
08
02
03
fd
f7
01
f7
01
09
01
f6
10
f7
08
f8
07
00
fc
fd
fc
f5
04
fe
02
06
fe
05
fa
01
f2
01
f7
fe
fc
05
06
ff
fb
03
07
02
0b
ff
f0
06
fe
06
03
fb
01
fd
fa
f3
07
09
fd
08
03
04
03
ff
01
fb
16
fa
06
09
06
0d
f0
05
fe
05
00
01
fb
03
00
00
06
fd
02
0c
fe
13
0c
03
fd
02
20
f8
ff
01
01
0e
06
06
00
03
05
fc
01
03
07
04
00
03
16
03
03
fa
f6
f1
fb
fe
07
fa
11
ff
fc
f8
08
00
05
fa
00
02
fe
07
04
03
fb
05
e5
01
0b
08
09
ff
fb
07
13
00
02
03
0b
e9
fd
01
0f
03
f9
0b
0a
02
04
02
f9
f7
00
07
03
00
00
05
09
02
04
01
10
05
ed
04
00
fa
fd
06
ff
05
f8
0a
02
fb
0c
10
05
14
04
04
fd
f8
07
f8
fb
fe
ee
14
05
06
f9
06
fd
fa
06
fe
f8
0e
00
ff
ff
05
07
01
06
02
03
02
08
07
0b
05
0b
12
fa
05
fa
08
0a
fb
00
02
0d
07
f9
08
fa
07
ff
0a
00
00
01
04
fc
12
0f
21
04
0e
06
f8
06
ff
f4
fa
07
f8
06
06
10
ef
fd
f8
02
06
09
05
f4
fe
fa
fe
de
0e
fd
f0
db
fd
04
fe
0d
03
02
fc
05
02
f7
18
05
f4
ef
fd
1a
ee
f6
fa
0e
ee
04
04
02
fa
f7
1c
03
0a
fb
03
f6
06
fe
f9
ff
0c
f3
01
06
13
f6
f8
fb
05
00
03
06
06
00
f8
02
09
0e
f5
02
fa
09
01
00
fa
fe
06
08
03
08
f7
f7
05
06
02
fe
fd
f7
ef
f9
fd
e7
f3
1c
f7
07
f2
13
06
fd
08
f8
f9
08
0e
fb
05
0f
06
ee
15
fc
fc
0e
ff
0b
fa
01
fd
0e
fb
0e
f3
02
fc
01
01
04
fc
00
e4
f4
fa
f7
0c
fe
05
00
fb
12
f0
02
02
e5
fe
f6
0a
02
f7
15
f1
fc
03
0b
04
f2
01
fc
02
fe
03
fe
ff
fa
02
0b
fb
07
fe
01
fd
05
09
ff
fb
e7
14
f7
0c
02
ed
0d
01
0c
04
f0
02
f5
0b
fd
0a
ff
07
0b
f2
fb
fd
02
00
fa
01
ed
02
f5
06
fd
03
09
07
0c
fa
02
09
00
f7
fe
fe
ff
0b
ff
01
fa
13
08
fc
fc
fb
f5
00
ff
04
f9
16
01
09
00
fe
f7
fd
fe
02
fb
fc
ff
06
ee
07
01
01
fe
01
fe
fb
fd
f0
02
f3
03
f8
f1
09
fe
ff
06
01
03
fe
02
02
09
04
01
05
02
03
05
0a
00
00
03
02
02
03
03
fa
19
fe
00
10
03
05
06
05
01
ff
01
02
fa
f6
ef
fb
04
fa
f8
fd
f2
02
01
fe
f7
fc
00
fa
f5
01
fe
f7
05
06
fc
ff
00
ee
05
00
ff
09
f6
f9
01
fc
06
06
f3
f4
12
f9
06
00
01
0b
fb
fa
fe
f8
05
fc
07
07
f7
01
03
f3
ff
f8
01
05
01
05
fb
f4
f7
03
f9
04
01
00
e8
00
ff
ff
f8
02
f4
fd
00
00
08
ff
00
f8
09
fd
19
19
0d
fe
f5
04
ff
fc
07
fa
fd
00
fe
fa
02
04
f8
00
fd
03
21
f6
06
fa
08
02
fe
fe
00
fc
00
fd
fb
06
f9
fe
06
02
fc
01
04
02
f4
03
ff
05
f8
0f
0b
fa
0b
f5
08
fb
03
11
03
00
01
07
fe
06
fd
02
f1
00
00
f8
00
fe
03
fd
f4
0b
fe
02
04
f8
05
fe
14
f9
f8
fa
00
ff
fd
fa
08
f8
0e
f3
02
03
06
04
01
fa
ff
fd
fe
03
1f
05
04
07
03
00
02
03
00
09
03
00
0b
09
00
03
01
f4
f7
04
fe
02
08
00
15
07
11
05
02
0c
05
fe
fc
0d
10
09
19
04
05
ff
fb
02
00
01
ff
07
00
f9
f8
07
07
0a
fc
03
05
fc
07
fe
fe
ff
fe
03
f5
01
01
fc
fd
04
fb
fe
03
06
01
fa
06
07
05
08
03
06
04
fb
22
05
e9
ff
05
05
08
f5
0c
f8
f9
00
06
05
f6
fa
0b
f2
07
07
fc
00
ef
f4
f4
07
05
fd
08
f4
fd
fa
fa
05
f3
09
fe
00
fd
0d
f7
01
f2
f4
06
fd
f5
ff
ff
f5
10
04
f6
08
0e
06
fa
ff
06
0e
02
08
04
03
f7
ff
0e
0e
01
03
ff
04
03
fb
01
fd
f7
02
fe
fe
fb
fe
ff
fa
06
fa
06
08
0f
0c
ef
00
04
fd
00
ff
fa
f2
fb
03
12
fe
01
f7
04
14
17
04
f6
09
01
eb
00
03
02
06
02
02
eb
03
f6
02
f9
05
f9
f4
08
03
05
00
f1
f8
fc
03
07
08
01
fc
fb
00
03
f7
f3
13
03
06
07
fe
f7
08
f6
f8
07
06
01
ff
02
0d
02
f8
04
04
01
01
13
ee
11
01
fd
04
01
0d
f8
fe
fa
06
04
09
fe
f8
fd
02
fe
f2
f4
f6
f4
06
06
fb
fc
fc
00
ea
09
01
ef
fd
01
f9
f5
fc
08
fa
07
13
05
02
ff
11
12
01
ff
f4
0e
fa
ff
fb
f6
f7
fd
04
0b
02
fe
ec
0f
f9
f6
ff
ef
01
02
04
08
01
f4
f7
04
02
fc
ff
16
fa
06
04
09
fb
f6
fc
f4
04
03
09
ff
0b
ff
07
0e
01
fd
09
fc
fc
07
07
ff
03
04
f6
03
fe
f7
fe
fd
fd
09
fa
fa
08
fe
21
01
05
fd
ff
01
05
f9
fb
02
01
01
fe
0c
fb
01
e8
f9
01
00
02
02
fe
fc
f4
01
ff
0d
fe
fe
eb
02
fa
ef
04
f7
fe
fc
0a
05
fb
01
05
03
08
fc
f9
f1
fb
00
07
f8
f1
fb
fb
04
04
fb
00
f7
00
0e
09
08
08
05
0d
02
fe
05
04
01
05
fb
01
06
0b
05
00
fc
f7
04
fd
09
00
f5
05
f7
ed
02
f9
f1
01
02
00
f5
ed
fd
fa
0e
06
0c
06
fd
04
ff
fe
01
11
f6
f5
ea
fb
06
f3
0c
03
03
ff
fd
f1
00
07
01
00
f1
f3
ff
02
0e
f4
f0
f9
f3
02
fc
07
fa
0d
f3
02
04
05
01
fc
fe
f9
ff
fc
f7
fa
07
02
0d
fa
f1
02
fd
08
fd
fc
00
fe
00
03
fc
f6
03
f8
02
01
07
fc
02
f8
09
f9
07
f7
04
09
f8
00
00
fb
04
f7
00
08
03
04
0d
ff
fa
01
07
03
00
01
f9
fb
0b
03
05
fc
14
00
05
0e
11
04
08
ff
fd
ff
07
08
01
fa
07
02
ff
04
ff
fb
06
fd
06
fa
00
fb
03
fb
fe
f9
fb
fc
01
02
f3
fe
03
eb
fc
02
01
05
fa
f2
06
f9
01
fa
ef
fc
01
07
fc
ff
02
f6
01
fe
fd
f7
0a
fa
0c
fa
01
ff
00
f4
07
ff
02
fe
fe
04
00
ec
ff
ff
0a
fd
05
04
f5
02
f1
fd
08
f4
01
06
f5
09
fc
02
fc
02
06
0c
08
f9
12
ff
e4
f3
0c
04
01
fe
f7
11
ff
02
ed
0f
f2
ff
ef
02
15
f6
0f
03
09
0e
01
06
05
fd
0c
0f
fa
0c
0c
0c
04
f2
f7
05
f2
00
ef
fc
07
f7
fd
01
03
08
ff
0d
fa
f8
fa
01
fb
f6
05
02
02
04
00
fa
ff
ff
fd
fd
03
05
04
ff
fb
0b
ff
07
05
f2
f5
00
01
f7
fd
fe
ed
f9
05
00
fe
07
04
f5
0f
fe
0a
08
f3
f2
ff
02
08
fd
fb
f9
f7
f4
02
02
03
fa
05
29
00
0f
fb
05
06
0a
06
02
02
08
00
f5
01
06
fb
04
13
01
00
f4
03
fd
f8
19
09
0b
0b
06
09
00
ef
07
f8
05
01
fd
02
fd
fe
03
11
e9
01
01
f8
f5
04
05
00
02
04
f9
f8
00
04
04
05
fc
f2
06
01
04
08
fe
f7
f7
0c
fe
fd
f9
fc
f9
02
01
f7
ff
07
f7
05
fe
03
1c
08
ff
f9
ff
f8
fd
fe
00
f9
08
0c
f3
fa
03
06
01
f6
ff
04
05
03
04
02
12
00
fb
fd
fc
fb
01
f9
05
01
fb
fe
f4
07
fa
f9
0a
ef
fc
fb
fd
ff
f9
fe
04
f0
09
05
00
03
06
fd
00
fe
01
01
00
ff
03
f9
03
0a
07
fb
fe
00
04
0b
00
fc
0a
fb
fb
fe
f2
01
f2
f6
01
0b
01
fd
f7
00
03
02
f7
fe
ff
ff
00
f3
09
fb
fe
fe
08
11
fc
0a
03
0b
f9
08
01
00
0c
07
f3
fb
0e
01
0a
ff
00
fd
0a
fd
fe
ff
f7
0a
ff
0c
ff
09
e8
fe
03
04
01
f3
01
07
03
00
01
0f
fd
ff
03
00
04
01
09
07
fe
fb
02
ff
f6
06
01
fc
01
02
04
ff
fa
fa
01
fd
00
07
fa
02
fc
fc
03
00
fe
f9
13
fa
01
fb
fd
fd
01
10
f9
06
f7
0a
00
fc
00
fc
f5
f5
fe
06
05
fe
02
0a
f5
fa
00
09
15
e6
f8
04
05
04
03
03
ff
fe
02
03
19
07
fc
06
ff
f3
00
fe
fb
00
04
11
fa
fc
0f
fd
02
fe
07
fc
06
02
0a
0a
ff
05
08
14
04
01
0f
0b
fa
0f
04
04
fc
03
00
f2
01
03
00
07
06
05
03
1a
00
f1
0a
fc
f7
f3
02
13
04
05
fa
03
00
01
ff
0f
fe
fd
ff
fe
fe
fd
10
00
05
fd
09
01
04
05
fa
04
02
19
04
05
02
03
08
fe
0b
04
f9
f5
09
fd
ef
f8
fe
03
ff
ff
f9
07
04
02
fc
fb
f4
04
06
f3
1a
08
03
f4
f7
fd
03
fe
fd
02
03
fe
04
06
06
05
0a
13
ea
0b
f7
fd
01
0a
02
05
ff
0c
04
f9
ff
fd
05
02
06
05
fc
09
fa
fe
fb
06
0a
03
f8
05
fb
ff
f2
fe
fd
02
08
fe
ff
02
f3
f2
fa
fc
04
fc
07
fa
f9
fc
00
f6
10
ff
ef
ee
19
01
fc
f3
02
06
00
fb
05
fd
13
08
fa
f1
fd
10
fd
f0
f5
0b
fd
fd
02
0e
ec
0a
02
ff
03
fe
04
fb
fa
ff
00
ff
07
07
01
08
f9
00
0a
f9
fe
05
01
f9
ff
f9
f6
06
07
f7
01
01
01
ff
fe
ff
ef
06
00
00
fc
0a
fd
f5
02
fa
fa
01
f6
f8
09
fa
00
f3
f7
0a
f7
08
0e
0e
0c
02
02
f0
03
05
05
ed
fd
f9
03
f6
10
06
06
fb
13
fb
03
fb
fc
10
09
fe
f5
01
f7
f9
fb
07
07
03
03
fe
ed
f0
fc
fb
09
fd
0d
00
01
02
ff
fe
ff
fd
00
02
04
0f
f5
f9
0e
05
02
fb
f7
f6
03
fe
fe
0a
07
fa
00
00
ff
02
ff
01
01
f3
00
fd
f7
f3
16
f8
03
00
f7
04
01
fe
05
07
fc
ff
ff
0a
05
02
f6
05
fd
06
08
ff
fb
f9
f8
0a
f9
00
fa
fc
f5
ff
05
fb
03
01
02
fa
f9
fd
07
f7
06
f0
fa
fc
fb
f8
00
fd
02
00
f8
f9
00
01
fd
16
ff
f1
09
02
09
09
02
f3
f8
08
08
f6
04
07
04
0c
00
08
01
fc
fb
07
ff
fc
ff
fb
07
ff
02
f4
fd
fc
f7
02
fd
f9
03
0c
0f
f9
f9
ff
05
00
fb
05
04
00
08
fa
fa
02
fe
01
0b
11
0a
09
fb
ff
f9
fc
f9
06
0b
f7
ff
fb
03
07
03
fa
03
f7
0d
00
f2
fe
ff
f9
fc
fa
fb
03
fe
fe
00
01
f7
01
fe
04
16
06
04
06
ff
f2
f7
0f
03
ff
fb
fa
f8
01
03
06
01
08
ed
06
fa
00
00
00
ff
fb
fd
04
0b
f5
ff
f6
fe
f9
01
05
f8
fd
05
fc
0e
fc
f0
fc
f4
02
07
fb
ff
fe
04
03
05
fc
08
f2
01
fe
fe
05
04
0a
f2
ee
ff
f9
03
fd
f0
0a
02
f6
f9
03
fd
0a
05
11
f3
02
01
03
13
f7
03
0a
01
03
f9
00
f2
f8
04
0b
fc
00
fb
ff
ff
00
00
00
f9
00
03
f6
0c
0a
10
fd
fd
01
f6
0e
00
fe
01
0a
01
06
fc
f5
f9
02
06
fd
f9
fb
f7
20
00
01
07
ff
fc
f9
fc
03
f9
04
01
0e
03
fe
fe
ff
06
ff
0c
f9
02
0b
07
01
fa
01
05
08
02
ff
f7
01
fc
0c
07
02
04
f2
09
f7
07
0a
fa
fe
01
03
fd
fd
fb
00
f4
04
fc
08
fb
08
07
f9
f5
fb
06
02
03
07
01
02
fc
ff
fe
02
01
fa
fc
02
03
fc
03
06
01
fd
ff
08
ff
08
08
00
ff
00
02
09
04
fb
00
01
01
04
00
03
0b
08
03
07
05
03
03
03
fb
fc
f7
02
f8
0b
00
f9
fe
f1
05
f5
f5
fc
f9
06
0d
0e
fe
f6
06
fc
0f
17
0e
0c
f9
fc
fe
fc
03
01
07
ef
0c
fa
02
07
f9
ff
02
ff
00
0f
e3
04
01
f9
03
f7
fe
0b
08
14
ea
02
f5
01
ff
f8
03
fc
fc
ff
01
06
00
04
0f
f7
03
f7
fc
04
06
08
ff
09
02
05
fe
07
f6
03
06
0e
fe
00
f6
fc
08
03
05
10
f8
fb
00
f9
fa
00
03
fc
f6
06
02
f1
fe
13
f9
06
16
0d
02
07
f7
00
fe
ff
06
00
f6
fa
05
f9
fa
08
f3
07
ff
08
fa
01
05
05
06
15
00
fb
00
f9
ff
f7
01
fe
03
02
fb
fd
fc
02
fb
fa
00
f6
fc
13
09
fe
fe
ff
f9
05
02
02
04
f5
0f
02
03
ea
06
f4
fe
00
08
03
fd
09
fa
f5
fa
04
13
00
01
fe
06
04
fa
04
08
f5
06
ff
fa
05
06
06
04
04
ff
0a
06
01
f8
07
06
04
fa
f5
04
02
ff
03
12
05
1d
fe
fb
05
f5
08
ff
02
00
f0
07
01
fd
f9
05
08
f9
ff
07
02
fb
00
0d
05
01
00
01
ff
fd
05
fa
fa
01
03
0c
03
02
09
fc
03
fa
fa
fc
08
03
fb
03
16
12
ff
fe
00
fc
04
0f
01
fc
03
f5
01
05
0a
08
03
01
f7
fe
02
00
0f
f9
ee
09
08
ff
01
fa
04
05
00
fd
f9
ee
00
01
01
09
03
fd
fa
0a
04
00
04
0d
0b
00
fe
05
fd
f2
05
f1
05
08
05
0e
fe
f3
f9
14
06
0f
01
06
f4
04
0e
06
02
06
f9
f3
10
0a
ff
0d
00
fb
01
06
18
04
0b
04
f8
03
fd
0a
f2
04
fc
07
ff
03
01
07
fe
fc
fa
fc
0c
ff
fd
08
ff
fb
06
0d
02
f7
f7
02
f8
08
02
01
fe
f8
0f
0d
ff
f9
fc
05
06
02
f9
04
00
03
03
f1
00
f6
fb
02
02
fc
fd
f9
f9
0a
01
fd
ec
0a
05
f9
f2
00
00
05
07
00
f3
04
f4
02
f8
fe
01
02
f4
f9
fe
fc
10
fe
f8
f6
08
01
fd
04
fa
09
fb
ff
f9
01
fd
fa
01
fe
f9
ef
02
fc
01
03
00
02
ff
fe
02
fd
f9
f6
fa
f6
ff
e9
ed
fe
fe
f3
01
00
f4
01
0b
fa
f5
01
ff
fd
01
f9
fe
ff
03
f6
fa
fa
f8
f7
fd
fc
0e
03
09
00
f2
fd
08
fc
f8
04
04
ff
f7
08
0e
0a
fd
0d
ff
02
fe
e3
fe
08
00
f8
00
ec
f6
fd
09
01
02
f3
03
f9
f1
02
05
08
ff
ff
04
fb
fc
f5
fb
02
fc
0c
ff
04
ff
f7
fe
fd
09
ff
fd
fb
05
02
ff
fc
fc
03
f6
fa
07
f7
03
fb
0a
00
fb
03
ff
f7
f4
08
f8
fc
01
f6
fc
03
e7
f3
f2
07
ff
04
0a
fb
01
e0
01
00
fd
fa
f8
01
f8
15
07
04
06
eb
05
f6
07
fd
01
02
fb
fd
12
f9
f9
00
ef
ff
01
00
00
f2
ee
01
fa
f5
05
f5
fc
03
01
d7
fd
f9
03
fe
06
f5
f9
fd
05
fd
06
fc
fb
f4
00
08
02
fc
05
0e
ff
fe
03
ff
fc
f9
01
f4
ff
fb
05
04
fe
fd
00
f9
f7
04
fc
fe
01
fc
07
f7
fb
02
00
fa
fe
03
f7
01
f0
0b
ff
eb
01
fe
f8
03
fe
fb
fc
f4
fd
fb
01
fd
03
fd
f2
f9
fa
04
fb
03
fb
fb
fe
fc
0a
00
fa
fb
f9
09
fb
fc
01
05
01
04
fd
fb
0f
14
f5
01
fb
f4
1f
0b
00
fc
f9
fd
fe
fe
f0
f7
f6
08
fb
fe
f5
03
f6
ff
03
f8
f9
fb
f9
03
08
f7
ff
f8
02
fc
02
04
ff
01
03
00
0c
fe
03
0c
07
02
ec
0c
ed
ff
e8
20
01
04
ff
14
f9
f8
f6
fc
0a
00
01
f7
f5
fc
fc
15
f1
eb
0c
fd
09
f9
fb
f2
05
03
fb
f7
f1
05
0d
03
fd
ff
f4
02
01
ff
11
f8
ea
01
fb
0d
f2
f4
0a
05
00
06
f0
00
f9
11
ee
03
04
fb
09
ff
03
f8
ff
02
07
fe
06
ff
f9
fd
fb
00
fe
f9
f1
f9
08
07
04
f7
00
0b
04
05
09
04
fa
04
07
11
fd
ff
03
08
f9
01
f1
09
01
f5
f9
f3
07
01
f9
fe
f5
f5
03
01
ff
fd
0c
04
f2
0b
0d
ef
fb
e5
0a
fe
fb
fa
fd
03
fc
00
03
10
f9
f3
00
ee
f9
07
f5
fd
00
f8
02
fc
fd
00
ea
02
fb
01
fa
06
00
ff
f8
fb
fe
f9
02
fe
fe
00
fd
fa
05
fc
f8
03
06
ff
08
03
f7
00
f5
f4
11
07
08
01
ef
f0
f7
f7
f9
0b
fb
06
fb
fc
fb
04
06
f9
f9
04
01
10
07
fe
eb
02
08
03
09
fa
07
ff
09
05
fd
09
01
03
f1
ff
02
08
02
fa
01
f0
02
ff
01
01
fa
fd
0a
0a
00
05
f9
ed
fe
03
fc
fd
e8
04
0e
f2
09
ef
07
fa
fc
06
00
fd
0a
f2
fe
fe
f5
f7
01
fc
04
05
02
03
02
0b
fa
03
fe
ff
f3
00
fe
0e
05
f7
f6
04
09
ef
02
01
fd
00
fa
01
f3
ff
00
01
f7
04
f1
06
f3
07
fb
f8
03
ff
0b
ff
fd
f7
04
fe
fc
fb
11
08
ff
07
f3
05
03
02
fa
f7
fe
03
00
fa
f7
0b
fa
07
04
fc
ff
f3
ff
03
fb
03
16
fc
06
00
fb
07
fb
ef
04
05
f8
fc
06
06
f5
00
06
f3
f6
05
fa
f9
02
03
fe
08
fc
0c
fd
05
07
04
03
03
fa
00
ff
fb
05
f4
05
ff
01
fc
00
04
fa
04
ff
06
ff
f6
0d
05
04
09
fe
03
0a
06
03
05
fa
03
03
08
03
ff
fd
0b
f6
e8
0b
fd
00
05
1d
08
09
01
f7
16
05
00
ff
f8
00
03
fa
03
f6
ff
fb
ff
fa
0a
fb
06
06
02
fd
08
ed
0b
08
04
05
08
0e
fc
fc
f4
03
05
ff
f7
fd
ff
02
02
09
fe
fa
07
fc
fb
02
0a
fd
fe
f8
fb
01
0c
f7
ff
fb
07
07
00
f0
fb
f9
ff
0a
03
01
f6
05
0e
ff
03
03
0a
04
03
09
fc
e8
fd
00
00
10
02
06
02
05
0e
06
02
fe
f8
fb
08
f8
03
0c
f9
f6
04
ff
05
f8
ee
0f
05
00
f4
02
05
04
0a
0f
03
fe
0b
08
fc
0c
fa
fc
00
05
07
01
fb
01
08
05
e3
06
f7
09
06
ff
02
00
07
fb
04
fc
0a
00
fe
02
fa
08
03
01
f7
01
09
f9
ec
ff
f4
fb
0f
03
fc
f6
fb
f5
02
04
03
0d
15
db
ee
ed
00
05
fe
06
04
06
0d
fa
01
07
08
ff
fd
0c
00
f5
fc
05
fe
fc
06
0f
f7
0a
01
fd
fd
f4
00
05
ff
0e
00
04
fc
f5
08
0b
fc
11
fd
10
00
00
ff
05
fe
f0
f3
f7
ff
0b
fe
fa
ff
09
00
00
f9
fb
07
13
08
fe
f6
09
0e
03
fe
fb
fa
fa
01
00
04
05
fb
09
0f
07
03
f6
fc
03
05
03
fb
fa
ff
04
fa
08
04
fc
ff
eb
06
0c
f7
0d
08
05
05
09
0a
04
fb
07
fe
03
0b
f8
09
09
06
fb
0c
11
fc
fe
00
02
0b
00
02
fb
00
ff
0d
00
fe
05
0a
12
fd
fb
06
05
01
f8
fd
fb
09
01
02
fd
f5
f6
0a
08
03
02
06
04
13
0d
01
ff
01
fc
01
0d
fc
00
05
00
fa
fe
fd
ff
00
06
09
08
fa
12
ff
07
fc
0e
f7
06
05
07
fb
05
fb
06
04
fd
eb
01
fe
03
fe
ff
f9
f9
fe
f9
0b
05
f0
04
0c
05
00
08
06
f7
04
f7
fc
f3
f0
ff
fd
08
01
09
ff
fa
fc
f7
fb
fb
08
0f
04
0a
08
f8
f7
06
f3
04
f6
00
f7
f4
f5
04
01
f5
01
fe
fa
fa
09
fa
fe
ff
f9
fb
f6
0c
08
01
f3
fe
fa
0d
f4
fd
f5
fd
f9
0d
03
f0
fe
fb
01
0d
f9
f9
03
f6
04
07
f9
01
02
04
f3
ff
ff
12
06
00
04
fb
00
f7
f7
f1
00
02
06
f3
f8
f8
f8
fe
06
fe
f6
fd
fe
ff
03
04
f5
04
fb
fd
13
f4
00
00
06
f9
02
fb
f8
ef
01
fe
fc
00
fc
08
f7
05
fd
fe
06
f8
ff
11
fa
fa
1b
02
fa
03
09
fa
00
05
02
f8
fb
07
fd
fd
fc
03
ff
00
fd
fa
ff
fe
ff
00
16
f9
0d
ff
fc
fc
0a
01
04
fe
fc
f3
01
fd
02
ff
fa
01
04
e5
fe
07
01
01
f9
fe
20
fa
01
f1
05
06
fe
04
00
fd
03
04
03
0b
01
fc
00
ed
06
0e
05
00
07
f8
01
ef
05
fe
f3
f7
01
f3
03
ee
0d
fe
09
f8
07
02
fa
07
01
04
f0
ef
f6
10
02
02
fc
fc
02
fe
fb
f9
0e
01
07
02
06
fd
02
fe
02
fe
f9
fa
ff
f7
01
f0
01
01
04
01
f8
08
07
01
f2
04
09
01
fc
03
f5
06
09
fd
00
fb
fd
fc
f7
f5
01
fe
02
01
06
06
19
03
fd
14
f7
fd
fe
0b
0b
ff
02
03
f5
fa
0d
0a
08
00
f9
09
ec
01
04
f3
fd
f7
fd
03
00
f5
f6
f8
03
02
f7
01
fd
f4
10
fd
f6
03
f7
fe
ec
05
05
05
05
fc
03
0d
ff
0d
06
03
fc
0b
f0
fd
fe
0b
00
f1
04
ff
fa
fd
f1
02
02
0e
04
f3
03
0c
fa
00
fd
01
e4
fe
01
f1
ed
f7
02
fc
09
02
00
04
02
06
08
02
0a
ff
02
e1
03
06
f9
00
04
03
f8
fc
fd
04
06
0d
f4
06
00
ff
fd
ef
f5
fa
fd
f7
fe
08
07
f9
f5
fd
fd
f5
fa
07
fe
fb
fa
fd
fb
f5
00
fb
02
fa
07
f9
f9
f9
fa
05
f9
08
01
f0
fb
f5
fd
ff
04
05
04
ff
f0
06
00
04
00
fd
ff
03
08
fc
ec
05
fa
f5
ff
00
07
fe
09
fa
fe
f7
ff
f9
fc
f8
00
00
00
12
03
f8
fd
01
f7
0a
f7
01
f4
00
06
00
08
fc
fb
00
04
fc
f8
f9
05
00
fa
fe
e2
16
04
ff
00
f7
fe
05
ff
06
fc
00
07
01
fb
f1
fb
ea
0a
fb
fe
fc
01
02
03
fc
00
08
02
08
ff
fe
ff
fa
01
03
08
04
f6
0b
fc
0f
fc
f7
f8
04
fe
fd
fe
fc
fd
f8
fb
01
01
01
f5
f9
e9
f2
00
02
06
f6
f8
08
05
18
03
f9
ec
fc
0c
ff
07
04
fd
f7
06
fa
f7
f7
ff
f8
02
01
05
16
f2
05
03
f1
01
01
fc
0b
f9
00
f8
ff
07
fa
fa
ff
f2
08
f9
04
f1
07
ff
0b
04
02
ff
f2
fb
fc
00
fd
0c
00
fe
00
0b
09
fd
f4
f5
08
f8
03
fb
05
03
ff
04
18
fc
fe
00
fa
ff
fa
ff
fb
08
fe
0b
fe
ff
0b
fd
01
0d
03
fa
ff
00
fe
08
ff
00
f4
04
0d
02
f7
fb
08
0e
fa
fd
05
06
fe
fa
fe
fe
06
01
ff
f2
fe
fb
fe
fc
ff
00
fa
fd
06
f5
01
f5
f9
fb
fe
fa
0e
f4
fb
06
f8
05
06
fd
06
03
f1
01
05
00
f6
fd
0c
fe
fd
09
05
06
fa
fc
fa
01
03
0b
ff
04
fe
08
03
04
09
0c
04
05
07
03
00
07
04
f3
06
fb
f9
02
f3
fd
07
f9
fe
fe
fe
07
08
fe
02
f5
fe
16
ee
11
12
e4
00
fe
06
fe
f0
00
f4
ff
fd
0f
f7
0b
0a
0b
09
fe
f9
f9
f4
ff
e6
03
05
09
0a
fc
05
04
fa
00
fe
05
00
01
05
02
fb
ff
fd
03
06
0a
ef
f4
06
ff
f4
ff
f5
f6
0c
03
fe
06
00
fa
07
fd
02
f0
04
fd
fa
fa
0b
04
fb
07
fa
04
ff
05
f6
f4
01
20
fa
f7
ff
15
08
f8
01
01
01
08
f2
fc
f8
0c
03
00
05
ff
1c
00
fb
ff
fe
08
01
fe
06
06
0d
fe
fc
15
f9
fe
f9
09
fd
04
05
f4
02
04
06
f9
06
f4
fe
09
fa
ff
ee
0e
00
fa
ff
fb
04
05
09
11
e1
09
f6
07
06
fb
04
f7
02
fe
fc
02
17
f8
fc
04
01
02
fc
00
11
0c
fc
07
f6
06
01
e5
01
fd
ff
0e
08
ff
fd
e6
f7
02
fc
f9
eb
f7
fa
fc
05
02
dc
ff
0a
01
02
f6
04
df
fc
04
00
ff
01
01
f4
09
03
04
00
10
05
f3
04
f8
04
03
f3
f7
08
f7
03
05
fe
f0
f7
fe
0f
f9
05
06
f4
fe
ef
01
fc
07
0c
ff
06
02
0c
04
01
01
f6
fe
fb
03
f4
fc
04
f1
01
03
fe
04
0b
fe
00
0a
fe
fe
f6
fb
e2
fc
02
ff
05
06
07
fa
05
04
ff
ff
05
04
fe
03
05
07
f7
07
ff
03
f8
00
02
08
07
f7
fc
01
f8
f4
f9
ff
04
fa
00
03
f8
0e
fe
fa
fa
f1
04
03
fb
f8
03
fc
fa
fe
02
01
f5
07
fe
ff
f4
00
04
00
05
e7
fd
07
00
fd
fe
f5
fd
01
fe
00
01
f5
03
04
fc
08
07
fd
02
f8
f6
f8
02
fd
00
fc
09
fe
00
fe
f7
fb
0f
fb
01
fa
fb
f3
fd
eb
09
05
fc
fc
fd
fb
03
f8
05
16
fc
f8
00
05
06
f9
04
f4
02
f6
00
0a
09
fe
fc
f6
fe
01
ef
0d
fc
03
fd
f1
fb
f3
fc
0a
00
0a
06
00
f3
00
e3
fc
1c
05
fb
0b
fc
0e
03
f1
02
04
fe
05
ff
0a
fd
ff
ed
fc
ff
00
ef
f7
09
fd
00
fc
01
06
0c
f3
02
0d
03
0a
0a
00
ff
08
03
01
ff
fd
00
00
08
02
06
06
02
fa
eb
04
ff
07
09
fd
fb
02
01
00
fc
f7
f1
00
0b
fb
02
f7
02
03
03
fb
0d
f1
ff
0f
03
0b
01
fc
fe
0b
1a
06
fa
09
fe
03
f2
f7
f2
07
08
f2
ff
f9
00
ff
1b
f7
05
03
fd
f6
07
02
fb
fb
ff
f3
ff
fc
03
03
f0
05
f5
f5
03
f0
04
01
fa
fa
f2
fc
08
01
03
f7
0b
fd
02
01
01
01
fd
00
f4
0e
02
05
fe
0c
f5
09
00
01
fa
ed
0e
01
f6
04
11
fc
fd
ff
00
fa
f0
05
02
fc
f7
fe
fe
f6
08
fa
f0
fe
06
fe
05
01
07
f8
02
fb
fe
ea
03
00
f5
f9
fc
05
0c
fd
09
05
f7
fe
f8
f9
07
0a
01
0c
fc
01
f1
f9
ff
fe
02
fc
03
ff
04
fa
0f
07
03
04
fc
04
f7
04
fa
09
02
04
03
03
f9
0e
00
06
f6
fa
00
fc
ff
09
03
fe
09
02
fd
04
0f
fd
02
fa
03
f4
fa
05
fe
f3
fa
04
f2
01
fe
fe
ff
fe
09
fe
fd
fe
fb
ef
f9
f9
02
f9
fd
fd
03
fb
ec
f8
f8
02
fe
fe
f6
02
02
0b
00
09
02
02
f8
f9
19
17
04
fd
02
ff
fd
02
fe
ff
fa
fb
f5
fc
f3
02
08
00
f5
02
fc
f2
00
04
fe
09
01
05
fa
ff
fe
04
f5
00
02
fa
04
06
f4
05
09
fe
08
07
fc
ff
fa
f2
f5
08
ed
06
02
03
15
0d
fc
16
00
fe
ff
0b
14
04
fc
ff
f2
e2
08
0a
0f
f4
14
fe
00
fd
fa
f6
09
fe
02
e5
fb
0d
fd
fc
e2
06
fe
09
0d
fb
fd
04
f9
fd
01
05
0f
fa
f8
fb
fd
07
05
03
0a
00
f6
01
fd
0a
0d
0c
06
06
fe
02
f9
07
06
07
0f
ff
02
fc
00
00
ea
fb
05
01
00
ff
00
ff
eb
00
05
00
09
03
fd
fd
fe
08
fc
0e
08
fb
fd
09
fe
00
f8
06
0d
00
fd
05
05
09
00
03
fd
ff
11
f3
f9
04
05
0a
fd
04
05
fc
ff
f8
fb
03
ff
0b
10
13
ea
f2
07
04
fd
06
fb
0d
f6
f5
fd
06
01
fa
f1
01
ff
fa
01
02
fe
f1
fa
0c
11
14
fd
07
01
12
fd
f8
fe
04
fb
fe
fb
00
0d
07
fa
fd
fc
f6
ff
0d
fa
fe
05
f0
06
fd
fd
10
fb
00
00
fc
fd
01
f9
fc
f6
0a
f0
0f
08
fb
ef
ff
07
00
ff
fd
eb
fa
05
05
fa
09
12
fe
f5
ff
15
ff
06
08
02
fa
01
04
08
06
db
fd
ff
fb
07
ff
fb
00
f4
fd
07
0a
ee
02
08
00
01
0b
01
ff
ed
0e
fa
09
0a
ed
02
fe
05
07
f6
f8
ff
03
f7
fb
09
02
06
10
05
fe
f9
fe
01
19
08
f8
f4
f7
07
fe
fc
07
06
08
00
f8
06
08
fa
fa
f5
09
f0
fe
f3
ff
f7
fa
03
07
fb
f6
0a
05
09
01
07
fb
0a
fb
f4
07
f9
0f
f7
ff
f8
ff
fb
0a
05
fb
02
07
f3
04
05
04
07
fd
fe
05
f9
06
00
05
fa
fe
fd
ff
f8
fa
ee
05
fa
00
fd
fa
02
fc
0f
f6
01
01
f7
fe
03
08
04
00
f5
00
f6
02
12
f9
00
fa
04
fb
01
f9
03
fd
01
f7
07
fe
00
fa
06
fe
fc
05
0a
02
0e
f7
13
00
df
f8
01
09
ef
fe
fe
01
06
09
f8
01
09
fb
12
02
14
ff
02
09
10
f8
fb
fd
00
ff
fd
04
01
fc
f9
09
04
02
00
03
02
ff
fd
fc
09
fe
e3
00
fb
fd
ff
ff
f7
ff
00
00
08
05
f7
eb
04
03
fc
02
00
03
03
05
f2
ff
fe
ff
f5
04
00
fb
fa
f9
fa
0b
fb
fa
fc
ff
14
e7
fa
05
0c
00
fb
f4
01
f6
fb
f7
0f
ff
10
06
01
02
00
fc
0c
03
f5
07
03
fd
fd
06
fb
03
06
ff
fc
fe
fe
fa
fe
f8
fb
f5
e1
03
f4
00
fb
f8
fb
05
0a
fc
03
10
f9
12
fb
01
05
01
f8
f9
f6
03
0c
03
0a
fc
04
f9
05
0b
f4
fd
02
fc
00
fd
06
08
05
00
01
08
07
0b
f8
fc
f6
fd
04
10
07
fc
02
05
00
03
07
00
05
fb
f9
08
f7
01
fe
f8
04
07
06
0a
00
04
03
f3
fa
04
fb
1f
f9
00
01
02
ff
fb
03
f5
06
06
08
ff
fd
fe
f7
03
08
03
07
f8
0c
00
fb
00
ea
ff
fa
fb
04
06
f0
02
fa
f9
03
01
04
fb
0c
fb
fd
fb
0e
04
f6
08
f2
08
01
0e
00
02
0b
05
04
00
fe
05
01
fc
0b
06
00
0f
02
00
00
04
03
0a
fe
f6
ff
fd
fd
07
fa
ff
06
fc
00
f7
04
08
03
05
00
02
fc
09
02
f8
fd
02
f7
00
03
fd
fb
00
02
03
00
00
f4
00
f9
fc
04
fe
00
fc
fe
1a
fb
02
03
f0
03
07
02
09
f8
00
fa
08
fd
fb
0e
11
0c
f9
fc
05
fe
03
09
03
fe
06
06
02
00
02
fe
ff
0b
06
fb
06
ff
03
ff
02
02
06
fe
fb
07
fd
fd
04
fa
fe
f7
f0
02
f9
ff
06
ff
f7
09
f6
fa
f8
03
fb
11
ff
ef
07
f8
00
fc
f3
ed
0a
f7
fe
04
04
01
f9
fd
f9
08
07
f8
f7
f0
fa
fd
ff
ff
06
0d
07
f9
01
fc
0b
01
04
ff
fd
14
06
00
fc
f9
fc
1b
01
f5
01
0b
04
04
fb
fa
0a
07
f2
f5
ff
f9
fb
00
fc
fe
0a
ff
09
04
01
01
fd
02
04
07
fb
f2
0d
03
03
fa
fd
fa
fa
02
ff
05
00
fb
01
e8
f5
f9
02
f4
03
ff
ff
01
fb
fc
f8
07
ff
f3
f5
00
04
06
fa
02
07
06
fe
ff
09
ff
00
ff
02
f6
13
03
07
fc
f6
f7
ff
03
f4
f9
06
00
05
02
f7
0b
f9
15
f4
f5
ee
f2
07
fc
fc
ea
fc
f0
fa
03
00
fd
f7
fb
fa
fb
07
03
05
09
f5
04
f6
10
ff
01
06
01
03
fe
02
04
08
f6
fe
03
fe
04
ff
fe
05
f6
08
fe
fc
ef
fe
fa
f9
fb
ef
f6
fb
0e
00
07
10
04
04
fc
f6
eb
fa
fd
04
03
f8
f4
f8
ff
0d
0c
0e
fb
0a
06
ff
04
04
08
ff
fc
06
ef
f3
fc
07
fa
fa
fa
f6
04
f7
f4
02
ff
f9
e8
fa
19
f4
0b
f4
08
03
f3
09
fe
f5
0d
f7
02
02
0c
ff
fa
fc
f9
07
fd
f6
00
02
02
f8
00
fe
fc
fc
05
fa
fb
07
fe
f2
01
e6
f6
0a
04
03
03
15
f5
fe
0b
fb
fb
0b
04
f8
fa
14
03
fb
fd
fc
09
1e
10
09
05
03
00
fd
fc
f9
f8
fc
01
00
fb
f5
0d
f1
fd
03
fd
03
f3
fb
0b
fc
08
0f
f8
03
0b
fd
fa
fd
03
fc
f7
f1
09
ec
f8
f1
e8
0d
f7
02
17
fb
0e
fc
04
09
01
03
09
fd
de
0f
ea
01
fc
04
ff
f6
01
f8
0a
fc
01
11
e9
fb
f6
09
0e
00
fe
fe
00
05
f6
13
fd
05
0d
15
00
0f
19
fa
fa
f4
f9
10
fc
ea
f6
03
fa
fb
01
01
ff
fc
fe
f4
ff
10
f6
00
fa
ff
ee
fc
02
02
ec
01
fb
0b
f9
f7
f9
03
04
02
0e
06
f3
f7
01
fa
fd
06
0f
f9
fd
fb
f8
f8
01
fe
fa
09
ee
00
fd
05
fd
f9
fc
03
08
02
fc
04
fd
f9
09
04
f1
fe
09
15
03
fd
fe
f7
0a
fa
07
fb
04
fc
f6
04
0c
ff
f2
08
ff
02
fa
fe
f2
f8
02
0c
0c
fb
f5
fd
10
f9
07
fb
08
04
03
fa
0a
06
fa
ff
02
fd
ff
e6
04
08
09
0b
f7
f9
02
f4
07
0d
02
00
ff
fa
f3
f8
ff
f8
00
fb
fb
f5
ec
0c
f2
f9
fb
f6
01
00
f4
03
ff
fb
fd
03
00
00
10
fe
f6
03
fe
fd
fe
f7
ff
02
05
08
02
ff
fe
f8
00
05
16
ff
04
fa
06
fe
f5
06
f0
17
ec
00
f8
fd
f4
01
f7
ff
0b
f5
fd
fd
f6
01
05
ff
04
0a
0a
0d
fb
04
06
0e
fb
ff
04
ef
de
ff
01
fa
fb
11
0d
0b
06
00
01
0d
00
fa
f0
fc
01
12
f8
fd
05
fc
05
fd
f2
fa
02
fd
11
fe
ff
0f
fb
05
08
0a
03
fe
fa
02
f9
05
f8
f6
11
0b
fd
07
f7
04
0c
07
06
05
ef
fb
01
fb
01
05
03
fd
0d
f9
f4
00
07
16
f1
03
ff
ff
00
01
f9
fd
00
f7
14
fa
0a
fe
00
e5
02
f6
fe
04
02
01
08
0b
07
00
f1
02
ec
07
09
fb
07
14
0e
06
00
03
10
ff
f4
ef
01
00
fd
09
01
fe
fa
f6
fe
ed
02
08
09
08
fb
01
10
10
0f
0c
13
f7
09
08
01
0c
01
06
0b
00
0c
03
09
03
fe
01
0a
0c
f8
fd
f7
fe
02
01
f7
12
02
fa
ff
01
03
05
03
06
07
05
ed
ee
ec
fe
03
fc
fa
fa
08
06
ff
0a
dc
01
05
f7
f8
fa
08
02
fd
02
f8
fb
fa
08
0e
02
ff
01
ff
fa
f7
01
04
08
06
f0
ff
09
03
fa
01
fc
06
06
03
08
e8
08
05
04
07
04
fd
ff
ff
fa
f8
02
fe
07
09
fd
ff
fb
08
0d
01
f5
fe
00
07
fc
f9
01
fd
06
0a
fb
f3
0c
07
0c
f7
f9
fc
05
ff
fc
fc
fd
e9
07
08
02
04
fd
05
01
05
07
f7
f6
ef
00
fd
03
00
04
f9
fe
0d
f9
0a
fc
fa
f6
ff
01
f4
f7
11
f3
02
05
06
03
0b
07
fe
05
05
04
f0
0c
fd
07
08
ff
f1
f3
07
03
fa
fb
03
fe
13
f3
f2
ff
06
fb
f3
03
f1
01
fa
04
fd
ff
ff
08
ff
ff
ec
f1
fb
08
f9
03
fd
fa
f9
0b
0d
01
07
ff
02
f2
08
02
07
fc
fe
0b
05
fe
03
09
f7
09
fe
fe
0d
fc
ff
f2
0a
00
f0
e7
f0
f8
f5
fd
05
e6
f6
f8
05
03
f3
11
fb
01
ef
fc
f3
fb
04
fe
ef
fa
02
04
f8
10
fa
f6
05
01
31
0a
f8
fb
02
f6
0e
06
16
06
09
00
ee
f5
0a
f9
fd
0c
00
01
f1
06
f5
f0
fe
0d
fd
ff
dc
f4
02
fe
0b
01
04
fa
f7
ff
f2
fb
03
fd
11
fe
01
f8
f3
10
ff
01
0f
d2
04
01
f0
fb
00
03
fc
fa
fd
f9
0a
f7
04
05
02
ee
03
05
01
01
f8
06
02
0d
ec
06
fb
01
00
1a
f5
07
10
f0
fe
f3
fa
f9
10
02
f6
02
06
00
fe
ea
0f
08
02
ef
f9
02
f0
f9
03
05
fb
fe
00
09
0f
fc
0e
02
06
0a
03
06
02
ef
e5
00
06
02
0d
02
07
fd
03
01
f8
02
fc
f5
fb
ff
14
02
02
11
08
0a
04
06
fb
11
fa
09
fd
f6
fa
08
00
f7
f9
00
08
12
f9
03
ef
0b
03
f8
f9
03
08
04
02
f7
fc
02
0b
f9
08
01
0f
01
00
00
1c
fc
fd
fd
05
f6
03
0a
04
fa
f4
09
fd
03
11
07
11
02
e7
fc
0a
fe
f5
ff
07
0b
f8
fa
00
02
07
fa
ff
00
fd
ed
17
05
04
02
07
ff
fe
00
fc
fb
09
ea
02
0a
f9
00
db
03
03
0b
05
fc
f6
01
ff
f2
00
00
02
01
05
fc
0b
05
fe
fd
02
01
01
ff
00
01
ff
08
09
f9
05
06
01
09
00
00
f7
ff
10
f5
00
00
fa
09
ff
06
ff
f2
ec
02
fa
f4
fb
02
0b
0a
0a
01
fe
0f
f9
0a
f3
07
fd
0d
03
02
01
fd
f3
04
fa
ff
00
00
f8
fd
f3
fc
11
01
f7
0e
f5
06
06
02
01
fe
0a
01
f7
02
0c
fe
f4
fd
f7
f9
fe
fc
fc
0a
0c
ef
09
fa
fe
03
fd
ed
07
fb
0c
07
04
03
19
fc
e6
0b
e8
00
03
04
fd
02
f9
f9
19
fe
f7
00
00
fa
05
f9
00
00
fe
fd
05
0e
fc
0b
f3
00
fb
08
f7
07
fb
ff
ea
fb
f2
02
01
02
f1
fb
ff
fa
e8
fb
f8
07
00
10
ff
f5
14
00
00
fd
00
fc
00
f8
0e
00
00
05
f5
fa
05
fe
03
01
f8
fa
05
04
02
05
05
01
e0
f9
f2
f8
f8
0d
fe
05
08
f7
f6
03
05
0d
f9
1c
03
f1
f8
e8
fe
ee
fc
02
01
fd
0a
08
05
01
f7
01
f8
08
00
0c
05
f6
fe
05
08
05
01
02
fb
fd
ff
04
f6
fd
01
01
ff
f7
f4
00
0b
00
df
fa
f7
fe
00
08
ff
ff
fe
fb
04
ff
00
00
00
08
01
f0
00
f0
ff
04
ff
08
05
fc
fc
00
01
02
0a
05
00
fe
fd
03
02
02
03
03
03
f9
04
05
fb
ee
01
05
00
fc
f8
01
ff
08
ee
f8
fd
fd
ef
08
0e
08
fa
f3
ff
f3
07
04
fc
03
f8
f9
fa
0c
05
09
03
07
ed
06
f4
01
07
07
f4
01
08
f4
f5
00
fc
f2
03
fe
01
05
0c
ef
09
fd
0a
03
f8
00
f6
fe
fa
f9
04
fd
00
fa
fd
fd
06
04
04
f5
00
02
04
fd
fd
04
02
08
04
ff
fe
f5
fa
ff
02
03
03
01
fa
01
fc
fe
00
fc
fe
05
fa
fa
fc
f4
f3
fb
09
02
fd
23
fe
fd
04
03
ff
ff
06
ff
ff
ff
fa
ff
f4
01
09
00
04
06
04
00
fb
ff
0a
fe
06
fd
01
fd
0b
ff
04
ff
00
f4
f9
fd
f9
0a
fb
f1
fd
fe
09
ff
e4
fc
fb
f8
ff
fe
02
0e
05
f9
f8
0a
05
f4
f5
ff
f4
ff
06
07
fa
fd
fb
fd
04
fc
02
14
ff
ff
02
01
04
fc
ff
05
ee
07
f9
09
f9
03
ff
fb
13
fa
fd
e4
fa
f7
f6
00
f3
f6
00
01
fc
04
09
fb
0b
03
05
fa
f1
0f
14
fd
fc
f4
17
04
fb
01
fe
0e
0e
f6
fc
fb
06
08
12
02
02
f9
13
01
ec
fc
04
00
f2
ff
06
0a
fb
f6
02
f6
01
fd
0d
fe
02
f6
03
f9
07
06
07
05
01
f8
f7
03
06
f5
fe
fa
01
06
fc
08
01
03
03
fc
f8
fb
f3
e9
f0
03
07
fe
01
f7
02
0c
fb
f8
0d
03
0a
00
00
03
03
f9
fc
ff
fa
03
11
19
04
fb
02
04
fe
0c
10
0d
09
08
ff
04
03
f6
f0
01
f9
fc
03
ff
fc
06
0e
02
f9
08
fb
0c
fc
0a
fa
00
f0
ff
03
05
1b
01
0f
09
01
0c
00
fe
03
00
03
07
0e
fd
0d
00
07
f9
fb
f7
19
01
eb
ff
e6
08
04
fc
fe
00
03
fb
00
f9
0c
09
fe
0c
11
04
fc
f8
02
fe
fd
00
f4
10
0a
fc
d6
f1
06
03
03
08
f9
03
fb
fe
fb
ed
fc
ee
f5
ed
f7
02
02
01
f3
05
f2
fc
07
fb
fe
0d
02
fc
fc
fa
01
00
ff
03
01
fe
fb
fd
15
fc
0e
ff
f5
f9
fe
fc
fe
00
fc
01
fe
f8
ff
f6
fd
07
0a
0d
05
fa
fb
fe
08
02
f8
ff
ff
12
fe
fb
06
f2
ff
fe
04
f8
ff
fe
03
04
04
06
fd
01
01
06
f5
08
fc
f9
fd
04
f8
04
ff
01
08
f6
0f
0a
01
05
f9
02
06
fa
03
00
ec
12
02
05
05
f8
01
fb
f9
ff
f7
fd
01
03
f6
ff
f9
07
fc
f9
fb
01
01
fc
00
f3
09
f6
f9
fd
05
05
e5
06
01
fe
01
f9
ff
fd
09
09
0f
f7
09
06
fb
fd
05
03
04
fc
f4
fd
f8
01
f2
ff
fd
fc
00
05
ff
08
00
ff
ff
f4
06
fd
03
f5
01
0f
ff
fb
18
07
f6
01
07
ff
02
ec
01
00
f7
06
fc
05
0a
fd
fb
ff
0d
fe
ff
f2
01
fd
01
03
03
fd
fd
fc
fe
03
00
fd
09
fd
0a
01
00
07
fe
f5
fd
03
02
01
01
fe
01
fe
06
01
ff
03
07
fc
09
f3
01
03
03
06
fb
fe
01
04
fa
fe
f9
02
f8
03
00
04
fb
02
ff
fc
fd
ff
ff
05
03
06
fe
fe
05
03
ff
fa
00
07
00
ff
00
01
00
07
0b
fd
12
04
fd
fd
fa
f9
03
00
fb
ff
fa
0b
06
0d
fd
03
04
0a
fe
fd
04
fa
fa
03
05
02
f2
02
fe
f6
00
00
00
05
02
f7
f9
fa
fb
ff
04
0b
fa
fb
fd
fb
fe
0d
ff
04
ff
03
00
06
00
02
02
0a
fe
08
04
fc
fd
02
0f
01
ff
02
f9
0c
00
06
05
01
0f
02
fa
05
0f
02
fd
fb
09
01
fd
f4
03
fa
ff
ff
03
04
05
03
fc
02
f9
fd
f6
fb
fc
09
f5
06
f9
ff
09
f4
05
06
ff
04
ff
f4
f9
f8
05
04
00
ff
00
fd
f7
09
02
f3
ea
00
05
f9
09
03
f7
05
f3
0b
04
f3
fb
fe
08
ff
fa
08
f7
fb
fe
fd
0a
12
00
fb
f8
0b
fc
ff
02
fd
f7
05
fd
fa
f8
04
fd
03
01
ff
f8
01
04
fe
fe
fd
01
fc
08
02
f7
0a
fd
fb
fe
ff
01
00
03
0a
0a
05
02
01
0b
01
00
f7
08
03
fe
0a
f9
02
04
10
03
ff
ff
ff
f8
04
fd
01
0b
00
03
06
05
fa
04
05
fa
04
fe
05
ff
ff
03
09
ff
f8
03
f2
ff
06
f5
00
fd
01
05
fb
10
fa
fa
04
fe
05
ff
03
04
08
fb
f7
05
fc
01
0a
05
fd
f5
02
01
fe
08
06
f9
ef
fc
03
07
01
ff
01
f7
f8
fb
02
f9
f2
fb
0a
fd
f8
f7
f8
02
f7
f9
05
08
f6
00
09
01
04
04
03
f9
03
ff
09
00
f2
02
f0
fe
05
fc
0b
00
fe
03
03
01
fa
ff
03
ff
03
04
fb
00
01
09
ff
ff
fd
06
f6
ff
07
06
02
0d
fd
00
00
fe
07
f9
02
fb
02
03
00
fe
f5
0b
fd
fa
03
0c
06
01
03
06
ff
ff
fe
01
02
01
ff
f6
02
fd
fd
ff
ff
ff
04
fb
fc
fa
fb
fe
01
fe
fc
fd
04
fe
fd
00
03
02
fd
fc
02
00
ff
01
ff
00
00
fe
ff
fd
fd
f6
00
01
fd
00
00
01
fe
f8
fa
06
fe
00
01
fb
f2
ff
fd
fa
00
fd
01
03
00
01
03
ff
f5
fb
01
fe
fa
fe
fd
fd
00
fc
00
03
fe
ff
fa
fd
f4
0a
02
02
02
f7
ff
ff
03
fd
00
06
01
f5
01
fa
fe
ff
fb
fd
ff
00
fd
fe
fe
fe
fc
fb
02
fe
f2
fe
fc
fd
03
fe
05
00
fe
05
f5
f9
01
01
02
07
05
02
04
00
06
0b
fa
09
02
fe
00
09
01
fd
fe
04
05
01
01
f7
fe
05
fd
01
01
08
04
ff
ff
fb
00
04
fa
fd
03
00
fe
00
fc
03
fd
04
fb
01
00
fe
05
01
01
ff
02
02
fd
00
f8
04
03
00
02
03
fe
01
00
01
ff
03
03
fe
fe
00
fd
08
fd
fb
00
f3
fc
03
01
01
01
fd
04
fa
04
02
fd
03
fb
08
02
01
04
00
03
01
fe
02
f8
fa
06
03
02
fe
01
04
fb
00
ff
f9
04
01
03
fd
05
ff
fb
02
f9
fb
02
fc
07
ff
01
02
ff
07
ff
00
fd
fa
f9
00
fe
00
fb
01
f5
04
00
01
03
fa
00
fb
ff
00
ff
04
fe
f9
f4
fd
01
fe
00
07
03
01
fa
fe
fd
01
02
fe
ff
fa
03
04
fc
02
ff
05
0b
01
01
02
02
01
fd
06
fe
fe
01
00
ff
01
fb
03
fa
08
fe
06
05
09
05
ff
ef
f8
01
06
0c
f8
05
fa
03
fb
fd
08
00
f9
06
06
03
0d
0c
00
00
04
01
fe
08
0b
ff
02
0b
05
06
fd
f3
01
f7
03
01
03
02
03
fa
00
01
01
09
00
00
ff
08
00
03
fa
05
06
05
fb
05
02
05
04
05
ff
01
01
fe
03
f9
f9
01
02
01
09
09
02
f9
02
00
fd
02
04
03
01
03
03
01
04
fe
fb
f8
03
fa
03
fd
0a
f6
fc
05
02
fe
0b
f5
01
08
fa
02
05
0a
01
07
02
01
04
0c
03
fc
03
0e
ff
ff
09
fd
01
0b
f7
ea
fc
0a
fa
06
03
04
03
02
00
04
fe
09
01
00
fb
f9
05
02
f8
04
02
f5
08
03
00
02
07
07
f5
fc
00
04
07
04
fe
fd
f6
05
03
06
ff
09
fd
08
03
00
fd
00
f6
fe
0d
01
0b
ff
08
f6
00
03
09
f9
09
ff
fc
00
01
ff
f6
ef
fd
00
08
07
02
f7
f8
fe
03
fb
ff
fc
f8
05
fe
fc
08
06
fb
02
ff
f9
fb
07
09
f7
ff
07
fd
f9
06
0a
0a
02
07
ec
08
fd
ff
19
03
04
fb
fb
07
04
fc
00
01
02
fc
fe
08
08
02
08
0b
03
f8
fc
fa
ff
06
07
05
01
fb
06
ff
f9
f6
01
02
fc
00
fb
ff
0f
00
fb
f9
02
0b
ff
00
00
ff
f2
f6
fe
0f
f9
fe
f3
fe
f7
ff
00
09
fa
01
09
01
f9
03
0a
00
fc
f9
fc
01
fc
fb
f8
02
f3
fe
f8
02
02
fb
01
f4
ec
ff
04
03
fa
fd
ee
0b
07
f8
00
f5
03
03
04
10
fd
06
03
00
04
f7
f8
04
04
fd
fe
02
f6
ed
06
05
f5
fa
fe
ff
01
04
fa
fc
ff
fc
01
fa
09
fe
01
00
00
f1
03
03
06
04
03
fa
03
01
f7
fc
fe
03
04
f9
00
f4
0d
f1
fc
fb
f8
06
fe
07
0b
fb
fb
fc
01
03
fd
0b
02
fa
fb
ed
f9
05
fd
07
fd
f0
05
ff
05
fe
fc
f9
f9
07
02
00
04
01
ec
09
02
ff
1c
00
00
fc
02
00
02
ff
fd
06
01
fd
f5
01
01
fc
fc
f3
fc
fb
fd
fd
01
03
fe
05
fa
f9
02
fb
02
01
01
fd
03
ff
fb
f8
11
00
05
fd
01
fe
01
02
0c
01
fa
00
03
02
05
03
06
00
f8
f9
ff
fc
06
f8
07
f8
fa
fe
03
f6
ff
02
05
05
05
ff
fe
fd
03
01
01
fb
fe
fc
00
f9
f5
f9
05
fc
fc
ff
05
00
ff
04
f6
06
00
00
fc
0b
08
02
02
00
05
01
04
e5
02
08
fe
00
fb
00
02
00
03
fb
fc
fe
01
fd
04
fd
01
fc
02
06
fd
fe
01
f8
fd
01
ff
01
01
04
fe
01
03
03
07
04
00
0a
00
0a
fe
07
f7
05
f8
f5
07
08
0b
f9
fe
fe
03
fc
05
fe
00
10
03
01
ff
06
02
f5
05
00
fd
f8
05
06
05
fe
08
01
00
f8
fc
00
fb
09
09
03
00
09
02
03
03
05
f9
03
03
fd
00
00
fe
01
00
05
ff
ff
03
04
ff
05
fe
06
fc
00
fc
ff
02
03
00
05
fa
01
05
fd
fd
01
ff
05
03
06
f7
03
02
02
05
02
07
03
08
04
fb
04
ff
00
ee
fe
07
05
fe
05
fb
01
04
ee
fc
04
fc
03
09
0a
ff
00
07
06
fd
05
fa
ff
03
07
fc
fe
06
fc
f6
03
03
06
06
02
06
fc
fd
fe
06
00
f4
00
04
fe
01
06
fe
04
07
02
03
0c
05
03
03
03
03
00
fb
fc
01
fb
ff
fb
fe
f8
00
04
f0
f7
02
03
0b
ff
ff
04
02
fb
04
fd
05
05
fd
06
fd
05
0b
01
fb
08
fa
fc
fe
09
07
07
fa
0c
05
03
0b
fd
04
f9
00
f1
fd
05
00
07
07
fc
03
fc
ff
02
ff
f3
fd
fd
ff
fe
fd
01
01
00
ff
08
f5
02
ff
fe
04
f4
ff
fb
0c
00
fa
07
fe
02
fc
fb
07
f5
fd
fa
10
f6
02
01
00
f7
fd
00
02
01
fe
fe
00
04
00
02
01
f2
02
f7
03
06
fd
fe
07
f9
fe
fc
01
09
fc
f2
fc
fd
08
02
fe
ff
05
01
f3
04
00
fe
0c
fd
03
06
fa
02
f6
fe
0b
01
02
09
f9
00
00
f9
f7
01
fe
0a
f4
fd
f5
04
00
02
fc
f0
ff
ff
ff
04
08
05
08
fd
fb
fa
06
02
ef
f9
04
fe
02
fe
f9
ff
f7
fb
f6
0e
00
f3
09
01
0c
fa
01
fc
04
03
01
04
fe
01
06
fb
fd
fd
01
ff
03
fc
03
fe
02
fa
f5
02
fe
04
ff
ff
f5
f3
fe
fb
fa
f8
02
ff
02
01
f1
01
0b
11
03
fa
fd
fb
f8
09
02
fd
05
00
03
f2
02
03
fc
f7
09
01
01
f5
09
fd
ff
f0
09
01
fb
fe
00
04
07
fc
00
fd
fa
f6
fd
05
f9
05
f9
01
fc
ff
00
00
05
03
07
03
06
f4
ff
fe
fa
01
04
01
00
04
02
03
fb
07
06
03
06
1b
06
00
fd
00
fd
fc
0a
fc
f6
05
01
fb
04
12
fe
fe
f2
fd
08
fa
01
f9
fa
01
0b
00
ff
03
02
05
04
08
06
09
04
ff
00
00
04
02
fd
03
f5
07
08
ff
fb
0a
02
ff
fa
ff
f7
ff
07
0c
03
ff
07
09
fb
08
09
03
01
05
07
fe
02
09
0a
fe
01
03
f9
02
06
ff
ff
02
00
01
fe
0a
00
ff
11
0d
fc
01
04
fe
05
03
01
04
02
ff
f5
01
fe
08
03
09
00
00
02
fe
06
fc
fa
f9
03
fd
fc
fd
00
f6
fc
f1
fc
00
fe
0a
04
ff
02
02
01
01
fd
01
01
00
fe
01
fd
ee
fc
ff
ff
05
02
07
02
fc
fd
fc
fc
01
fe
00
04
09
f3
f9
00
fb
fc
00
02
01
03
03
04
09
00
fc
fb
00
04
04
fd
fa
02
08
04
02
f9
01
00
fb
fd
ff
01
ff
03
01
03
01
03
ea
fd
f9
01
02
fe
f8
fd
ff
fe
09
fb
01
ff
07
01
fe
03
09
f8
06
02
00
02
04
04
fd
02
01
fe
fc
f3
fe
f2
07
f9
f9
00
ff
f9
fa
00
05
fb
fc
fb
fe
f9
fc
08
fe
0b
fa
ff
fa
fb
fc
00
ff
f6
02
fa
f9
fe
ff
02
00
f9
ff
02
ff
f9
fd
fb
fe
fc
fe
f9
fb
ff
fd
ff
0a
03
fe
06
fb
03
05
fd
02
ff
09
fd
02
fe
01
00
f5
fc
ff
fe
03
fb
fd
03
ff
fa
01
00
03
0b
05
05
01
fe
0d
f9
01
00
01
05
fa
f5
f8
ff
04
f8
f4
02
f9
fe
f5
02
03
05
00
06
00
08
0a
03
01
fe
00
01
05
0b
06
09
04
f8
fe
fe
0a
fd
03
04
f9
01
ff
02
06
05
00
02
03
08
09
03
02
00
06
00
fd
ff
fd
02
f5
01
00
05
ff
0a
05
03
fc
06
fc
00
fa
f9
03
04
07
03
01
04
fe
04
00
f9
00
03
04
06
02
00
07
02
fc
f9
03
02
fd
00
f2
08
02
01
03
fd
02
fc
00
fc
fb
02
08
03
03
04
02
03
00
00
fe
05
04
f5
fd
fe
05
05
fc
f8
fc
fa
14
09
04
fe
fa
00
00
05
fd
03
00
00
ff
fe
00
05
f8
fd
fc
fe
fa
00
00
03
03
00
01
01
02
fb
fa
00
f9
00
00
06
07
04
f7
07
fb
04
09
0a
00
fa
01
04
fb
fd
02
01
19
fb
04
fe
00
07
01
f8
01
f8
04
fc
01
f9
f7
ff
f7
f8
00
fb
fb
ff
fb
fe
fe
07
00
07
00
fd
fd
00
03
00
fd
02
fa
02
fd
06
09
fd
01
01
fd
ff
fe
fe
f6
ff
ff
f3
fc
02
03
fa
03
00
fd
fb
00
fd
00
02
fd
fc
f9
04
07
fa
fe
01
fd
02
fe
05
ff
fd
fe
01
03
fa
ff
fc
fc
fa
ff
00
fe
04
ff
ff
04
02
02
f7
fd
fe
ff
fe
02
02
fa
f5
03
fc
fc
f9
fb
fd
01
02
ff
01
fb
05
01
04
fc
02
01
fe
fe
02
fe
f9
01
ff
03
ff
ff
fd
02
fa
07
fb
fc
03
0c
f4
05
02
01
fd
ff
fe
fe
05
fe
ff
fe
f8
fe
00
02
fb
ff
03
ff
fc
fe
ff
fb
00
fd
02
00
f9
f8
fb
08
ff
f9
fd
fd
ff
fe
01
fe
ff
fc
ff
01
06
fd
01
fa
05
f9
03
fe
04
06
fe
07
04
04
12
07
fc
02
08
fe
00
02
fc
f8
fd
ff
03
05
fb
00
01
f1
01
f9
08
06
05
ff
f5
0a
ff
0c
05
ff
01
01
05
fe
08
03
07
01
0c
00
05
04
05
00
00
0a
04
09
fc
04
fb
01
ff
00
fa
03
04
02
fe
00
fd
00
04
01
ff
fa
02
03
ff
08
0d
03
ff
01
ff
04
00
fd
fa
03
0c
06
04
fe
ff
02
fc
fa
fe
01
0d
00
03
fc
07
02
03
f8
ef
fc
fd
0a
01
08
0f
05
00
01
fd
07
ff
00
07
fe
0f
fb
04
03
07
fe
fa
fe
11
fd
fb
09
03
01
01
01
fc
fe
05
05
ea
0a
02
08
05
fb
03
00
02
01
ff
fe
fc
02
fd
fa
07
03
f6
ff
00
03
09
06
02
00
02
ff
ff
03
00
00
05
01
02
f2
fb
fc
fb
fd
01
fa
01
08
ff
ff
05
fa
0a
fe
03
fd
fc
08
03
08
ff
fd
f9
05
fa
0a
fb
0e
fb
00
02
fb
ec
02
f6
02
11
fa
fa
fc
00
01
ff
ff
02
f9
03
01
09
0b
03
fe
00
fb
ff
0a
fe
12
02
ff
02
03
05
0a
02
fd
fe
ff
fb
02
00
03
fa
0b
01
fc
ff
09
fe
fd
05
00
fa
fe
02
00
00
00
04
ff
00
ff
fe
ff
00
04
02
fc
01
ff
09
fb
fa
fe
03
02
04
01
01
05
05
00
02
fc
02
07
fc
03
08
ff
f7
04
06
03
f5
fe
ef
f7
f9
fc
ff
07
f7
fd
0a
ff
fc
fd
00
03
00
ff
05
fe
f8
fd
f7
04
f4
fc
ff
07
ff
fd
ff
ff
f2
fe
05
fe
01
fe
ff
05
06
fa
fc
fb
ff
ff
fd
fc
f6
08
06
09
02
08
ed
fc
00
fc
fe
0c
03
ef
f7
00
fd
fd
00
f9
05
fe
04
f9
04
f9
08
fe
08
fe
fb
f5
fe
fb
02
fb
0a
07
ff
fe
00
fe
fe
01
02
fd
08
fb
ff
ff
ff
ff
ff
0a
fd
06
02
ff
01
0b
fc
fd
06
fe
ff
05
00
fc
ff
f6
01
06
f7
fe
04
fb
01
fa
07
00
01
03
00
06
03
fe
02
fc
06
03
fd
fd
01
00
ff
fa
03
00
fd
01
00
08
03
03
04
ff
04
01
02
02
fe
00
01
06
02
03
fa
05
08
06
fb
f7
03
01
fc
01
fc
fa
01
fd
00
fe
11
fe
02
f5
fd
03
04
08
01
00
02
f7
ff
03
03
04
fe
f7
01
fd
f4
05
f9
fd
02
fa
00
02
00
ff
03
fb
02
04
01
fc
ff
ff
07
02
f9
00
f8
04
05
ff
fe
fc
04
05
fa
00
04
fd
f8
fc
f6
00
f5
fc
09
01
fa
08
fb
fe
ff
fb
fe
fa
ff
fe
09
02
02
ef
fc
ff
01
09
04
05
05
f9
fc
fb
04
02
ff
ff
07
fc
04
00
fe
fb
fe
ff
05
09
01
ff
08
07
ff
f8
fe
f8
02
fe
00
fe
00
00
fc
fc
fe
fe
ff
ff
fc
fc
ff
fc
fe
03
fb
02
05
fd
00
01
00
06
02
ff
fb
0b
ff
fc
06
02
fc
f3
ff
05
00
ff
09
fd
fc
05
0c
fc
fd
fc
fd
fa
03
ff
06
04
03
fd
02
08
fe
fc
00
fe
01
ff
ff
fd
00
00
07
fb
fe
fb
04
ff
fd
fc
03
00
04
fe
05
fe
fa
ff
fa
ff
fd
fc
fd
fc
ff
fb
f8
05
fd
04
04
05
0e
04
04
f8
ff
08
02
02
fa
fb
0c
00
06
fc
fa
ff
fe
fc
05
ff
01
06
09
01
ff
fe
05
00
09
02
fe
06
00
fe
fe
01
f9
03
f9
fe
fd
ff
04
fb
fd
f7
02
fc
01
fc
02
ff
0a
ff
01
f9
fe
fa
05
ff
0a
ff
fb
fe
ff
01
03
ff
ff
0f
04
02
fc
0b
fc
00
02
fd
06
fb
fa
05
f7
05
ff
02
00
04
fc
fc
0d
04
ff
02
fe
03
fa
02
03
11
00
01
07
0d
07
08
fd
ff
04
00
fb
01
02
ff
03
09
00
09
fe
09
03
fe
fc
fe
00
ff
01
0a
03
0b
f8
00
02
04
07
f8
02
02
fd
ff
03
fa
fb
0b
f8
00
09
07
07
fc
f9
06
02
05
05
08
ff
00
01
fe
04
fd
fb
04
05
05
04
fa
fd
00
ff
00
fe
03
05
01
00
00
02
fc
03
eb
ff
04
03
09
09
08
03
fe
fb
ff
07
fa
fc
fb
03
03
06
02
fa
06
01
f3
f8
02
04
f9
04
04
f6
06
00
03
03
02
05
01
07
fe
00
01
07
fc
04
ff
05
01
fd
02
08
02
01
02
07
03
02
06
fe
ff
05
01
00
fd
f5
fd
fe
04
00
03
f9
fe
fe
f4
fb
08
07
fd
02
02
04
ff
fe
07
fd
ff
fb
06
fb
05
01
03
00
f8
ff
f9
fe
01
04
07
05
06
fd
fb
fe
09
fe
fe
ff
04
02
f5
0c
01
07
02
fe
f8
00
05
09
00
01
ff
ff
03
fc
00
ff
ff
05
fd
ff
03
0b
07
f9
ff
04
fa
00
f4
07
ff
01
0d
ff
01
01
ff
00
f7
fd
02
ff
06
00
07
05
05
fc
00
ff
05
fe
05
04
03
fe
07
08
05
ff
06
00
07
00
fa
02
f7
f3
fa
05
03
01
01
03
00
04
fe
f8
ff
fb
fa
08
ff
07
02
fa
fe
00
01
f9
f8
f9
08
ff
fd
02
0a
0f
07
fb
fd
08
11
06
fa
02
fd
fa
03
09
03
07
03
fc
03
fd
02
f9
ff
ff
06
04
fd
02
05
07
fe
03
0a
fe
02
00
fd
07
01
03
fa
fe
fe
00
fe
ff
fb
03
06
00
fb
00
fc
01
fb
fb
00
01
fa
ff
fd
ff
fe
00
03
01
02
ff
f9
09
01
08
fd
07
00
ff
fa
02
03
02
03
06
04
f6
00
fc
05
fb
04
03
02
03
fa
00
fe
06
04
0b
fd
fe
fd
ff
0c
04
00
fe
fa
03
03
f7
01
ff
fd
fe
f6
ff
07
f9
05
fb
00
00
01
fb
03
ff
08
00
ff
fc
04
04
06
f9
05
01
fb
05
03
ff
ff
03
fb
00
ff
01
03
ff
00
ff
fc
fd
00
f9
ff
00
fe
00
01
04
03
fd
00
fb
fb
02
ff
01
ff
fe
09
fd
06
fe
fd
fb
fc
fc
fe
04
fb
fd
06
fc
04
fd
00
e9
fb
02
f9
fe
fa
01
ff
ff
fa
fc
05
00
fe
00
fd
fc
fd
fe
fd
f9
03
f6
00
fd
fd
f5
06
00
01
ff
0c
fd
f7
00
fc
fc
07
fb
fe
fd
fb
04
ff
03
ff
01
01
07
02
01
f7
f5
ff
01
fe
01
04
fd
f9
01
03
00
ff
ff
06
03
03
f9
fa
07
fd
02
ff
06
01
fd
fc
02
fc
fc
04
05
ff
fd
05
09
fb
ff
f7
ff
06
f8
f8
03
f6
ef
04
04
fc
fb
00
fb
f9
f5
07
fd
f6
f6
f9
02
fd
fb
ec
fd
e3
07
07
02
ee
fd
03
fd
ff
01
ff
f9
fc
0a
07
08
03
fd
fc
10
f9
fc
00
f2
fe
03
fb
fe
00
00
fc
fd
0c
0a
ff
f5
fd
03
fd
ff
09
05
05
01
03
00
ff
fe
01
00
fc
fe
f0
05
03
fc
fd
03
ff
02
f7
ef
ff
fb
fa
fd
e4
01
02
f7
02
04
00
07
fd
01
04
07
fa
ff
fe
ff
fe
f8
fb
ec
fd
02
00
f2
f8
f5
ff
02
03
04
fc
00
fe
03
01
03
02
07
0d
02
e8
09
f8
fc
01
04
fd
f7
18
ff
fd
ff
01
09
f7
fd
02
06
03
01
fc
f9
fd
01
f6
fc
01
fe
00
f4
09
fb
fb
03
01
fb
06
fb
08
05
02
f6
fd
03
07
f9
00
06
09
fd
0f
06
f6
ff
ff
07
f8
01
fa
fd
ff
00
f7
06
f6
fe
fe
03
fd
12
04
00
02
f3
fe
fc
ff
03
f8
00
ff
07
fe
f9
ff
fd
ef
05
f8
fe
fc
00
fa
fb
f2
04
01
f4
fc
fd
fd
f5
02
00
ff
f9
ff
fb
f7
05
01
fd
00
04
ec
05
fe
f5
fb
fc
fe
fe
01
01
fe
ff
00
ff
fd
fd
04
fb
fb
04
fc
01
fb
ff
07
06
ff
06
01
fe
01
02
ff
01
fd
00
fc
fb
01
fe
f9
fe
fb
fc
fd
01
f9
0a
05
0b
f8
fe
01
00
f7
f7
f9
ff
fa
ff
f9
02
01
fc
02
fa
07
07
fd
03
f6
fb
ff
fc
fb
0a
fd
fe
f0
fd
0d
f5
06
fa
fd
01
fc
fe
03
01
ff
ff
fe
06
08
07
f6
f6
fe
ff
02
0e
fe
fd
00
00
00
fb
0e
05
ff
02
02
01
fe
f8
f9
06
03
fc
fa
02
01
fe
03
09
02
02
02
05
09
ff
f8
fd
00
04
04
fc
fc
fd
03
fd
fb
02
03
fd
00
ff
f9
f6
05
f5
fb
02
06
fd
06
00
ff
05
03
06
fe
ff
fb
fe
02
02
fc
03
fd
05
ff
05
06
fa
01
00
09
fc
04
00
03
fe
04
00
fd
01
fe
ff
06
06
00
00
01
00
01
fe
00
ff
ff
fe
fd
01
01
01
00
07
fa
fe
fc
fd
04
fd
f5
fc
03
01
06
fc
01
07
06
fd
fe
ff
06
0b
02
02
fa
04
05
05
fc
05
00
01
fd
00
ff
06
fc
ff
fc
00
f6
03
fd
03
02
00
02
fc
01
00
fc
fd
01
06
02
08
f9
08
04
fa
fd
fa
03
01
fc
fb
00
03
04
01
ff
00
00
fe
ff
05
fd
00
03
ff
0c
07
f9
fb
fc
ff
05
fe
05
02
01
02
00
00
01
ff
fd
04
fb
fd
03
01
fe
fe
fc
fc
fc
fd
0c
ff
fe
fd
ff
fd
03
02
0b
00
06
ff
07
06
00
06
01
00
fc
02
02
01
04
00
fe
fb
fd
f9
ff
f5
01
00
05
01
fc
07
ff
01
fd
fc
fd
fc
f7
fe
fc
00
00
fd
fc
09
06
02
04
fd
fe
05
ff
02
00
06
03
ff
fe
ff
fc
06
05
03
fe
04
06
09
fd
fd
f8
01
13
ff
03
ff
05
fe
fe
01
fe
01
fe
fe
00
06
fe
09
02
03
07
f9
05
ff
ff
03
02
02
fa
fb
03
06
01
06
f7
fb
fc
03
00
00
04
00
09
04
fc
0a
03
05
03
00
fa
09
fb
03
fe
07
fd
fb
fd
03
03
03
fc
fa
0a
04
03
f8
06
ff
fc
fd
05
fa
0b
01
03
01
ff
03
01
fd
03
02
fa
fd
01
08
04
04
06
00
04
f8
0a
fd
02
ff
03
ff
01
00
f6
01
02
02
02
00
fb
fb
02
07
f3
fe
03
03
f8
ff
ff
05
fe
00
05
03
fb
ff
11
02
fe
fb
f8
05
fc
0c
01
fa
07
fc
fb
04
05
fe
f9
03
0d
09
04
02
0d
fe
fd
02
fc
f6
fe
01
ff
ff
03
00
13
07
01
03
f8
fd
01
05
f9
03
00
00
04
fe
10
f8
02
ff
09
00
fe
fe
fd
ff
fd
06
09
f6
06
fe
fd
01
fa
01
04
0b
03
01
fd
01
04
f9
06
02
05
01
00
01
08
07
fe
fc
0c
06
04
fa
ff
09
03
fb
f2
fe
01
f8
06
fc
f1
00
f8
f8
fb
01
01
06
fe
fe
ff
14
03
08
02
01
02
0a
f9
00
08
05
fb
fc
02
0a
fc
fe
fd
f8
00
09
fb
07
06
06
fd
03
fc
ff
01
0a
fb
05
04
fe
fa
08
02
fe
01
02
fe
ff
03
03
0b
07
01
04
01
fd
03
fe
13
02
04
ff
fd
07
05
02
0a
03
01
00
fd
06
05
03
00
fe
05
fd
0b
fb
01
ff
00
08
0a
01
fb
ff
03
00
00
fe
04
f3
fe
03
05
f8
01
fd
fb
03
fe
fc
03
03
03
0d
ff
ff
05
00
fa
02
fe
f6
00
00
fe
ff
fa
fc
00
fc
00
02
fd
f8
07
f8
00
03
01
fa
00
fd
09
fe
fd
01
fe
fb
fc
fd
02
fe
fb
f6
fa
fd
00
09
03
03
f1
f9
f6
fd
01
00
00
fb
fd
fe
ff
01
fd
fb
01
ff
08
00
15
01
fc
fb
03
fe
fc
fe
02
04
ff
00
ff
03
07
f9
03
05
03
ff
fb
ff
fe
fa
01
f8
fb
ff
fe
00
06
f9
ff
03
ff
00
ff
03
fa
f8
f4
06
02
04
01
fc
02
05
01
00
02
fa
06
0a
04
00
03
fe
02
fe
02
fb
06
f9
03
02
00
04
fc
fe
05
fc
fa
07
06
fc
00
fa
f7
01
05
01
00
fc
fb
ff
fb
ff
06
00
05
fc
04
fa
00
02
01
00
f6
fc
03
02
06
00
fd
ff
04
fd
fd
05
04
03
03
04
02
01
00
fd
fc
00
01
06
02
fa
fc
02
0a
04
fe
fe
f6
03
0a
fd
03
01
03
fa
03
ff
0d
ff
02
01
04
fe
ff
02
03
fa
fe
fc
00
00
06
fe
02
f6
ff
fb
fc
02
fc
fe
06
01
fc
03
fa
02
ff
ff
01
ff
fc
00
02
fb
01
01
ff
04
fd
fe
0e
00
02
0a
07
ff
07
ff
fe
f9
fc
02
08
05
01
09
f8
09
fe
0c
fd
05
f9
07
03
03
05
fd
fe
ff
06
00
ee
fb
f7
02
03
01
02
fa
02
00
fc
fd
04
03
fb
02
02
fe
ff
f8
02
ff
04
f4
fb
fd
04
fe
03
04
f1
fb
fc
01
01
f9
fd
02
02
fc
01
00
00
fc
00
00
f8
fb
fe
f8
00
01
ff
fc
03
00
04
00
0a
01
fe
f4
07
ff
05
00
03
fd
00
fe
fc
fc
fe
05
fb
0d
04
fb
01
02
fe
03
f8
04
fd
00
01
fc
fe
ef
ff
03
fc
05
fe
02
fd
fe
04
fe
f9
fd
fc
ff
02
02
02
02
10
fb
01
fe
00
f8
ff
ff
06
fc
03
02
07
ff
02
fc
01
08
fd
ff
fe
ff
fd
01
fe
fd
ff
02
03
05
ff
09
06
02
01
02
f3
00
02
00
07
02
03
ff
f5
fb
03
fe
00
00
00
fa
04
01
00
fd
fd
fe
02
06
f5
00
fe
ff
02
07
00
02
01
06
03
06
03
00
04
01
02
ff
05
10
00
00
fe
00
f9
fa
fc
fc
02
01
ff
03
01
06
fc
f9
fb
03
01
f1
06
03
ff
00
ff
fa
06
06
fc
ff
fb
fb
fd
05
f6
0b
f8
fe
fe
fb
06
fc
fa
01
00
fc
01
06
ff
fe
05
08
fb
fe
0a
04
ff
05
fd
fe
fd
fc
fd
00
03
01
02
ff
fc
fe
fb
01
ff
fc
01
03
0e
00
fe
fa
ff
fd
ff
fa
fd
fc
fd
fd
00
ff
02
fe
01
f8
fb
05
04
05
04
01
06
0a
0f
fb
04
f5
02
04
0c
05
02
00
02
f7
02
fb
07
ff
fa
00
f7
fe
02
fd
f9
ff
f8
f8
02
02
fe
08
fd
02
ff
03
f9
03
07
09
00
fa
fb
fb
01
01
06
ff
00
fe
04
00
ef
02
fe
08
09
03
04
03
04
fa
01
fc
f9
01
f8
fe
fd
04
fc
03
f2
fc
fb
fb
ff
fd
ff
fb
0a
08
fe
0d
04
ff
03
fb
fc
05
06
0c
fa
fe
fd
06
02
01
f6
08
fe
01
f8
01
fb
03
fc
f7
fd
f8
04
05
00
04
fe
02
04
f6
00
00
fe
04
fc
f7
02
02
04
fd
02
05
fd
06
01
01
07
ff
03
07
03
07
fe
02
fb
fc
05
04
07
fb
fa
04
16
02
f9
07
04
00
fc
04
fd
03
fe
01
04
01
fe
04
02
03
0c
fe
03
fc
00
01
07
fb
05
fd
00
07
03
04
03
fc
04
f8
ff
fe
05
07
f7
00
05
02
fa
00
0b
01
07
0a
f3
04
f6
00
08
fb
00
ff
ff
fc
fe
01
fe
07
08
fa
0f
01
ef
fe
11
07
fb
02
02
fd
00
07
04
fe
02
09
f9
ff
02
03
00
ff
03
03
fb
fb
00
fc
06
03
fe
01
f9
02
f9
fc
00
ff
ff
f9
ff
03
fc
fa
00
fd
fc
00
f7
fb
01
02
fd
01
fd
fb
f9
00
00
fd
01
fc
f6
09
ff
02
02
f6
fa
f5
07
02
0b
19
01
04
ff
00
fe
fb
ff
ff
02
fe
eb
07
ff
f0
fc
00
03
ff
03
01
ff
03
00
00
fe
0a
02
fc
f7
fa
0b
05
01
fa
02
00
03
00
02
00
00
00
fd
ff
05
fb
00
f4
09
02
03
04
04
03
04
00
07
01
01
fd
f7
fe
00
02
fc
ff
07
fe
07
05
fb
fe
f9
07
03
fc
02
01
fc
00
09
06
fd
03
03
02
01
fd
fc
05
f8
fe
06
ff
00
00
03
ff
fc
f7
fd
00
02
f9
fb
05
05
04
03
02
00
02
03
fb
02
fc
ff
ff
f6
fe
0a
00
00
fd
ff
03
f8
05
f3
fb
00
fc
02
f6
fd
01
01
f7
fe
fd
03
fe
fe
fe
02
03
fb
fc
03
fc
05
fb
05
fd
02
03
ff
02
f8
01
03
08
ff
01
02
07
fb
fc
fb
fc
00
01
01
05
06
ff
01
07
01
0a
f5
01
ff
03
fa
fe
02
fa
fa
ff
03
fb
ff
fc
05
fd
ff
03
fe
f9
03
08
ff
08
fd
f8
fc
fd
fd
04
04
02
ff
fc
02
fd
00
f8
03
01
fc
00
0d
03
01
09
02
03
05
f8
fe
03
04
ff
fe
02
f9
01
05
ff
00
00
00
f1
02
fc
01
00
f2
fc
ff
fd
01
02
fb
ff
01
04
07
fc
06
02
06
ff
0b
fb
fd
fe
03
fb
04
06
fa
02
fd
fc
02
ff
ff
f5
ff
f9
05
01
f9
fb
ff
f7
fc
00
fe
f8
03
f3
fc
fc
07
04
05
fb
fd
05
01
ff
01
01
f3
fd
01
00
fc
fe
fa
04
fd
04
01
00
fc
05
03
00
02
03
fe
fb
02
fe
f9
ff
03
fd
f9
fe
fa
01
02
ff
fc
fd
fb
02
fc
03
ff
ff
fc
fa
fa
ff
ff
fc
00
03
01
fb
01
03
06
ff
ff
fc
02
03
ff
ff
fa
00
03
02
fc
02
fc
fc
01
00
02
fc
fd
03
07
02
01
07
ff
fa
02
02
f1
05
04
05
05
f9
00
f9
fe
04
fd
ff
fa
03
08
00
fb
07
02
fa
fe
fe
fc
01
09
f6
f6
01
02
fc
02
f6
06
fd
fb
fb
f8
01
02
f9
0d
01
00
01
f8
f6
fd
0a
fa
fc
f8
fe
fa
ff
fd
02
08
fa
0b
fd
03
03
f6
00
01
f8
00
f9
f8
01
fb
06
fc
00
00
fd
f9
0f
f8
fe
f9
0a
05
ff
00
01
fd
03
03
04
ff
01
00
05
f7
fe
fc
fc
f5
01
fe
fa
fb
05
fd
01
03
ff
01
fe
ff
fb
fb
ff
fd
04
fd
06
fa
fb
01
02
f8
fe
f4
ff
ff
04
fd
fe
f9
02
04
fa
ff
fb
01
08
fd
fe
03
fe
05
02
02
03
03
00
00
04
02
01
03
ff
00
03
fe
01
02
02
03
fb
f7
00
fb
ff
00
fc
00
ff
06
06
fe
f0
01
03
04
02
fd
00
ff
00
ff
fc
fd
ff
fc
f4
0b
00
fe
ff
04
01
ff
fe
f5
06
05
06
04
f8
07
fd
fb
01
01
02
00
fb
01
ff
02
f2
fc
f9
f8
07
08
00
06
07
fe
00
06
fb
fe
01
ff
01
fa
f9
f9
08
01
03
03
01
03
f9
ff
ff
fb
02
f5
fd
02
fc
fa
00
fb
fe
fc
00
06
ff
f8
fe
04
01
f7
02
fe
ff
ff
01
06
fc
ee
fc
02
01
02
fd
01
00
fe
fd
f4
04
ff
00
02
04
fd
10
fd
02
0b
09
fd
01
00
03
04
f5
02
03
fc
02
fd
00
f9
02
01
00
01
fd
ff
07
f2
04
ff
ff
03
03
00
02
fc
00
00
06
fe
ff
01
f7
fe
fa
ff
fc
fc
fb
ff
06
ff
00
f8
02
ff
07
ff
ff
02
00
fc
fc
05
02
05
03
fe
fc
fd
ff
f9
fa
00
06
02
fd
02
f7
fe
0a
01
fd
00
ff
02
07
fc
fe
00
fd
01
07
00
03
04
ff
02
01
02
ff
fd
fe
fe
fc
08
ff
04
00
01
fa
fd
03
fd
0a
fe
07
06
09
02
fc
fe
06
ff
fd
fd
04
ec
02
f8
06
ff
04
f5
fe
fd
fa
fd
01
02
fe
00
05
ff
fb
f1
02
06
06
02
fe
04
fa
01
02
06
03
01
01
02
00
00
f9
06
08
fc
05
f9
02
07
f4
ff
06
fd
fc
00
fe
10
06
f4
fe
fc
09
02
02
01
fe
ff
02
04
03
fd
0f
fe
03
fb
04
06
fe
fe
00
f5
ff
ff
12
04
05
02
04
f7
fd
08
00
fa
08
fa
04
fc
0a
04
03
00
02
09
fa
fe
01
fa
fb
01
fb
07
03
fc
01
00
f9
03
03
fa
ff
ff
ff
fc
fa
01
fe
fd
fb
fe
05
06
02
04
01
05
03
03
09
04
ee
ff
fb
fb
ff
03
00
ff
ff
05
fe
02
08
00
04
ff
fe
10
04
01
fe
f7
f9
00
02
fb
f6
04
f5
09
04
fe
ff
ff
06
00
03
f8
09
08
01
fd
09
07
f5
01
0b
fb
08
02
fe
00
fa
04
01
ff
03
04
f0
05
04
ff
f6
02
09
ff
fd
fd
01
ff
00
ff
05
ff
0b
fa
fd
f9
0f
fb
fa
0c
04
09
ff
02
fe
01
00
0c
01
ff
ff
f9
fd
fb
02
fe
0a
fe
ff
01
07
fe
00
00
f9
f7
06
05
01
05
04
00
fa
fb
0c
05
04
ff
00
03
02
0a
09
fe
0c
f0
fd
02
fe
04
fe
00
00
fd
03
02
ff
f9
ff
fc
02
fc
08
00
04
ff
05
f9
fc
05
fe
fc
fe
ff
ff
f3
04
ff
fb
01
08
f6
fe
f7
00
fd
fc
01
fd
fb
03
01
f9
ff
08
fa
ff
ff
fa
04
06
fc
03
fe
fc
01
00
03
04
fb
fe
04
ff
e2
01
ff
ff
fc
00
00
01
09
ff
00
00
0a
fd
ff
02
01
f8
02
03
ff
fd
fe
ff
01
fc
02
05
fd
ff
fb
fb
03
fc
fa
ff
fd
01
05
04
07
ff
f9
07
02
01
f9
03
00
fc
03
ff
03
0a
fc
fd
01
00
06
ff
02
06
0b
04
fc
01
fd
fd
fd
fe
f8
ff
fd
fa
f8
05
03
fb
02
02
fa
02
04
0a
03
fc
fc
f8
f8
03
fe
f8
fd
04
06
07
fb
04
06
ff
ff
01
ff
04
06
01
08
fa
ff
04
03
07
03
03
02
ff
fe
04
fe
00
02
fe
ff
00
00
07
00
fa
fa
fc
ff
fe
ff
05
03
04
03
04
02
ff
05
02
04
00
05
03
05
fa
fb
02
00
01
02
02
01
ff
0b
fb
fd
02
07
04
01
fc
fe
02
00
fc
fb
fd
00
f9
01
ff
fc
01
f8
05
03
03
fd
01
02
02
fd
04
02
00
04
04
fe
01
fc
06
01
fb
fe
05
00
04
fd
fe
00
05
00
fd
fe
04
03
fc
fe
fc
02
01
01
fe
fc
02
04
ff
06
fe
09
ef
ff
f5
03
02
fc
ff
05
fe
ff
fe
01
01
02
03
05
f7
fd
03
02
08
fa
03
fa
fb
0c
03
08
fb
01
ff
00
fd
fd
ff
fc
f8
fe
00
fe
03
03
f9
fd
02
05
03
fa
00
00
01
03
fc
01
fe
fc
02
04
ff
fc
fe
06
ff
fe
fe
f8
03
06
ff
fe
fb
ff
fc
04
fd
f5
ff
02
01
04
f5
f8
05
03
fb
f7
02
00
fa
02
02
fb
03
01
fe
ff
f6
0a
fc
fa
ff
ff
09
04
00
ff
fa
08
01
00
02
f9
06
fd
ff
fc
01
06
fa
fe
00
03
ff
fb
fd
00
ff
03
f3
fd
fe
04
f6
fc
fc
ff
f8
03
02
fe
f9
f8
fc
0a
ff
09
ff
ff
02
02
fb
01
0a
fb
fe
ff
00
fc
03
fe
ff
04
ff
fe
02
fd
ff
01
fe
03
07
01
ff
00
fc
0d
fe
00
00
f9
f6
01
ff
00
04
07
fe
00
fe
ff
02
03
fe
02
06
fa
03
01
08
ff
04
00
fa
ff
fe
f9
01
ff
f5
00
01
fe
fa
fe
f9
fc
02
fe
06
fd
01
fa
01
03
00
fe
fd
fb
f7
fe
fc
00
fd
05
03
07
00
fd
03
01
01
fd
fd
01
02
fd
00
04
fb
f7
01
fd
fd
f9
ff
fd
ff
fa
01
01
fd
fd
01
fd
02
fe
05
f8
00
fb
05
0b
f6
01
00
fc
06
0e
00
01
ff
fb
fe
07
f4
fc
f7
fc
09
02
ff
08
03
08
00
fb
fb
07
04
fc
fc
f4
f6
06
f8
01
03
f9
f7
05
03
01
06
06
fe
09
05
fe
07
00
08
00
fd
f9
07
0a
00
02
fe
07
fd
01
00
fe
04
ff
fb
fb
01
ff
fb
fe
f9
fd
f8
07
04
fe
fb
08
fe
04
00
02
fd
f8
f2
05
03
fc
07
00
fb
fe
03
ff
01
ef
fe
03
05
0e
05
04
01
02
f6
f3
ff
f5
fa
06
01
fd
f9
03
fe
03
f8
ff
fe
02
ee
00
0a
02
f4
04
f7
fd
02
fe
05
00
f8
02
f6
fc
fd
05
0c
fc
02
08
fc
0a
fc
02
00
02
04
02
fe
fa
f9
02
06
12
fb
fd
f6
f8
fd
fd
00
07
fb
f9
fb
ef
00
fe
01
06
06
05
04
f7
01
fc
09
ff
0e
01
05
05
f5
fc
fb
01
ff
07
02
06
fb
fb
01
01
02
0c
f6
03
fc
01
fc
01
f9
fe
fd
fc
05
09
fa
f6
fd
04
03
fd
05
fb
08
04
fb
02
05
fe
fd
f8
01
0b
f8
04
fb
ff
05
fe
00
00
fa
05
01
02
fa
fc
02
fd
fe
fe
fc
00
f6
04
fe
02
06
f7
fb
f6
fe
fe
ff
ff
03
02
fd
03
06
fe
fe
00
05
fb
fa
fd
08
00
01
fb
04
fe
f8
01
fe
06
f3
fb
02
02
01
f6
01
fe
06
fe
f3
02
fc
fd
fa
0a
f3
fd
fe
04
fe
fe
0c
00
f8
02
fc
02
01
03
01
f8
fe
02
04
fc
fc
f9
fb
01
04
04
fc
ff
02
07
f7
04
00
fe
04
fd
02
05
05
05
01
00
00
02
fe
fb
fa
00
00
f4
00
00
f2
ff
fe
01
01
ff
fb
f7
ff
fe
02
09
02
fa
fd
02
fb
02
fc
06
ff
fe
02
02
02
04
03
fd
02
fb
07
ff
01
00
ff
04
08
fc
03
0a
01
06
06
09
f9
fb
f4
14
08
05
11
05
f9
01
00
01
08
02
02
fb
fe
fc
fb
12
06
fd
03
f9
fb
f9
0d
fc
f9
03
0d
05
03
0d
0a
fa
ff
06
fe
03
06
09
f3
00
07
fb
00
02
f9
fe
0a
06
03
01
f5
08
04
00
08
fa
04
07
02
02
01
03
01
10
07
fd
fc
0b
fd
00
fe
05
fc
07
03
f4
02
05
f2
07
04
fc
fd
f8
f7
fc
03
fb
fb
0b
fe
05
f6
fe
ff
01
00
0a
f9
02
00
04
06
02
f6
fc
08
fe
f8
04
fc
fd
fe
09
f2
02
03
08
06
03
00
fd
f5
0d
09
02
ff
fc
14
0c
05
01
fe
01
03
01
ff
07
fb
06
04
fc
04
02
fa
f8
03
06
00
02
02
fa
01
06
fc
02
03
fd
07
05
f8
00
07
0b
03
04
0c
01
fc
f8
fc
fa
06
f9
04
08
02
05
f7
f6
fd
00
03
06
00
fb
fe
fc
04
00
00
fa
01
02
f7
0b
ff
02
fe
03
fb
03
05
fb
01
00
ff
fe
fb
03
fa
03
fe
fe
07
f9
01
03
00
ff
00
fe
02
01
05
fa
fd
05
02
02
00
01
02
fd
f8
fb
00
05
01
fe
02
ff
00
f3
04
ff
fe
fa
fb
fd
06
08
02
fd
03
fd
fb
0a
ff
02
02
06
f9
04
fe
fc
02
00
ff
ff
02
fa
0a
07
02
04
fa
05
ff
03
fe
01
02
f8
02
01
01
fb
ff
f9
01
06
02
ff
f7
05
00
ff
01
05
06
fb
02
02
ff
ff
02
00
08
04
fa
03
fc
04
00
fe
09
f9
fd
ff
f8
01
01
fc
ff
03
01
00
fe
06
01
fe
00
f8
f9
08
00
fb
ff
fc
01
fa
00
06
fc
01
fa
07
fc
05
fc
02
fb
fe
05
09
01
07
05
fc
01
ff
fc
07
01
03
04
00
01
fb
f2
ff
05
f8
fb
0b
fa
fc
04
07
fe
05
fb
f6
f9
03
fd
0c
f8
fb
fe
0a
08
fe
fd
fc
01
fe
f9
fc
06
ff
01
fb
fe
04
f9
0d
ff
fd
07
06
fb
fb
02
06
ff
06
02
06
03
fe
02
03
04
02
f4
04
04
ff
00
01
04
02
04
0b
00
04
00
f7
fc
03
f8
ff
01
05
05
f4
05
f9
08
f6
f7
ff
fc
fe
fe
01
fb
05
02
04
f9
03
fc
13
08
05
f6
07
fb
01
ff
00
02
fc
fb
fa
08
fd
00
fe
0b
04
fd
fd
fa
f8
06
ff
fc
f6
01
02
fb
ff
01
01
08
fb
07
fb
0c
01
04
f9
f7
f8
00
f8
f7
fe
0c
0b
fb
04
03
02
06
fb
01
ff
04
01
06
04
04
00
fb
04
02
01
05
06
04
fc
02
08
09
f5
04
fd
01
ff
00
06
f6
fc
f8
f7
04
05
01
fd
02
fc
00
f7
05
02
05
f9
ff
ff
ff
07
ff
f4
02
07
02
05
01
01
0c
f5
05
04
01
02
ff
03
fd
00
01
ff
00
03
00
fc
03
fd
04
00
02
04
01
fd
07
02
fa
04
f8
03
05
f2
fe
06
fe
01
ff
00
06
02
fa
f6
fc
fd
02
f9
ff
00
04
01
ff
0b
03
01
01
06
fc
fc
05
01
05
01
ff
01
ff
f9
04
f8
02
f4
f6
06
05
01
02
01
fc
05
06
fb
00
fe
02
09
07
fb
04
fe
fc
01
ff
f9
ff
08
f4
09
06
fa
ff
0a
06
f8
02
fb
02
01
07
01
fe
03
00
fd
07
f7
06
03
00
0a
04
04
f1
fc
ff
fc
10
04
07
fe
0b
fe
01
00
05
fd
02
01
04
01
fc
fd
04
fe
f8
00
07
fa
ef
03
02
02
01
fa
fe
04
fd
fe
01
f9
fd
fd
fe
09
ff
06
03
01
ff
0b
f8
fb
f8
fd
fe
0f
fb
00
f5
fe
09
06
f7
fd
fd
0f
f4
fe
fa
f9
01
00
fb
0c
fd
fa
01
fa
01
05
f8
ed
03
01
01
04
10
fb
fa
0d
f8
06
0e
01
0b
ee
f5
0b
f9
09
fc
fc
04
01
07
fa
02
00
03
05
06
03
fe
00
04
ff
01
f6
05
fe
ff
fe
fc
f6
f5
00
fe
ff
09
fd
06
fd
06
07
0b
ff
fe
f8
0f
f8
fb
e8
01
09
fc
f5
04
02
fc
ff
03
00
fc
02
07
f7
00
ee
ff
fe
f2
fe
fa
fc
05
11
09
01
07
fd
06
0b
01
04
ff
00
fe
fc
00
08
f5
ff
00
fe
fb
fd
ff
fc
f5
fa
ff
fc
02
00
08
fa
00
04
08
fa
04
0b
fa
04
03
fc
f2
fe
fd
f8
fa
04
05
f2
fa
fe
eb
ff
f1
06
fc
fa
02
05
fb
05
0b
fb
03
11
fb
00
00
00
fc
f5
fc
fd
fb
09
fb
fc
fd
fe
f9
f2
03
f6
ff
f9
fe
03
04
fc
00
f8
0a
06
08
05
f8
fa
f8
07
09
09
fe
02
02
03
ff
06
0a
06
02
fa
03
00
07
0b
ff
05
07
f7
fe
02
fc
f0
01
0c
02
fb
fa
02
00
f6
04
06
f7
08
03
ff
06
fd
fe
f4
ed
05
07
fb
f7
02
fd
fd
ff
05
f3
ff
fb
06
02
fd
07
04
f9
05
fc
fe
00
ff
fd
06
03
fc
01
07
01
ff
fd
fc
02
08
02
fb
f7
f5
f1
fe
01
0e
04
fb
0f
04
01
06
02
fa
fb
04
f8
f8
02
01
00
fb
06
02
f9
04
fc
02
02
ff
02
f5
fe
01
f8
05
02
f9
01
01
fd
fe
05
f8
fe
fb
fa
06
fd
02
02
fc
ff
f4
ff
00
00
ff
fc
ff
01
03
00
01
04
fe
fc
ff
f2
00
fd
ff
00
ff
02
00
fb
f9
fe
02
08
fb
02
09
03
00
05
fd
fe
fa
ff
00
00
fe
07
00
f7
fe
00
05
f8
f3
f8
01
1c
06
fd
09
fc
09
02
fc
fd
0d
01
fb
0b
07
0e
fb
fd
07
03
fc
f7
fe
ff
f8
07
17
fd
09
05
02
fa
13
fc
01
03
06
f5
fc
00
fb
fc
03
02
08
01
01
ff
f7
fd
03
fd
01
02
04
00
02
00
fd
00
fb
0c
fa
09
0c
ff
fe
f9
fb
ff
ff
07
fc
00
fe
f8
06
f7
07
02
00
fa
ff
03
fe
ff
f6
02
05
04
fb
f6
05
05
02
fe
03
fd
0a
03
f7
fd
07
f8
03
f0
fc
fe
02
fd
03
f7
fe
04
f5
f9
fd
fd
07
09
fc
02
02
05
01
03
0b
00
01
ff
07
fc
05
06
0b
fe
fe
05
01
0b
fc
00
0d
01
06
01
05
0b
05
fe
f8
f4
04
fe
fa
fc
05
f5
05
fd
f9
01
04
0a
fa
fe
f7
04
f7
00
fe
fb
00
fc
fd
01
f8
01
fe
01
01
06
08
01
f6
ff
02
fa
fb
07
ff
f7
f8
0c
00
fe
f7
02
01
02
ff
0d
fb
01
0a
f9
02
05
fe
ff
fb
00
06
00
00
fe
fe
fb
fd
04
0a
05
f5
ff
fd
fc
fd
06
f7
01
f9
02
0a
00
fd
01
fb
fa
00
00
fa
04
01
fe
02
02
00
00
fc
ff
fc
01
fe
fe
ff
fd
ff
ff
f9
03
fc
01
01
fe
f8
ff
00
fb
04
01
fa
fc
fa
fe
01
fe
02
fc
01
f9
fb
08
01
02
ff
fb
05
fc
fd
fa
f9
06
fe
ff
03
05
02
fd
00
02
01
ff
03
f5
03
06
fd
03
01
f9
02
f7
02
fe
ff
01
f6
04
f7
fc
fc
01
02
09
02
ff
04
fa
01
f6
fd
fa
ff
05
f9
06
ff
fd
00
f8
00
fe
03
fd
07
fb
ff
01
ff
f0
01
02
04
fd
06
00
fe
08
ff
ff
fd
fe
f7
fe
00
00
00
08
fc
08
06
fb
02
07
ff
fb
fd
fe
0c
00
00
06
05
f9
01
f4
fa
fe
f1
04
fc
f3
0d
03
f9
05
21
e7
05
e4
0f
01
01
03
ca
05
fd
04
fe
06
01
00
18
00
f3
f5
f2
02
04
f8
05
f8
f4
17
03
fc
fb
fe
09
00
ef
fc
01
04
fa
04
f5
fc
02
fe
f8
fd
f8
ff
fc
11
fe
0a
fc
fc
f8
f9
03
02
07
06
f9
03
f9
02
fb
e6
02
0e
ff
fc
06
fc
f5
f5
ff
07
04
03
fb
0e
0c
01
fd
0e
fd
01
05
ff
f9
e8
f2
f8
03
f5
0d
09
f5
00
04
0b
fd
0a
06
fd
07
00
06
0f
20
0a
f3
ea
fb
f9
06
09
07
02
f7
04
02
29
03
f7
11
f4
0c
02
09
0b
f9
fd
fd
01
f4
06
fe
ff
ea
06
0d
0b
f7
01
0d
13
0c
02
fe
01
f2
06
e7
ff
ff
fd
09
02
04
15
00
03
0d
fc
0e
00
0c
01
fb
00
04
06
07
f9
f3
04
f4
fe
fe
ff
f0
ff
03
e8
ff
ec
f6
fc
fc
08
19
11
f7
f6
03
fe
e5
fb
f9
0e
11
0a
fc
fa
14
08
fa
f5
e3
0b
f6
0b
f6
fb
fe
fe
fb
08
05
f9
fb
1d
fd
f3
f9
0b
06
02
fe
fb
f6
f2
06
ff
04
fd
06
04
0c
fd
fb
ec
f7
0c
f5
fe
04
f2
ff
fb
fd
09
09
06
05
f7
fa
ff
00
02
03
f5
04
fc
0b
f8
10
fe
ff
f9
08
10
fe
fe
13
0f
f0
fb
fd
f3
00
0a
fd
09
05
09
ff
fd
02
02
01
f4
fe
06
0c
fb
0f
fa
07
00
f8
ec
0a
09
07
f0
00
04
fa
f8
04
f9
f9
ff
00
fc
ec
03
05
02
f9
ff
f0
fa
02
fa
fc
fc
fd
06
01
0b
0c
01
01
fd
f2
08
fb
fe
fd
12
0f
08
0b
0a
fb
ee
f7
0e
00
f6
01
05
fc
07
03
07
f5
07
00
f5
f7
03
fc
eb
f6
0f
0e
fc
0f
eb
fe
ff
04
fd
f5
e4
f1
f1
05
e4
f6
02
0d
f2
f4
06
f8
0b
05
fe
f3
f1
02
00
fb
fe
00
fb
01
f7
fd
04
ed
00
0e
f9
01
07
f9
01
04
ff
fe
00
00
fc
fc
05
f2
04
fb
00
02
04
fb
02
0b
00
00
0e
02
00
fa
fd
0a
f2
05
03
01
06
ff
00
ff
fd
fe
0d
f6
0d
01
fe
06
f8
0a
f8
05
f1
04
ff
01
08
fd
08
fe
08
06
fa
03
08
fb
f9
fd
f6
00
ff
02
08
eb
fd
02
01
e9
02
09
0e
08
ff
fd
f3
06
f8
f6
02
fb
fb
fb
f1
00
fd
01
f4
f3
03
fb
0a
03
ff
09
08
f9
00
f2
06
02
fe
fd
04
fd
f3
fe
03
fc
ec
03
06
05
04
03
01
ff
06
00
fb
f9
04
f0
09
05
04
00
05
fe
f4
03
00
ff
04
ed
05
ef
fd
f8
04
f8
12
0b
03
fe
00
f8
0b
f9
01
02
0d
ff
f9
02
f3
02
fe
fa
f8
fe
04
0f
01
fc
f1
0f
05
fe
00
03
ee
03
fd
0d
03
fe
08
f9
05
fd
06
f2
fd
fc
06
01
ff
fb
16
05
08
02
f7
04
fe
03
f6
09
05
0a
02
f9
00
ff
04
09
01
f0
f9
07
ec
ff
02
07
08
f8
fb
05
fd
f9
ff
00
f8
05
ef
ff
fa
fc
fa
12
fc
0c
05
f9
ff
07
09
fd
00
fe
08
02
00
06
0a
ff
03
05
fc
0b
fa
f8
05
ff
08
0a
05
02
ff
13
04
fa
fc
04
04
05
fc
07
0a
02
00
03
e5
fd
06
fa
04
fc
06
f1
08
01
1b
12
01
00
fd
0f
07
fd
fe
fd
fd
fb
fb
f9
fd
fc
00
18
0e
03
0b
fb
06
fe
f8
01
fb
fb
01
fc
01
f5
02
0b
03
ff
fd
f7
0c
ff
07
00
f5
14
00
12
09
05
f7
fb
16
08
fb
0c
fc
f6
03
f9
d5
fb
11
fe
04
03
0e
00
f4
08
ed
fa
01
e8
00
0e
0c
f9
fe
04
01
08
fe
02
01
0e
03
0d
fb
0e
02
fe
09
ef
ff
04
0a
09
19
fd
d4
08
ff
f7
f9
f8
f5
fd
f1
0a
01
fd
0b
08
fe
0a
f8
ff
08
fe
ec
00
f7
ff
08
05
02
0b
01
05
05
ff
0e
ff
16
fd
02
0a
1c
0b
04
03
0f
f7
00
0e
09
04
fd
0d
f2
06
00
01
02
f8
f0
06
04
06
0b
fa
08
0f
00
03
fb
e6
02
02
01
06
1c
fe
f7
f2
04
f8
0a
0b
05
03
0f
02
17
01
0d
fd
ff
05
fc
11
fd
06
fa
01
05
01
11
09
f7
05
08
05
ff
00
02
04
08
01
fd
0a
ed
f2
fa
01
05
fb
f9
08
04
fa
fd
0b
04
0c
07
05
05
0a
02
fb
fc
ff
fb
fb
06
f2
fb
27
f8
02
06
02
e2
02
fe
f9
fe
fd
0f
02
f3
03
11
08
00
f3
11
ff
f8
fe
fa
26
f2
0b
0d
02
05
0b
0a
f6
08
ff
08
00
fe
09
f9
07
01
09
00
04
17
03
06
f3
0a
04
f4
00
fa
f8
21
f2
0a
02
00
ff
fd
ff
fe
fe
fd
ea
00
04
04
f1
f8
fe
13
fa
02
03
04
04
fd
f8
f6
ff
01
fe
05
fd
05
06
06
fc
f5
fc
03
f9
0c
f8
eb
00
fa
02
02
09
f2
fa
f2
ec
f7
10
01
05
03
ff
03
fb
ff
0a
f4
f4
f7
f8
0a
0f
fb
fd
ff
06
04
f7
00
e2
02
05
02
0f
0c
0e
fb
fc
0e
fd
f4
03
11
fb
f3
fa
05
ff
06
fa
f7
04
04
19
ed
fd
fe
02
fb
1e
ff
fd
f0
f3
f8
00
fd
fa
ff
f4
04
f4
09
fe
02
02
09
ff
e6
f7
f5
04
00
f9
f3
00
01
00
01
1b
fb
f1
f5
02
09
00
fb
f1
08
fd
ef
06
fa
f7
fe
f5
f8
12
0f
06
03
f8
0d
f2
13
1d
0a
fd
f7
fc
fa
f7
fc
ec
f8
f6
fa
fc
f8
fb
01
f5
05
e9
fb
f9
e8
fe
fe
02
0a
01
ff
fe
f5
00
16
fd
05
01
fb
01
01
ff
f7
00
fa
fd
02
ea
05
fd
02
f8
02
fd
01
fb
f2
fa
f3
01
07
fd
00
fb
ff
03
fb
05
fe
00
f9
f3
05
04
fc
fb
0d
ff
f4
f3
fb
00
fb
fc
fb
01
fe
10
ff
fb
f9
fc
f6
01
0e
03
f8
00
05
f8
fa
ec
fb
07
fd
fd
09
01
fb
fe
fa
f5
ff
01
f8
f3
08
fe
05
fe
02
fa
f9
02
ee
03
02
fc
f8
f7
fe
03
05
07
00
02
00
00
fa
f6
01
00
10
02
14
03
fd
00
fa
09
0e
ff
02
01
f4
fe
f2
08
fb
00
02
fa
f7
fc
fc
fa
0b
00
f4
0d
ff
02
02
fd
04
08
04
ff
fe
09
fc
fb
fe
04
3c
f9
f6
01
fb
12
03
03
20
04
0a
02
ff
f3
01
05
07
fd
00
01
09
0c
fb
00
07
00
02
06
06
05
f6
01
08
06
f5
00
01
09
0d
fc
ee
08
f7
fd
f4
fd
f9
01
ff
04
fd
f7
fd
0c
ff
03
10
06
02
03
f9
fa
04
02
04
fa
fe
09
04
01
02
04
fd
07
ec
f6
01
07
0c
05
f8
17
fe
ff
fd
03
03
01
03
08
04
00
f7
00
07
0a
fa
07
04
00
f7
10
02
f2
04
fc
00
f9
04
09
01
07
16
fd
08
f8
fe
f6
ff
f2
fc
f1
fb
05
0d
07
06
09
05
00
fe
0f
0e
fd
ed
f2
00
0b
fb
f7
f8
04
ff
fa
ed
00
03
fe
ff
03
fd
08
f8
fe
f5
00
fd
04
e5
05
03
01
01
01
07
09
04
00
fc
fe
06
06
fc
f7
fa
fa
0a
ef
fb
db
fc
ff
00
ff
fb
f7
00
05
03
f7
f6
11
fb
07
f4
f4
ff
ef
ff
fe
12
14
0c
f8
fb
02
04
06
0a
0e
04
ff
f9
09
04
05
00
fc
fc
02
06
03
ff
fb
ec
0b
08
08
fa
02
fe
ff
fe
f9
f4
f6
ff
fa
05
fc
fd
fa
fe
0c
e7
05
fe
07
06
f3
ff
03
13
02
03
05
0e
f5
01
00
03
00
03
fc
fe
ff
ff
00
03
03
f6
ff
08
fa
fa
fc
0b
0a
07
ff
f9
fc
f9
fb
00
11
ff
06
0f
ff
01
fb
ff
05
04
01
0a
f1
fa
fc
03
f8
fe
f3
f3
01
02
f3
00
fe
ff
09
ff
06
08
f4
fb
fc
f8
ff
f8
02
00
07
00
fe
09
fd
f2
ff
fb
01
fe
f3
0a
0a
f0
00
09
f3
f8
01
08
0d
f5
ff
f9
01
fe
0c
f1
11
01
02
01
05
0c
09
fc
09
0b
01
07
fc
ec
05
04
f6
ff
06
10
f1
06
03
ff
00
fc
fd
ea
06
f6
0d
fd
00
02
00
fb
fd
0b
f3
e2
ff
f5
08
f1
f8
0d
05
ed
00
e9
f0
05
02
f8
02
05
fd
ff
0a
01
04
fc
05
0c
ef
fd
f0
ff
f9
f0
03
08
fb
1d
00
01
fe
01
07
07
f3
fe
f9
02
fc
fb
05
05
fb
0c
04
02
fe
0a
04
f3
00
fb
00
01
01
0b
fe
fb
03
fc
fc
fb
ff
00
06
f6
09
0b
08
f1
05
f7
04
fb
f8
03
f1
ed
ff
13
fe
fe
11
16
fc
fe
ff
ef
ff
04
02
03
fc
05
0e
00
09
03
08
ff
06
01
03
fd
11
fb
00
06
08
f8
00
fb
03
ef
01
01
02
01
00
00
f8
20
00
0c
08
fb
f7
01
ee
fe
f7
08
02
05
00
00
05
fe
06
0c
09
07
fc
fe
02
15
06
fd
02
f4
fd
fe
fc
01
0d
11
07
fd
ff
fe
06
08
fe
fc
07
16
ea
0a
09
fa
f5
06
0d
08
f7
05
02
f4
00
ed
fc
0c
15
0e
f3
00
00
07
02
fe
fe
f0
0f
0b
ff
06
0f
01
00
f4
fb
06
04
fd
fb
fe
f7
0a
f8
fa
04
fd
f9
0b
05
ff
fc
f6
02
ff
00
fe
f9
fc
f7
05
02
05
fa
fe
02
08
f6
fc
01
fb
ef
f9
05
0c
05
07
ff
f9
08
02
f8
09
00
ff
fc
08
f8
00
04
03
f7
f2
fa
02
fa
07
fd
02
03
03
f1
fc
06
03
0c
f6
06
fa
0a
fe
fb
fc
fe
0a
09
03
fe
fd
f9
fa
04
f5
05
fe
fb
ed
02
f0
03
02
f5
00
fc
ff
03
fe
fe
fd
00
fb
ff
fd
03
fe
00
f1
03
04
02
06
f8
f8
13
fd
0e
f7
00
f8
fb
07
01
fb
02
f2
f6
ea
01
02
ff
fc
0a
05
00
05
ff
f4
07
ff
ff
ff
06
0d
00
f3
02
f3
0a
f9
01
fd
0c
00
fe
ff
04
02
fc
01
f8
0e
fb
fa
0a
07
00
fc
03
06
05
09
18
12
fe
04
06
01
03
01
f6
09
f4
ee
e2
02
11
03
10
19
fb
05
01
fe
07
03
04
f7
0c
f5
0e
03
ed
0a
00
fa
02
f0
f9
f8
01
ff
06
fc
fb
fc
fe
fb
fe
0e
03
fd
fc
f6
f8
f9
fb
f7
01
03
fa
fc
0c
fc
03
01
0a
07
05
06
f5
08
fb
00
01
0f
0a
fb
08
fe
09
f9
fe
fa
00
04
03
07
02
02
02
02
07
ff
f7
06
f9
14
03
09
0a
f3
07
f5
09
01
06
fb
04
f7
fd
0d
f2
02
f5
04
fe
05
f8
09
00
10
ff
09
04
00
f3
fd
07
fb
02
f7
f3
14
fc
00
00
fd
0c
fb
0a
03
fa
09
00
04
06
02
fb
e8
f5
fc
03
fd
fc
0a
04
06
03
00
08
fc
f8
06
f7
02
fd
00
f6
09
0d
fc
03
fe
1e
fb
00
f8
02
00
07
f6
f7
01
0f
0d
01
03
07
14
00
17
06
0c
09
0b
03
0f
fb
0e
08
f7
fa
f0
fe
fe
02
04
06
fc
0a
06
05
09
fb
00
01
05
03
f4
03
f8
11
01
f1
14
01
08
03
e7
05
0d
ff
f8
03
fd
06
f5
ff
04
fb
05
f6
01
ff
01
ff
f2
fe
01
01
04
04
06
05
05
00
f9
fc
08
05
0a
f8
f5
fd
f7
03
11
07
f5
ed
0c
f7
f7
0a
08
ff
03
00
02
fe
03
ff
02
fd
0b
01
0c
01
04
0d
03
f7
fc
fe
ee
02
fc
ff
fc
f6
01
00
fe
05
06
f8
0b
fe
06
fe
00
f8
03
01
fc
02
fc
fe
03
ff
f2
f7
f0
08
05
fd
f5
02
04
ff
fd
02
03
fb
fe
09
fa
fe
fd
07
ef
f6
ff
08
f9
fe
ec
fb
ff
00
04
fb
00
00
f5
fb
02
03
f8
01
f8
0b
04
08
10
08
fa
eb
f7
fc
02
07
f5
f1
f6
07
08
02
01
02
0b
0a
10
03
00
f6
0f
06
f5
05
11
03
f4
06
21
f4
04
fb
05
fd
fc
18
18
05
03
f1
f8
fd
08
02
ff
0f
fc
11
04
ec
fb
05
fe
07
f8
03
ff
fe
06
fc
04
fa
17
0d
03
03
ff
07
ff
02
02
00
fe
f8
f4
02
fe
00
01
02
01
f8
03
07
fd
04
02
f7
fa
f6
fa
04
05
02
01
10
11
fb
fb
08
09
04
ff
00
03
fe
17
01
05
fd
f5
f9
08
04
f8
0a
18
00
00
0b
fc
fe
03
fd
fc
04
f7
08
0d
05
16
0d
0d
ff
f8
10
07
03
0b
fc
f5
fb
f6
01
08
00
f4
03
fb
f7
0e
11
06
fd
ff
ff
00
07
08
fe
03
02
f9
04
fd
04
f2
ef
ff
00
01
f9
fc
05
02
05
fe
03
04
0d
fd
fc
05
08
06
ff
0a
0c
01
01
02
1a
fe
ee
fa
fe
04
02
fb
f4
ff
f5
fa
23
04
f7
f5
04
04
00
04
fd
f6
03
06
06
00
0c
f4
f1
f2
0d
fb
03
01
0b
00
16
1d
08
01
fe
05
0d
fc
0c
f3
06
07
06
f9
e9
10
fd
00
f8
eb
ff
01
fa
07
02
05
f1
fd
01
07
0a
0b
fb
07
01
f7
fb
fe
05
fb
06
00
f7
04
ff
fd
0c
f9
fb
04
01
0a
01
0f
ff
07
00
09
fb
f6
f7
f9
04
fb
0d
17
00
fd
11
04
ff
fb
fd
04
0c
ff
00
05
00
ff
ff
00
05
01
f4
00
09
fe
f3
fc
f8
00
03
00
f8
fd
f2
08
ff
06
fd
08
f5
fe
00
eb
ff
f8
02
fd
03
08
01
09
f9
09
0d
0b
03
01
ff
f9
06
02
01
fe
0a
03
f7
00
06
fd
fd
04
05
fa
f7
ef
f7
00
fe
03
0a
06
06
f7
f7
fc
fa
f8
ff
00
06
ff
f8
00
04
ff
fd
f9
f5
f8
09
de
f9
04
f1
fb
0f
01
0c
26
02
fc
fe
fe
f3
fb
03
0b
fb
0f
ed
fc
f9
fd
f9
fc
07
01
ff
fd
01
15
01
02
06
f9
00
fe
01
fd
02
fe
06
02
fd
f0
f4
f6
05
ff
fe
f7
01
fe
f4
09
fb
fc
0b
fc
f4
ed
0b
fa
f8
09
fb
fd
05
03
08
fd
00
fa
04
01
f8
fd
01
fd
fb
02
f8
fc
f9
03
ff
fc
03
02
00
f7
ff
0a
01
05
fc
fd
fc
06
05
19
fc
fe
01
13
fa
ff
fc
00
08
0d
03
02
04
03
0d
09
fb
01
f4
f0
01
04
fc
02
0b
0f
fe
fd
fd
f9
fc
fe
fb
09
09
fc
01
f6
f8
fb
fe
06
0c
f9
06
0e
08
fa
f7
fd
01
02
f9
fb
fb
fe
01
0a
f4
f9
03
00
01
ff
fc
f8
fd
fd
00
fc
02
0a
06
08
fc
fb
05
00
03
ff
03
02
f6
0f
f5
06
fc
02
02
fc
04
07
03
ff
05
00
0f
00
fd
fa
03
fb
01
04
f2
1f
f8
08
ff
f9
fc
ee
ff
fb
ee
09
f5
fc
00
fc
05
09
fd
00
00
fd
f8
02
09
fb
f9
01
1b
02
ff
fe
0b
fe
01
fc
03
06
fe
01
05
03
fa
14
f8
00
04
05
fd
fe
fe
05
f8
fe
0a
08
04
0a
ff
ff
f9
03
fb
f8
fa
09
06
08
f6
f6
ff
02
ff
ff
0d
f9
03
0e
f4
01
08
04
fd
03
08
08
fe
fd
f8
ff
07
fb
fc
03
0b
12
06
f3
01
02
01
03
f8
09
fb
fb
15
07
00
0f
0f
09
08
00
02
fb
12
07
fd
0f
00
f6
04
0a
07
02
15
03
02
05
ff
01
0b
eb
ff
01
09
fb
05
04
02
f9
09
06
ff
fc
f5
fa
eb
ff
f8
fd
ff
04
ff
04
fc
00
02
0a
0e
05
fe
fe
ff
fe
07
fc
03
fd
09
0b
fd
04
f1
0b
01
01
03
06
e5
f7
02
f9
12
00
f3
ef
10
0a
15
f4
e6
0c
11
04
fa
ea
e8
f2
0b
0e
01
0a
21
04
0d
0b
ea
fc
06
06
02
ff
09
0e
16
01
0d
17
f4
0a
08
fe
ff
f4
03
1b
03
ef
06
02
fe
05
01
f1
ff
ff
0a
f6
00
ff
fd
08
ea
00
00
0c
00
04
06
01
14
0e
f6
fb
fd
04
00
05
f4
fe
05
00
fd
ea
f4
09
ef
05
f3
fd
ff
17
0f
f8
08
07
08
fb
f2
fe
01
0e
0a
12
f7
04
05
f1
02
07
f6
00
06
fd
fd
fd
f5
f9
fc
f5
f1
09
f8
ff
ff
02
0f
0a
0c
ea
00
13
07
fa
03
fe
f8
07
00
13
0b
06
f4
f7
fe
fc
fe
00
0e
fe
08
f8
0e
fc
01
03
0f
f2
00
07
02
05
e7
f5
fa
00
fe
06
04
03
f7
f6
02
f4
08
0c
fc
fa
ff
02
fe
04
14
04
fd
02
fe
05
fe
02
05
00
f7
fe
f4
13
fe
02
fd
06
02
ff
05
fa
10
fc
00
f9
ff
fe
f8
12
f7
03
05
f6
f4
fb
18
fc
f8
f5
ff
04
f6
03
ee
11
03
01
09
fe
f9
09
14
02
01
12
06
04
fc
fe
fd
03
14
05
06
ff
07
ef
f6
05
f9
ff
08
fd
fa
08
fb
fe
05
f8
0a
0d
ff
0b
f9
01
ff
ff
07
05
0b
00
ff
fa
fe
05
0d
09
05
0e
01
0f
00
05
01
fe
04
f9
fc
f9
0b
0a
07
f6
ff
f2
04
fe
ff
04
f7
f6
00
00
fd
ff
11
fa
fe
f8
06
fe
f9
01
08
f6
ff
e1
01
fb
fe
ff
f6
02
fc
fd
f7
ee
fa
14
01
fd
ed
02
02
07
f7
fe
f7
0f
06
fe
fe
04
03
04
12
08
05
fd
00
09
fd
0c
fc
f1
fd
f5
fd
01
0e
e8
01
ff
02
07
f3
fe
fb
11
ff
07
22
03
16
03
f7
fb
fa
0f
09
fc
f8
06
08
fb
ff
d9
00
f6
04
09
06
09
0b
e3
05
ec
01
f6
fb
04
ef
fd
fd
06
04
02
f1
06
fe
f9
01
02
f9
04
08
03
04
f3
23
00
f3
03
fc
f8
01
ea
0b
fa
ff
03
fc
fc
f7
08
f9
f8
ff
01
00
00
fc
f1
fa
f8
fe
04
fe
f2
fe
ff
00
fd
00
fd
fc
ff
02
f7
01
11
fb
06
04
fe
04
ff
fc
fb
fc
f3
02
06
f6
fe
fd
fd
04
f8
ff
ff
ea
00
fd
fb
f8
f9
fe
0a
19
f8
f6
f1
fd
04
ff
fb
ec
ff
ff
07
ff
f7
f4
03
03
f3
f2
f7
fd
02
fb
f1
fe
f7
fc
0b
07
fa
05
ef
f8
0a
0d
11
12
fc
03
fd
ff
fd
fd
01
08
04
fc
fc
fc
01
f8
fb
fd
01
03
fb
07
ff
fe
f8
fa
03
01
eb
f7
f9
fa
01
01
03
03
fe
04
f1
ff
fc
21
f5
f5
03
01
fb
05
fc
f4
f7
08
00
04
0c
ff
f1
01
fc
00
00
01
ed
f6
dc
f2
fa
f7
f2
05
f7
f3
02
fe
ff
f9
f7
00
f4
26
fb
f0
fc
f6
11
fd
0c
20
02
fe
0a
ff
fe
fc
f8
f9
d3
05
f1
02
fd
f9
0b
fa
f9
01
0a
06
ff
fb
01
fb
ff
03
03
09
f1
fe
fb
fc
01
00
09
fa
fd
04
fa
fc
07
f9
fd
02
01
03
02
fb
fc
fb
f3
07
0c
fd
f8
f8
fa
fb
f1
f3
04
e5
f4
ff
03
03
04
f4
07
04
02
01
f9
01
00
02
fa
f9
f6
fa
ef
fc
03
fa
f9
f8
fd
04
fb
01
fe
fe
ec
01
06
fc
02
06
fe
05
f1
f5
f9
08
1c
ee
04
ff
f4
f9
10
fb
fa
02
f6
fe
f8
0b
08
03
f3
ff
ff
f3
00
f4
fd
01
fb
f1
fd
0f
fd
f9
fe
fb
fc
fc
fe
fa
04
01
02
fa
ff
0f
04
ff
fb
f7
0a
17
09
f3
fb
07
f6
09
f9
f4
07
fc
07
07
0c
fb
fb
08
f5
09
01
12
f8
ef
f0
f2
07
ff
fb
f8
f9
f6
f7
01
f7
f9
03
f8
01
02
fd
0f
02
01
00
fa
f4
fe
0c
f8
06
09
fa
0c
04
06
0a
fa
fc
f8
1c
f5
fb
fe
fb
fb
04
f3
fd
02
04
03
fd
fe
09
ee
01
fb
f7
fd
fd
fa
f9
07
f2
07
eb
06
04
06
fe
01
fd
f3
f7
02
fd
eb
fd
04
f3
00
f7
f6
f9
fd
fb
02
0e
fe
08
02
03
0a
00
ff
fd
fb
fe
07
fd
ff
09
06
03
09
f1
07
fd
07
01
07
fe
ff
f6
f8
02
00
01
00
ee
f3
f6
f5
03
09
f9
01
fe
0c
fc
fb
fb
0d
02
03
03
00
02
f9
fc
fd
f9
fb
ff
fd
0b
fa
fe
02
fc
fa
01
fd
fc
f9
00
fb
0c
f7
09
03
fd
05
ff
0f
02
03
01
02
03
04
04
00
00
09
fa
fc
fd
f1
06
fe
fe
fe
f8
0d
fd
08
02
05
0e
01
f9
ee
06
fd
f6
ea
f8
06
f8
15
04
fc
00
f8
04
01
ff
f2
f8
06
08
ff
01
fd
05
ff
0a
01
e7
f9
fd
06
02
05
fd
05
f7
09
fc
fe
fe
05
fd
03
02
fd
fe
fa
fc
02
f9
05
03
0a
fb
ff
f8
fb
04
fd
f8
00
f5
fd
fa
ff
09
0b
0a
0e
03
f6
06
0b
01
03
fc
fe
f9
fe
0a
fe
fd
f9
fe
fc
02
f8
f9
09
13
f7
ff
03
ef
f8
01
fd
ff
f8
ef
08
03
f7
07
f9
fc
ff
f9
f4
fd
05
12
fd
03
fe
00
f3
ff
09
f6
02
e8
fe
09
0c
00
fb
fe
f9
04
ff
f7
0b
ff
fa
ff
04
09
09
f0
f6
fc
03
05
fb
f8
02
06
05
0a
fd
0b
07
fb
f8
09
00
05
fb
f1
07
f9
02
f1
ff
06
0f
fb
04
06
fc
09
eb
02
04
0b
05
fb
03
d3
f0
11
06
f8
09
ef
f5
f5
fc
f0
fe
0f
09
05
fc
fb
ed
04
f9
04
fe
07
f7
02
11
f8
07
f5
ef
00
01
fc
12
f6
07
f0
f8
f4
07
26
01
07
0f
02
f3
0a
01
ff
06
fe
06
f6
15
03
ff
00
09
00
fe
0d
00
f9
fe
05
fe
f5
f9
ff
00
fb
02
04
03
0b
f6
06
fe
0e
06
fb
0e
ed
11
04
f8
fc
fd
0d
f0
07
07
0c
01
0a
0a
05
ff
fa
ff
f8
f0
ff
1a
02
0b
0a
17
fc
04
03
02
f9
fa
07
01
02
0b
00
01
00
00
f6
04
fa
01
06
fa
04
ff
f8
f5
f5
0b
11
02
04
ff
01
0b
04
fc
fe
f8
fe
04
fd
fa
07
03
01
e6
f1
12
0c
05
f9
04
17
ff
fd
00
05
fc
00
06
0a
00
fe
fd
01
06
05
fa
00
01
f9
ff
0d
2b
09
0e
f8
00
02
05
03
f9
09
fc
ff
08
09
0a
04
fd
05
fb
f0
fd
fa
0d
02
10
08
14
07
0b
00
fb
f9
08
fc
08
04
03
fc
f0
02
04
04
2d
fa
01
09
0e
00
f1
03
ff
03
02
1b
02
f1
00
fc
05
06
0e
fb
05
02
f8
02
f3
04
0d
06
fb
00
01
0d
fa
04
0a
04
04
08
f9
0a
03
05
02
fc
08
f2
01
fc
ff
fd
f5
03
0a
f2
06
01
0d
ff
01
fd
f6
f7
01
f7
08
fa
f8
06
fa
07
ff
fc
0a
02
f3
f7
f8
05
10
08
0e
01
05
f2
f9
0a
04
02
f6
02
00
09
09
07
03
fa
07
01
fc
fc
f7
ee
ff
0c
07
12
03
fe
01
06
0b
05
08
02
0d
fc
02
08
05
fd
fd
f2
0a
02
f9
0e
02
06
02
ff
09
03
01
00
fb
03
f1
08
06
09
03
ff
00
fc
fa
02
ff
06
05
09
f5
06
ff
07
fb
01
02
07
f9
05
0a
0d
00
f6
05
00
02
ff
f9
0c
09
f6
fa
f5
01
f4
ff
05
08
09
14
01
fb
fd
ec
f7
fd
06
fa
05
05
fa
05
fc
fe
01
fb
07
06
fa
09
07
f8
00
00
09
fc
fc
0c
f7
f8
f9
07
f7
f6
fa
04
fd
f6
00
fa
f4
ff
04
ff
00
fb
00
fd
04
03
fd
04
fe
03
02
f7
fa
f9
03
ff
f0
00
05
e2
14
ea
f8
04
09
fb
f0
0f
01
03
fe
fd
04
f4
fd
05
01
ff
fd
f6
f7
06
fb
f4
fb
f0
fc
fa
00
08
0b
ff
ff
f3
05
ff
ff
f8
03
0d
0b
f8
09
02
f8
f8
f8
0b
00
04
04
00
01
07
fd
13
00
0a
01
04
fc
ff
f4
fa
fd
01
fd
ef
f9
02
0b
fc
f9
03
f9
fe
fa
f9
04
02
01
f8
fd
03
f6
fc
fb
09
fb
fb
f6
04
02
05
f9
0b
07
07
03
fe
02
02
fa
ff
09
ff
f0
f1
ff
03
05
0c
0b
ff
04
1f
f2
fe
01
ff
09
08
03
05
06
f2
ec
ff
02
0e
fd
05
f1
05
fd
fd
0b
fb
02
03
f2
01
fe
0c
02
0c
06
ff
f5
f3
fc
fd
07
00
01
f6
ff
05
fc
f8
05
01
00
0b
06
04
f6
f8
fd
01
0b
fd
10
fc
04
0d
fe
07
f7
05
06
00
02
fc
fa
fb
fb
fb
00
05
00
fd
fd
06
f5
fb
fa
ff
06
09
04
fe
04
01
18
fa
06
fb
05
f9
fc
fe
f8
fd
f5
03
f2
09
05
00
f5
ef
fb
f9
17
fe
fa
ea
f9
fb
00
fe
05
fd
ef
02
fc
fc
06
f8
fa
f4
02
05
0b
fd
0f
fe
f7
fc
02
04
01
06
f8
fb
01
06
03
07
f7
0d
e1
03
09
fc
fc
ff
06
00
03
00
07
fb
07
ea
fa
00
01
fc
fc
08
07
07
ff
08
00
20
f6
05
fa
00
02
01
03
f5
00
01
ff
fb
03
03
07
f3
fb
04
ff
05
13
09
ff
fa
f4
07
f6
f3
f2
05
0f
01
04
fe
ff
18
fe
05
03
09
08
00
fb
eb
ff
ff
02
f1
f7
fb
0a
fb
fa
01
ec
01
ff
f9
00
fd
fb
fc
f4
01
fb
01
ef
08
f9
fe
fc
f5
02
fe
ef
fc
f4
fe
04
f0
ff
06
fd
05
03
02
fd
07
04
f8
f5
01
fa
fe
fb
02
fd
f7
00
0a
15
ff
fe
07
ff
fc
ed
fe
0d
fe
03
f9
ff
04
ea
00
01
0c
fb
f9
f4
ef
ff
fd
fc
1e
10
f8
ff
f2
fd
00
fc
03
f4
fe
f0
fc
09
00
09
f9
fe
f8
fe
08
09
ff
f3
fe
04
fc
08
05
fe
02
fe
fe
fe
f6
fc
fd
f9
fe
fd
08
f3
e7
0c
fa
03
fa
e8
00
02
fb
ff
04
01
0e
f4
04
ff
f7
f6
01
02
f8
fb
07
05
fe
fc
08
06
fd
00
04
f2
08
ff
e6
08
04
03
05
14
01
0f
ff
f8
fc
fa
ff
0d
0b
0e
e8
fc
f5
f9
03
fb
03
fd
f9
fe
ef
fd
ff
00
03
fc
f8
fa
ef
04
06
0b
f5
f9
0f
08
05
fe
fd
fc
f8
f7
07
03
f8
fa
05
04
fe
fb
fe
0e
0b
fc
10
fe
04
fc
fd
ff
f6
fd
fb
09
08
ff
fb
fa
fe
ff
fb
fc
f9
fe
ff
04
fe
fa
02
03
10
03
f3
0a
fa
02
01
f7
0c
fd
fa
06
01
fe
fb
f8
04
f3
fa
01
fa
06
0b
07
fa
03
f2
01
0a
01
11
04
fe
03
fa
04
f7
f8
05
ff
fc
fe
06
04
00
00
fd
fd
02
fb
fc
00
ff
0b
00
01
03
02
ff
ff
0d
fe
fb
fd
04
05
ff
fb
03
f9
f5
ee
02
f9
fe
fe
fa
00
07
fc
fb
08
fd
0b
0d
fd
ff
00
fb
05
02
05
02
08
01
fb
f5
06
05
03
09
ff
f7
04
00
f7
0a
f8
fa
f8
f0
07
fc
14
07
ff
07
f1
fb
fd
07
f4
fc
0b
05
f2
ec
0d
ee
05
08
05
09
fe
ff
04
fb
09
00
fb
f4
fb
fe
00
fe
f6
04
0c
0b
fc
f7
04
ff
05
f6
0d
f9
fe
0b
f6
ff
fd
07
ff
01
07
04
f5
07
02
f8
fb
04
09
f8
00
fa
15
06
ff
03
f8
fb
00
0b
0c
ff
fc
04
02
11
f2
14
ee
16
fa
13
04
01
03
f6
03
04
08
00
fc
fd
14
fb
01
0c
0a
fb
f8
04
01
0d
19
fc
fd
05
fd
21
18
f9
07
fc
ff
