ec
21
ef
e4
ee
dd
ec
e8
f3
dd
8f
ea
ff
02
fe
ff
ff
ff
ff
00
00
ff
12
ff
01
c5
04
03
02
03
04
03
02
04
e8
03
01
ec
01
01
01
01
01
01
01
01
08
02
fe
ba
ff
00
ff
ff
00
ff
00
ff
f7
fd
01
ef
00
01
01
01
01
02
01
02
06
01
ff
ca
ff
ff
fb
fd
fe
fe
ff
fe
09
fd
00
02
00
00
00
ff
00
00
00
ff
f1
00
02
bd
01
ff
03
fd
01
ff
04
ff
25
00
01
fa
02
01
01
01
02
01
02
02
f9
02
02
cc
03
05
ff
03
02
04
02
02
18
02
00
03
01
00
00
00
01
00
01
01
f0
01
01
e7
01
01
01
02
01
01
01
02
09
01
fe
00
ff
00
fe
00
fe
ff
fd
ff
fd
fe
00
f5
02
01
00
01
01
00
00
01
fc
00
fc
f5
fe
fb
fc
fb
fd
fa
fc
fc
ef
f9
00
f8
01
00
00
00
01
00
00
01
04
00
02
ff
02
03
02
02
02
02
03
02
01
02
00
05
01
fd
fd
fc
01
fe
03
fd
06
fd
f9
e1
fa
fa
fa
f9
fa
f9
fa
f9
f8
f8
00
f1
00
01
01
01
01
01
01
01
00
01
ff
f2
01
f9
fb
fa
ff
f9
ff
fb
e2
fc
00
ec
ff
00
00
00
00
00
00
00
07
00
fd
0d
fc
fc
fc
fc
fc
fe
fe
fd
08
fc
00
f0
00
01
01
01
01
01
01
01
03
01
00
f2
01
01
00
01
01
01
00
01
02
00
01
07
01
01
01
01
02
01
01
01
f6
01
06
35
04
01
05
02
05
03
07
04
fc
04
fb
11
fa
fb
fa
fb
fa
fb
fa
fb
0d
fa
fb
dd
00
f9
fb
f9
ff
f7
fd
fc
02
fa
fe
eb
00
00
fe
ff
ff
ff
fd
ff
fa
ff
ff
f7
fb
03
00
01
fc
03
00
00
07
fe
fd
e3
fd
ff
ff
fe
fc
ff
fe
fd
fe
fe
fa
15
f9
fb
fb
fb
fa
fc
fa
fc
fe
fb
01
00
01
01
01
01
01
01
01
01
00
01
03
e9
03
02
04
02
03
04
04
02
06
04
f8
b2
f7
fd
fc
fc
f9
fc
f9
fd
2b
fa
05
ef
08
03
05
04
07
04
06
06
06
06
00
f9
01
00
00
00
01
00
00
00
fe
00
02
e9
04
03
01
03
03
02
02
03
fa
02
05
86
01
ff
01
ff
01
02
06
fe
e0
02
02
fe
00
03
02
03
02
06
01
05
09
04
fa
09
fa
f8
f9
f9
f9
f6
fa
f9
ff
f7
fe
0e
fd
ff
ff
00
fd
ff
fc
00
06
fe
f7
f4
f7
fe
f5
fc
f5
fd
f3
fb
f4
f7
01
f8
01
02
02
02
01
02
02
02
04
02
00
fa
00
00
00
00
00
00
00
00
00
00
01
00
02
01
01
02
02
01
01
02
03
01
fa
f7
fc
fb
fa
fa
fa
fa
fa
fb
04
f9
00
f2
00
00
00
00
00
00
00
00
03
00
01
f9
01
00
01
01
01
00
00
01
fd
00
f5
0b
f6
f4
f5
f4
f4
f3
f6
f3
02
f2
0a
dd
0a
09
0a
05
0a
0c
0e
06
ed
0b
01
04
02
01
01
01
01
01
01
01
00
01
01
05
00
00
02
00
ff
01
01
00
03
00
fa
15
fb
ff
fd
03
fb
fe
f2
04
0e
fa
00
ed
00
01
00
01
01
01
ff
01
f5
01
ff
fe
ff
ff
ff
ff
ff
ff
ff
ff
00
ff
00
f8
00
01
00
01
01
00
00
01
fc
00
fe
07
fe
ff
ff
00
fe
ff
fd
ff
fa
fe
01
f9
02
01
00
01
01
01
00
01
01
01
00
01
01
00
00
00
01
00
00
01
fd
00
fe
1f
fb
fd
fd
fd
fc
fd
fd
fd
09
fc
09
1f
09
07
07
07
09
07
09
09
1f
08
01
00
02
02
01
01
02
02
01
02
04
00
01
d1
02
02
01
01
00
02
02
01
06
01
00
f6
ff
00
00
00
00
00
00
00
03
00
02
e1
04
01
01
01
04
01
02
02
fb
01
fb
a0
f8
07
02
fd
fa
05
ff
fe
f5
00
00
fd
01
00
00
00
01
00
00
01
00
00
ff
f7
f9
00
fb
ff
f8
01
fd
fb
0b
ff
fe
f9
ff
fe
fe
fe
ff
fe
fe
fe
ff
fe
00
01
01
01
01
01
01
01
00
01
02
01
01
f4
03
02
00
02
02
02
00
03
00
01
00
f4
02
01
ff
01
01
00
00
01
04
00
00
b5
02
03
f8
02
01
01
fe
01
01
ff
05
7b
03
fe
03
02
05
00
04
03
00
02
00
0a
fe
00
00
01
fe
00
00
00
05
00
fb
0d
f7
fb
fa
fb
fa
fc
fc
fb
0a
fb
fe
f9
00
fe
fe
ff
ff
fe
fe
ff
01
fe
01
f9
02
01
02
01
02
01
01
02
05
01
05
c9
06
08
08
06
07
09
08
07
72
08
01
04
02
01
01
01
02
01
01
01
00
01
fa
dc
f6
fb
fc
fc
f9
fd
fa
fb
d8
fa
02
f3
06
03
06
03
07
01
06
06
14
04
f9
57
fc
fb
f6
fe
fb
f7
f6
fd
e1
f5
fe
65
09
07
fe
0a
09
03
fb
0b
ef
01
ff
f8
00
00
ff
ff
ff
ff
ff
ff
fb
ff
ff
ff
00
00
00
ff
00
ff
ff
00
04
00
02
fd
04
01
01
01
03
01
02
02
f2
01
fa
db
f7
fa
fb
fb
fa
fc
fa
fb
d9
fc
ff
fe
01
00
00
00
00
ff
ff
00
01
ff
fb
14
f8
fa
fb
fb
f9
fb
fb
fc
15
fa
fd
3e
04
fc
f4
fb
ff
f8
fb
fc
7b
f9
fe
0a
fe
fd
fe
fe
fe
fe
fe
ff
05
fe
00
f3
01
01
00
00
01
00
00
01
00
00
fd
02
fd
fd
fd
fd
fd
fd
fc
fd
f9
fc
03
c8
03
05
04
04
04
05
02
04
f3
04
00
fb
00
00
00
00
00
00
00
00
09
00
00
f9
01
00
00
00
01
00
00
00
05
00
ff
f9
ff
00
00
00
ff
00
ff
00
03
ff
fc
fc
fd
fe
fd
fe
fc
fe
fb
fe
f5
fc
fe
37
fa
00
fd
04
fb
00
f6
03
fe
fb
fe
f3
fe
ff
fe
ff
fe
ff
fe
ff
fe
fe
ff
04
ff
ff
ff
ff
ff
ff
ff
ff
04
ff
00
08
02
02
01
02
02
02
00
02
04
01
00
fe
00
00
00
00
00
00
00
00
00
00
04
04
04
02
03
03
06
03
03
04
fa
04
fd
fc
fe
ff
fe
fe
fd
ff
fd
fe
f4
fd
fe
f1
fa
fe
fd
ff
fd
01
fd
00
01
fe
ff
02
00
00
ff
00
00
ff
ff
00
01
ff
07
c2
05
03
fd
ff
04
03
08
fe
1a
03
00
fc
0c
fd
fd
fe
09
f7
01
02
0a
ff
f2
0b
f5
f8
f3
f8
f6
f6
f1
f9
de
f4
01
ee
03
00
01
00
02
00
02
01
07
01
ff
e9
00
fd
ff
fd
ff
fe
ff
fd
07
ff
04
fc
08
05
03
03
06
04
05
04
0e
03
fc
fe
fa
fd
fc
fd
fb
fc
fb
fc
f5
fc
01
16
07
00
00
00
04
fd
00
02
0e
00
ff
01
fe
ff
fe
fe
ff
ff
ff
ff
0e
fe
ff
02
00
00
00
00
00
00
00
00
04
00
fe
13
fb
ff
fd
fe
fc
ff
fd
fe
0b
fe
00
f5
00
01
01
01
00
01
00
01
06
01
ff
fc
01
00
ff
ff
ff
ff
ff
ff
06
fe
01
e5
00
01
01
02
01
01
00
02
02
01
00
02
00
00
00
00
00
00
00
00
f9
00
f7
be
f6
f4
f7
f5
f6
f7
f7
f6
fb
f7
00
f6
00
00
00
01
00
00
00
01
02
00
00
ed
ff
01
01
01
00
01
00
01
08
01
03
06
04
00
02
01
03
01
03
01
fc
02
ff
04
fb
fd
fd
fe
fc
01
fe
fe
03
fe
10
7d
0c
12
10
15
10
12
0d
15
39
11
01
e6
01
02
02
01
01
02
01
01
08
01
01
f1
01
03
02
02
00
03
01
02
11
01
fe
fe
fe
fe
ff
fe
fe
fe
fe
fe
f4
fe
fe
02
fd
fe
fd
fe
fd
fe
fe
fe
0a
fd
01
1c
ff
fe
00
fe
ff
fe
01
fe
19
fe
00
01
fc
00
00
00
fe
00
ff
00
00
ff
fe
04
fc
fe
fd
fe
fd
ff
fe
fe
0f
fd
02
28
00
ff
ff
00
00
ff
01
00
05
ff
00
f4
00
00
00
00
00
00
00
00
06
00
ff
e9
00
00
00
00
00
ff
ff
00
ed
00
ff
fa
00
00
00
00
00
00
00
00
fb
00
f9
f0
f6
f9
fa
fa
f7
fa
f8
fa
db
f8
ff
f6
ff
ff
ff
ff
ff
ff
ff
ff
fc
ff
06
f2
09
04
07
06
07
06
06
09
f8
06
ff
fb
00
00
fe
00
ff
ff
fe
00
08
ff
ff
02
00
00
ff
ff
00
ff
ff
00
08
ff
01
17
00
03
05
02
01
02
03
02
f4
02
f5
c3
f6
fb
fa
fb
f8
f9
f6
fa
1d
f7
00
ed
ff
00
01
00
00
01
00
00
0d
00
fe
fe
fe
ff
fe
ff
fe
fe
fe
fe
fa
fd
01
fe
02
01
01
01
02
01
02
01
01
02
ff
01
fd
ff
fe
fe
fe
ff
ff
ff
0d
fe
06
1f
09
00
02
03
08
01
06
05
06
02
01
f0
01
02
02
02
01
02
01
02
03
02
fc
de
f8
fc
fd
fc
fb
fd
fc
fb
dd
fb
00
0a
01
00
00
00
00
00
00
00
00
00
ff
fd
00
ff
ff
ff
00
ff
ff
ff
f8
ff
fe
d5
00
fd
fa
fd
00
fb
fe
fd
fe
fd
01
fd
02
01
01
01
02
01
01
02
02
02
00
f7
00
01
00
00
00
00
00
01
03
00
fc
d0
fa
fd
fe
fc
fb
fd
fe
fa
d3
fc
ff
eb
ff
00
00
00
ff
00
ff
ff
fa
00
ff
fd
ff
ff
ff
00
ff
ff
fe
ff
fc
ff
02
0d
03
00
00
03
03
00
00
03
05
01
01
f8
01
01
01
01
01
01
01
01
01
01
05
10
06
03
06
02
06
03
07
04
06
05
03
20
02
04
ed
01
fd
03
fc
fd
fd
00
07
03
04
0b
09
06
06
0d
0a
07
ce
0b
01
f7
01
01
01
01
01
01
01
01
01
01
00
fb
fe
ff
fd
fe
fd
ff
00
fd
14
fe
fc
01
fc
fe
fd
fc
fb
fd
fd
fc
fd
fc
03
e4
02
02
05
02
03
04
03
02
07
04
00
09
fe
ff
01
ff
ff
01
01
00
fa
02
00
f3
00
00
01
01
01
01
01
01
04
01
fd
07
fc
fe
fc
fe
fc
fe
fc
fe
10
fd
fc
e2
fd
fc
fc
fd
fc
fb
fa
ff
15
fb
fd
fc
fe
fe
fd
fe
fe
fe
fd
fe
f2
fd
f6
eb
f7
f8
f7
f7
f6
f7
f6
f7
fa
f5
fb
01
fd
fd
fb
fd
fd
fc
fb
fd
f9
fb
ff
e8
fe
00
ff
00
ff
01
ff
00
05
00
ff
ff
fe
fe
fe
fe
fe
ff
ff
fe
0e
fe
07
a8
09
04
05
03
08
05
0a
05
12
06
00
f0
fe
01
02
01
00
02
00
01
0e
01
fd
ff
ff
fe
fd
fe
fe
fe
fd
ff
fd
fd
00
ff
01
00
00
00
01
01
00
01
03
01
fa
d3
f8
fe
fd
ff
fb
fe
f9
ff
31
fb
fe
13
fd
fd
fe
fd
fe
fe
ff
fe
0a
fe
04
20
03
03
01
02
03
03
03
02
16
03
01
04
00
02
01
00
00
00
03
00
12
00
02
d0
04
03
02
03
04
03
02
04
fd
03
