08
20
ff
fc
f8
0f
26
00
1b
03
f9
21
02
13
11
00
16
0f
19
05
0f
01
0f
f1
1c
00
05
25
05
12
07
17
11
fc
21
f7
ff
22
0c
12
1b
16
fc
ff
e6
ef
2d
1f
1a
1c
25
0e
0b
08
15
ef
23
1a
0a
f2
1b
1f
03
11
f5
08
f6
1b
fe
0f
1a
10
05
13
02
fe
36
f0
19
07
02
ee
1f
ff
14
2b
18
08
1a
10
2d
04
02
ec
1c
f4
ee
15
26
ff
f7
15
2b
f6
1f
2a
1b
18
02
0e
29
1c
19
1e
12
0d
fd
f5
25
07
21
f9
04
16
1d
ff
01
30
03
07
1b
1d
1d
ee
03
ea
02
fa
f6
02
0a
1f
06
22
0c
06
fc
f8
30
0e
ff
28
07
02
33
2a
06
fe
fa
15
f7
0c
13
23
06
f3
0a
f3
16
0b
15
23
25
fd
09
17
1e
f2
24
f0
12
05
f8
1c
fd
05
f2
fc
1b
23
1a
22
0b
04
22
0d
fe
0c
1e
f8
0b
05
0f
0e
18
ff
20
01
24
00
0e
ee
18
11
0a
fd
27
0e
13
16
21
1f
01
22
24
1b
03
f8
14
fd
1b
e6
24
f0
06
19
02
1f
1c
22
f8
00
f2
18
fc
09
fe
1b
09
03
18
17
fc
08
22
19
1a
fe
fb
10
1e
0c
0d
06
f4
0b
13
0b
fe
20
0e
fb
f6
17
00
04
fa
29
03
01
6d
ec
ec
1f
f7
0d
00
e4
f4
fd
22
f8
0a
fc
05
1c
17
0a
eb
09
06
23
24
f8
28
f7
f6
1b
ff
01
fb
00
01
03
0e
00
02
0c
f3
19
1c
10
f9
25
ea
ea
00
fa
02
17
0f
11
14
31
fe
1a
f9
03
fb
01
ed
05
01
31
fd
fa
0e
08
11
29
26
11
e6
04
f6
1f
0c
0a
09
18
17
25
23
0d
f8
15
13
10
0b
fc
11
f8
27
f0
10
05
0b
0a
29
fc
09
08
f4
07
ec
2a
f8
1a
fb
fe
e3
fe
07
18
02
ee
0e
30
fc
f8
fe
16
08
04
08
01
04
e5
03
0c
04
1b
0e
12
1a
0f
f5
3f
16
06
09
26
02
0f
04
fa
e8
1b
3d
1e
f5
fb
06
19
0b
21
2a
24
03
28
0d
fd
10
11
1c
09
f2
0b
05
27
24
08
04
fe
f5
f3
18
eb
10
1d
08
2b
20
0e
f6
fe
15
16
fe
13
21
1d
02
06
2e
1e
f7
01
1c
f7
2b
04
34
21
fa
1e
f3
fb
f3
10
1e
fd
f4
25
23
20
22
14
20
11
11
18
1e
15
0d
03
20
0c
20
ff
28
f8
24
f8
fa
2b
09
03
ff
10
f2
e6
06
27
f7
05
11
04
15
ff
13
fd
fa
fb
fd
24
fe
17
09
00
12
03
16
20
ec
05
19
1f
0a
05
20
ff
20
26
14
15
0a
2b
22
11
fb
01
ed
d3
04
fe
f9
18
0d
1f
ff
d9
e8
f4
12
fa
24
fb
e9
1d
08
20
1f
04
d4
17
f9
02
f3
01
27
fb
09
06
2b
09
00
f9
1a
04
21
01
12
1f
ea
08
01
06
0c
24
12
1d
fd
fc
17
01
1e
fa
08
29
18
26
10
01
fc
0c
14
17
ca
14
0c
1e
20
ec
13
fa
01
07
14
1f
26
f0
fd
1b
06
1e
f8
18
21
0b
03
fd
09
fc
0d
0e
1d
0f
fd
f0
13
f7
28
22
fb
33
f8
f6
fe
04
f3
27
1c
21
15
22
0d
1f
2e
0b
25
19
03
10
08
16
1b
e3
19
22
e9
11
02
ea
18
00
09
0b
fc
20
17
fc
2d
24
1c
1a
f6
e2
05
f3
ef
ee
1d
f3
19
17
14
fb
2c
1e
19
0e
1a
2b
1b
1f
03
ee
fe
f1
19
fa
f5
fa
20
14
f7
fb
26
06
08
14
19
09
ff
f1
25
0a
17
f0
fb
0a
02
fc
1a
29
1c
fb
01
20
1a
16
1a
0c
16
fe
fb
f2
25
01
19
14
1d
24
f4
00
02
fc
2e
19
2a
1c
f0
23
13
16
ee
f7
fb
25
09
ee
0f
16
1f
05
0b
f7
f8
04
0b
f0
25
09
22
fb
05
05
16
f9
1e
0c
03
15
f4
01
07
09
fc
f3
0b
f3
1e
ec
00
07
ee
ed
fa
05
21
05
00
04
0b
1f
1a
17
f4
01
11
15
05
ff
eb
11
03
15
04
1b
07
f4
0c
f2
17
fb
08
14
f5
19
0f
fd
26
13
f6
0a
f8
f5
fb
21
20
f8
fc
f9
18
1e
15
0f
f4
1f
05
19
f9
f5
07
07
13
e9
1d
22
0b
fe
15
0f
21
1c
ee
14
17
eb
0d
0d
13
f4
f4
ee
2d
03
09
15
17
fa
0b
f3
02
0f
11
1e
e7
0f
20
0f
1a
04
1e
f0
08
26
24
0a
f9
0b
18
06
f3
1c
ef
f9
0c
16
08
08
06
17
1f
ff
14
17
ef
f4
16
14
f7
17
ff
0b
17
ed
19
27
0f
e8
f7
22
fb
00
29
07
03
0f
0b
2a
0e
24
07
e3
18
1b
1d
19
15
21
04
13
17
08
09
11
08
fa
f2
09
24
24
fc
22
1b
1c
12
01
fb
15
1e
0f
17
18
fb
16
f8
fe
1d
17
0e
fd
27
fb
20
17
f8
f5
0a
15
0f
fd
02
24
e7
f6
01
fd
fd
13
fc
03
1d
15
04
1f
0b
04
29
1c
f6
fd
20
db
1f
19
1b
1b
fc
0d
25
19
11
1c
f6
0d
27
20
27
27
02
fd
f7
11
02
11
12
0e
0e
14
17
25
09
1b
15
ff
0f
f3
fc
ed
17
f9
16
1b
1d
26
24
27
02
fe
05
fc
04
e2
18
02
1d
f6
21
1f
03
e3
00
2d
0c
24
14
1f
f5
fc
04
21
13
f6
29
1b
23
ff
1c
13
05
10
ee
1b
f9
23
13
22
03
0d
27
21
fa
ff
16
28
2c
e4
1f
1f
04
1d
1c
14
1a
e7
22
24
ef
0e
