03
f2
19
02
f4
f7
e5
dc
ee
0e
08
dc
de
31
1f
f7
06
1b
38
f7
08
e1
04
1c
d9
24
24
b3
07
e0
e9
fb
24
04
02
18
17
e5
06
e2
55
13
fe
00
ed
11
0d
00
fc
22
f6
e3
06
16
f2
fb
06
06
18
f7
2d
fd
12
77
ed
06
18
ea
e7
e0
2a
49
da
ea
a7
e7
c8
c2
f0
22
f7
0b
f5
1f
31
2b
fb
1f
de
d1
11
f4
12
d2
09
00
14
f3
08
f7
04
ec
fc
06
f7
e3
07
33
d8
1a
f9
f3
13
3b
d0
f7
f3
f6
fd
0e
1d
00
fa
0a
f7
5b
cc
d8
2c
e9
25
f6
06
1d
26
f7
11
26
08
0d
d6
09
fe
0b
13
11
27
eb
2b
01
12
24
f8
03
c6
d1
ce
d5
f8
03
ea
d6
f3
f1
f4
03
f0
fa
02
09
2a
04
30
f1
22
0d
21
0c
eb
f1
38
09
19
e2
ef
07
e3
ec
0b
1d
e6
0f
