0d
06
29
28
e8
f5
1a
ff
ff
e5
06
f5
fa
ea
1d
fa
11
e5
02
d1
de
f0
f0
0e
05
f2
04
de
fc
2f
fc
15
dd
de
e6
09
fd
0b
f5
f7
d9
ea
da
eb
0e
25
fe
0b
e6
0f
0d
ee
ef
f5
ec
f7
ef
d8
0f
fa
01
13
f5
fd
fb
f5
eb
f3
f9
ec
0e
f6
e3
0a
14
f0
eb
ed
13
f2
f2
01
e2
f0
fc
29
04
f9
dc
ed
f8
e6
f3
ff
0c
ed
10
03
0c
e2
1c
e7
1c
09
0c
05
fe
ee
0f
09
0c
fd
e8
26
f7
0b
eb
fc
f8
e1
f9
06
ed
ed
02
03
0c
04
f0
e5
05
34
e8
1a
f4
f0
fe
f3
f3
15
fa
ef
ef
f4
0e
f1
f0
1e
31
f9
f5
ec
10
ee
fe
f8
17
ea
f8
f5
0b
e0
f1
2b
fb
fe
f7
01
f4
e4
fe
11
ec
05
eb
03
fb
ef
16
fe
11
e0
f9
06
01
f4
15
f1
04
f6
e3
07
fe
3d
04
fd
f5
0a
f2
06
c3
ea
f4
2a
f9
ef
ea
f6
1e
d5
1f
06
ee
02
fd
1a
e6
f0
f2
f0
fa
dc
f6
e3
37
00
05
0f
fb
dc
f0
fd
e7
f7
f3
04
ed
f9
fa
01
07
f0
1a
f9
04
f4
fe
24
dd
0a
fe
e3
13
f7
ed
03
d3
e7
f8
0b
e4
01
f6
06
ff
15
09
fe
25
e6
0c
db
0e
e6
26
0f
f4
f9
02
f4
ec
e3
d5
f5
01
ed
d0
f3
ff
f0
ff
1c
f6
fa
fe
00
e2
f6
d2
12
dd
13
f8
0d
0f
f8
f0
05
08
e4
e0
0e
00
d8
ee
01
10
f6
ef
1e
03
09
ff
e2
e2
f5
f6
fe
f0
f5
f0
fe
f0
f3
df
25
08
cf
df
14
fd
ec
0c
f8
14
ef
e8
04
08
f9
fd
f2
fb
fa
ef
fd
f5
d3
06
f1
ef
0d
ee
3a
eb
17
f4
11
09
f9
f1
ff
f1
18
de
17
e8
0a
fb
06
e5
00
09
06
f6
fb
ed
0f
1a
23
eb
01
16
13
eb
02
0d
06
0c
13
ef
eb
fd
f8
22
10
f1
fd
11
00
10
06
ff
fb
f5
f1
e6
e4
f4
ed
f2
dc
f1
f1
28
06
03
10
0e
ef
f9
2a
1e
fd
ea
d3
1e
ec
ed
00
0f
fa
08
fa
f3
03
fc
04
0d
26
2d
ee
e0
07
fa
0f
02
f9
05
f3
f6
c8
09
f2
f1
07
f0
f2
ff
ff
e1
06
f8
02
e0
16
e5
f3
f6
ec
0c
fc
ef
09
ff
fa
f5
dc
10
fc
fa
f6
e4
ef
f6
0a
24
e7
f7
02
e7
fc
e7
f1
e3
f6
db
21
0f
17
e7
f6
05
f1
f8
f6
03
0c
dd
03
f2
fc
f7
15
fd
f2
f3
fe
07
fc
fc
08
17
f2
0f
ff
04
00
f0
00
02
fe
ff
03
0a
f9
f5
f7
2b
c7
f0
06
ef
0a
03
03
e3
09
0b
dd
fe
14
24
fa
e5
f4
e3
fb
fb
e3
fc
f9
10
ef
ef
e6
ec
15
15
ff
18
14
fd
e5
ed
05
ed
13
ea
ec
f9
11
ee
e6
eb
f6
15
13
e1
16
f9
09
f7
11
ea
17
16
f5
e9
05
f6
16
01
db
ea
03
e0
fc
f0
0b
f7
e8
ea
dd
e3
ee
e5
fa
09
e4
0d
08
d7
f9
14
e1
0f
07
fa
16
ef
db
fd
11
08
fe
ed
fc
f3
fe
f0
dc
dc
f4
f5
06
ef
06
0a
ee
d8
e4
eb
f2
e8
db
d6
f4
0b
0c
d7
f1
20
11
ea
f4
09
23
f8
d5
ea
19
21
f7
f0
ee
e7
f8
f6
e6
00
fa
f2
15
f0
ec
f7
1c
27
25
e6
f7
38
f8
e9
e4
ef
e3
1b
f6
1e
07
16
e2
f3
05
f5
07
ec
db
ec
00
11
21
d6
f8
f4
f9
ea
db
fa
f9
f7
05
f2
fd
09
f2
01
17
1c
11
fa
f4
e1
05
f3
d2
fd
ed
f2
eb
f4
e3
f1
05
fc
d3
fd
f1
fa
01
00
e4
01
ff
f8
29
0b
f4
f2
d2
20
1d
ec
f0
ef
25
ce
fa
00
ef
1c
02
18
05
fd
1a
08
0e
0a
f9
ea
f9
06
07
01
08
f9
ef
0a
01
f1
fb
e8
08
01
f1
0a
ee
f2
00
dd
fe
f1
e9
23
f9
d9
ff
0e
00
12
f3
f7
f6
de
e6
e5
f2
f2
e0
f8
f9
f5
e4
0d
00
e9
01
02
04
fd
03
fd
df
09
02
f7
e8
e9
02
15
ea
eb
02
d5
05
f3
2b
06
f8
e8
f5
15
05
f3
20
ec
f2
f6
d8
03
f9
fe
dd
f6
0c
ed
16
ed
ea
05
ef
1a
fc
f5
ff
37
f8
f0
05
e9
e6
df
02
f3
d5
f2
04
ef
bd
f0
f4
11
07
fd
e6
f3
d4
e2
24
e9
f2
f7
12
02
e2
11
e9
ed
0c
f8
e8
0f
e5
f1
18
f5
24
fb
e2
e9
28
f2
f4
06
14
f1
20
c3
f1
fa
f8
f1
dd
ee
ff
04
07
07
e7
00
f5
fa
f9
f2
07
05
ec
08
fd
fa
ef
f0
f2
e7
eb
f5
e4
e2
20
ed
06
07
e2
ed
f5
f3
f5
e8
fa
ce
f5
fa
fb
ed
05
f9
e2
02
fb
ca
ed
fe
e9
17
d8
ff
0c
eb
f3
01
0a
0a
f3
03
fd
0e
09
04
ff
ff
fa
e6
07
ee
ec
02
f3
0a
0f
f8
f6
d8
f3
04
ef
e6
d9
08
fb
f8
f4
0e
f7
02
f8
f5
0a
fe
03
25
dc
ef
03
18
d6
f1
01
e0
0e
fe
f0
f1
f4
f8
e0
f5
f2
0f
f9
f7
06
f3
fd
f7
f9
f1
f0
ee
df
ee
14
f7
f2
fb
ee
0a
15
0d
02
04
f5
04
eb
01
f2
f0
ed
05
04
ec
f8
e8
ee
06
fd
0a
14
08
f7
2b
f4
c4
f1
01
07
eb
f4
e0
e8
e3
05
1e
fd
0e
04
04
ef
14
f7
20
f9
01
13
0f
0f
0d
d9
fe
d4
fa
09
fc
2a
f1
fb
dd
15
19
fb
02
e1
e5
0a
f4
f4
1b
05
fa
f9
fa
08
e2
d4
0c
f5
05
f0
ef
28
02
f1
fa
f0
ed
07
e7
08
f6
f8
f6
02
0c
04
05
c6
1b
14
fc
fe
f0
f5
2e
f0
ed
cf
09
e7
0f
13
f4
19
12
f1
ed
fc
ff
f7
f8
e3
f3
e7
dc
02
0e
ec
d5
dd
ee
f0
e6
34
de
e8
f4
db
00
1c
00
e7
eb
f3
36
ed
f9
10
e3
ec
f9
1d
ef
17
f8
e3
03
e3
d2
f7
f7
f7
19
15
f3
0d
fe
01
0e
12
04
11
ec
f2
12
0b
08
06
22
18
f5
ff
dc
0d
df
fa
f0
f8
ee
e4
fb
de
f4
f4
ff
f0
f3
f5
0a
09
e9
ec
0e
0d
e7
06
04
f6
e9
07
f9
fa
f2
f4
eb
eb
0d
f9
0e
eb
37
f9
0b
ed
05
15
f9
22
09
f0
ec
f8
0a
f0
ef
f9
e2
2c
fc
15
10
e9
ec
fd
f9
0d
08
eb
fc
fb
1d
d6
fe
f8
e8
f2
fb
fa
fa
02
1d
f8
10
1e
f8
09
29
fa
02
04
00
fd
e1
f2
1a
0b
f0
e7
f6
02
06
f1
e4
05
01
03
ef
df
e0
e6
f5
0e
fc
ea
e3
f9
e6
09
ff
04
f3
e9
01
fc
fd
f3
e1
f9
f1
ea
f0
c5
ea
08
04
fd
e9
12
05
0b
f5
f6
f7
0c
ee
f7
e5
fd
de
f8
08
fb
f1
13
f3
d7
f1
18
d3
07
fc
ff
23
01
36
fd
02
07
db
04
fe
f8
dd
df
0a
ff
f2
06
ea
db
f3
ec
20
fc
d3
ee
20
0c
f2
08
fe
f8
f3
ec
f7
eb
03
eb
f4
f4
03
fc
ee
07
fc
e4
ff
e9
fd
19
f3
f0
f5
f6
f6
ed
f0
f5
f0
0f
08
de
f1
ee
f9
ff
08
04
fe
04
f7
e3
ea
f1
ee
0a
ef
e3
ee
02
da
0e
1e
fd
0f
e1
ee
fe
e7
f8
ed
ff
f1
ea
c2
04
04
fd
0f
17
10
ea
19
00
f8
ea
f4
ff
0d
01
f4
eb
e4
e1
14
16
e9
fb
fd
0b
09
e3
e2
07
04
12
e2
f5
e9
e6
f3
ef
f4
19
fb
f8
ff
d3
17
eb
da
1e
23
f8
e1
fd
f4
dd
11
08
fa
e6
ec
f3
f1
d2
01
0d
f8
15
fe
0a
eb
13
05
f4
e4
ef
03
fd
12
f2
f3
fa
d6
05
03
07
09
f8
0e
fc
0f
06
e6
f6
f5
f6
10
07
ec
eb
e3
f1
fd
29
11
18
f8
ed
e7
15
f0
21
0e
00
06
e0
fa
e9
0c
ec
f4
0e
0b
f3
eb
1e
21
ee
f4
1e
cc
ee
01
e8
06
f2
14
10
24
0f
21
07
df
f9
f7
fc
1d
03
36
ec
e3
09
0e
2e
e5
f3
eb
f1
bb
f1
e7
fc
38
0c
15
ed
11
05
fa
e0
fe
fd
f3
07
0c
fa
e4
08
fe
25
f2
10
f7
ee
e0
df
fe
f4
0c
1b
17
19
ef
02
f8
e9
f6
fb
f8
e4
f5
00
db
e9
eb
ff
e9
fa
fc
f0
e6
fa
13
02
0e
0a
f9
f6
18
f1
e1
08
ea
eb
03
0f
f4
02
14
e3
ef
04
f1
de
07
fa
eb
fe
01
db
fe
e7
f2
ec
f3
29
02
fa
07
00
00
ed
ed
df
ef
ef
f1
ce
38
f7
00
e4
d6
f1
22
e2
f6
f3
05
f1
eb
06
eb
fe
0d
fe
ed
04
05
f8
fc
f9
09
eb
09
ef
f0
eb
08
eb
e2
07
ec
ff
01
0a
d8
09
fc
07
f2
01
ef
fe
3a
11
d5
0e
fa
06
fa
fa
ec
19
f8
10
f1
db
f8
02
f6
fd
09
dc
fe
15
f8
e1
18
d9
fc
f2
d6
ff
00
07
e6
1a
e6
0f
00
16
e6
1a
09
e5
f4
01
16
f2
f4
12
04
02
d4
e0
00
03
cf
0f
e1
fd
ef
2b
f1
0b
fe
fb
12
fd
06
ed
0e
0a
fc
01
f9
0e
f0
ec
02
ee
fc
00
ef
0f
f1
fb
ed
06
fe
0e
02
05
e5
eb
00
05
28
1a
0f
09
ef
f3
da
eb
f0
e8
01
f6
1c
f5
f6
f8
11
13
f3
1b
10
08
00
2a
e9
f2
ef
eb
19
10
ea
f4
07
f2
e3
ff
f4
ff
ea
0f
e9
f4
e3
05
fa
1b
02
13
ea
f8
0b
f8
0c
26
f6
e8
e3
ea
05
de
f6
e5
f1
06
ff
20
e0
ef
eb
00
de
ee
11
1d
f4
10
ed
0d
f1
1a
ea
11
e8
f0
f6
eb
d7
01
ff
f4
fc
0f
e9
1b
05
09
f1
05
0c
ee
e4
fc
01
21
01
f9
f2
06
db
e2
fd
ed
30
00
08
e7
01
ea
f9
eb
00
f8
14
f7
e8
f9
06
02
16
04
07
1c
fd
fb
12
f4
07
f8
14
e7
e9
e7
f8
d1
e4
0e
14
fc
16
09
fb
1c
0a
1d
f1
f8
0c
fa
fe
f7
ed
0c
e6
26
e3
e9
01
ff
ed
11
0f
e6
23
fa
08
05
f6
21
eb
25
08
0d
08
f0
eb
f0
0b
09
f0
11
08
09
ef
03
e2
f4
fc
e2
ec
09
f5
f8
ee
f2
f5
0d
dc
fe
12
14
1d
fd
05
e6
e3
f2
e6
65
f0
05
0b
15
e9
f0
e8
f2
f7
ec
d8
f6
06
f8
06
f2
36
eb
20
f7
00
07
08
25
ef
16
d8
02
df
16
f4
05
fe
11
15
37
04
fc
e4
e9
0e
0d
04
17
d7
fb
ec
fd
f6
ea
0f
ed
0a
01
fb
e8
e8
00
e4
f8
f9
17
02
0f
0b
e9
f5
f7
fe
f4
f5
ea
f8
f5
f4
00
20
07
fb
fe
07
fb
1b
de
10
f0
18
fb
fc
ec
01
f9
e2
07
1a
ed
11
13
ec
d4
fa
d8
f2
19
e9
07
12
fb
22
18
fd
0d
f9
f4
fd
2d
27
02
13
0d
fa
03
e8
f9
f6
0d
0a
f1
1e
f6
fa
1a
fd
01
f8
0f
05
ef
fb
02
f8
fa
05
fa
fb
1a
0b
f5
da
1e
ff
ed
07
fc
fb
01
ec
09
f3
d2
f9
fd
f3
eb
fc
1b
eb
eb
ed
01
0d
f1
fc
03
ff
0b
fc
f5
e8
10
f9
28
f6
e8
0d
f4
00
fe
d4
03
f9
fe
01
eb
02
e8
1b
20
0a
f2
09
eb
04
e1
14
f7
e6
e5
f3
0f
09
10
0f
fe
f1
04
f2
fd
18
e8
ea
f2
11
f7
0a
f2
e0
fc
0f
f7
11
f6
e7
10
e9
06
ff
e4
26
f4
ea
f3
ff
f8
f5
ed
04
0c
dd
18
d7
f2
f5
f1
0f
03
ff
e0
ea
00
f3
05
ea
f9
f1
06
fa
ff
07
1b
f1
f6
e9
f9
f5
fe
0d
f1
d0
e4
f2
ef
fd
fc
fa
ee
08
0d
e6
08
f5
f2
e3
f4
04
f4
e8
eb
f6
f9
d6
0e
fe
e3
2c
ff
f5
ff
0b
f7
f0
07
01
08
ea
f5
0e
fd
f8
34
02
f1
f2
20
e6
21
e8
ff
ff
f0
f3
dd
fd
e4
f6
07
01
ef
f2
f1
f8
e4
f3
03
0c
fa
f0
e6
e7
1a
f7
d8
ff
fd
28
e9
f7
01
de
d8
f8
f2
e6
e5
f2
f2
07
33
11
27
fb
de
19
dd
03
d7
ec
fe
e3
db
e2
02
0f
e9
f0
fd
ec
0d
0b
02
fb
08
fa
f2
12
ff
fe
e8
eb
ee
fa
f7
f5
08
f7
f5
ee
08
16
f0
19
05
d6
de
05
f2
ff
ff
ef
ea
fa
01
ef
ed
22
05
fb
0c
16
e2
fa
ef
de
fe
d6
03
11
ee
03
f8
f9
f4
e5
0d
e9
01
f4
08
fa
06
03
f8
f2
06
e8
fc
df
08
f0
ff
e8
fc
e3
f9
fa
db
ea
0d
f8
d5
db
05
08
08
0b
14
e8
f2
fc
fe
00
fb
fc
10
ef
ef
e4
f8
e6
fa
d6
00
fd
00
09
f3
12
eb
0c
e1
e5
02
f7
0c
07
dd
07
fa
fd
04
ec
df
ec
e4
f9
14
e8
fb
00
08
0c
ed
0b
f3
e1
08
eb
f0
07
f5
f4
0c
d1
5e
1f
ea
14
f8
fa
d8
1c
f8
00
d3
02
ea
1b
06
1e
f2
01
f4
f7
e0
fc
04
1a
e1
f9
1c
f6
f2
08
03
d3
ff
05
ec
fa
eb
fd
e1
f0
e4
e0
0a
0d
f9
f0
16
09
ef
ef
fa
06
f7
00
ff
16
ea
dd
e2
f6
ef
f8
07
fa
33
07
00
ee
01
e3
f2
fd
f0
0b
ca
ef
f5
fe
17
09
f6
0d
f7
fe
04
ef
02
f0
fb
fe
fc
f8
f8
e5
ea
e3
02
eb
f8
fb
d7
e1
f7
10
e8
ee
f1
05
de
ff
fa
f7
03
e0
ee
dd
02
2a
f5
e9
f7
0d
ed
02
e6
37
fa
fc
f8
ee
ff
df
12
ff
ea
0c
03
e6
1a
fc
ea
d8
10
00
e8
fd
11
e5
0f
ef
d6
ea
0a
c9
05
f2
fa
21
f0
eb
0d
fb
03
04
09
d8
fd
f6
fc
db
f6
f2
f1
03
07
fa
dd
fd
d3
14
11
fc
e2
e7
13
0a
d3
fb
f6
03
34
fb
f1
0a
e6
f5
ce
e7
01
fa
19
f2
09
f3
0e
e3
f7
de
e5
02
07
01
ec
fd
09
f6
0c
16
ed
f7
f1
21
00
f4
04
fb
eb
fa
04
06
15
ea
fb
f7
11
e7
ef
ce
fb
fb
e0
ef
fa
f2
ec
12
e1
f3
af
df
18
fa
0c
fa
f2
f1
ee
eb
ff
26
0b
ff
0d
eb
f4
ea
0f
ed
d3
ed
ef
ee
fc
ee
03
f8
fe
fc
fd
fc
f8
fc
05
dc
fb
ed
e7
f0
09
d6
18
f5
01
ca
08
e1
f1
f7
f0
f6
07
ea
03
04
14
03
03
f9
12
e5
ff
16
f8
df
fe
e3
e9
14
ec
db
1c
06
f8
f9
07
02
fb
09
e5
ea
fb
f3
f6
f9
ea
d9
f8
e4
02
e6
ec
e8
26
16
d7
f5
fd
f2
fb
f7
da
f8
cd
fb
e3
f5
f0
df
f7
e7
f1
09
e3
f1
ee
db
1e
fd
f6
f9
fa
dd
1a
ec
f3
f5
f2
fe
ff
05
fc
05
e6
ed
f1
ee
f2
db
24
e1
0d
36
ff
d2
fb
f2
30
04
f6
e9
02
04
08
fe
fa
fa
e5
f5
33
f8
01
03
00
02
ee
f5
e2
ef
ea
ef
ff
ec
f0
ff
f6
e7
f6
0f
eb
f7
e3
e8
f7
08
ed
f1
f8
ed
f8
be
16
20
fd
17
09
ed
fb
f4
04
02
09
02
f0
03
ed
e8
01
e5
05
fd
fb
e5
e3
e5
0b
01
fd
fe
08
0b
06
f8
f4
27
f1
ea
f9
f2
f6
fe
21
2a
00
fb
05
f0
fe
04
de
d4
e4
ff
e3
03
ec
ed
ff
fc
ee
ec
fa
f1
e0
08
1b
05
f3
f9
ec
f2
f5
dd
04
dc
fc
f4
ff
f3
d9
ee
db
03
fb
eb
fa
09
f1
ed
fd
fd
ee
e2
ff
df
fd
0c
23
f9
f0
f6
f9
00
e0
18
1a
06
f4
00
ee
ea
ff
0a
d0
e7
20
f3
c5
e5
2a
1a
03
04
e6
01
cb
e1
ed
12
f3
e9
00
e7
02
0e
0d
e1
23
01
ef
e8
e1
d5
04
fe
d3
e1
f6
12
02
e3
12
1c
08
ef
fc
0d
f8
e4
e2
10
fd
e9
08
03
f1
00
18
0c
d9
f5
fd
f4
13
e5
04
f6
07
0a
07
27
ff
f6
24
fd
03
e2
e7
02
e6
f2
fa
10
f0
17
f4
f7
fa
12
f9
e7
f1
ee
09
05
f3
fc
f1
fa
05
f5
06
e3
04
ee
fc
24
fa
f4
e8
15
19
fc
34
ec
f7
04
f2
fa
ea
df
ff
ea
08
db
fd
06
d5
f8
ec
f6
01
0a
e9
07
ff
e0
08
fd
fd
dd
f4
06
00
e3
f7
03
f8
05
17
fe
f0
08
1d
0b
fb
e7
e8
dd
f4
06
e1
ca
fd
f2
fb
f7
f4
1e
f2
e7
e8
e4
e6
fe
17
01
f0
27
ef
30
f5
fa
fa
0a
01
e5
e6
db
15
f3
ef
f6
f5
02
01
f4
05
df
eb
ff
e2
f3
eb
e5
e6
2a
e9
ff
02
fa
00
f7
e5
df
e8
ed
0e
f9
f7
15
46
09
e1
fc
ee
07
02
f5
15
14
2e
10
00
f6
f7
e5
e4
fb
e9
f9
f5
fa
20
fa
e1
f9
0f
fa
f0
d9
01
f2
f5
06
03
fe
fa
1d
eb
ef
fe
0d
03
ef
24
09
04
ed
df
05
e9
0f
dd
06
28
fe
f5
02
f3
fa
f0
f2
ef
fe
09
f6
12
e4
13
f1
f1
15
48
fd
f0
0d
01
fa
2c
1e
ee
07
11
14
fb
15
e2
f6
0d
d9
f8
ff
f4
ed
19
ed
15
f4
23
22
cc
f4
e7
05
cc
ef
f5
e8
fa
34
e5
e3
f6
e6
00
f0
00
f1
00
14
0b
1a
f7
e1
e6
f2
f6
ef
fd
d4
f7
0d
fd
fa
fc
f5
fd
fb
dd
ea
07
14
00
fa
e8
18
0f
01
f8
fc
e2
ed
1e
15
18
f2
f5
f4
e5
ee
06
f9
1a
0c
19
f8
f2
eb
e2
04
16
cf
f8
d2
fd
dc
03
00
04
07
0f
0b
0a
f1
f5
f2
f7
ef
da
f3
f6
e6
f5
07
f0
e0
0b
f2
0c
e8
f1
04
fa
e7
04
ea
09
f3
f5
f5
f4
e7
ef
e1
ed
d0
df
07
12
11
f6
f4
ee
11
ed
14
0c
ee
d0
f9
17
03
e5
d7
f7
31
e5
03
32
f7
ea
2b
f5
f9
fe
1e
ed
06
06
d4
19
04
f8
f3
03
0b
fc
f4
0b
02
01
f8
16
e1
0a
08
e5
0c
fe
fe
02
05
06
fd
18
f7
05
fb
d0
f3
10
f7
18
e3
03
e7
12
09
d9
1e
fc
e9
09
16
fa
e5
f6
11
ea
13
fb
fe
fb
22
2f
0a
06
fa
ea
10
fb
e5
c8
32
f4
ee
f9
00
fc
f2
0e
ee
05
09
0d
ff
f1
f2
ea
fb
f5
fd
f2
07
ed
1e
ef
2b
ed
0b
f7
fe
00
ee
04
f6
ec
e5
03
ed
ef
f3
e6
ff
f3
ed
f8
0d
f0
14
f0
0c
fc
4e
10
fc
ec
dc
f8
f8
17
f1
0e
2d
1a
f4
e7
10
f7
fd
ff
f0
05
04
e6
f6
05
fb
1b
f8
f1
ee
fe
0f
00
f3
f8
e9
0b
f7
d9
ed
fd
2a
e1
d8
d8
f7
fc
f6
f7
f8
2a
d7
e6
e9
eb
07
11
f7
f3
fa
16
fe
1a
0d
e8
f3
00
f9
e7
db
ef
e2
07
d2
e2
f7
f2
f5
fb
05
dc
f2
4d
f9
e8
fe
e2
e7
e9
e4
e0
21
0c
f2
d8
ef
01
20
19
fb
f8
eb
01
ec
0f
eb
12
d5
f6
f2
1c
ec
00
f2
ea
fa
08
e5
f2
06
fe
e3
04
e7
d2
13
0d
19
f3
f1
ef
0b
ff
23
fb
f9
eb
18
e6
f5
f6
e2
09
00
0c
f1
ec
f7
fb
fe
02
f5
ef
0a
f4
f6
dc
e3
f9
13
02
fa
01
fe
e7
04
ec
f6
0e
02
03
f6
fd
d9
19
1d
16
f5
fc
e9
fd
d8
01
f0
07
f1
0c
0b
db
0a
0c
f6
ea
e5
fd
d3
d9
0f
f6
eb
f1
1a
f2
f5
06
eb
f2
e7
02
f3
fa
09
e7
f8
03
de
ff
00
ec
0c
ea
ea
00
e1
05
05
07
e1
ef
f8
ec
ef
03
ea
ed
17
f7
04
e5
f3
26
f8
fb
0e
07
ee
f0
f3
02
08
0a
d9
0e
f9
08
01
08
0f
ff
ed
fb
0c
f3
fd
eb
f0
f7
0e
f4
06
f5
ed
fd
22
f5
05
e7
2f
e8
f4
e9
f8
1b
14
1c
08
e4
07
f2
27
f3
ea
06
e6
00
f4
f5
e5
02
f9
0a
f9
f3
f3
07
ee
e8
e6
f0
f8
28
0b
10
ee
f0
f5
f7
ec
00
0b
ee
05
21
06
ee
f6
ee
e5
fc
ec
19
f8
ef
cc
de
1d
04
e0
15
dd
09
e7
01
45
f3
01
f3
e0
01
c6
f9
f1
0a
ff
13
14
0e
f2
f7
fe
fd
f9
de
f0
03
de
d3
e2
09
f1
ea
0b
05
eb
0c
ee
eb
f1
10
f6
f5
16
e4
04
eb
29
08
cf
f5
08
f3
e8
f8
0b
17
ee
e4
1e
01
03
fa
e7
e8
a7
ca
03
0e
fd
1d
05
02
f0
fc
c0
ef
f1
e1
ef
04
f3
1f
ed
70
0e
fd
f9
fe
f7
f2
e8
fe
fc
13
de
00
03
09
fb
17
f8
fd
05
f9
17
f8
e9
ef
fc
05
06
1d
0f
e8
f7
06
f6
11
06
17
e8
ec
f2
fe
f6
db
0e
fd
fb
e0
df
f7
1a
f5
07
0e
04
03
ea
e8
ee
ee
fa
07
05
0a
0e
f3
ee
f2
f3
01
fb
1e
f4
df
f4
e4
f5
ec
12
fb
e2
27
c2
ff
de
f0
e3
3c
e5
0c
1e
15
e7
fc
06
e7
14
27
dc
f1
0d
15
e2
f3
16
eb
06
1a
f6
00
e3
de
fc
fd
f1
f3
17
03
e8
ed
0b
df
e7
f2
05
f0
dd
02
13
47
08
20
e3
f7
08
08
1e
3b
fd
e9
eb
03
10
e9
e8
f7
fe
ec
dc
f3
02
3b
f3
ce
ec
e4
ff
f5
17
e6
ec
ea
ef
fa
ef
f1
00
23
f4
09
f6
f1
fb
fb
fe
10
f4
f2
16
0a
f7
06
f1
f6
f3
e5
1c
f9
03
f9
ec
f6
f9
e1
16
03
f1
eb
fc
e2
dc
07
f5
ef
cc
fe
fc
f9
fb
f1
eb
f9
00
07
03
e1
fa
02
f4
22
ec
d8
fd
0f
e2
f1
3a
f2
f5
fd
ef
e4
0b
ef
0b
fd
f3
e3
01
f4
de
c9
00
e9
22
fc
fb
f3
e9
0f
ed
02
ec
f1
fc
ea
dc
f2
e8
04
11
11
ec
0a
e5
e0
12
0a
e9
dd
0a
fe
eb
1e
00
17
f5
f3
ea
ff
ff
21
f9
32
ee
d8
fe
f0
ea
f1
01
e9
e4
e5
e3
e5
f1
f0
f8
f4
e0
f7
f7
fe
29
fc
fc
02
ff
ea
05
fa
08
f2
f7
15
f2
11
02
1e
eb
02
ed
05
f0
f6
e8
24
f6
05
f5
09
0c
02
12
0d
fb
e2
f2
1f
f0
fa
e8
0a
02
e4
03
ef
08
fe
e7
f1
f4
0f
06
03
00
ed
e8
fd
f9
10
ee
00
ef
1d
1c
20
26
eb
fc
f0
01
0e
04
e3
04
e9
0a
f0
2e
da
f9
f8
e9
d6
ec
f3
0c
04
eb
04
12
ea
fb
04
c9
e9
00
13
cc
eb
3e
13
f1
08
ea
01
e8
14
06
fb
14
ea
dc
f3
18
f0
15
dc
f2
00
f4
e8
0b
07
db
cd
f1
dc
35
f7
05
fe
e1
e3
d6
e0
07
0b
e8
04
00
e5
13
ef
f1
f7
e8
ed
e9
3f
e4
e6
ee
e9
08
03
fe
ea
05
f4
09
12
01
fa
1a
ee
ec
fe
ec
f7
ed
09
f3
ff
f5
20
02
fb
e6
23
1e
f2
f2
f5
ec
fe
ed
e7
f6
f1
ed
12
f2
f2
05
fe
f9
0a
08
0a
f8
f3
e4
fc
1f
05
09
fc
f7
02
f6
27
03
f2
e2
07
11
02
2f
00
ec
e2
f6
19
ef
f7
fc
f8
0c
09
f3
11
ee
fa
ed
f5
f0
22
e0
db
c8
ee
00
fc
e5
e4
04
03
f2
ea
11
1d
ef
00
f8
eb
10
f0
28
f1
0e
fd
dc
fa
11
12
f9
e7
11
e9
c6
17
ff
dd
10
0c
f1
f6
fe
f2
21
f5
f1
f6
eb
02
e5
ec
06
f1
f5
11
fe
ea
e8
06
0d
ed
e6
eb
f1
ff
f1
0d
17
04
f7
12
02
e3
fa
ee
f3
e7
ed
01
32
02
f0
ee
f8
ff
03
ed
f3
fd
ff
fa
ec
0f
0a
ff
fb
10
f3
f9
e1
0f
ed
ec
da
e1
f6
ea
e5
15
ef
e9
e3
f3
e0
fe
fc
e5
eb
0a
f2
f4
e2
e1
df
fa
f5
10
00
06
ea
ff
05
11
f7
f2
11
f7
00
e9
e9
01
06
e4
08
ec
d3
ed
ed
24
fd
f2
06
f6
f7
0f
05
f5
31
18
df
02
1a
fd
df
e9
06
fc
f5
ed
03
ec
e6
e4
ee
ff
f4
e2
cb
e7
e5
f6
f5
f8
1a
e4
00
ec
fc
e6
ec
f4
ff
ff
e9
0c
fe
f8
e7
0e
df
ed
ed
01
13
fe
ec
fa
eb
05
eb
10
0c
0e
eb
ff
e5
ec
1d
17
da
ec
15
e4
fc
e5
fc
f4
09
ff
f6
ed
07
02
f6
e6
ec
eb
09
fe
f0
fc
dd
06
08
fa
f6
04
05
07
ed
ec
ee
e7
f5
07
04
d4
fa
e5
00
fa
0d
11
21
e2
16
e5
cc
ef
25
fc
02
e9
f3
ff
ef
f1
05
0c
26
ce
02
ff
f6
ec
f4
07
24
ed
e3
fd
f7
ee
e5
19
e3
fb
eb
02
e8
f8
f9
0e
ff
ed
f0
06
ef
e8
f0
f1
f6
08
ed
ef
de
f3
eb
ec
09
14
08
e2
f8
0f
f0
0d
e4
e2
06
00
f3
04
09
f0
e7
f3
27
f1
07
e1
10
07
ec
f4
f0
f7
ed
fb
f7
fb
e7
f1
09
ea
0c
05
ff
f8
0c
ed
f3
f8
d7
f3
32
e3
29
03
0f
0a
f1
04
db
e4
f4
ee
f1
f2
de
fd
15
e6
e7
f9
df
ef
e6
03
f4
03
fd
d3
03
f7
f3
ef
f2
e1
f4
ed
f2
e9
ee
0c
e7
10
f9
04
fa
11
f1
fa
09
ec
09
00
12
ea
00
f8
f2
12
eb
0b
ed
f0
07
fe
ee
07
f7
de
1f
eb
f4
00
e8
f1
ed
00
db
05
fe
f0
eb
ec
ea
ff
0c
f3
ee
fc
f5
07
fe
dc
01
e8
22
11
f3
eb
f5
f0
e5
f7
f9
0e
f3
f2
00
00
03
e3
12
f9
f1
f7
f6
06
0f
e0
18
06
ec
f0
18
f0
de
ef
fa
fc
e6
01
d7
05
18
f9
07
f2
ef
d5
fb
f6
e3
1b
ee
00
f0
ef
e8
da
f8
ec
13
04
ee
f9
3e
d2
e8
e7
ee
ff
f1
fd
ee
26
ed
e4
dc
fe
e0
f3
ff
0b
f0
f7
ed
eb
f7
01
0d
f4
ea
f8
07
0d
e7
f3
00
d5
03
d4
01
07
ff
f0
f4
f6
ff
16
e7
35
00
f8
ea
00
e9
0f
fc
0d
de
f6
f9
f5
01
e2
df
06
f9
f7
0f
f2
fb
fd
18
ed
f4
eb
0f
0f
f6
fc
06
f1
09
0a
c7
f1
e6
1f
f5
e9
f7
fe
e7
f4
fe
eb
fd
e2
ea
13
05
f3
f2
dc
fd
f1
fd
e8
f7
f2
ec
1a
f2
10
00
f8
0b
d8
f1
ea
e9
0d
f3
11
e1
ef
db
da
03
e8
0b
f2
ef
e7
d4
f7
d3
09
f2
de
e1
0f
e6
f7
00
ee
fc
00
1b
ef
f5
1a
0b
ed
f2
e2
ea
ee
f1
0e
fd
d2
1c
e2
fa
e7
05
fc
10
f9
3d
01
e1
27
f5
e8
f6
f2
ef
09
c9
ed
fb
d8
f2
09
e2
f4
fa
0c
00
f5
f1
f3
f7
f0
fc
05
f9
f7
09
f2
27
ec
0a
03
f5
de
fb
e1
2b
09
00
f2
f7
1d
e2
d7
d8
f1
f5
f8
0b
ef
e9
0c
00
08
f3
e1
1e
f1
26
e5
df
ed
09
db
fb
f5
19
f1
14
eb
ff
e9
fd
02
05
f9
f9
08
f3
e0
0b
10
fb
fd
00
ff
ff
eb
f0
0b
fd
05
00
f0
e6
20
07
d4
e9
00
00
12
fb
e4
da
f9
fc
1f
e9
2f
09
08
0d
f1
fc
f0
f6
db
f0
d2
f3
ea
e9
04
39
ed
0a
ef
d8
e4
0f
36
ee
1a
f7
df
05
12
f9
0c
e9
de
f7
ff
fc
f3
ec
e9
02
d7
ee
fc
fa
f8
03
ef
00
ef
fa
e7
0a
11
fb
20
fa
f4
04
06
ee
fb
e1
11
19
03
f8
23
f0
e6
00
f6
0e
ed
f9
e5
f6
0b
d9
05
d2
fb
f0
e9
08
e7
ea
09
54
05
12
19
fa
eb
0e
09
11
fb
f4
f2
e9
14
f0
ed
e1
03
e5
fb
f9
f1
dc
e8
c7
22
f0
f7
ed
03
f5
fd
0b
ee
ed
e2
f0
cb
02
f3
f0
23
eb
e7
eb
e3
09
00
ff
ee
f8
f6
01
dc
ba
00
f7
ed
f2
f4
e2
0d
e6
0b
f4
de
eb
fb
ff
f4
05
13
03
fa
0b
f6
f6
0e
f4
f9
ff
d9
05
ea
f8
15
ec
0c
21
ea
0d
1b
14
0a
e3
f6
e9
fe
0e
ef
f1
0a
0e
f2
f6
df
06
f3
f9
d6
02
fb
fe
12
f5
09
ee
0c
e6
1f
df
f4
f6
0f
e2
08
fb
0d
fb
e2
f5
00
02
07
0a
f9
f7
03
01
f5
df
0b
07
ee
09
cf
e8
00
03
17
02
1f
f9
09
ec
d9
df
ed
f8
05
0a
00
06
01
e8
fd
04
0c
0e
09
fa
f8
fa
22
17
f3
e3
20
2a
13
d7
fc
2d
10
ea
e8
ff
da
eb
23
00
15
00
2a
0d
32
f9
f9
ea
e4
07
e2
fc
fb
f1
01
dd
f2
0b
f5
fc
1a
fa
f6
0a
04
eb
f3
07
03
f0
eb
1b
0d
f0
ff
f1
f8
f5
ec
fb
eb
f5
f3
f2
f8
06
de
16
ef
17
01
fe
ee
16
ff
02
09
e5
16
e3
e4
0d
f1
06
f4
17
2c
02
f5
f4
e9
0a
f1
0c
fe
e6
cd
0a
0e
f6
f2
f8
f8
fe
d6
09
e3
0e
13
10
f1
f4
1b
ff
f0
f2
e9
00
fd
00
08
e5
fc
0f
10
0f
06
05
e9
f3
ea
ee
09
09
04
f1
0b
ef
e9
f7
fa
e2
09
fa
e7
03
ea
07
fb
ec
08
fb
05
04
f9
f8
ea
0a
fc
13
fb
f9
03
d5
15
f6
1b
06
0b
f8
08
f4
fa
fd
0d
11
0d
0e
02
05
0a
03
02
ee
fd
0e
ee
e6
0b
eb
ef
e0
02
91
fe
28
e8
d6
11
3f
e8
1f
10
ed
f9
11
0f
e2
ed
e4
f8
f9
01
1c
f8
f8
05
f4
fb
f3
d3
08
db
e1
e8
0b
08
04
fb
02
ee
e3
0d
1c
f2
e3
f3
f9
04
e8
e0
ed
0a
f1
e1
02
0f
f6
16
fb
f5
f7
0c
f5
ed
46
f1
08
03
f1
fa
f2
f6
ed
df
f8
f5
22
ed
ec
e6
00
e0
ef
01
f8
fb
f5
fa
1f
f4
ff
04
f6
22
e2
fc
e9
03
cf
ed
e6
06
e4
f7
f0
fc
18
cf
f2
f6
f6
fb
f6
25
ee
e2
07
0a
09
02
f2
f7
00
fb
f0
21
07
07
f5
fe
0e
e8
f6
ec
ee
2b
08
d9
15
f4
f4
09
f4
e9
e8
f7
1d
ea
fb
06
de
0d
f4
fa
f5
ef
00
f2
02
11
ff
f2
f6
ef
de
0d
ee
0f
f5
fd
ee
0d
0a
1a
f7
cc
f9
f6
07
fd
fb
fc
05
f8
dd
f7
fd
03
00
11
00
06
00
01
09
ff
03
f4
fa
f6
e6
de
0c
e0
03
fe
01
dc
f3
f4
fa
f6
f4
09
08
f2
18
f6
e0
df
fc
0b
10
dd
f1
e6
fd
16
00
0c
06
e9
07
08
fb
fd
00
04
e2
ff
ee
fa
f4
0c
ee
fe
0b
0e
f5
00
7d
f1
f7
dc
f9
25
f9
fe
0b
ed
ee
1a
f0
d7
c7
09
02
ee
09
ed
07
0d
fc
07
04
f7
fb
f5
0b
f7
db
04
0a
03
0d
f6
07
e1
ff
22
eb
fb
00
fd
ee
ed
fc
f7
10
f0
06
04
e8
0b
0c
f7
ff
ee
f4
02
e6
ec
0b
d1
0d
eb
01
ee
fc
02
00
10
e5
09
fa
fd
05
10
e9
02
de
07
d9
07
f1
f7
09
f8
17
d0
07
c3
0c
f2
fc
0d
f8
fa
fd
0d
01
f7
fe
ee
ee
06
f5
1f
0d
d3
ea
eb
f9
ef
df
e0
13
0f
09
03
0a
f7
f3
fd
f0
e3
e3
20
ef
f4
d5
13
c4
e3
ec
fc
f7
f4
e6
f5
df
04
f4
f6
fa
03
00
1f
01
06
ee
ff
df
10
21
e8
06
f9
db
00
f8
f5
06
03
f1
f7
09
f2
12
c2
f2
f5
fd
ed
06
f2
f6
1b
05
f8
03
25
17
f5
0f
fd
d2
0c
e7
f8
ee
06
e3
e1
f3
fc
fe
01
11
f2
0e
0d
0b
fa
f4
db
ed
ee
03
f4
03
eb
02
0d
11
ef
18
fe
04
02
04
f4
fa
fd
fc
fe
f6
fd
07
00
fe
0d
15
f2
00
04
e3
06
fc
f6
f8
00
e7
10
f8
13
09
d5
ea
08
23
fe
f2
fe
fa
f9
e7
f3
de
02
f1
02
ea
e6
f0
08
ec
f8
f8
ff
ed
e3
00
f7
f1
e8
0c
01
11
19
fd
eb
fa
fb
07
ed
f8
f5
f8
0e
0b
ee
f1
fe
ed
f1
fd
0e
fb
02
f9
00
f6
ed
13
05
fc
16
ff
0c
11
01
f9
05
fa
fd
11
15
f6
f4
11
13
0d
09
00
0f
d3
cd
f9
db
e0
0c
ee
03
f3
e4
f0
06
09
f1
f6
e7
f6
e4
fc
ef
08
f4
ff
06
ff
f7
e2
11
1a
e8
fa
ff
02
0c
01
f1
f8
ce
0a
fe
16
ea
09
f6
fe
f3
0f
d6
fe
e9
d6
3e
fc
fd
f1
05
f7
02
f5
04
04
da
ee
3a
12
f7
0d
e1
02
09
ec
ff
e8
17
f8
73
f0
0a
01
f2
eb
d3
f7
f5
f5
f3
f3
e7
09
0b
03
f8
fb
f1
ef
f1
fe
02
0d
fe
e9
fe
1e
0c
dc
20
4e
fb
23
d5
14
e6
ee
e3
f3
ee
f6
07
ec
07
e7
e4
fa
f3
ef
0c
07
f3
14
07
0c
e2
fb
0b
06
07
05
f5
f5
0f
d0
fc
06
03
ea
f2
db
f7
f8
ed
f6
ff
09
2d
de
f1
0e
e8
0f
05
da
f6
09
ed
f4
04
02
fc
d4
f7
d7
02
09
e8
f6
00
0e
f8
ec
f1
f8
f1
04
f2
df
f3
16
ef
f3
ea
f1
f1
fc
d9
e2
0e
ed
f6
01
de
0e
fc
fc
fd
12
0b
f4
0a
14
0c
e8
e9
fb
0c
0a
f9
fb
0d
0c
12
02
ff
fc
07
f5
0a
e7
08
f2
f9
ff
f2
0a
0b
05
e3
13
0b
fc
ff
f2
12
f1
fc
f8
06
e3
0f
03
e3
31
f7
fc
ea
17
f3
f2
05
08
05
05
1a
f2
f1
eb
07
f8
ed
0e
f4
04
17
f3
18
e8
fb
f5
0b
fe
0a
f9
ff
05
0c
0a
29
fd
f6
0a
0a
01
f6
f8
01
24
3f
ff
ff
f7
08
f7
f7
f5
ef
0e
f9
f9
f9
f0
f2
e4
f9
fe
f9
15
04
21
09
00
f7
e8
ee
d5
01
fa
ea
ea
f5
f4
f9
db
24
f7
f2
04
e8
0f
08
f3
e8
f5
1a
dc
0d
2f
06
0b
ef
fd
00
0b
00
05
d0
03
09
10
e8
ec
0b
06
f8
02
06
fb
fd
e9
00
bf
ed
f5
ee
ef
03
09
fd
f5
eb
f9
1a
ec
05
ed
fb
fc
ee
33
03
ef
10
25
f3
f4
e2
fc
fc
f7
e1
07
01
fe
e2
fd
f5
fd
e8
ed
f3
f6
dc
09
13
e8
f5
0a
06
f7
07
ef
f4
00
06
f4
fd
fd
f4
0a
04
05
ed
c8
04
ff
ed
f6
02
06
18
fc
ed
f2
02
ef
17
f7
05
fe
0c
f1
12
ef
05
00
16
08
ff
fa
e2
f3
e8
0a
ec
08
f0
f8
fa
e5
09
fb
fb
ee
e2
1b
09
15
ee
ee
fc
f6
df
ef
e5
eb
d5
08
1b
03
c4
0b
fd
f8
0a
09
ed
f5
00
f4
09
1f
e3
3b
25
e2
05
06
e8
f7
1a
f2
e3
f9
e9
06
f9
ed
ea
18
0b
f4
03
fa
f9
ec
ff
f5
f0
01
f4
0c
fb
fc
f4
ea
fb
fb
f5
00
00
f8
13
09
fc
e9
f2
15
ef
0e
13
13
f7
08
25
16
fc
f9
01
0c
e7
d4
13
ed
ff
f8
13
f2
fb
f0
fa
f4
00
ef
ef
0e
df
fb
ec
00
fa
ed
12
f4
fc
e7
04
dd
ff
0e
f9
e3
ee
12
06
23
e3
08
06
05
01
f6
01
11
f6
12
12
dc
f9
f1
cc
c1
f6
c4
ed
f1
fe
fa
df
e7
ec
fc
f6
04
00
e5
e6
02
f0
1f
eb
ee
17
f3
f0
f5
11
0a
db
f6
ff
35
f9
e5
e6
ff
14
d7
02
e5
0e
09
f9
f7
f1
df
ff
ff
f5
f1
02
e5
ef
f7
fd
fa
d8
1f
01
ec
06
ef
ea
dd
06
fe
03
05
f5
db
f2
fd
16
ed
04
f2
f3
e1
08
f5
0e
f7
04
d8
f3
04
e6
f0
f1
59
10
ef
f9
0c
0d
ff
f5
ee
e1
22
f4
03
f3
0b
e7
f2
f8
02
08
0a
ed
fa
15
f7
f2
d3
e3
fb
01
ec
ef
f8
e4
0e
00
01
f8
ec
02
fe
10
03
f3
f4
f4
cc
f4
f2
05
07
19
ed
e0
10
ec
f5
fc
e6
16
fc
dc
fe
de
e2
f6
fd
00
e6
0b
e9
ed
0a
f5
e8
02
e6
ff
e0
18
0d
0b
1b
0b
05
ef
ef
0e
08
fd
02
00
ec
0f
f3
02
f1
23
02
00
f5
ed
08
f8
06
00
ff
05
15
01
ff
15
f9
f1
f6
f2
f3
f9
06
06
ee
fa
f0
f6
ea
f9
f7
ea
f4
07
fa
eb
0d
e4
09
f4
f6
f0
1d
02
fc
df
fc
f7
f3
02
db
f2
fb
ff
fc
1a
08
f2
d8
f7
fd
f8
fc
08
f3
1d
f9
ff
03
ed
05
f4
25
f9
e7
eb
05
f7
e8
13
f3
04
12
ef
fa
04
12
e8
16
f2
fa
ee
e2
e0
07
0c
dc
f2
f1
fb
ed
e6
02
e8
fc
02
e8
07
ea
f9
06
24
11
12
f1
eb
12
ec
f5
f9
e8
fb
ea
04
00
f5
15
f9
03
ea
e6
15
f8
ed
f1
0c
d6
f5
ee
fa
e7
19
f8
f5
ea
e1
01
1f
fe
25
f7
e2
09
f2
04
e9
1d
ed
ff
e2
1e
ec
de
ea
fa
fb
f5
57
ef
ff
fb
e9
fd
27
f8
fe
f5
fb
fb
16
fd
03
16
fd
04
09
07
03
eb
f3
03
f2
fe
f1
f3
0d
fa
00
fb
18
e4
01
04
e9
fd
f3
ff
12
dc
ed
eb
fc
04
0c
f7
12
f6
f1
f8
f4
0c
0d
f4
e9
0a
e6
f3
e5
1f
e9
fb
ef
fa
10
e6
05
fd
ef
15
f8
ff
00
e6
08
e7
02
e0
f5
0a
ea
ed
1e
ee
1f
07
fd
19
09
f1
0c
e2
fc
00
0a
16
ff
01
12
fc
ee
f3
01
f7
dc
fd
fc
05
fc
04
f4
f4
f9
f1
09
ef
12
09
de
20
f8
0e
e6
60
0b
12
06
f0
36
fe
e8
d3
f1
0f
09
fe
f5
f8
eb
01
2f
f8
1b
f3
14
ec
00
08
f3
00
f3
f4
e4
f1
e9
07
f0
0f
e2
ea
f7
fc
ff
f3
fb
16
d3
e2
ff
0d
01
22
f5
22
fa
05
f0
06
05
fc
f5
0d
f4
ea
eb
ce
fa
f1
f4
ff
f2
f1
08
02
f4
f6
ed
e6
18
f1
fc
dd
07
06
f7
bc
e6
fd
0f
f5
00
06
0c
fd
f1
fb
f5
f4
04
fe
01
ea
f1
12
f2
eb
df
d2
0b
0a
f3
eb
f5
13
fe
01
56
0d
f7
dc
f5
f9
04
ee
f3
ee
1d
ff
ec
00
14
06
fc
fe
ef
f9
f6
fb
e7
07
eb
e0
09
f8
09
eb
ee
04
06
01
06
fa
f7
e4
f1
3a
ee
ef
ec
f0
04
fe
01
00
f7
f2
08
f0
2a
e9
ee
0c
17
ec
47
f9
de
06
0c
fe
e0
f9
22
52
ec
01
07
ea
01
02
03
f7
f2
f9
04
ff
e3
06
de
07
e3
12
15
f9
e8
f2
ea
f5
f6
fa
2e
10
e1
e8
e9
fd
fe
08
e6
08
e7
17
14
06
ff
0b
f2
15
e2
f3
20
ed
fc
eb
fc
f6
e2
e7
f5
eb
fc
f6
e8
03
fa
0a
e9
f2
eb
f7
ed
04
ee
fc
0a
ea
f9
13
f5
ff
06
00
0c
0a
f6
fe
12
00
fd
ef
f0
01
e7
12
e4
ee
0d
ea
e8
0f
f6
0e
06
d3
ef
f1
0f
15
fa
fd
fd
fd
0e
ff
fc
e9
e1
fc
12
04
fb
ef
12
f4
13
11
ef
d6
fa
05
db
0b
e0
e6
f6
ea
0b
10
07
00
fd
ea
29
0e
e3
00
f5
12
ec
ed
eb
16
ed
eb
e2
d8
f4
fe
df
08
05
06
16
fe
02
00
e6
03
02
e2
24
02
e7
00
f8
f1
f5
1a
ea
f6
e3
fa
fd
f1
e6
0a
15
fa
f7
ea
e9
f3
f2
44
e7
df
fc
02
0f
df
01
ef
f0
f2
da
0a
17
f2
22
e3
17
fc
17
f6
16
f8
22
07
0f
ee
0f
fc
01
13
04
03
04
19
f4
f9
14
dc
e2
00
0b
05
fa
fa
dc
2a
0c
f5
fa
f0
f1
f8
0b
fe
0b
00
01
19
f7
25
f1
0a
13
1b
ec
3d
01
01
0f
f5
05
0e
f9
f0
e8
e6
ee
05
0c
f6
dc
ec
16
16
04
fb
f5
00
e5
05
1e
17
1b
fe
fd
0a
f1
08
0c
fa
e2
ee
0d
05
0c
09
2f
ef
f6
ef
c8
e7
f5
12
ea
f6
0c
0e
11
02
fe
02
ff
14
ed
f0
f8
02
ff
e2
f4
21
0a
ee
09
ee
e7
17
f7
df
fd
e7
03
23
f8
d7
03
fd
f1
0e
0a
f7
09
06
0e
1e
ff
b7
de
ea
eb
0d
1e
f0
04
05
15
04
1e
1a
19
f0
ea
14
f0
fc
e5
00
ef
e0
cd
fe
d8
e7
24
e7
f7
01
09
ed
09
f8
fd
0f
06
09
f8
ea
f6
f2
08
1b
ed
f7
16
03
f9
c4
04
fa
25
d5
2f
04
0f
dd
0b
1b
e9
18
cb
f3
f7
11
0d
fa
db
30
19
de
e5
f9
ea
f9
fa
fc
09
ff
e8
d7
f9
f1
0b
f5
f8
e1
09
eb
0c
f0
f6
1d
e4
e7
f7
d3
eb
ee
0a
e4
00
fe
fe
f6
07
11
f6
e0
09
03
f2
ff
d9
13
dd
f0
ef
e1
1b
3a
0e
fa
18
ea
e2
05
ed
eb
02
04
f8
f0
19
ee
e9
f1
01
f2
0c
2c
ef
e9
fe
f5
dd
13
06
f4
13
30
05
f0
f3
ed
f7
fc
f0
08
1f
f8
f3
fe
f5
0e
fc
10
e3
07
f4
f5
d7
ec
e6
ef
0b
09
13
0a
f1
f2
d4
f9
fc
e4
f3
1c
05
ec
15
fc
0b
f1
13
fe
0b
11
15
01
f8
04
e7
e6
fa
e4
ff
ff
f5
f6
fe
fd
f4
1a
14
ef
e9
eb
03
13
1f
f4
0c
ff
e8
01
f1
0a
e1
ec
fc
f9
02
da
07
12
00
d9
0a
ff
fa
11
18
df
2c
fd
ff
f0
f9
09
f3
02
ff
e8
e9
0d
27
04
e3
f8
01
e2
d9
da
00
f1
07
11
d0
13
13
04
06
f6
ff
f1
01
03
13
0b
f4
f4
e8
f5
db
ed
f8
fd
07
fd
ff
0a
02
e0
04
fe
e8
0e
21
f8
07
fc
16
d9
fb
e7
eb
e9
f0
fb
fa
03
f2
f4
0b
34
f8
04
f0
e9
14
dd
01
ec
05
00
f2
c2
e1
3f
cf
ff
fa
e3
0c
ed
ff
0a
15
08
15
07
0b
e7
12
ef
f2
f3
0a
00
06
07
16
15
10
34
ec
f4
04
d8
f5
f6
e0
fa
01
00
09
00
e8
0a
f7
fc
e7
cd
fc
10
06
11
03
10
f7
00
07
e4
ec
07
02
22
f3
28
f7
05
e9
c0
de
ff
f7
df
f9
fe
f9
00
fe
05
01
f0
ec
ed
fd
0d
08
18
f0
1b
ef
09
df
06
62
ca
11
07
fe
09
46
ef
05
02
20
f9
15
01
f5
f5
04
ed
f5
de
ec
f6
f2
f6
02
de
e5
f8
05
26
e6
ed
ff
fc
ff
0b
e9
fd
1c
fd
00
0a
fa
fb
fe
f4
fa
f4
0d
d5
02
ed
07
11
e0
fc
0e
f2
fe
ed
1d
1b
11
07
05
04
ff
fa
f1
ea
e1
d0
f5
02
fd
f6
fd
1e
ef
13
f8
02
f1
f7
02
10
05
fc
0b
fc
f8
01
fd
f4
fb
10
f7
0b
fe
ef
f9
ec
f4
f4
0a
ea
f0
01
ca
fd
f2
ff
e7
f4
09
f2
fd
e2
e6
0c
0e
0f
01
be
ee
06
f1
e6
07
09
01
e5
e4
0b
fe
f1
ea
d3
f4
f1
ff
ff
ff
1c
fa
f9
fc
fb
f8
27
f9
11
f1
11
f8
03
0c
f0
12
fe
fc
fe
04
f4
c6
17
04
ef
11
1c
03
10
27
f9
01
ec
d3
02
e7
0a
fc
0f
fa
f9
f9
f3
ec
ea
0b
02
e6
e0
f3
0a
ed
01
ea
2d
05
f5
14
f2
f0
f0
f0
fd
ff
ce
e7
05
20
f0
01
09
f8
ee
cd
04
f9
f1
df
11
0f
0d
fa
fd
03
f1
05
fb
12
ef
d6
07
0b
fb
0c
08
f1
0c
0a
0a
27
e5
0d
ff
08
0d
f3
f1
03
fe
fb
d2
ed
ed
f0
0f
02
fe
f9
03
f2
f1
ee
16
e5
0a
07
00
05
f6
fc
06
ea
05
fa
fb
f8
04
f3
fb
0d
e5
11
fc
01
d6
e1
03
00
f3
f6
12
e9
fd
09
02
f6
e6
e7
fc
04
1b
04
f7
03
e4
d1
01
10
fe
f6
ea
13
0d
11
e7
1b
05
1c
ee
26
da
ef
f6
0d
fa
15
f4
0c
d9
20
16
09
e5
06
f5
10
dc
f8
0c
f2
f5
ea
17
f4
e2
e5
e0
f4
09
0f
ed
ec
02
09
04
10
1d
f3
e7
eb
f3
fe
08
e5
04
ff
07
1c
e7
ef
09
24
f9
ec
fd
e4
f4
10
04
ee
f6
22
d6
0a
fc
13
ea
f2
ef
0e
3b
fb
ff
11
02
09
e9
e9
07
06
0c
ff
ea
f9
0b
fa
0d
11
0c
f3
f9
f5
ea
e5
00
fb
11
04
e8
e5
f7
e0
d8
fa
0f
24
e9
05
ee
d9
04
e1
ff
11
fe
e4
2f
fd
07
09
1c
f0
06
0e
ff
f8
ed
f3
f2
08
fe
e5
f2
03
0a
12
fd
fa
03
f9
04
09
24
fe
02
02
d3
e5
34
f7
0e
ef
00
f8
25
e9
ed
fc
d4
e9
fc
f0
fb
f4
e3
0b
d9
18
12
e9
f8
ff
e5
06
f5
ff
27
eb
f9
0a
c9
0c
fd
f7
f8
ff
11
ce
f7
cf
05
07
c4
f7
ef
0a
0b
e0
2a
fd
dd
15
11
e2
e4
fd
ea
f9
e3
34
f2
ed
cf
ed
ef
cb
e4
1c
f5
ed
eb
17
e6
14
d4
02
d8
22
f6
e9
e9
ed
fc
06
05
f1
16
00
f8
08
cf
38
ef
e8
02
02
df
11
da
e8
f3
f3
04
01
f4
f9
08
ff
f8
f4
ee
ea
11
ef
fe
10
ed
e6
20
f9
10
09
1c
f4
e0
e4
00
35
fa
ce
ec
10
f6
e8
08
10
d8
f0
ff
1a
33
dd
f6
f3
27
e7
f2
ee
ac
f6
f3
fc
e7
09
f8
06
f0
0d
0b
06
09
f3
11
1d
f5
ee
24
fe
f2
fe
f1
f8
f5
ec
fc
f0
e9
dd
ea
0a
de
f7
f6
e5
02
f8
0b
03
e7
fd
f4
ff
e2
ec
eb
06
fa
05
21
04
f6
10
e4
ff
00
fd
05
fb
df
08
ff
fe
fa
2f
05
0c
e9
fe
01
f0
f8
fc
04
fd
e9
f9
0d
0e
ed
0d
d9
e3
20
ec
f0
05
19
fb
10
d6
0f
05
f9
2a
f8
05
e7
08
eb
e5
e7
f1
fd
0d
f6
fe
0c
0c
e0
12
fc
11
e4
f7
fe
f7
e2
0d
02
0f
04
f4
b4
03
f3
f0
00
fe
0c
18
f3
0f
1a
14
13
0d
e9
fd
03
d8
03
e7
eb
f6
20
ed
e0
ec
14
dc
ef
e3
09
10
12
0c
e8
04
00
01
ee
e9
00
f7
1f
fb
11
1f
e3
14
f7
ed
06
e7
1f
1a
14
d7
04
ee
f1
0a
de
09
08
f5
d7
fb
f0
08
eb
f6
1b
01
e3
e9
d9
ef
03
f3
d5
ef
c6
00
de
df
ec
04
0e
fe
f1
0b
f7
f3
30
f5
ee
f6
fa
e2
cf
e7
04
ee
e5
f5
01
09
eb
e4
f8
27
da
17
f9
e2
f9
07
f6
e4
f2
fe
02
f4
08
fc
f9
f9
ed
0f
ea
10
f1
fd
f1
fb
f7
ea
07
fc
09
0e
01
02
18
0f
19
e8
fd
10
e4
04
ea
e3
ff
fa
fd
e5
fb
22
fd
f6
e8
1f
1a
de
0e
fd
09
e8
0a
fa
11
24
f9
03
1c
e5
ec
f9
11
f9
ca
06
1f
05
2d
e5
f0
f0
09
29
fb
07
0c
e9
fb
fe
17
06
f6
03
f7
03
e9
fc
10
0f
ff
17
09
f5
ee
21
f5
18
01
fe
0e
ee
ec
1c
07
e5
10
f4
fd
eb
e8
fa
d3
ed
06
17
ea
de
e7
f4
f9
e1
11
00
01
de
e7
0f
02
dc
f5
e7
fc
f8
06
ea
df
2f
eb
e8
fe
26
f5
e3
02
ed
f0
00
f4
2a
eb
e5
11
cf
f9
fb
ef
ed
1a
f0
fd
e5
f7
f4
e7
04
3b
e6
f7
fa
e6
08
1e
ed
00
10
04
eb
f2
d5
01
f7
df
d9
f4
fb
06
0c
e6
eb
fb
f5
ed
0f
de
df
e5
d6
0d
d6
ea
ed
ff
e3
ff
f1
f1
07
14
0e
fe
f6
f8
f3
0d
f8
e7
e9
fa
08
15
14
ff
e6
f0
01
e1
e8
ff
28
e9
04
1c
f1
f8
f6
dc
e5
05
f7
fa
05
ee
07
f4
f0
ed
f9
12
00
f8
11
04
fd
2b
f0
f5
f2
15
0f
fe
34
f1
06
1b
02
f1
e0
e6
09
f7
02
13
15
12
fc
f3
01
06
0a
e5
18
01
0e
f9
ea
0a
2a
fd
04
f1
ec
08
01
f7
fa
ff
0c
f1
20
fb
ea
fa
f7
f6
ea
f6
f9
06
09
d7
f2
11
fb
05
18
f1
fd
02
10
e7
03
18
16
df
08
db
0d
ea
0c
03
f7
fd
fc
fc
00
f7
f2
f8
ef
e4
e5
d2
fd
f7
06
f9
16
01
f3
f4
f9
0f
f3
f7
ed
0b
17
f1
e2
11
0e
f1
e9
f2
e7
e0
05
f3
eb
28
e9
fb
f7
f0
03
0f
01
d4
f8
14
f8
15
00
f1
fb
f7
ec
1c
e3
0d
f7
e2
f7
da
e1
0e
ed
14
f8
01
f1
f8
04
f2
04
08
0d
03
fc
00
fe
de
06
03
ee
0b
12
e3
ef
ec
e9
eb
02
fc
0a
e5
ee
f8
e1
0d
f1
e7
f5
f9
fe
e6
01
09
ff
05
fe
d5
01
0b
f3
dd
f5
ef
de
fe
1e
02
f5
0d
e2
fc
07
fd
eb
02
0f
15
20
04
f2
fc
ee
0f
e5
e2
fa
f7
fa
f9
02
0e
ea
fb
eb
f2
de
01
18
ff
ff
0a
e4
11
14
00
02
e9
db
fa
ea
f0
f8
0b
e4
25
0c
0d
f6
09
e2
f2
ff
ee
fa
f8
f8
fe
ed
e3
05
0c
f5
15
e2
11
01
02
20
fd
1a
01
ed
e6
00
11
08
06
0f
f0
ed
1c
ed
0c
ec
f4
f5
01
ee
16
f5
1c
0d
f1
ea
f6
0d
10
f0
f5
ed
f2
09
ea
f4
f0
d9
e6
f0
f7
fa
f8
08
0d
05
1c
fd
f9
e1
f8
fb
fb
13
e9
ed
01
f4
ff
24
fe
14
14
eb
f2
fc
04
ec
ef
e5
01
15
0a
fc
23
68
06
0a
1d
dd
00
f3
e4
06
0b
f7
08
f3
ed
fc
02
fb
fe
0f
e3
df
11
1b
44
e9
f8
f4
07
ff
f7
02
fa
06
1a
ed
f6
14
f5
e3
ef
ff
16
06
f3
00
08
e7
e8
0b
05
1f
16
01
f7
eb
ed
14
f3
ec
12
14
0b
0b
f0
f0
05
f5
e4
f0
12
01
02
32
f2
2c
f1
05
f3
00
10
ed
ff
ef
0b
f9
06
02
e5
0c
00
ec
e6
e8
01
0d
e1
10
1c
e4
0b
04
0d
e6
0b
02
08
01
e6
f6
ea
09
fe
d2
0b
ec
05
ee
01
ed
f8
fc
f1
01
1d
dd
fa
fe
ed
02
fa
09
cd
09
fb
ff
e2
e5
ff
f5
f9
ff
f9
ee
ff
09
08
ff
f4
fd
f1
ee
e2
e1
e3
fc
ff
f0
fa
fb
24
f3
e4
fe
06
f6
2a
1a
f5
ec
f9
08
11
ef
14
00
0d
29
23
db
f4
fe
d4
ec
10
18
1a
14
f6
01
ea
37
de
f3
ed
de
fb
d8
f9
f3
e6
f6
07
0b
03
d2
f5
eb
08
e6
20
ef
df
d7
f3
fa
00
dc
19
f9
05
fd
0a
17
e5
11
f7
f5
ef
f8
01
37
1c
03
e2
06
00
f5
00
25
15
24
ea
f3
1b
f6
e7
f9
fe
05
0c
06
06
f3
fe
ed
f5
de
0b
28
f5
e2
ee
f6
01
07
f8
04
f0
f7
e4
08
02
02
f6
07
fe
ec
01
ef
f1
1b
f0
fe
e5
28
f5
0a
fa
ef
fe
03
e7
1b
f7
f3
01
0e
f6
e5
f4
e6
f7
fa
f6
03
d7
16
03
fa
19
ed
00
20
02
07
f7
01
18
ff
fd
f6
02
f8
03
eb
01
fd
0c
10
1f
f5
cf
f7
20
f1
f6
eb
f1
00
ee
f5
d1
fb
0d
c5
f9
ed
ec
f5
e5
d6
06
04
0c
f8
fa
e9
ec
fb
f7
08
ea
11
09
0a
0b
fe
f5
02
18
01
08
f9
f0
e3
05
fa
ef
05
fd
fa
0a
01
f4
fa
09
04
f0
07
f6
e6
de
04
f4
ef
f8
19
da
0c
f3
0d
ee
ef
1c
e2
11
ea
1a
0d
f8
08
05
e6
ea
1d
09
17
f5
da
03
05
0d
f1
f5
00
0b
df
f3
e6
e7
f2
e1
f1
fd
0e
fe
03
f0
ed
14
13
f8
ef
fc
f2
33
f3
01
01
dc
40
f2
e4
fe
1b
06
1e
e4
e6
ea
d6
23
e0
3c
17
38
27
f2
04
e9
ed
f6
f9
03
1e
f0
ed
18
f1
d8
00
eb
09
d8
f7
00
ea
12
0a
01
e0
ed
04
df
d8
26
e8
04
13
e7
11
c8
f8
11
bf
04
ed
fa
04
fb
f7
18
f4
f7
06
fb
cc
24
fa
02
1e
fd
2a
10
f1
25
11
03
e9
eb
17
f7
ee
f3
da
f1
07
05
12
02
fc
f0
08
23
f6
02
13
e5
e2
cd
2f
db
fb
f4
ce
03
02
f5
f8
07
ed
f3
e1
d8
0c
e8
07
e5
fe
22
16
f8
f1
0c
10
fa
e4
14
04
fe
ff
16
00
04
f8
00
e8
f9
ec
e4
0e
fe
09
d1
fa
07
e6
0d
f8
f3
e5
c8
06
08
e4
fe
05
f8
09
21
e1
f6
01
e2
f1
f4
06
f9
38
fd
03
04
f8
04
f5
0b
e9
e8
eb
f7
0d
fd
f6
f3
ed
11
ef
12
f7
e4
14
04
e7
25
f2
dd
00
fa
f5
fb
f4
0c
e5
0c
09
ee
ef
f8
1d
fa
fd
f1
0f
04
e5
32
07
f9
10
ea
1d
04
02
f2
f0
f5
f6
f6
19
09
01
d8
d1
e1
f1
fb
e1
e1
f9
e7
e5
12
06
f4
fd
f1
ff
ef
fa
f9
03
ff
e8
f1
0e
14
0a
f1
1c
f2
df
16
f9
f9
e2
ef
10
00
ee
10
13
dd
f7
f1
02
07
e5
06
fc
da
00
eb
ec
e4
e5
ea
07
fc
ee
f9
16
fe
ef
ee
01
e9
da
fc
22
fc
05
04
00
d9
eb
f0
01
f9
e2
02
00
01
1a
f9
ec
26
1f
1a
01
0b
ee
09
e0
08
fa
e2
0c
de
ed
f5
28
04
ff
ed
fb
db
ef
0a
17
eb
04
d9
f4
dd
fd
11
f7
c8
17
cb
fd
09
fd
f8
f1
f8
f5
ee
19
f8
09
e8
f4
e9
fd
12
1e
ec
ec
c7
10
2b
dd
01
e2
ed
fe
ee
ed
e2
f6
fe
e6
e9
e5
0b
ef
08
f3
fb
e9
ee
00
e9
d5
10
ea
f7
ea
0d
36
e8
cd
f0
07
f6
e5
ff
ea
da
e6
ec
e2
fc
f7
f4
eb
ec
f3
e7
f0
f9
f2
19
1b
14
f8
ff
ed
e8
03
09
ec
00
04
f2
f4
00
ef
f8
0e
08
23
0c
f7
f6
ef
ff
f3
0b
00
ff
f7
f0
f7
ea
d8
0d
e7
03
e8
03
ef
f8
ff
06
f3
2a
f2
de
f4
de
ef
e0
18
11
fe
0f
fa
f7
15
eb
fe
05
f2
f8
fa
e2
00
32
f1
f1
15
e8
f4
0f
01
ec
f9
dc
f1
e5
f3
f5
f5
fa
00
f4
f6
00
03
10
fd
17
00
f9
e4
f6
00
e6
1f
ff
e4
0e
f7
17
fd
ea
01
11
0e
df
e5
ed
03
16
dd
f6
09
08
02
03
13
f2
f7
01
e4
17
fd
39
f5
17
dd
04
fb
04
05
ec
db
f1
f7
da
f4
fc
e3
0d
0b
ee
fb
0d
e6
f2
ff
0b
ed
fd
0f
ff
f4
f2
1a
f5
1c
2a
fa
f5
f1
03
31
01
ee
11
0b
dd
e9
f7
f0
f5
ef
f1
fc
db
0e
ff
2a
d6
fb
f6
f5
dd
cc
24
19
e9
fc
f5
0b
f6
f7
ee
fc
fa
03
16
ed
f5
ec
0c
e9
0c
f1
f3
07
08
01
f8
e4
f1
3a
ec
e6
ed
0b
ed
20
eb
04
4a
ed
0c
e4
02
0d
2c
13
ee
18
fc
f0
1c
ee
08
e2
f4
ef
09
e9
00
fb
eb
e5
e8
f5
f9
f9
19
08
14
f2
f4
ee
ff
ef
f4
ed
02
fb
eb
f8
f1
26
eb
f9
dc
01
2f
f3
0e
fc
f7
0a
e2
13
ca
f5
1b
10
eb
f1
09
04
d9
0a
ed
eb
fc
10
ec
f8
fa
f4
fa
04
fe
ed
ee
cb
fa
09
fd
ff
f2
d8
f2
e8
d8
fd
0a
f9
1b
10
ec
fa
f0
f3
fc
dd
16
ff
fe
1d
0c
23
08
f7
f7
f9
09
05
0e
12
03
fb
f5
f8
24
05
06
e8
04
10
02
f3
ef
f7
ee
f8
ee
fe
23
f3
fd
0c
de
f1
f9
f4
fa
1c
23
f3
ed
e0
fd
24
0e
f5
15
f9
e2
ee
fc
f0
fd
23
d1
e6
01
f7
f8
00
10
09
f0
f2
f1
1d
f2
ff
00
f9
fc
01
ec
02
ed
d8
e9
e1
08
f0
0d
09
e8
e9
e6
fd
f9
09
f3
fa
f9
f5
11
30
00
ef
03
19
e6
fb
13
fd
f7
08
ec
ea
f8
f4
02
f0
f2
03
ef
f6
d3
fe
d1
fc
0b
f3
e7
e1
f8
fa
05
fd
11
f3
0a
ef
ef
12
cb
ee
04
f7
00
0a
ef
ef
eb
c7
1b
fe
09
e5
fb
19
fb
fa
f5
03
ea
09
f3
0d
f4
07
12
09
ec
06
ef
03
f7
04
fa
fd
df
1a
07
f1
c9
ef
e7
fb
11
22
ee
14
f8
e7
09
1a
34
e1
06
16
f8
f3
f0
02
2e
e2
fd
02
05
e9
05
0e
f4
07
01
f6
e8
f5
f1
05
f0
f1
ff
f6
0b
e9
f2
fa
ee
f0
ed
0f
f3
f8
0d
fa
0e
04
d6
f4
0a
f9
09
f6
10
08
15
d9
f2
ed
20
e5
08
0c
ec
f9
f9
fb
f5
de
fe
f7
f2
f1
fb
04
e2
48
e5
02
0a
ea
fc
fc
f3
fa
15
02
fe
0a
ea
3b
f0
fb
e9
f9
01
f0
0c
f7
1a
f4
00
08
01
04
d0
03
0d
18
03
00
00
ed
11
fc
e5
e3
0e
d5
e4
f3
12
ee
fe
1e
f2
01
05
07
f6
0b
1a
f8
ec
0b
f9
05
f2
ff
08
f0
fd
f7
18
f2
0e
07
19
ec
11
d6
01
f7
0a
f8
f0
f7
1e
fd
ef
01
03
ef
03
e5
01
16
d7
ec
eb
fb
2c
ff
f3
01
05
00
e6
f2
1b
de
df
09
f3
03
f8
05
07
fb
eb
08
f2
e7
fe
f4
f5
f1
58
f4
ea
0f
e6
f0
fc
0d
0e
1d
da
f3
f2
04
ea
0c
f0
08
ee
e6
22
06
f0
e9
26
e8
0e
f5
15
fc
02
fb
0a
02
0d
05
fc
02
f5
0b
fc
f9
eb
11
13
01
00
fb
fb
f0
c9
ef
f6
0a
07
0c
fd
f8
e3
e2
01
08
f2
20
07
07
dc
08
fe
f0
eb
e9
e2
f1
14
fa
e6
fe
2b
1b
fd
04
e8
0b
fa
02
10
f2
f0
ef
f3
f7
f8
f0
08
eb
ec
d4
ea
ec
d7
f7
05
f6
ef
f6
f4
fa
e5
1e
f7
14
ea
f8
07
0b
13
f1
d4
ef
fc
14
e3
fb
ed
f1
f3
12
d4
d9
04
fa
f5
f0
1c
07
f2
00
fc
0b
09
f5
11
0d
ea
fd
20
fe
ee
f8
f1
13
1d
15
e1
fc
12
f9
f0
e9
12
ff
15
04
f1
02
fb
1e
fe
12
f2
04
0d
ea
f2
06
2a
20
f0
e0
f7
00
f1
e2
f8
07
ed
ec
16
20
0d
1a
04
1a
f9
1b
d6
f9
e8
ff
f6
3a
f3
f2
fd
01
f7
f1
04
13
14
02
15
15
14
d7
f9
fa
18
f3
10
01
fe
04
0a
f6
f7
03
0f
f5
02
fb
f3
d3
08
f3
f3
fb
11
fd
ed
00
01
f1
f5
d9
d6
02
fd
14
f8
0c
f0
1a
cd
f9
f5
ef
fe
fa
09
fd
f9
f5
10
e2
03
f5
f0
f7
fb
fa
2a
05
dd
03
f4
05
f9
f9
08
dd
10
ef
e7
09
e6
f6
04
eb
e1
e5
ed
15
d8
fc
df
05
f9
e7
f3
03
e9
fc
e4
e6
02
05
fa
0b
ee
e6
fc
10
1e
f8
e5
0c
d7
fb
09
11
e9
04
ef
fc
fd
f7
f6
f7
07
f7
fd
f5
e3
0a
04
10
f5
fc
fd
ff
07
f5
f8
0d
fc
e7
de
0e
f9
08
ef
13
f6
fa
f5
12
ee
fb
ee
f8
0e
03
ee
03
fe
06
e5
32
ea
e7
ff
fb
c6
f9
f7
fb
0e
14
e6
fc
e7
07
e8
0f
f3
18
0e
eb
cf
ff
db
f9
2e
08
e9
d5
1a
1b
fe
f9
0b
06
fd
fc
fe
03
ee
10
e7
09
ee
de
fa
f5
fd
0c
f0
da
02
ff
fd
fb
f9
e3
f9
00
01
23
f0
fa
f7
0a
11
e6
f3
e8
02
f3
fb
f9
0a
ef
e9
08
0a
e3
f2
f6
fe
23
02
db
e1
02
14
24
09
f3
f5
fe
06
f7
ee
0b
12
fb
dc
ee
f9
fc
f4
0c
ee
0f
fb
f5
01
08
28
09
fd
ea
01
06
0c
09
e6
ec
f8
0e
ee
cf
e4
f0
1a
fd
ef
e0
13
ee
f8
fe
f7
f1
11
fc
e3
15
fc
f6
0d
e6
09
0e
f9
11
04
f0
ec
1c
f5
e8
f9
0d
01
0d
ef
f3
fa
f5
f6
f1
fd
f5
f0
e7
ec
0f
12
fd
fd
e3
f8
f8
e5
ea
fb
fb
1b
f3
e1
09
ef
eb
f6
fe
01
f6
ef
f1
12
e0
e0
0e
e3
fa
02
15
f8
d1
fc
03
cb
fa
15
e5
0f
fb
19
04
f6
e1
f2
ff
02
01
fd
e0
12
02
f2
fc
0f
f1
1f
f6
13
f0
d5
04
0e
fd
14
e7
eb
f7
f9
04
04
02
14
0e
0a
f7
23
ef
15
03
f1
fd
fb
df
e5
dc
e3
01
02
e9
26
ef
ea
f5
15
e2
f5
20
eb
fe
f9
fd
fa
00
fd
07
f0
24
06
f3
e7
da
08
dd
fc
fa
d2
eb
0e
16
e5
31
f1
d5
f0
ec
0b
06
fa
e4
f1
f5
01
e5
ed
0d
04
0e
09
09
09
1f
e5
e7
f7
e9
0c
ff
f2
f5
17
e7
03
0b
0e
17
fe
ff
f0
07
1c
19
e3
04
f6
d8
f0
e1
06
ed
ff
05
fd
f2
ff
e1
f3
09
0d
0c
07
fc
00
e6
ee
ea
fd
dd
29
f4
ea
15
0c
f3
14
f3
fc
f5
1e
59
f4
f7
e8
e1
e8
27
dd
fd
f7
17
ed
f5
00
0c
07
05
ed
09
f6
0f
00
fa
ff
fc
ef
d9
f9
f2
df
04
f4
e1
27
0d
ed
00
f0
00
f8
02
13
01
e5
fb
02
e9
ea
f9
01
fa
0f
fb
f5
f6
01
f6
ec
de
ff
0a
ff
fa
09
06
e1
04
22
06
02
f9
00
e7
fa
ee
ed
ee
f5
ee
fc
e3
03
03
ed
df
f4
f3
07
f5
08
ec
f0
07
06
11
f2
05
fc
13
fa
f5
ed
05
05
d9
d1
f3
0d
09
05
f2
ff
e9
10
fe
f8
d1
09
03
24
ff
32
04
fd
ee
09
09
f2
ef
eb
d6
28
f3
1a
09
e2
12
1c
eb
13
00
ec
f4
02
f2
0d
fc
e1
19
d6
1e
cd
1d
f2
00
fc
fb
ee
ea
de
ff
05
f0
dc
2d
f5
f1
12
e3
00
f4
fc
f6
f2
10
f4
f3
04
19
f1
f6
ec
f6
e5
de
fb
fc
fb
cc
fa
f4
00
ec
0b
24
01
e2
fe
09
13
00
f7
06
f2
f5
ed
03
fe
02
2f
f7
df
e1
15
e7
0b
11
01
d5
dd
0a
da
e9
f2
26
f7
d7
fd
f6
e3
0a
eb
f4
fb
fd
f0
f2
03
02
ed
01
00
f7
03
ec
f6
ca
08
ea
07
1e
ff
f3
ed
f9
08
ff
e3
fb
fe
02
f0
f0
0d
d6
fb
f6
f9
ee
dd
ed
e4
d6
0f
e8
17
18
e2
f1
ef
f9
10
02
f1
d7
f3
f0
f8
12
fd
ec
f9
05
f3
f8
e5
04
04
f2
00
0c
ef
f0
10
08
05
da
0b
0a
fc
f0
f3
f3
fb
e7
06
18
ff
ea
0f
f1
ec
ff
fb
de
e0
f7
f8
e3
15
fb
f7
09
0f
09
02
03
07
fb
0b
03
03
f2
e6
09
ef
e2
fb
03
fd
0b
02
02
e9
04
04
e9
0b
ed
fd
e8
e8
f2
fc
d2
06
f7
f4
03
ea
0a
1a
f2
fc
04
db
04
e8
09
05
eb
f8
06
3a
f9
fd
13
fe
ef
fd
0b
04
dc
23
fb
05
f3
07
fb
18
f6
f0
08
e5
15
f0
f2
f3
fd
17
ef
f7
dd
f1
cb
08
08
04
0c
07
e9
14
f8
f0
dc
fe
fb
d5
02
ef
06
0d
ea
f8
04
f4
d9
f2
eb
e3
f1
01
f7
02
2a
00
f6
08
cd
ed
f1
f4
f6
e5
0f
0c
ed
fc
fc
e2
f8
fa
05
0c
ee
0f
00
30
f5
08
e7
eb
14
ff
f0
ee
f4
fd
e6
ec
04
e7
e2
f3
e7
ef
02
3c
10
f0
fb
f2
f4
d0
e3
f6
fc
d9
e6
15
02
1c
f7
f5
fe
e9
ed
f7
0a
1c
ed
00
eb
fb
f8
f4
db
1a
f7
fe
02
ea
e5
04
fb
04
10
ff
f6
f2
01
f1
f5
e1
d1
df
1c
12
eb
ee
ee
2b
db
ed
f4
00
05
f1
e2
f3
f5
04
f6
db
d6
01
f6
42
09
de
f7
0d
e5
fa
0c
fb
06
ce
ea
fc
f2
f1
fa
10
0d
ef
f8
f6
fc
0f
0e
02
01
fa
f8
e8
e7
ec
ef
0c
f3
df
f7
d7
08
09
dd
0f
f7
e4
f4
de
ec
eb
12
09
e4
e8
f4
f1
e7
da
03
05
d2
f9
07
03
fd
f4
ef
f2
f1
fe
05
f9
02
e6
fb
da
f9
01
f5
06
f9
fa
ee
fa
fe
fe
e9
f7
01
18
11
e2
fb
16
ec
f8
fd
f9
16
f6
ec
21
eb
f0
11
e1
0c
f4
fe
f1
03
0a
02
df
05
fb
20
05
f6
ec
0a
ef
ed
00
13
da
ea
f7
f3
fb
f7
0b
05
ee
f1
02
03
f1
f3
1b
0e
e6
04
0f
06
0e
e5
f2
f1
f8
0e
ed
07
e3
0f
01
f3
eb
f7
da
15
f1
f7
1c
ef
fb
e0
f5
01
fe
01
f9
fd
fd
20
01
f8
ed
10
fe
fc
09
2f
e6
f6
ed
fd
f3
ef
f2
d5
eb
ed
00
00
ed
08
00
02
ed
fa
f8
fa
f7
04
ff
0d
f4
f3
fd
f9
ef
00
0b
fc
f2
e7
f5
e8
e6
06
e5
f8
f0
f1
02
fc
f7
0b
f5
ee
e0
ee
0c
01
fd
0f
01
02
14
f7
fb
10
f8
fd
fe
03
ff
0b
ed
10
fd
05
f2
03
f2
08
03
0f
fe
06
f7
e3
de
f1
fd
f9
0e
2d
01
e8
e5
0d
e4
f7
07
05
09
0b
e4
f7
f9
e5
f5
1c
12
ec
04
f3
ed
f2
ef
ed
41
f0
f0
e5
0f
e6
05
ea
f0
fc
0e
05
f4
e6
fe
f7
f2
0a
05
07
e4
ed
ef
e4
f8
f7
04
02
05
ef
fd
e8
08
e4
03
e6
1e
f0
f9
f4
f3
f2
fc
f5
02
f3
e7
fc
fe
04
02
02
00
f5
01
f1
f9
e4
d4
f7
f0
ee
e4
e7
f6
0a
de
fc
00
e8
00
dd
01
fb
f0
05
ee
00
04
1c
f5
f4
d6
1a
fd
f0
e4
fd
02
db
ff
fe
2b
23
fd
08
09
f3
d8
0f
fe
07
eb
da
ed
ea
01
d6
f2
ef
e8
e9
12
17
f0
fd
f3
ee
0a
f8
f7
14
fe
f9
fe
0d
08
ed
43
fd
05
ec
fa
fd
f4
f7
f9
e4
07
04
06
e7
13
f5
f7
ef
03
f5
fd
0b
cd
f9
0b
d9
e1
05
e8
fa
f6
e7
05
f2
f1
0b
0a
e1
f9
ff
f6
0d
00
f9
e9
f9
f8
06
d7
03
f0
fc
f1
0e
20
16
fb
2f
f3
fe
f3
e7
0d
ef
f9
f3
00
ea
e8
f5
fe
fc
ed
fb
03
e8
ec
00
f6
fb
ff
24
02
e7
f8
fa
e0
f5
f6
00
fb
02
e6
f9
fd
f3
1c
fd
d7
f4
fb
fe
da
f8
f6
d7
fc
fe
ed
fc
cc
e5
0b
fd
01
f7
0e
fb
fb
05
ed
00
1a
10
fc
ee
00
03
ee
f8
08
f9
f3
ec
09
02
f8
e8
f9
fc
e0
f4
e4
01
e9
fc
05
e7
10
08
03
f2
fc
e2
eb
02
ec
e8
08
1e
e0
f3
0a
f7
e9
f5
0c
0d
f5
f1
fc
09
0a
fe
ec
e3
fb
0d
f4
f6
07
03
ed
f5
f1
db
ec
f5
cb
d3
f1
3a
10
7f
13
06
e4
f1
0e
11
fb
f5
f6
f7
d8
21
fc
11
db
04
00
01
f8
ee
f8
ce
f0
ee
14
ff
15
03
0a
f5
03
f3
f9
f8
ff
06
fe
fd
dd
eb
21
ef
03
e1
01
f3
17
f3
e7
13
fd
df
04
0a
e8
e6
0d
0c
02
17
e9
c0
f7
f8
eb
f8
fd
03
fd
01
f9
07
ff
f2
0a
e9
fd
0f
06
11
07
ed
ee
11
06
e8
dc
03
ed
01
e6
14
f4
1b
12
f3
e6
fd
13
fa
ea
ff
19
ec
f1
f7
e3
f4
f4
e1
00
f6
fe
e9
e9
d5
0b
1f
e8
20
e9
e3
f0
fd
e3
ff
e7
f9
fa
32
eb
fd
ee
f9
f1
07
05
f8
05
fa
fb
07
29
0b
e5
06
e7
e2
e9
f2
01
fe
fe
03
f1
01
e4
16
f5
ed
f2
e3
00
05
fc
ff
e6
fc
02
e6
f3
de
f8
06
fb
f0
fc
fc
02
f6
07
0f
f5
dd
dd
f5
02
ed
bf
0a
14
ed
07
f2
03
fb
f3
f0
f7
07
04
ef
ee
00
0d
00
0a
2a
ea
d8
0f
e3
dd
fb
ed
e8
f9
02
fa
05
fc
fa
f3
f7
f0
e8
01
f5
05
fc
62
cf
ee
08
05
e4
fe
04
06
f4
f1
eb
fc
e1
ed
f2
01
f7
f7
07
fa
e8
f2
0b
07
e1
d5
e9
01
10
14
fd
e3
19
ef
f7
ed
ea
04
e7
fe
fe
e4
0a
44
0b
e2
04
0d
fa
10
ef
ef
07
eb
f6
02
0c
fd
f2
03
00
ed
ed
ea
e1
01
e1
f4
f1
0d
fa
e7
fe
e7
eb
ec
07
09
fc
ef
f4
f3
03
1e
ee
f2
0b
f2
2f
0f
e9
ff
04
f3
ee
f8
11
f5
02
e9
fd
11
e8
f7
04
00
dd
f3
04
eb
ef
f9
19
f0
ec
ff
e1
eb
e1
03
ff
f2
09
35
ea
05
f6
ef
12
fb
f6
ee
f0
f0
1f
ed
f7
03
e6
e6
0c
02
10
e7
06
00
08
16
eb
05
f8
e9
f1
fd
f4
ec
00
e1
ff
02
44
e6
1c
0d
3f
e7
d7
17
e7
f5
f2
f4
e9
e9
fc
ea
f9
0d
fb
2c
f2
f6
fb
04
27
f7
1e
fb
1f
f6
fe
fe
03
11
13
08
e6
de
f5
ee
10
dd
02
07
07
ef
ff
f7
0c
f6
08
fe
05
f2
fa
25
fe
f4
ed
d8
f3
00
0a
00
36
06
fe
f8
f2
02
04
f4
04
1f
e4
f5
fb
e7
f2
23
18
ed
39
ef
04
13
f5
fd
06
f1
e0
f2
ec
ea
11
03
17
e8
f4
e2
e1
f8
eb
05
e8
0b
0d
d4
f3
fa
e5
f8
f0
0a
10
05
03
ee
f7
f9
f4
10
1a
ea
ee
ee
06
e7
f5
01
ff
00
0a
e3
0a
ef
01
f3
e9
f0
f4
ff
f0
f9
06
11
f5
f3
f7
0e
f4
04
44
f6
ec
d6
03
fd
00
2e
07
04
f2
f7
ff
f2
13
08
e4
01
0d
eb
f2
28
ef
02
13
ef
f7
f6
05
0f
f6
e8
11
03
13
de
ff
0e
06
09
fc
ff
e9
fe
f7
05
d5
f8
e8
df
e3
07
f2
14
f3
e8
07
0c
e2
02
fb
00
04
f2
e2
12
f4
fd
e7
17
f9
08
fc
1b
f5
f1
fa
0f
fe
f1
e5
11
ea
f8
f4
ec
f2
ee
26
ff
e9
ec
e1
04
25
fb
0c
fa
e8
f6
f8
e7
0e
d7
0a
f9
e9
fc
ed
04
de
29
f9
fc
fa
ff
f8
01
21
00
01
f1
ff
08
f8
e8
f9
e9
ed
fe
ec
ea
09
ee
f0
fe
e4
f9
ff
ee
0e
ee
05
19
03
f5
3d
04
04
f7
19
f5
06
f4
e7
06
f3
14
07
f8
f0
0d
f1
00
e4
0a
f4
ed
15
ff
04
ec
f6
00
25
ef
f2
eb
f3
fa
fc
f3
e2
f3
ed
01
fd
f6
fb
f8
f4
18
f1
f8
f5
ec
f5
f5
fe
e9
0c
e2
ef
0a
05
06
03
fc
df
de
14
eb
f2
fb
ed
fa
07
2f
06
e9
0c
f9
e5
f8
10
17
fb
e5
f5
ea
f4
20
ef
02
fd
dd
f3
ed
ea
1c
fb
ed
f9
0c
f0
f1
f3
f6
23
f8
06
df
12
09
ff
ee
ea
de
01
08
d7
ef
05
ff
07
1e
ed
13
fa
f4
11
f1
e3
ff
eb
fd
2f
fd
ed
f4
f8
10
f7
e7
f9
fb
f1
18
0c
1a
fd
0b
0d
11
fa
0a
e4
e7
ee
f7
17
16
f5
04
f8
e8
18
02
f0
f3
f2
f1
f0
15
ee
08
e2
00
02
ee
f6
eb
f7
de
01
ee
fa
e4
ea
0b
00
fc
fc
01
f2
f0
f7
ef
df
f5
00
e5
ec
12
f1
f2
f6
0b
05
f9
ed
f8
ef
fb
52
01
ee
d9
ee
fa
fd
fc
fb
dc
0d
17
e1
ef
16
e9
e6
2c
e6
0a
09
07
17
e5
67
1b
e8
00
1d
f3
02
f7
fd
08
14
f9
ea
ef
ed
f5
ee
e1
fe
01
f7
04
f4
12
f7
42
e3
27
01
0c
fb
fa
f7
03
fa
f4
f7
ef
ec
07
e3
ec
f2
e9
0d
f2
e9
f5
f3
de
ea
e8
11
e8
f9
03
f4
e9
45
ff
f8
21
f2
fc
e8
fc
0b
19
2b
04
f4
05
ef
02
e4
10
f1
fa
03
0a
e0
0f
00
e9
ea
24
01
fc
ed
04
f8
ff
25
0b
f9
f1
e1
e7
03
fb
f2
ff
f9
f7
f9
e0
01
fa
fc
e3
f4
f0
f6
ff
0b
fd
df
fe
f7
fe
fa
f7
ed
08
e2
f4
13
f6
fc
f6
ee
f6
e6
34
eb
02
01
17
f5
03
ef
f3
fe
08
f6
02
fa
ee
09
02
fd
ee
fa
f4
01
f9
f6
fc
fe
da
0d
f4
f5
ef
05
fa
f9
ea
f5
06
f9
ea
2d
ec
f6
f6
e5
f2
08
05
fc
f1
e4
fd
f1
fb
f2
17
ed
dc
ed
fd
fd
eb
f2
04
fc
25
fc
ff
08
e8
f6
ff
e4
06
e8
14
e0
07
ea
22
16
da
f4
f8
e7
d4
f3
09
e4
f3
e6
fd
f7
f1
f3
f5
04
0c
f8
0b
f5
fe
f2
f9
f4
e8
e2
f9
05
e5
ef
14
03
e8
ea
08
e5
e9
24
10
23
37
e7
ff
fd
f3
03
04
ec
f0
f6
ef
f7
dd
2d
fa
ea
fc
ed
f8
f6
02
e8
fe
0c
f8
0c
f7
0b
ff
f2
14
f8
fa
eb
f9
fb
e0
dc
ff
d9
fd
f7
01
ef
ed
05
f5
e8
fe
fa
f2
e9
eb
dd
07
0f
f9
ed
12
f9
fa
f9
f3
f6
f8
fd
08
ef
14
16
f4
15
f6
eb
0a
fb
f7
02
ee
fe
00
f7
0a
f1
13
ee
fb
f8
f1
f4
ea
f8
e3
65
f6
26
e7
11
f8
f7
fe
01
f3
f0
fd
f8
11
ed
ee
f8
12
2a
f8
16
0b
fd
06
f3
26
e1
d7
ec
f9
fe
eb
d0
ec
e5
18
f6
f6
eb
fc
fd
f9
ec
e2
0e
f1
0c
f9
02
0c
24
25
ea
f8
04
e4
f8
fa
f0
0a
11
fb
07
ff
1d
0d
f7
e8
08
2d
04
fe
e7
fb
f8
1a
fc
ea
e6
24
fa
fa
f3
fe
e0
14
fc
ec
fb
0c
05
fb
07
f5
e7
ed
00
eb
00
05
e8
06
1d
fb
f2
f0
02
e3
fa
f2
01
f8
e6
07
f8
f0
fb
28
ec
f0
01
0e
e4
e9
e4
0c
eb
e0
eb
08
f8
fb
f5
07
da
0d
e2
1d
1f
fb
dc
e5
fe
05
fa
eb
f8
17
dd
f2
0e
05
e2
f1
dc
f1
eb
f7
ee
0a
bd
e9
11
24
05
19
0a
fd
fc
00
0f
0e
15
fd
ea
fb
ef
f7
ec
29
f1
04
10
0c
df
25
e8
2d
07
fe
f0
fa
fb
ef
03
09
ea
f1
f6
09
06
ed
fa
f6
ef
e6
ed
fc
fc
e5
ed
f5
04
fe
d3
05
f3
e7
e6
2a
e7
fa
0a
e9
0c
ef
0a
f2
f0
f4
e0
f6
f4
ea
e9
f2
e7
fd
02
04
24
ee
f3
f7
03
01
10
06
ed
0b
e7
ed
e4
0b
e2
f3
f8
f5
fd
f6
de
0d
fb
da
01
f1
fb
0b
f3
f7
c9
fb
d6
03
2d
f8
fe
ed
f2
ef
08
f9
fc
f1
0b
1f
f9
00
f5
0b
cf
eb
ec
29
fd
ec
e8
13
18
ec
fb
01
04
fb
1f
e9
24
eb
f7
f9
f7
ee
ee
dc
18
0d
63
f2
18
0f
fc
0c
df
29
00
f1
d3
f4
01
ea
f9
eb
fe
01
f4
09
0b
08
ee
ea
f1
13
f2
e8
f5
e9
02
0b
dd
f8
e4
eb
01
fb
f0
e4
1d
02
17
f2
dd
ef
f3
01
fc
f0
da
e9
02
f4
cf
e5
04
ed
0b
f6
08
ee
e5
f9
f0
f4
15
e8
f8
38
fb
05
fc
18
f2
ed
00
fa
f9
ee
ed
f5
30
11
ed
f3
06
f9
f6
f5
0d
ea
ea
e0
07
df
04
f9
fe
ef
0f
e6
01
e5
29
ec
f7
ed
e6
11
e9
0a
15
f5
ee
01
ff
2c
0f
e1
ed
fc
f2
00
f8
04
e0
fb
07
02
25
f7
f0
ed
d7
ef
e4
e4
f2
01
fe
00
21
01
f3
f4
f5
0b
f1
ef
f0
de
f3
f1
03
0d
02
fa
fe
52
05
16
14
dc
fb
1f
f6
08
0c
10
06
f0
e3
f1
02
06
f4
f8
f9
f6
e8
17
fb
05
07
02
f3
14
ea
e1
f5
f1
f9
fd
02
f8
01
f0
1a
ec
22
0f
f6
e1
fc
34
df
f1
13
03
2e
fa
f8
0c
e5
1f
0a
f9
e2
f7
23
f0
f0
20
f7
40
f7
16
12
db
04
ee
f3
ef
f7
f8
f8
e1
06
13
00
0d
ea
f1
f5
ed
ea
e3
0f
05
07
f1
fa
22
e7
f2
05
eb
0a
e1
28
f8
ed
07
1e
f8
f1
10
f2
1e
f7
ee
ed
0c
03
f3
f8
f9
f3
de
0e
ea
e6
d7
f8
02
07
f3
ff
ea
0b
d8
11
e2
02
12
e3
0e
01
1f
05
fd
ef
fb
f1
ff
ee
eb
30
f9
d6
f6
dc
0b
0c
10
e4
f6
0e
f0
0f
07
f7
e3
fa
ed
f3
f0
ee
e3
07
fb
13
0d
e6
ec
02
00
ef
e6
ed
06
29
00
f4
06
0d
00
fa
f2
ef
e3
ff
01
f0
ec
0d
0b
0b
f1
00
06
ec
e7
05
0e
26
eb
f7
e7
05
05
f0
ed
04
12
1f
3c
fd
f6
ef
f7
fa
fb
e6
40
1f
09
eb
fd
cf
1f
f3
13
e7
f8
12
e6
ea
16
e9
e3
e0
f5
e7
2e
0f
04
12
f5
d9
f9
04
04
f8
fc
0f
f7
f3
e3
f4
fd
e9
0d
f2
07
ef
0f
e8
ea
f5
03
05
f2
e2
fa
f9
1a
12
11
f5
f8
13
fc
f7
17
1b
f3
ee
fe
f3
f5
07
10
16
eb
e6
20
ee
ea
ee
f5
e9
fc
18
f0
f5
e0
f3
25
db
0e
fd
32
0a
0b
f2
04
1d
fa
09
fb
fe
fb
00
0f
e9
4d
f0
fc
16
fa
fa
2e
e7
f3
05
f5
ff
f9
e9
26
07
08
f3
e9
01
fa
f3
f0
02
f0
1f
e6
04
fe
0d
fa
e8
07
09
ec
ee
d7
1a
d5
fc
1e
25
ff
fa
0d
f0
e0
f3
f9
e9
fd
eb
28
f6
d4
f9
15
f0
dc
06
19
ec
f1
df
fc
fd
4a
31
fc
f9
f1
14
02
e9
ea
e0
eb
0d
e3
eb
ee
0a
00
0e
07
11
0a
06
f5
f7
f8
03
03
fe
e1
ea
e3
f6
f1
e2
02
ef
e9
08
10
03
f4
04
f2
13
f3
07
ea
da
ee
04
06
10
0b
ff
04
fa
0e
02
e1
e0
ea
04
ec
e4
e2
fe
f1
f5
01
f8
ed
fa
00
e8
f9
ee
f6
23
00
fd
ec
fb
ed
12
47
21
29
f8
fc
06
fc
fd
fb
ee
f1
fb
fb
f5
ff
ff
04
fc
08
f3
f2
f3
ee
1e
e6
fb
fa
e8
f5
0c
03
ff
fd
f3
e6
ff
e9
fc
1b
f9
f6
f7
08
cd
eb
07
0d
27
f3
df
f2
fe
f0
f4
28
e3
fc
fb
02
0f
11
0d
f3
2a
06
ea
04
ef
f8
17
00
f5
03
09
f1
d6
f5
db
ee
14
f8
e9
01
e5
02
15
d7
01
f7
12
04
fb
ec
f7
fc
f8
ed
f5
10
e3
fe
04
db
fd
fa
f5
1a
f1
fd
03
f1
16
0a
05
37
17
05
f0
e8
fb
13
11
f2
d5
00
ef
10
1b
f9
e1
fc
e3
df
e9
04
ed
f0
f5
f1
fa
f7
df
f0
fa
05
36
1f
e8
f0
e9
ed
fa
f3
e5
18
07
ff
f5
ec
eb
15
02
ee
fb
ee
0f
0e
e4
f6
d9
ef
f6
e8
18
f0
f2
fd
ff
ed
f5
13
ff
ec
25
0c
e8
ec
f3
ec
f6
f2
e6
ff
0c
18
06
df
ee
f5
ed
f8
15
dc
e6
e2
fa
fe
04
ec
2d
e1
01
ff
fa
e6
ff
06
ea
ef
f8
09
f8
ea
f4
f3
e5
ee
0b
e8
f4
e0
cd
ed
fc
e0
f4
f5
e9
f7
1e
03
09
11
f0
05
b6
09
fd
e9
05
e3
22
f2
08
f0
f0
11
f6
ec
0a
e6
f3
f0
12
ff
e3
ed
03
29
18
fe
f3
d4
f3
fd
fa
08
ed
19
f9
e7
e7
fa
f0
f3
d7
de
17
eb
e1
ff
df
00
e3
f0
eb
06
f3
0b
10
07
01
22
f8
ea
f5
ee
f6
e1
ef
02
e7
fd
ea
07
1f
ec
ff
02
04
f1
16
0c
15
ee
04
0e
e4
f5
ef
ec
25
fb
22
12
ff
f3
f2
d5
e1
f2
fc
f6
e2
1d
f9
09
ff
f6
ff
0d
22
f9
fb
fc
e0
11
fd
e3
de
e1
ec
04
f9
f5
db
09
0a
2e
f5
1a
02
21
02
05
00
0a
f3
de
e1
e3
06
05
e8
16
e7
08
ed
d2
02
01
f0
ff
06
f8
eb
f2
eb
ed
ee
ea
f1
ea
e9
f7
09
16
20
0b
e1
f1
ff
f1
e8
14
02
f7
d3
fa
eb
15
40
e3
ea
00
f5
dc
ff
07
e6
fc
ef
fe
db
fe
ed
f4
e1
f3
dc
05
0f
24
04
34
ed
fa
f5
01
ed
dd
06
0e
03
0a
f3
0c
f6
e4
e9
06
f3
16
f7
f5
22
05
f1
e6
1e
f8
03
f3
14
0a
22
ff
09
f4
f3
dc
d1
0a
1e
ef
fb
ef
ea
18
06
0a
f2
fb
07
00
14
07
04
07
fb
fd
e4
d5
fc
fa
e6
0e
f1
e2
f8
03
15
f9
f1
eb
cd
f9
e2
f5
19
e0
e3
d3
fd
00
fc
f6
f7
f0
fe
00
e2
16
fa
ec
fe
fe
f8
f3
df
eb
f8
f2
cb
20
d2
f0
ff
ff
c4
f9
ff
1e
11
0a
fe
2a
04
07
df
f9
fc
e9
f0
03
e8
04
f6
f5
0e
00
f2
eb
ef
2e
15
ea
06
01
11
2c
f0
fd
df
f2
06
f0
f9
0b
05
de
1a
07
02
d8
0c
03
0d
06
de
09
16
fc
02
1a
04
0c
ed
3e
d5
fe
02
1f
05
12
07
f8
00
f5
e6
f7
e8
0a
e4
cf
c9
06
1d
ff
09
f8
10
18
1d
02
ec
09
12
fe
f9
1b
ff
e5
e0
11
20
fc
f8
05
05
e1
fe
0c
0a
f2
ee
f9
f6
ee
ee
ee
00
f5
f8
ec
fc
fc
f7
f9
e8
e4
10
0a
ec
e7
09
dd
0f
fc
ec
f0
f9
17
ed
ee
02
df
11
00
ec
0a
f1
e5
11
f0
e9
06
1d
fc
e2
22
1e
03
e9
f2
03
e9
fb
07
19
03
08
e2
0c
00
fa
e8
15
e4
fa
19
0e
f4
b3
dd
ca
f3
e2
f0
f2
f1
ff
fc
27
ea
ed
ea
f0
f9
0d
f8
ea
e5
0b
e4
f3
00
fe
e8
fa
12
ea
07
07
0b
02
f7
fa
e1
10
06
f6
ec
05
26
fc
0f
2b
0b
ff
f5
f5
ee
e2
d6
00
02
e4
04
f3
d5
d9
1b
0e
f3
f9
00
f0
fb
f8
f2
11
fc
12
e2
27
07
f6
bd
fd
f9
03
f9
1a
f4
f7
e9
fc
cf
15
01
1e
f3
ea
f5
15
0c
fa
0a
e0
fe
0f
ff
12
ea
ff
dd
fe
ed
07
06
f4
f7
e6
fb
cc
20
d9
f3
f0
f2
11
f2
f6
02
f2
e5
f8
f8
f9
05
f7
e0
e6
e6
0f
fd
f2
f1
15
fd
ef
fa
19
00
01
00
f7
fa
ea
0d
f3
eb
dc
e2
ed
f5
1d
06
00
01
d7
fc
fc
05
f0
0d
10
d8
e3
f3
f2
01
fb
ee
fd
09
01
08
14
f2
0e
04
ec
02
f0
06
e0
f0
1d
10
0b
0e
e7
f1
07
f1
f9
ea
f5
20
e3
f9
fb
02
d4
0a
f3
e2
04
f8
10
f4
f9
e8
1b
05
dd
e3
26
f0
f5
f0
ec
f3
e1
06
07
c9
d8
ec
fb
03
09
0b
ea
e4
f2
06
ee
ed
fa
0d
f0
09
ea
0c
e6
e6
f2
f0
15
f3
e3
ec
0a
13
03
fb
fd
df
08
f5
f8
0c
2d
f1
f9
d5
04
d0
f7
e9
f7
1a
f7
06
14
04
04
d8
f9
f9
fb
f4
f6
ea
37
e6
10
fa
ef
e0
e9
e9
19
e5
cb
06
0f
fa
30
c6
00
f7
07
0e
25
d6
f0
fc
ef
10
db
ee
fd
e7
0e
dc
01
04
11
0e
1f
ec
04
f6
ff
01
1a
26
ff
13
e3
e0
f1
19
eb
0a
ee
f1
16
49
03
19
f0
e2
fc
e7
f5
27
2a
00
eb
f9
0d
f5
f8
07
e9
ef
05
f1
03
14
d9
fc
ed
31
f5
f4
f9
fc
03
ff
fd
ff
db
18
f0
fa
26
fe
0b
cd
f2
d3
f8
e8
d9
10
08
10
03
fc
e7
03
fb
f2
f2
fe
0b
f9
fc
fe
f2
fa
01
10
e2
f9
ec
f0
da
f1
f2
ef
f2
32
08
ea
e5
f4
29
eb
24
f9
c4
08
f2
e9
fb
da
df
f8
f0
04
0c
0f
0c
f5
07
fa
fc
f9
00
1e
2d
08
0a
08
d7
e8
f6
fc
db
fc
03
f8
de
0c
0f
f4
08
0e
02
f6
d8
fa
06
0b
f8
f8
f2
d1
fc
04
08
fc
e2
ee
f5
de
0f
f2
e7
f6
f5
f7
f8
0a
31
e6
00
f3
22
db
ed
ee
01
09
de
23
ed
dc
03
ec
fa
ef
0c
f8
06
f0
16
13
0d
01
f5
fa
05
e5
02
26
e8
06
e7
df
ff
cb
f7
ef
dd
f5
20
f7
fa
e5
38
0c
e5
ed
e8
f5
01
03
e7
f2
b6
0b
09
25
ea
f9
ff
f8
d5
f0
fb
06
f2
09
01
f9
fd
ee
f4
e2
0f
fb
e6
ea
d9
17
de
dd
f3
e5
e3
20
0d
00
f5
0a
f7
fa
eb
17
f7
dd
0e
e8
11
e5
f4
ed
f5
0a
f5
ff
e4
f6
f7
01
10
09
d9
1b
04
f3
df
07
da
00
f3
1c
ff
08
ea
10
ed
ed
e7
f7
05
10
0b
f1
09
f1
09
15
ef
18
f3
09
17
01
f2
f0
28
f6
d9
01
10
f7
e3
f1
e8
e5
e6
f6
fd
f7
f2
fc
2c
f1
f2
20
0d
01
f9
e6
04
df
f7
e1
18
f5
dd
ff
f3
ee
f1
09
ef
f2
08
05
25
f1
f8
e8
03
0a
f5
f1
01
f6
e1
fd
f1
01
e6
e3
f5
20
13
e2
f1
01
00
0e
fa
07
f3
e0
fa
1c
dc
ef
0f
ee
0f
0f
fd
df
e8
f9
f5
ed
06
f4
f0
f0
f4
f2
ed
e3
d5
0d
e9
fd
04
f9
f9
fb
01
0b
0e
ee
3a
fb
e4
ec
13
0a
ea
ed
0c
f6
fd
f2
15
f9
36
0e
e1
fb
0f
f9
0e
e9
fe
e6
de
f5
ee
16
ee
ef
fe
fc
e6
03
e8
4a
ec
ec
0b
fc
00
1c
ee
13
e6
02
f0
fd
0c
d4
e2
d6
ed
eb
ff
f9
08
06
e8
04
e6
fa
fe
06
fe
ff
f1
f7
fa
ec
02
f8
dd
ff
e5
06
f1
02
f1
fa
fa
f4
f9
35
1a
ee
f0
f5
f1
06
ea
ed
f4
f6
03
18
e9
12
03
07
fd
f2
fa
fe
f0
fd
ff
0c
e6
0c
f1
06
ef
04
f9
f3
e4
e8
e1
01
04
00
11
f6
04
0e
f4
f4
f6
fe
f8
02
f2
de
02
f9
04
0a
09
e3
0c
ff
f3
ef
10
e7
ff
07
f2
fb
e6
ff
d4
02
f8
f4
0a
f4
ee
08
f8
03
f1
dd
03
01
16
fe
20
fb
09
ee
e9
e9
f2
1c
fa
eb
fc
01
00
01
e0
fc
0d
0b
1d
d2
e6
01
28
ff
da
ec
14
d3
f6
f2
05
f9
02
f8
db
e8
ef
ed
ce
16
ee
01
04
f3
e0
f9
fe
06
fc
04
ea
ff
e4
0e
0b
02
fe
d7
f3
ff
29
0c
12
fc
ff
09
11
f8
0d
fb
f0
f7
08
ed
3f
f3
f7
f6
33
06
ff
20
ff
de
e9
ef
f4
00
fd
f8
fc
f6
0c
f6
e6
fa
e6
0b
f4
f3
f8
0f
e7
04
00
e4
05
00
04
e5
0a
01
fc
00
f2
ee
fd
0f
da
0d
0a
ed
fe
f1
0a
fe
04
f9
e3
ea
27
18
09
d0
05
08
e1
fa
fb
f6
fc
f3
e2
f6
f0
17
0c
05
ef
f8
e6
ef
e5
01
d2
e2
e7
01
fc
ef
ef
04
f6
de
ec
1b
ef
1c
fd
fb
0f
21
04
13
15
ee
09
e5
0d
04
f3
06
12
04
ef
fb
f2
f0
e9
14
f7
de
02
f0
02
00
de
df
06
19
f9
1f
00
55
03
fd
e6
da
de
f4
fd
f6
f1
d7
02
0e
f8
f5
f6
ed
f9
fb
00
07
e8
e7
f7
ef
ee
f9
07
09
0f
f7
00
f6
f3
e6
ec
f6
fb
fd
05
13
20
f8
08
05
d3
08
06
0d
0c
ee
f5
fc
12
fd
ee
00
31
0f
1b
dc
f6
0e
f0
00
12
f1
00
fb
e7
ec
e9
fb
12
f7
e8
06
eb
fb
05
22
fa
e5
f6
03
eb
f9
1c
ef
f3
f6
fd
f0
e3
ff
e8
06
10
ef
e2
0d
08
f7
f7
fd
03
fd
e8
ee
fc
0a
fb
eb
fa
e9
00
f5
fb
e9
eb
01
21
ff
f4
08
09
f8
ea
f8
f1
0d
17
f2
eb
61
f7
e7
ec
fd
05
e6
f2
23
06
f2
00
e2
f2
07
f9
08
f8
dc
f7
ef
ed
fb
fd
01
f6
ed
0b
12
ee
08
f2
1a
01
ed
ec
fa
15
15
f6
00
ff
02
0d
0d
f3
f1
01
02
07
f1
f0
e1
f9
ee
05
0f
f0
19
07
e6
0c
f8
02
f4
fd
fd
ee
ea
f9
02
f4
fa
ec
02
08
fc
15
11
d3
0b
e5
e5
f3
e3
12
ee
ec
e1
0a
f1
e7
2a
cb
e9
09
fe
ed
f6
04
f9
f2
05
03
f4
03
fd
e5
e2
e3
fc
f8
f5
f6
0d
e9
f5
07
02
00
f9
e5
fc
f5
ff
f0
07
f6
08
d2
12
00
f7
ff
e0
f1
fc
00
fb
fd
de
f7
07
eb
f7
ef
f2
f1
03
f9
00
dd
05
fa
12
03
f9
f4
f3
ec
04
fd
f2
03
06
d3
fb
04
f7
fc
ed
07
e9
f8
0d
e3
f7
f6
ec
01
17
fb
f9
f3
03
e1
1c
ee
f9
1e
ec
13
0f
f0
fa
1f
0f
13
fb
fc
fe
e6
eb
fe
f5
f0
d8
ec
ff
0f
e3
dc
ee
f7
f5
eb
10
ff
0d
1d
f9
09
e3
fe
18
e1
ee
0e
fd
ea
f7
f3
f7
fe
01
0b
f5
fb
fb
fe
11
f1
0c
ff
ee
09
1f
e8
fb
1c
f6
f5
e6
06
d5
62
f9
f2
fe
0c
09
07
f5
f9
df
0c
fa
fb
e4
fe
f0
fd
da
fd
ef
28
ff
f3
db
f1
f2
e6
00
e9
0e
f1
02
07
fb
0b
e4
01
08
d6
01
ff
01
ef
e8
f4
ef
ed
03
ff
01
2f
ea
04
0a
f7
f7
ef
05
ee
04
ea
ef
f8
f7
f4
02
fd
0c
ea
fb
ec
f5
ee
0a
1c
16
f7
0d
36
f0
fa
ed
fd
d1
ee
dd
f5
ee
19
e2
1b
f8
fe
ea
f7
f7
44
ed
0a
e4
f4
ec
f1
ed
fd
e1
f9
fa
06
01
03
00
e2
f1
ff
07
f8
00
0d
fe
0d
fb
0b
f7
ee
0c
03
fd
02
1b
1a
d9
0d
f7
02
fb
01
5f
e4
0e
f8
05
f7
f7
fe
0a
06
13
f1
03
ed
fd
d5
e6
0a
f2
03
e9
27
0c
fe
f9
09
f7
e4
f3
fb
ec
02
18
ec
2d
f8
da
e6
f9
ed
01
fe
1d
f4
2a
fe
f9
f4
f3
ff
f6
f0
f4
0c
d4
f0
f1
ef
fd
dd
ed
e6
09
1e
ea
04
f4
06
03
0a
27
e9
f0
07
ff
ee
05
f9
1d
f2
ee
f2
e9
eb
eb
04
19
0b
2c
e3
ef
46
f2
0e
ed
08
0f
ea
19
e4
fa
02
fe
00
df
f9
0f
f5
e4
ed
0b
f9
e8
0a
e7
f5
0b
e1
00
d8
e3
fa
fc
29
f9
07
00
fe
f3
33
ed
f3
f7
16
f6
f9
f5
f4
08
f2
f6
e9
e2
fc
f6
11
e7
0d
00
e0
f8
23
0f
04
fc
e0
03
0d
0c
ec
e4
f7
12
07
25
1e
f9
f7
f7
0d
23
fb
1d
e4
f7
f8
04
03
fb
ed
0a
21
03
fd
0d
e7
0c
f1
ff
f7
f6
19
f6
fb
e3
0d
dd
06
e7
f6
e1
29
f6
fe
e3
ec
0b
f6
fd
08
03
07
01
e8
ed
f7
db
fc
0d
df
e2
fd
e8
de
1e
1c
0b
19
ef
f4
08
ed
f8
04
0f
ec
fc
d7
fa
08
05
e7
e5
01
ff
00
fe
f9
ea
ff
02
fc
fe
f7
22
ea
f1
f4
12
16
03
e9
f7
0a
ed
01
eb
07
10
2f
0a
11
e6
05
f3
f4
01
0c
04
39
00
e7
04
f8
01
ce
eb
26
f4
e1
c7
f7
f5
11
f1
f1
ed
f2
fa
0f
ea
0c
f2
e7
f1
dc
15
04
f5
06
0e
d7
f3
d5
1a
06
ed
e6
f3
e5
d8
fc
e5
05
ef
d8
04
fd
f8
d6
ef
ea
f9
ed
f4
df
f3
06
f1
ee
ea
fb
f3
ea
f7
fc
0b
db
e3
f8
f3
17
06
ee
02
ee
e6
0e
ea
dc
e2
03
ec
d9
ec
f5
09
fa
ea
f1
f2
f1
e6
f5
da
ed
e8
e8
06
ff
05
f2
f3
f8
fe
16
e5
fe
f8
e2
df
f8
14
e9
f2
ec
14
fd
e7
d5
ee
f0
ed
f1
01
fb
13
07
d4
e5
e2
f7
eb
0f
d6
20
c2
ee
dd
ff
0c
f9
dd
fc
ef
f1
ec
12
04
ee
e9
e7
f8
cc
ed
c7
ef
fa
fd
0d
ea
ea
e0
f3
e9
df
ec
f1
ee
eb
17
f7
f9
10
f1
ff
f8
d6
e0
01
01
f3
02
e4
0a
07
f7
cc
17
f5
ee
e9
14
08
dd
f1
1a
ed
e8
e3
f8
dc
f0
f8
ed
ff
f9
f6
e5
fe
e3
f0
01
e6
ea
d5
fa
f9
de
fd
e1
ed
1a
dc
e2
ea
f6
08
05
00
eb
1c
ec
de
d7
04
e7
f5
0f
f4
f9
ea
01
e3
f7
06
e7
f5
f1
08
0a
e1
d6
ff
f1
f0
00
ef
06
fb
e4
ed
f8
fa
0a
e9
eb
05
eb
f6
0e
df
07
e0
dc
f5
e9
f2
0f
de
04
ea
da
f4
fb
24
f6
ef
fc
ff
ef
e0
f1
e3
dc
d1
fc
e7
e6
e4
f9
ef
f5
09
fa
f2
c9
ee
fd
1a
eb
05
1a
dc
e0
f1
e1
fb
f1
01
fa
12
df
f3
06
f5
ec
f3
e2
00
e4
de
08
e6
fc
fb
cd
0e
f5
f9
0d
f7
d5
dc
e8
e9
ee
03
11
e5
fb
e8
e7
ef
12
f3
f7
0c
eb
0d
03
c4
e3
07
dc
ff
cc
01
f4
eb
dc
f3
f5
ec
0f
ef
f3
fb
b4
fb
02
0f
ea
e7
16
f4
de
00
dc
f0
fe
f5
11
fb
e5
f5
e6
fa
f5
0e
11
e6
00
08
cb
d9
cb
f5
00
e4
0d
dc
ce
e9
f4
f3
e9
d2
fc
f4
e3
f8
ff
06
ec
07
d3
ec
d5
14
ec
e1
cf
07
27
00
f5
ec
f8
e9
e9
e4
19
d0
f3
f9
de
15
e9
ef
18
f9
ea
d9
0c
e8
d4
0a
da
ed
0d
f0
f1
1c
fd
d9
09
c8
e4
cd
02
cb
e6
fa
c8
f4
da
e0
fc
e8
e0
f8
e4
e2
dc
04
fa
f6
e4
04
ef
16
e9
17
f1
02
0d
08
e8
f9
f6
dd
ce
e8
da
f0
f1
e5
e5
0b
ed
f9
f1
07
ff
f7
f9
fd
eb
0d
dd
ee
e5
0e
16
fb
f6
e4
e6
f7
ef
00
f3
00
ed
fa
e1
f2
01
e6
23
f6
eb
fd
ed
f2
f7
1b
f8
ec
ec
1c
f3
f3
d5
d2
dc
14
0e
d0
e6
e6
e8
11
03
ef
f9
dd
03
0c
ef
de
f4
f4
08
da
ee
d9
fb
e6
d0
f6
d8
fa
cd
dc
ed
f0
06
14
f3
e1
02
f6
fe
14
eb
f4
e5
e5
da
f7
d3
da
e8
f6
f7
f8
c5
e9
fd
0f
e1
0d
e5
fe
08
ff
f5
0c
fb
ff
f5
ee
09
0a
ff
18
eb
0f
00
01
f0
04
dd
01
00
fb
f8
f9
d6
f4
ee
f5
f6
cb
da
00
f3
ea
20
d8
f3
ff
16
ea
fe
04
fb
f0
ee
e9
f4
e8
06
fd
07
ed
fb
1d
00
fd
f4
f5
08
0f
fb
e2
f0
f6
d4
d8
04
15
15
f3
fe
e0
e4
f4
fc
f3
0a
f6
e2
f5
e8
ee
fe
dc
ff
d5
01
f8
f3
e7
f4
00
d7
ed
d2
d2
0a
f1
04
fc
02
e9
f2
dc
e7
e3
f2
f1
07
f2
df
04
0e
e5
fb
09
f1
e1
f3
e9
07
d8
01
e8
e5
ef
fc
ec
02
dc
e1
f4
ee
f0
32
e9
f0
e3
18
06
0a
fc
0a
f6
f2
fc
d9
ff
ed
00
10
04
e7
f0
f9
08
fe
ed
06
e3
ff
f3
df
f8
f3
06
ee
d9
e2
0f
f2
f5
e9
ee
e4
ef
f6
00
fb
14
e9
ea
da
f8
ea
eb
c4
00
e0
e9
d6
e4
d2
de
f6
f5
fc
f0
02
f4
e6
ed
e4
fa
f9
e9
f2
0c
01
01
ed
05
eb
d9
e0
15
f5
f0
fa
f8
ff
eb
f5
fc
f2
f8
fd
06
f5
f6
f3
db
10
06
ea
f5
ec
d8
f7
f1
ea
ff
07
d5
e8
08
ff
f8
05
d5
07
f3
04
ee
f4
02
f0
fb
f7
ee
e7
f1
ea
ee
f2
d8
d6
f6
f7
e1
fe
e6
f7
f1
f7
fe
de
dd
e4
f8
ec
f1
01
e2
fe
4d
06
de
e4
fa
bc
ef
f7
d8
e8
fd
d2
eb
1e
c9
e0
e4
0d
03
e9
f3
0e
0f
ec
07
ed
e9
d2
19
01
e6
fd
08
e5
0e
fd
e1
f1
e6
d2
cf
d3
db
05
05
f3
fd
cd
f8
bb
f5
10
09
fb
fb
fd
de
fe
d7
e7
01
f7
09
eb
e5
f9
f5
f2
10
04
fb
ee
0b
e8
f4
dc
fb
eb
ee
22
f5
d8
ed
f1
15
e5
f8
e9
07
ee
ef
ef
ed
e8
f0
de
0c
f2
0b
16
f8
ec
06
f7
fe
02
ed
e3
f1
fb
fb
f2
f3
ed
ef
ed
d6
e8
cd
f6
06
f4
f0
07
de
f8
d1
dd
0e
f3
ff
03
e3
ee
f2
09
f3
c8
d9
fd
ca
ff
00
e5
f7
e6
fa
fe
f8
f7
f5
e6
d5
dd
f7
f1
eb
db
04
0f
f0
30
f3
ea
fb
f4
14
fa
fb
1a
fd
e1
eb
ee
d8
e2
e4
f1
ec
f5
f4
e9
00
e3
e8
fb
f4
e4
03
1a
ee
eb
f9
ee
e5
e8
04
2d
e7
01
f8
e1
13
e8
fd
d9
fd
14
ec
03
dc
05
c7
f0
df
0f
0c
e9
07
f4
04
06
f7
fe
02
02
dc
fa
f3
00
f7
ab
0a
f3
fb
ec
e3
ec
eb
10
ea
fb
f8
06
f8
f8
16
eb
f1
0a
f2
f9
06
e1
d0
fa
b2
ee
e2
06
d4
d5
ed
df
0b
f2
e3
08
fc
f4
eb
e4
ef
03
ef
e9
f1
ea
f9
eb
f4
d5
e4
f2
f6
e6
e9
ff
0f
fe
ee
f2
f1
e9
07
08
0c
04
f6
02
e6
f5
eb
ed
00
09
05
f6
0f
39
f6
e1
ee
06
fd
e4
f2
f2
e4
0d
f9
06
e9
10
ec
fc
ef
fc
05
f0
f3
0c
00
ed
f5
f6
00
fb
ea
f4
f1
ff
ff
fb
ed
ec
0a
14
3a
09
f1
3e
ed
01
fa
31
d7
06
fe
e1
f3
fb
fa
fe
f5
00
fb
02
e4
e4
f4
df
15
fd
f8
fb
e9
19
e0
d0
e5
fa
f7
f1
04
fb
e8
f7
05
fe
01
f4
e9
ee
0a
f7
fe
f4
14
f3
e4
eb
28
eb
ed
ec
fd
fa
0a
08
0a
05
02
02
03
06
e5
f6
07
ed
e8
ff
0d
f1
ed
01
02
ec
f2
eb
f6
f2
f1
e6
ee
f9
e8
e7
fa
f0
f7
f3
ec
5c
03
0a
f3
22
06
ff
06
dd
f2
ee
00
f8
ed
e3
f4
eb
e5
04
05
18
15
ef
f5
ee
c4
f8
ff
e2
0f
fc
fd
ec
fe
f4
fa
08
12
eb
00
e1
06
eb
20
f1
ff
f7
e9
fe
0a
ef
ec
e3
fe
f9
fc
06
19
e4
e9
07
f8
34
fe
ff
f2
f0
0a
ee
04
f9
e9
f9
6f
fe
f0
f8
0b
f1
04
f6
3d
df
ce
e6
ff
ff
f5
fd
f5
f6
02
f0
e2
f1
e9
f4
01
23
eb
e8
1c
ed
ef
fa
1f
ed
0a
4d
f1
eb
f4
f4
f1
ef
f9
dd
15
03
f8
e7
f3
03
ee
05
0c
09
e0
f3
fb
08
f1
0b
e7
f8
0b
e7
f8
e7
f8
e3
ee
ec
e4
05
f1
34
ee
fb
ff
f7
f6
e4
d6
f2
fe
fc
e7
fd
f5
f9
f3
e1
ff
f5
f2
ff
f3
f4
e8
03
f4
fb
e7
fa
f1
f1
11
e9
da
f6
57
05
ee
fe
ff
f3
f3
fc
ff
f4
f8
f9
fc
e3
01
f3
01
fd
e7
fc
f2
f4
05
f0
eb
fa
f2
f4
fa
ec
d2
eb
fb
f8
fd
ee
ec
f9
e0
0b
fc
28
ee
fa
00
fd
f4
ef
ee
11
08
ff
e7
ff
fd
1a
f9
e5
e3
f3
ea
e9
f4
ea
f3
ff
13
fc
ea
fd
ee
00
eb
f8
fb
07
f2
e3
f2
fc
e5
f1
e2
f5
e6
f6
03
ec
1b
f2
fd
40
e7
36
df
ed
f0
f5
f8
0d
63
0a
07
eb
03
03
ee
f4
e7
e2
00
f7
e0
1b
eb
f8
ec
f4
09
ed
03
ed
f0
11
19
44
f1
e8
f9
03
f5
00
fb
ed
f6
f6
f6
15
04
05
00
0b
ef
fa
04
fd
05
f3
0c
ef
0d
df
f2
e7
ff
14
fc
f3
02
03
f7
e8
14
f5
eb
30
f5
f6
28
f4
12
f2
09
ed
1f
fa
fc
fc
f3
e9
57
df
29
ec
f4
2f
f6
ed
05
fe
17
f4
de
04
e7
ea
30
0d
ec
dd
e5
f1
0d
f0
f6
ff
02
ff
f6
ff
0a
24
02
13
28
19
28
fb
04
e5
09
e3
12
07
09
f2
ec
f2
f5
f3
f3
02
e9
fe
f6
12
e3
f2
06
f3
fb
e7
e9
44
f6
e7
01
ea
e2
e7
f8
f6
e9
2a
f1
f7
ec
0e
ed
eb
f9
ea
ee
ee
fb
de
fb
eb
ff
f4
ee
f3
f9
f6
0d
02
f0
f7
df
fb
fb
ed
03
e4
e4
02
f2
f8
f3
ff
f6
19
f9
ff
fc
f9
0c
d7
45
f6
f8
05
e9
fd
35
ee
18
1b
30
ee
0d
f7
ed
ef
f1
f7
f1
67
f9
22
f0
e8
f6
23
45
f5
25
05
14
e8
f1
03
1e
f8
47
e6
f7
06
e6
f0
f7
e7
d9
1c
54
03
eb
f6
3a
23
08
d1
39
2c
e8
f8
ee
f5
f8
ec
ec
ea
f4
15
23
16
f8
09
fe
fc
f7
f9
10
fd
ec
f0
fd
f2
f8
52
2f
1c
f0
e9
f3
14
fc
f8
f5
14
07
f7
d9
05
f6
e0
00
fc
01
e8
f9
fe
ea
1f
2c
e2
03
09
f5
02
f6
09
17
f7
14
fa
f8
ec
00
03
ee
17
ef
fc
2f
ed
24
fe
de
e4
03
e7
f4
21
eb
ec
f6
fa
f5
f9
f9
f6
43
24
f4
f8
02
04
05
fc
15
f5
08
1d
f8
e4
ef
e4
f0
f0
f5
1a
03
ea
f2
f2
00
0d
f1
fa
14
f0
ff
10
f6
ed
f2
06
04
ee
13
ec
df
f2
f5
03
f3
ce
e9
0e
f9
fd
eb
ff
07
e8
e9
f3
f4
f8
f7
f4
fb
16
ec
e6
ee
f7
e9
ea
f5
03
e9
ed
e9
4d
fe
18
eb
dd
f1
09
e9
f1
12
fa
f0
fb
eb
f1
f8
eb
ff
0c
f6
f8
f6
f7
f2
05
03
06
ea
08
f3
f7
21
fc
20
e5
03
06
49
f8
ed
08
0d
0a
04
02
e9
f5
54
f5
e8
12
e0
05
fb
e8
f8
ec
ea
ef
fa
09
ff
e9
20
07
e7
fe
07
fa
f4
dd
ff
27
f5
f6
04
f2
f2
0a
1a
e9
e6
e8
df
f5
06
ea
53
fd
f0
e2
f3
fb
fb
03
f6
f2
f5
f8
01
f7
eb
f5
12
18
33
08
e4
06
f2
ef
06
f5
01
f5
02
0e
2e
ed
fe
f6
01
fb
ee
0c
fc
ec
ee
ed
ee
f5
00
fd
1e
e2
e2
f7
f7
f8
21
fb
ff
ec
07
df
fa
11
f3
05
e8
ec
05
0a
ed
04
1b
ed
fe
e5
06
fd
30
04
0a
ed
f1
f0
d3
f8
fe
f7
da
17
e9
01
f9
ee
ef
f8
19
f0
ec
ea
01
e9
e6
fd
fb
e9
dd
ed
02
f7
ff
07
f6
ef
fb
d7
ef
ed
e6
39
1f
fd
f5
e3
e0
15
18
ea
f2
ed
f1
f5
0f
10
f5
e6
08
f2
f8
f9
e4
e4
f7
e7
f4
0c
22
f3
f9
ef
04
03
fc
08
f9
e6
fb
ea
fd
13
15
ec
f6
fa
34
f2
eb
f8
fb
e4
f6
ea
f0
1d
06
06
f2
06
03
f6
ee
0c
de
f2
ee
0b
dd
fb
e8
fc
ee
ef
f6
ec
00
f3
e8
07
10
ee
ef
f7
f5
ef
fd
e6
ff
2e
fc
fd
fb
f7
e0
1d
f2
15
e3
f5
ff
04
2b
f5
e6
f4
f8
e5
ff
f1
fa
04
f1
09
f3
f4
01
11
e5
02
09
fd
06
01
ff
11
1c
f3
1a
05
e2
13
eb
ea
ef
0c
04
fd
15
ea
12
d3
e9
10
f7
07
19
03
ec
0b
e7
e5
06
42
ed
f2
03
06
03
ec
0a
f4
f2
05
eb
ec
ff
ef
f3
ff
f7
c9
f9
f3
09
0d
ee
f5
e1
0c
ff
37
02
06
e4
e0
fa
f6
f6
fc
e5
1d
eb
f0
ef
f7
0b
dd
f1
ec
f3
03
df
e4
e2
00
f2
13
f6
d6
f9
04
fa
f0
06
02
01
f0
f1
05
eb
c8
fc
d9
f8
eb
f6
0d
08
01
e7
e3
f9
00
f5
e0
f3
0d
f5
05
ee
f5
f7
f1
fe
f2
ec
01
f6
f1
f5
fa
08
0a
04
06
06
fc
fb
f1
f7
0a
09
f6
f6
16
ef
00
0c
ff
eb
06
27
0a
f0
f7
ef
e7
ea
00
fa
ef
ff
e5
e3
02
17
18
fa
f6
e6
ff
02
09
04
fb
e4
e4
c5
11
1c
1b
f7
ec
f8
11
f8
fd
ef
0c
02
11
f1
e5
03
e4
ea
f7
0f
4b
e8
ff
e2
1d
fc
09
03
fe
0e
f4
f1
fe
10
03
e4
23
e6
f2
1f
ea
10
1a
e4
0b
00
fe
1c
57
f6
02
fa
1d
f7
08
22
09
e8
f6
de
e8
17
ef
ed
ee
d8
e2
f5
f0
f8
2a
e9
08
1b
f3
db
01
eb
fa
f0
e9
05
48
f9
e5
f7
f4
f2
f0
fc
f3
e1
f2
25
13
dc
15
23
f5
fb
2d
07
f6
f2
f9
0e
fa
eb
e5
fc
01
2c
f1
f4
f9
f5
fc
14
ed
f2
f4
f7
08
05
10
00
19
f9
f8
ff
06
1b
f3
fa
27
fb
0a
fb
f8
e2
fc
fe
e4
f5
03
15
0c
f1
00
ff
07
f7
00
f7
ed
f4
09
f1
f3
07
03
06
eb
01
07
e3
0a
0f
fa
fa
fb
eb
dd
e1
f4
f2
f3
0d
f9
ee
f5
19
e9
f3
f8
05
ea
0b
10
ed
13
f9
0c
07
16
00
22
13
ea
32
15
34
23
e9
f9
f4
15
f6
f5
00
e2
16
fa
0d
19
41
e9
09
fd
fd
e9
ee
f1
ef
13
f1
f9
ef
fd
f3
06
fe
fc
03
01
c5
fa
f4
06
0c
f6
ef
fd
0b
ec
13
e5
3b
ec
1f
f5
f8
04
e7
f7
00
04
fa
02
f0
df
f0
fc
ff
0a
1a
eb
fe
f7
fb
35
0e
0f
f6
f3
f9
f2
fd
ef
02
fb
f8
e3
12
ff
fb
f2
ed
0b
f9
fa
e9
31
f2
f1
fb
d6
14
26
f3
d5
e5
fe
f8
b3
02
41
13
01
18
0b
0b
e4
f7
10
f2
e6
de
f1
02
f7
f6
08
05
05
e7
f9
fd
f8
f1
06
f1
04
f8
08
18
03
d1
01
f7
e9
f8
db
e7
e8
ec
f5
fe
d5
08
ee
fc
e1
e8
13
03
ed
fe
f6
0c
0c
fb
1b
10
06
ed
f7
0a
f8
fd
ec
f6
eb
f7
fa
fd
f8
1f
02
fb
05
f6
f2
06
f9
10
ec
ed
ef
db
0e
21
f0
e6
08
0c
11
16
fb
f4
21
02
fb
42
07
fb
ec
d8
15
ea
fb
e8
ef
fa
e2
eb
f0
ff
f8
e9
1b
3c
ef
0e
fe
0b
0f
fb
fb
0e
ea
2f
fa
00
04
05
fd
f9
f9
12
fb
18
ea
f6
ee
18
ee
f1
ea
f1
d8
ee
1a
3b
08
18
00
eb
f6
fe
11
f1
e5
1a
fb
e0
07
03
15
fd
fd
0f
f9
ed
20
f8
eb
f3
f3
fe
02
d4
eb
df
14
fe
21
fd
df
fc
c4
ec
f0
00
d1
12
ee
07
0e
fb
05
f6
e5
e8
01
13
fb
fb
d2
de
1a
01
32
fd
22
fa
e7
f6
ea
0a
02
f2
09
fb
e9
20
21
e4
fd
e4
fc
02
f3
12
fc
f7
04
19
1b
03
02
e9
f6
e8
02
d5
fd
21
02
e3
ef
f9
e7
1a
19
ff
05
ff
05
0e
e2
02
3d
ee
00
f0
00
f6
02
01
ef
04
18
d0
eb
f3
fe
15
fc
01
e9
11
f7
f8
f6
e6
f2
22
0d
f3
e6
22
e9
1e
0a
04
02
f8
fc
f7
1b
f5
06
15
fa
e7
ff
0b
00
f9
08
09
e4
fe
ef
d8
ed
12
43
00
f2
e3
f9
fd
03
03
eb
10
f4
fa
ff
fb
fe
e9
f7
18
ea
f8
fc
0c
fb
f9
f3
f8
0b
09
f7
ed
07
2e
f9
0a
ee
0e
00
02
e8
21
fc
fe
ef
f6
f9
15
ea
01
e6
f8
fc
ec
f1
0b
22
f2
2a
03
15
fb
28
fc
25
fb
09
e7
01
0e
f0
e7
02
02
ed
f3
2a
fa
ff
06
07
f0
f9
2d
13
06
f2
fc
07
f4
f5
20
0b
fa
09
19
e5
00
f7
f7
15
0e
ea
fc
04
02
ee
e7
db
fa
ee
f2
05
d5
fa
fc
13
0b
f6
ef
fc
ee
e1
f7
10
f2
01
eb
f3
03
eb
ef
fe
20
ed
fd
fa
f1
f4
fb
ed
0c
08
01
48
03
08
f0
00
03
f0
04
f5
e0
f3
f9
e6
13
ec
ea
f9
ef
f4
01
13
f8
16
ef
21
19
f8
f6
f8
f4
11
05
00
ec
19
f8
00
11
03
3b
01
19
0e
13
f9
09
f3
01
ed
03
ef
fb
0e
f3
ea
f0
f2
fa
f2
fb
fb
f8
f5
05
13
10
ee
f6
ed
00
ea
0d
cf
24
03
f6
f5
ee
f3
ef
04
18
0a
ec
ea
f4
fd
e3
25
38
fb
eb
ed
00
e4
ef
df
ef
11
f6
f8
22
20
f9
f9
00
0f
08
fb
04
f0
ea
fa
fe
f7
d5
f2
e8
02
14
09
f7
03
02
f1
e7
fa
ef
fc
f4
d9
09
fb
03
ff
10
f7
0f
f2
05
1a
ef
18
07
02
f6
2e
f2
0b
f8
f2
18
f1
0a
f3
01
10
ef
1e
08
f9
1e
ec
02
04
e1
16
f7
f4
e8
ea
e5
ed
e1
03
21
fe
fe
0f
fe
dc
c4
32
07
fd
ec
fa
f7
01
fa
28
fb
05
0b
09
d1
e0
3c
ef
0d
fb
01
e4
08
14
ee
0b
f4
fd
1b
03
eb
08
0e
dd
0a
fa
0c
20
f5
de
ed
f6
05
f8
f0
f7
fd
fb
0f
03
09
dd
e6
07
27
18
09
01
2a
d5
f5
01
e2
26
ec
31
23
17
f7
f9
ba
f8
2e
ea
01
f1
ef
f9
db
f0
36
0f
19
ea
f5
e8
e8
15
ff
f5
f9
fc
16
d0
2d
f0
08
cd
df
eb
dd
17
ee
07
ef
0b
01
d3
f8
14
16
0b
01
f5
fc
dc
ef
f5
1a
06
da
d1
fd
e4
e5
f4
0f
ed
db
de
08
57
17
8f
ee
0e
0e
e6
f6
08
e6
08
df
fb
fe
1a
de
fa
d0
f3
f6
10
ff
da
ee
de
e7
0a
f2
ed
f3
f5
00
f5
e7
0d
00
fc
f3
15
ea
cf
ee
0a
cd
e9
15
17
03
f0
d9
fd
f6
43
0a
dc
e9
f4
e2
f1
08
1c
14
e3
0d
06
ed
f0
1a
0c
15
fa
f1
0c
f7
4a
1d
04
ec
db
e0
1a
f5
fc
e2
18
fb
19
06
18
f0
d4
04
13
ee
fb
09
f8
f4
01
27
04
fa
f7
fb
4e
0a
09
e1
f9
ef
fc
04
fa
17
15
fc
f5
f0
de
f4
0c
01
e4
f3
07
0b
ee
06
ec
f6
13
f9
e0
f7
fe
f8
e4
f9
11
15
e1
ff
03
f2
e9
eb
fd
fe
df
08
1f
fb
12
cd
e4
fb
48
f7
e7
f5
01
df
3d
0a
e1
f9
13
04
e3
fa
13
fb
f1
10
05
e4
0c
3d
28
ef
00
f8
e6
03
e7
c7
ea
f0
08
35
f3
be
03
fa
e1
07
12
30
fe
e5
f8
db
0e
02
ff
12
e3
08
ec
de
fb
0b
f9
12
ec
e0
1b
f8
fe
32
02
0e
03
f1
f8
fb
fd
04
14
00
fd
e6
16
04
05
0c
0d
f0
f0
fe
f5
d4
18
f6
09
e1
dc
d7
dd
e7
ff
fe
e0
e5
ce
d6
03
31
04
c7
17
07
0d
06
f5
10
e1
f8
1a
16
eb
1f
09
0a
d3
05
2d
0f
ef
0f
1f
f8
2f
e7
08
d4
1b
ed
e8
fb
dc
11
eb
2e
04
f6
ed
f3
e7
f0
d8
ff
31
01
10
23
2e
dc
dd
f6
de
de
02
34
04
df
f2
ed
fe
16
04
e5
ea
24
e3
09
03
23
10
ff
f0
dd
18
ee
11
f0
f7
f1
fd
f4
f7
f8
0b
00
40
ed
0e
de
e6
ec
ec
17
e9
08
e8
e4
d1
14
f7
0e
6b
f1
e5
f7
fa
0e
e4
03
09
f8
02
e9
11
0b
2d
dd
e0
f1
2f
ef
1f
09
e0
fa
33
0c
3c
06
09
f3
12
fb
07
17
ff
f6
00
de
fa
e7
16
d5
03
00
f8
d3
d2
e5
04
f1
ee
09
f4
eb
04
02
f9
d4
e3
28
f9
fd
e1
04
e7
0e
06
12
ee
f3
13
10
08
12
03
06
0a
e3
f9
e1
01
04
fb
f1
cc
fc
0a
13
f4
07
e7
de
f2
d3
17
ee
ee
fc
fd
02
f1
f8
0b
08
fd
00
fb
e9
f4
01
fd
18
11
03
3e
dc
0b
06
f5
e5
00
ff
f2
e8
e8
fa
03
0e
15
fc
2a
e4
00
09
24
06
fc
05
de
f0
cc
21
ea
f2
06
09
fe
e8
2f
0d
da
25
f4
f6
d8
f3
ff
06
eb
01
ec
fa
d2
f8
fc
29
00
dc
0e
03
e2
ed
03
e3
00
1f
10
fe
f7
e0
ed
f9
0f
08
f6
fe
e2
ec
ef
f0
06
07
ec
f6
19
f2
f3
f8
e5
f4
0a
d8
fa
f2
f6
f7
29
f3
ea
f5
bd
fc
f5
1c
05
1c
02
e9
eb
e7
2e
e8
df
0b
fd
03
fa
4c
21
e5
f7
01
3b
f9
e0
f8
fc
02
fe
fc
ed
f0
f4
e7
f7
20
ed
e2
21
e1
ee
27
08
e8
fa
e7
c6
13
0e
ed
fe
e3
f7
fd
20
e3
fb
27
f7
02
eb
ee
04
2e
05
00
08
fb
f8
eb
f9
01
11
e6
f9
05
ee
e3
08
e8
f1
df
f5
2a
10
1a
10
0f
f9
f7
ea
08
e9
dc
e8
06
f8
13
3c
ee
ee
27
f0
02
03
e3
00
02
10
f5
4c
e0
04
eb
f4
f3
ee
fc
12
1a
13
fb
e5
06
06
fe
00
04
3c
e7
07
ea
fc
03
d4
5a
e1
05
e9
ef
fd
0e
ed
f3
f1
01
f7
e6
18
0a
13
1c
d8
f4
f2
f1
e0
02
04
07
00
f1
ff
f3
07
f8
eb
14
fd
0b
ee
07
08
e0
00
f4
0b
00
db
ec
f1
22
3a
d3
f5
e4
08
04
f9
df
ef
f7
fd
f8
ec
f1
cb
fb
e3
f9
fb
f0
19
da
03
dc
ea
d8
e0
f5
db
01
f4
05
ff
02
e0
d2
01
08
e9
e0
04
e2
da
e1
12
00
fd
f0
df
e2
0a
f6
dc
e7
04
e8
ed
1a
f5
07
25
04
e4
17
f2
f3
00
fe
fa
d9
0f
16
ef
11
fa
ea
ed
06
ee
d3
12
17
28
e2
14
ff
02
f2
2e
fc
fb
fb
f6
db
22
02
c0
f2
09
e9
32
f7
f2
f2
ec
f7
f5
c4
3d
e6
29
e9
20
01
07
10
f8
0a
20
eb
f3
e8
20
f0
dd
32
ed
35
37
20
f9
f5
fe
ea
14
ec
29
0b
fb
f4
31
10
f0
27
f9
07
03
e6
09
eb
ec
1a
ff
f0
05
05
e2
f6
f4
ee
f5
fe
f9
f5
fc
2d
00
f1
fd
f8
40
d3
ea
03
e8
f8
30
06
f0
f8
f9
03
18
dc
0b
f2
27
e1
ef
e5
05
f6
1e
0c
f1
e3
1b
0c
e1
ea
f1
1e
fc
f3
da
e9
eb
d5
0d
00
f2
ed
f3
ff
05
ec
0e
06
e9
d0
eb
fb
bb
24
10
12
e1
fd
09
f1
df
f6
02
fa
f0
fa
f8
fc
ff
23
ed
e9
e1
e7
01
de
ed
fd
54
e4
20
e4
2a
fe
d8
fb
03
dc
fe
09
f5
01
28
ee
e5
ec
d2
ff
0e
db
f7
e5
01
e6
e7
f2
07
00
d6
05
05
fe
df
00
f3
ed
06
d2
04
05
f7
0e
e8
29
f2
de
15
f2
e4
0f
ff
f0
f5
0a
e1
15
ff
f9
e8
fe
e4
03
f7
f9
00
dc
07
e5
fa
17
e9
1c
ef
ee
03
e4
e5
f4
11
ee
f4
f0
e8
02
0b
16
1c
e4
0a
f0
0b
04
f3
ee
f3
03
e9
f3
ee
e8
f9
ff
1f
f9
09
ed
1e
41
0c
fa
ec
00
f6
12
f3
ff
0a
fa
f8
ea
0c
18
fe
f8
f9
1a
f4
e5
e4
e4
fd
f5
f2
ff
ee
00
2d
19
f1
02
ed
1c
e7
02
f8
d1
f4
f6
0f
20
03
f4
0b
e8
d5
1f
0f
19
f3
09
ec
14
1e
e1
fe
01
f6
f4
e7
4d
11
ed
20
09
00
02
ec
fe
e0
f6
0b
02
e6
f5
02
f8
11
00
e1
1e
15
01
f5
ed
09
0d
05
38
ff
f3
03
f6
f3
f3
d6
13
e7
f6
08
04
f3
ef
14
01
fd
f7
da
fb
f5
ec
55
12
10
f9
fe
e2
0a
eb
f3
12
09
fa
00
f1
e4
f0
ed
f9
ff
ef
02
fb
ee
2a
f2
ec
0a
03
10
ef
f1
04
ee
0e
0d
f5
f3
f0
db
f5
f3
f6
00
fa
f0
0c
dd
fd
e9
18
17
09
0b
1f
fd
24
f3
32
f4
df
fb
e9
da
0b
16
f3
eb
d0
d2
eb
f2
2c
f2
11
d7
06
09
05
0b
06
f1
da
0f
d7
e7
11
ec
06
b9
f4
da
fd
ef
14
f4
e0
f4
f4
f3
f3
2c
f8
0b
f2
15
f3
13
f4
f5
f5
fb
ff
c9
09
e5
0b
ef
00
08
e3
e7
f0
11
e4
f6
ed
08
08
06
f3
fa
fc
fa
00
f5
10
e5
ed
fa
f6
de
fe
08
f5
f3
f5
f2
ee
ff
f3
ed
e1
f5
09
0c
db
13
f8
f4
05
e1
f3
f5
08
34
f2
fc
00
e9
28
f8
0b
03
ea
cf
05
fe
dc
e2
e7
ec
f2
fb
de
ed
fd
fe
f8
ed
fb
f6
18
04
f7
09
ec
01
0f
f5
1a
06
ee
f6
ea
f2
08
ef
dc
07
e7
0a
09
f9
e5
f4
f3
00
f2
fa
fa
db
f5
f3
ea
21
e5
f1
ef
23
0a
14
f7
f0
df
ec
0a
fc
08
f7
0d
ee
fb
ee
da
f3
06
1c
01
0e
e1
fc
f4
f8
ee
e6
f5
f4
f2
10
14
11
da
f2
0d
29
fd
11
0a
fe
01
da
16
ee
fa
ed
0a
09
f4
02
fa
fc
e2
04
fe
f1
0b
08
f0
f8
0f
f5
fa
0f
eb
df
f5
17
00
e3
d9
ff
f1
f5
d8
05
ea
e1
26
06
de
e7
1d
f5
ec
e0
18
d9
08
0f
01
f7
0d
26
11
e0
dc
fe
ee
f3
ea
f4
ed
ee
00
02
fe
f1
eb
f5
06
d6
fb
02
fc
2a
dc
f1
fc
ef
f6
01
03
ef
fa
fa
05
07
1d
fc
15
fe
0b
e2
de
ff
f4
ff
f7
ee
f1
fd
04
f6
0f
f0
00
f3
fc
f4
05
f2
fc
e1
14
f2
fc
e6
20
03
de
f2
0d
eb
05
1f
e5
e6
f4
01
d9
fe
e0
f5
e8
fa
07
10
02
0a
0d
fd
01
ed
ea
e3
19
e1
e3
0e
e9
03
f9
f9
13
f0
df
00
fd
0f
0c
d9
00
f7
f7
ec
01
06
f8
fd
e3
43
f5
f2
19
ff
fb
e0
f9
11
0b
d2
f3
25
02
ed
fe
ef
03
05
09
06
13
1d
ec
04
06
0f
f0
05
e4
e9
ff
e5
03
fb
f9
06
0f
ff
0b
ef
f5
db
2e
f9
ef
1c
07
27
10
ff
14
f0
fd
d1
10
08
20
da
e8
f2
fd
ff
f6
18
f1
eb
29
e0
dc
02
06
00
f2
0f
fa
4b
f9
fa
f4
00
01
fe
fe
f2
f9
f8
27
eb
f0
05
ee
d5
f4
ff
ec
0a
e5
1f
e5
f4
0d
0b
f5
ea
f4
02
00
09
f8
fa
1b
09
f1
ea
1d
11
f9
01
e9
fd
f7
fc
0c
11
05
19
d3
f9
ff
e2
15
04
f5
13
00
ef
d2
f0
d8
e3
ff
df
f8
e5
e7
f1
02
e4
f0
1b
fb
f5
ea
e7
f5
f6
f4
ff
10
f6
09
e8
00
f5
e6
fe
fd
fb
f8
0c
fa
20
20
e1
0a
13
05
04
d4
ef
fd
ec
ef
e9
f6
fa
ea
e9
0a
14
00
0b
2d
cf
fe
1d
f5
e6
0e
f8
ff
e7
00
08
f5
08
f9
1d
e9
ee
d0
f9
0a
09
e1
e9
e6
04
fb
e8
0d
f6
0e
e3
0c
12
07
f0
f0
12
24
ee
07
f2
f4
30
d6
e5
f5
fa
30
df
11
ee
1b
ec
fb
07
fd
fb
e9
ff
03
fe
dd
de
13
03
d8
07
fc
fb
ec
fa
da
0c
e4
02
fe
ec
f0
11
06
10
f0
f3
e6
f6
06
ff
da
fc
e7
05
02
e5
14
1a
f7
05
22
0c
0c
eb
f3
20
13
f4
ee
f9
f0
07
dc
f7
03
0a
10
f9
d9
f2
eb
13
dd
ff
2a
eb
ef
12
e8
19
fb
e7
f2
05
ca
ff
f2
09
f3
ed
e8
02
12
f5
e1
f4
ef
f9
f3
d3
f2
01
f8
0f
04
00
05
69
e9
fb
ff
f3
f6
f5
08
0e
ea
23
06
e6
f5
07
fb
f2
02
f6
f0
e0
f0
f5
e0
09
f4
27
f4
e1
f1
05
17
27
ec
f8
f3
df
01
f7
f9
ea
2a
fc
23
fa
e6
e5
11
0e
ed
14
ee
fd
f3
de
0a
03
ec
f7
f7
e4
0a
ef
eb
f8
00
f4
ed
2e
fb
f7
ff
ff
f8
e2
06
ed
07
06
f2
0b
c5
f9
f0
d0
fd
ec
cd
ee
ef
ea
11
ea
02
d7
ea
f5
ec
ef
34
09
08
e4
03
05
2b
18
f3
06
f3
0d
0c
d4
02
14
3c
cb
f2
de
07
ca
e6
08
e7
0a
1a
f7
f3
f1
e7
4b
ee
0c
08
11
de
f6
00
fa
e7
04
ff
fa
da
eb
f5
df
f0
ea
fa
f9
11
f9
02
1a
04
e9
f2
0a
f5
f5
15
ef
ed
fb
fd
01
fa
ed
f1
f6
06
d5
ff
06
f7
09
04
0f
e6
12
e2
04
fe
fe
f9
09
f1
06
f6
01
09
15
f9
db
f1
e9
0d
04
06
fd
01
11
05
f8
0a
f0
dd
e7
01
06
f4
ea
12
fb
f5
d9
24
fb
f7
f2
f8
ff
08
e5
f2
f0
0e
dc
06
12
f6
f6
fd
11
e7
fd
d4
f9
f9
01
10
e9
e5
fd
e8
08
f5
f9
06
08
f0
02
eb
f9
07
ff
f9
f1
01
11
ff
e7
1c
0e
16
35
1d
fc
f4
1a
d8
02
1c
20
02
19
06
df
e6
d7
28
ed
15
48
0a
f3
06
f2
ec
09
f5
ee
10
eb
00
ee
f1
0f
ed
05
e8
f3
df
ff
e9
fb
f4
fb
ed
fc
0d
fc
0c
fc
dc
0a
21
ed
0f
14
f5
e3
f3
eb
fd
0a
04
d8
06
f1
f8
ee
ff
f1
f0
ec
02
d4
ea
e8
09
f1
1a
01
02
fd
04
24
00
f4
f5
ec
0c
01
04
12
1a
e6
d3
da
fa
f5
10
08
0b
eb
fa
f4
fd
03
fe
1a
f8
1c
15
ee
f8
e5
ec
e3
f3
0d
0b
09
10
f3
fc
ea
ea
01
f3
e7
d2
05
f7
ea
e6
eb
ec
fc
11
e0
f7
0d
f6
04
fb
f1
02
0c
d5
28
37
fa
04
12
01
eb
fb
f6
fd
e9
e4
fb
fe
02
f2
18
e4
0e
1a
04
fc
05
11
ef
fb
06
fb
e8
0a
fe
0d
07
08
fb
1d
fc
13
ed
e1
05
dc
2b
df
e8
08
f8
08
fa
f4
13
10
ee
e8
fb
13
07
07
fe
e6
14
e4
07
f4
f7
10
0c
f1
0d
e9
03
22
e6
06
f7
10
0d
ef
11
fa
0d
05
f4
e0
f4
04
f3
f7
db
f9
ea
01
06
e4
f6
f2
dc
fd
ef
f2
fa
0b
f8
fe
31
f8
03
04
0d
01
f0
ea
05
f6
e9
19
10
f2
f0
fb
00
f3
fa
f0
0f
f7
fc
ef
24
e6
10
f5
c7
fa
fd
17
fc
0c
fe
f9
e2
dc
eb
06
fb
fd
f5
fa
03
05
15
f0
07
fd
12
0b
f6
05
f9
fb
e7
ff
fb
f5
e7
0a
dd
04
f8
dd
10
f2
f3
09
e2
fa
e6
06
11
1f
0b
f8
ea
ff
21
f3
10
f4
2f
f8
ff
ea
26
d5
04
f1
ee
fe
fe
e6
05
fe
f2
f0
18
ed
ff
21
e6
f6
e8
05
00
fd
ea
f5
e6
ea
f6
10
15
ec
e8
de
e2
e5
fa
de
f8
fb
e3
f5
18
e7
f4
d5
fa
fa
10
fd
ea
cb
f0
0f
f6
09
fe
03
f5
06
d9
00
00
f3
1e
2b
fc
fe
f9
0b
ef
07
1e
de
06
fc
38
fb
fb
fb
df
02
e9
ef
f1
e7
f8
f4
fe
e9
c8
f2
d3
10
f3
05
04
04
ee
fa
e6
fa
f2
e8
fa
07
07
ce
08
16
e8
fa
ed
f8
06
14
10
f7
ed
18
e4
e8
f0
e7
05
fb
f6
e8
e4
df
f9
08
0a
f6
fe
02
01
0d
fb
0d
f3
05
f0
e2
e4
0a
fd
01
fb
0e
10
f2
fd
f5
f9
ef
f0
e3
11
06
fc
d7
07
ea
f3
f6
fb
07
fd
15
0c
fb
e5
f0
e3
ed
00
da
09
ee
e9
f9
e9
07
0b
0c
ce
de
fa
fc
0c
f6
e8
0d
06
ed
01
f7
05
08
f1
f5
f7
f0
1b
da
37
ff
ea
f4
0a
f7
f5
f1
36
f4
05
02
08
f3
ef
e5
fd
f8
02
f8
1d
1e
fc
f2
0f
e3
09
fb
fb
e6
ee
f1
f2
e2
01
f5
f9
f8
f6
f7
f5
12
04
f3
23
f1
ec
38
05
12
ee
16
e3
ed
e2
f3
f8
10
f0
03
fe
01
05
0a
fa
0f
f3
01
ea
f1
01
fe
06
ef
0c
03
db
07
f4
f7
eb
fc
eb
dc
f2
0b
02
f3
0a
0a
e3
0c
f8
d8
d3
de
20
e3
0b
0a
fe
18
06
f0
fe
f9
e6
dd
de
e0
f6
f5
06
e4
f5
ea
09
04
f7
d7
00
f7
eb
10
03
26
fa
e5
ff
01
fe
f9
05
0f
f5
f2
1a
e4
09
00
ee
ed
fb
0d
ec
11
07
09
f7
ff
e0
13
f0
02
ec
0e
ed
f2
06
f6
1e
1e
ff
de
f5
f2
f8
1c
d9
f0
f9
06
0c
df
ef
f2
03
f4
f3
ff
f9
fb
f7
f8
fb
ea
fd
e3
0f
08
f5
15
d0
f6
f9
de
06
d7
21
ec
f7
f9
e4
d3
e0
e8
04
f1
02
04
d6
cc
e0
fd
08
f0
0a
f1
06
f3
1f
f0
e5
ed
ea
eb
20
ee
fb
02
02
e9
ee
f0
fe
02
02
04
f1
ed
be
f9
2a
fc
04
f4
f0
13
e6
f6
10
15
ed
f9
0e
0f
fd
fb
04
fc
f6
fb
16
07
ff
f9
0a
df
06
f3
08
0f
1f
1c
03
0a
09
07
f4
00
fc
20
07
11
ea
f0
11
1c
df
fb
25
e6
07
12
e5
14
f0
f2
f4
f5
f3
fc
f0
f5
f7
0b
28
f9
f1
f4
f5
fb
00
f5
fd
2d
15
f9
d7
f2
f6
1d
dd
0e
f1
12
fa
e7
f6
e7
09
ff
f5
fe
11
01
eb
fc
ed
2f
ef
fa
09
01
f8
02
f6
d0
f4
ff
ff
10
11
12
f2
ff
f5
f2
f7
ea
11
fd
f8
db
fb
0c
f6
fc
ec
03
e7
ed
f0
14
f3
ed
fc
0d
14
ec
fe
eb
ee
11
02
cf
e9
f8
f7
fd
fe
e3
0b
d3
fc
09
00
fb
20
f8
f0
f9
ef
20
0a
f0
0a
e0
f8
eb
ef
ed
e5
fd
ea
f4
0b
da
f2
1a
e7
f3
fb
f2
fc
f0
cf
eb
fb
e5
ef
27
f4
18
ef
ec
15
ee
01
ea
fc
0c
ef
09
0b
e1
0b
f3
0d
ea
f3
ea
e9
f1
dd
fc
de
eb
f4
f0
05
fb
f5
0f
f0
f4
08
fe
01
fd
09
fb
01
f4
00
fc
ff
11
f6
f2
07
ef
04
12
ee
d2
e7
e0
15
00
f4
29
ef
e2
21
fe
f6
f2
08
e6
f3
f8
f7
f7
19
f1
fa
05
25
e2
fc
fc
e2
f5
f4
e1
4d
f7
f3
0b
f3
e8
36
fd
f2
03
e5
fa
01
28
ed
f7
f3
ef
ea
f1
f2
f5
06
06
0e
05
00
f5
fa
f7
13
f1
0e
f6
f9
01
f0
ff
f2
f6
06
f5
e3
f4
f3
ef
00
f4
ee
f8
fb
ec
ef
2d
f8
f7
e8
ea
f3
00
06
06
f5
f3
f6
06
ee
16
f6
1f
f3
0d
ed
e9
19
4c
37
e8
fa
f8
e9
f5
18
f1
10
ed
10
07
eb
f9
ff
ec
fa
f9
f6
ee
ef
10
ec
00
02
fc
ec
04
f5
1b
f3
f2
ed
fc
f2
fd
f2
01
0c
e7
e8
f5
3c
f0
e4
ea
ec
0c
2d
f6
fd
f0
fe
dd
fe
e7
07
f3
00
fd
e1
ee
f4
05
09
ff
00
01
f7
ec
e3
2a
ef
f7
ef
f0
fd
f5
e3
f9
ea
14
f3
04
e6
e9
14
fe
2c
fe
01
ef
e5
01
e1
f0
61
0d
f0
01
03
f1
13
22
ef
f6
f2
f5
1c
fe
19
f6
f4
ed
f8
dc
f9
03
fb
3e
ee
ed
f4
04
01
fc
f6
f0
f5
ed
0d
f3
cb
fd
ff
f2
00
04
fb
01
f3
ee
fe
17
dc
e7
fb
12
64
03
f4
f3
e5
07
ee
e9
03
0a
e7
fb
f6
e3
f0
fa
e8
0a
ec
f2
f4
e5
e9
0e
e8
06
f7
d8
f5
3c
f0
01
0f
fc
0b
f0
fb
ea
e5
09
f9
1f
fe
fd
34
fa
f1
fb
dd
f2
f7
ef
1e
f2
ef
04
e3
ff
fb
f0
ec
00
ef
ed
0a
e8
de
f6
fb
e8
38
0f
fb
f6
0a
f5
f7
f2
fd
f4
e7
fb
ec
07
03
e8
2c
01
e9
f4
f0
fd
03
f6
f0
eb
e3
e5
05
f0
08
e8
f0
fd
e7
f4
de
04
e4
05
f4
ff
06
ef
f8
f3
f2
f4
f2
03
f3
e6
06
10
07
e1
fc
f3
e9
fc
f4
fa
f8
13
04
f0
fa
f0
08
0b
f4
eb
f8
ec
f1
f4
e3
07
f1
06
d7
f3
f3
f6
f1
f6
f0
f0
d9
f8
fd
15
ff
f6
23
fd
eb
f6
fc
f7
f8
05
ef
fb
e9
fb
fc
04
02
f7
f1
e9
0a
e7
f1
fd
19
e4
f0
e6
38
fa
d7
ee
f6
ff
f1
f7
eb
10
f6
ed
00
f2
f7
f9
eb
e4
f3
f2
e5
fc
2e
f2
ef
fb
11
f1
33
36
f5
f5
00
eb
01
08
fe
10
ef
05
06
03
f0
de
f3
15
34
01
f5
f1
f4
f3
fa
f6
f9
ee
ef
f7
ef
e9
ff
fb
f0
0e
eb
0a
14
f3
ea
1a
ed
f3
eb
ee
49
f2
07
fc
ed
ec
fc
12
ff
f9
ef
f6
e4
f3
e8
10
fc
55
ff
ef
f7
eb
f6
1c
e6
07
ed
0f
ea
04
06
0a
08
f0
f9
02
23
12
e9
f8
f1
f4
f7
00
fd
fc
eb
f4
f3
ea
d5
eb
fd
f6
f8
30
ee
f1
ea
f2
58
f5
e9
f1
0a
f9
09
05
f9
f5
01
0b
e9
f1
eb
3c
f8
00
f0
f4
fb
fc
09
55
fa
f1
df
e4
fd
f6
12
e9
03
ed
f5
fb
f7
02
f2
f1
eb
69
ff
f2
09
eb
e7
ef
f6
f1
fe
dd
fe
ec
ea
f8
f7
f9
00
f7
f4
f8
f1
e2
e9
ec
fb
fb
f2
f0
03
fc
d4
eb
09
f4
e1
ed
01
02
f0
f9
e9
ee
eb
f7
2c
14
ff
fe
fe
2d
d7
fe
ef
f7
f2
f8
08
eb
e1
03
09
30
f3
f6
f5
fd
f6
07
eb
fd
0b
f9
f3
ec
f9
f1
f1
f4
f6
03
0e
f3
fa
f9
e9
1d
f0
ef
09
01
f9
fc
fd
fd
f1
f9
e8
f0
e6
f8
19
0f
ec
f2
1d
e6
ee
f0
f9
f9
15
fc
2c
0a
f3
f0
ef
fc
fa
fc
f7
f4
f2
ee
ff
5f
fc
fb
f6
f3
18
f3
17
f7
fb
fa
ef
fa
02
f3
0c
e7
f3
fd
16
ed
f0
fb
fa
f7
01
13
19
00
f3
f6
f0
e5
f5
fc
2f
f7
71
f4
fa
e7
ee
fe
ee
fb
21
e2
f6
e6
f6
e8
e9
f4
fb
e5
00
55
f3
f0
f1
ef
f0
f0
00
f8
00
f3
f7
f2
f0
08
f3
f5
fb
d0
f7
f6
ec
df
65
ee
e9
ee
00
fd
01
fc
ea
fa
ff
f9
f5
f0
f9
05
f7
04
e7
f7
f9
f4
05
fd
e3
09
f7
25
03
ea
0b
ff
f9
d1
e8
f4
f6
02
f8
ff
ff
12
f6
fd
01
fc
eb
03
e9
ef
e1
3e
e8
f6
e6
e1
fb
f5
eb
e7
2f
10
f3
19
f4
ed
59
f7
f2
0f
eb
ee
f3
f9
e6
e8
eb
ec
f4
fa
f6
07
eb
e7
fe
f5
2b
f3
f3
e4
05
f7
50
f8
e9
02
e1
15
eb
07
f8
e6
ef
05
ef
fd
4e
01
e3
f6
f8
f5
e6
09
fe
f9
fc
f6
03
f7
f2
f3
e4
ec
18
ef
e7
f6
f8
eb
d6
ef
f9
0a
eb
e6
e9
e8
fa
eb
f8
f6
e1
16
f6
0b
fc
e8
ec
f0
f3
f3
f3
03
e0
07
13
f8
fb
ea
fe
37
fe
2f
20
fb
f9
eb
02
f6
f6
04
f7
ef
0e
ff
fb
e7
06
0f
f5
04
30
00
f0
df
ef
f7
f8
f1
f8
f5
f1
ec
06
fd
f6
05
e7
4a
55
06
08
fe
e0
fa
e8
f8
fd
fe
06
f2
f0
dd
f0
ef
e9
09
ec
02
eb
df
f2
f8
0e
f2
e9
de
f6
e5
53
0b
f0
f0
fb
ef
e7
47
f2
e7
f4
dd
04
f2
f3
f4
e4
f5
f1
2c
f8
e4
f5
2e
2e
f6
f8
f1
09
08
ec
05
f9
ed
f5
60
00
02
ee
0e
00
f3
ff
f1
04
f1
0b
17
f8
f9
e2
ee
f1
ff
e8
ef
ef
00
07
2e
79
18
f2
11
f9
f8
ff
26
f3
ff
e6
04
04
10
f0
1c
e9
fe
02
6e
f4
fb
dd
fe
f5
01
d6
ef
fd
fb
e4
f5
f7
0b
f9
e4
f7
f8
f2
fb
f9
e0
fa
f1
f0
ef
e5
0e
e9
f1
f1
f3
08
f7
e4
f4
fa
ef
00
cf
0c
00
f9
11
28
dc
01
18
ee
08
fe
fa
09
09
ee
f0
fe
e0
ee
00
07
f3
18
05
08
f8
0a
1a
0f
ed
f7
12
02
02
f2
08
da
0a
e6
d2
00
13
fe
b1
1b
f7
f1
03
e7
04
02
0f
3b
04
20
fd
ed
04
ee
1b
fb
ef
06
0a
03
fb
29
2d
f4
fe
ee
fc
f4
f1
de
f1
f4
f1
18
f6
02
d8
fc
f4
e1
20
03
02
e9
05
08
12
f2
fe
01
0a
f0
f6
3f
d6
e2
f0
f8
f4
0a
cf
02
ff
ed
03
f1
f7
11
1f
08
f5
06
29
13
0e
ff
f2
ea
26
0b
0b
e9
0f
f3
14
03
ef
0d
02
01
f0
ed
07
ef
ea
ff
ff
e0
fe
d4
f2
ee
f1
fc
f6
fd
f7
20
fc
10
f0
0e
ed
f5
08
fd
04
f5
ed
fd
ed
f3
fb
0d
1c
07
03
15
c8
db
fc
fb
f9
e3
00
e5
0e
f8
13
f7
00
0d
03
27
df
f1
e7
fd
03
08
fa
f0
f6
db
fe
eb
00
f0
e8
ff
20
fe
0c
f8
10
0f
08
17
00
0e
ff
0d
f3
08
fd
fc
ec
27
f5
de
e5
01
e0
ec
08
fc
0b
f2
e8
08
2d
0c
fb
ef
cc
18
0b
d5
02
11
25
0c
f8
c3
11
ff
fa
fb
0b
f5
04
fb
e7
e6
f5
fe
f0
02
fb
a4
11
f2
03
f3
0a
fd
fb
dd
07
f3
0a
0d
fb
f5
fc
05
fd
3b
41
d9
00
05
e6
fd
0e
13
0f
f4
fd
fb
fe
06
f3
fd
fe
fb
e7
f7
fc
0d
01
03
f6
10
fb
05
04
e9
02
e2
e8
f9
ed
f1
06
ed
de
eb
fa
d9
e0
e5
09
fb
f7
01
fd
14
e5
e1
13
05
06
12
f2
f3
ef
09
14
eb
e6
fe
e8
df
0e
06
ec
ef
e4
05
ff
fe
1d
f6
09
df
e7
fb
03
fa
fd
0b
06
e6
0c
ea
ec
1c
00
ee
e8
e7
eb
f0
f6
ec
08
0d
10
15
fd
04
0b
e4
0e
00
22
03
0a
ec
fb
09
ff
12
ff
0e
25
01
f2
f3
03
28
d6
f7
fd
14
f9
f9
0a
0a
d4
00
eb
11
e6
02
06
18
e4
de
ed
08
fb
f6
f1
f2
f0
f0
14
19
d9
0a
f3
2c
fe
f7
10
18
ea
f8
e6
fa
cd
e9
f8
fa
e2
04
06
e2
fe
01
09
08
3a
20
05
07
ef
fc
ef
00
f6
2f
e7
eb
13
18
14
f6
ed
14
ee
e2
06
21
c2
dc
f8
eb
19
0a
fe
05
e9
e9
f1
01
ed
0e
fa
0f
f1
f7
f0
08
01
f2
07
f6
eb
e9
fe
fa
fb
d9
f4
f8
f2
d1
a9
ef
f4
ef
ef
f0
d3
f1
10
15
fc
1a
03
05
ff
01
dd
08
01
eb
ee
f7
13
03
f1
fd
e9
f2
09
00
ff
ea
0d
f6
f1
56
11
06
f3
09
fa
1b
22
15
1c
0d
ff
fb
fe
00
f0
06
15
d6
ff
03
05
f2
db
f2
f5
f7
06
f5
f2
0d
25
f7
09
f6
17
07
de
03
f2
0d
f3
fb
fe
05
0a
e3
ff
f4
fa
e7
e0
00
fd
1b
10
fd
02
ee
fd
fe
fc
f2
f4
19
1a
05
0c
fd
0f
15
16
03
02
0a
f0
15
03
fb
fb
03
02
fe
07
ff
02
fc
ff
1a
ee
06
06
f7
07
00
09
25
00
ef
0b
ff
e4
31
f2
1e
f5
f1
25
f9
fb
12
fa
00
f1
cf
03
1f
e9
fd
ea
2e
f9
f8
f0
37
ed
ec
f2
fd
fe
ec
05
26
f3
00
0c
0b
ee
fe
df
fa
fc
03
f2
e9
f8
e3
02
e9
f9
fd
f7
e7
01
01
f2
f4
09
f4
fb
f0
f9
ec
e9
1b
fe
e8
fa
ee
ed
0f
0c
fd
fb
e4
e7
cb
09
f5
2b
0a
fc
ec
04
0a
fa
15
06
37
fa
15
ea
03
ed
df
fe
e9
ed
fe
e4
03
11
f1
00
0e
e3
17
fb
17
ec
fd
fe
fa
fb
01
fb
18
fe
11
e8
f1
ec
29
e2
19
03
e2
ce
e1
f8
5a
17
ff
fb
e9
06
f2
22
fa
07
f6
fc
04
0b
f6
01
08
12
fd
fc
ff
18
e1
03
e5
f8
0f
1b
10
12
09
f6
19
11
05
df
05
e8
ff
f8
0a
ef
e7
0d
02
fe
16
00
f3
46
ea
03
14
20
02
17
f3
f4
ef
f2
ec
26
e0
00
f3
18
08
11
ee
0c
f7
e4
ee
fc
f9
03
f6
f3
f4
f8
f5
ed
05
13
1a
f9
01
e4
f0
f4
f5
e1
10
c5
e4
e7
ff
0a
e3
01
f9
04
fc
11
e5
0d
26
fe
07
e9
07
02
0d
03
ff
00
f4
1f
f8
24
13
2f
05
fc
f0
e9
f4
ef
fa
f4
f6
e7
02
f4
e3
0f
f4
f7
fc
e1
ff
ec
f9
f6
d1
01
f3
1d
07
f1
f5
01
0a
03
13
fe
03
f4
06
07
ee
e3
25
fb
fc
2f
f0
fa
1c
f1
dc
ef
0f
f0
f6
05
10
e8
01
0b
58
e8
18
fa
07
f0
f7
e6
fc
f1
05
02
ef
1b
18
d3
0c
1c
01
f7
fd
f1
24
f1
e9
04
03
f5
f4
cc
ea
fd
01
ed
fa
ed
0b
22
f5
fd
f5
e9
e3
ec
08
f9
eb
db
06
e8
fe
01
f8
f2
fb
02
3b
0e
23
27
04
e5
f5
07
dc
fc
eb
01
e4
00
09
f8
e5
fa
0c
07
ec
09
e3
f0
10
f1
f7
e6
fe
02
f8
ec
f6
fd
08
d6
06
eb
df
01
f8
05
0a
0e
ed
ec
fb
39
0e
d8
ee
ea
f4
1c
ef
dd
f4
ea
f6
f9
e5
0c
1a
1d
eb
f8
f5
f9
f6
04
fd
dc
12
fd
e7
00
eb
06
ec
f6
e9
14
1a
06
ed
f0
07
f3
f0
e2
10
fd
f0
09
fb
fe
09
d2
f8
f1
01
f9
ea
f4
2b
0a
f3
ee
0d
f0
04
14
f9
f6
00
28
04
f5
07
15
e4
ec
18
eb
05
26
eb
f0
04
e5
02
f6
f6
fd
fb
15
3e
f8
e7
e7
f1
e6
ee
f2
2e
f9
04
20
f5
ea
e3
28
e3
f4
f7
e3
e7
ed
05
ea
06
01
e6
07
e8
08
f0
24
f7
10
f6
ec
24
44
f5
e6
f6
de
02
05
f1
fd
10
fd
03
19
e2
04
e4
ea
e8
f5
ef
29
00
e4
17
fd
3c
06
f9
f8
f9
04
fd
ec
f0
fd
eb
f0
0b
e6
0b
e7
09
f7
f0
fe
f0
fa
ee
e2
04
0b
f8
f2
f7
2a
fe
17
12
fe
11
f0
0e
26
0b
dc
11
e8
e4
0c
1a
e7
00
35
f8
0b
ee
f2
fc
e8
ef
09
ef
0a
dc
ec
f1
e6
f2
ed
f5
f8
ef
f8
44
fc
88
f2
21
ee
f5
e8
33
ec
1b
03
ec
e7
07
f5
e3
e4
f9
ff
0a
f2
09
0c
fa
ee
60
3f
ff
ea
03
02
fc
f0
f3
2d
02
04
39
f2
40
dc
ff
01
f2
f0
08
f6
e4
14
ea
f8
ca
ff
00
1f
07
12
ff
e5
0b
e1
e1
0d
0a
f7
ea
0f
fa
26
f5
3a
fd
f8
06
2c
e3
fd
e0
e9
63
e8
df
e9
02
11
05
11
0e
0d
f6
f5
00
e8
f6
05
ee
14
f5
0a
ff
f9
fc
fd
ee
3c
05
f8
24
05
e7
00
ed
12
d3
e8
40
f3
fb
d3
f2
fa
36
f3
f7
10
e7
0c
fb
f8
e1
e8
ef
18
02
3f
ee
f9
01
db
e0
f3
29
f2
15
e7
0a
e9
fb
f7
e7
09
ef
11
fa
eb
f1
fd
23
f4
fd
0d
dd
05
f4
e3
21
f1
fe
ee
15
13
02
26
fa
e3
29
0a
17
fa
d8
06
0b
d6
f1
f0
09
f2
0b
05
e6
cf
f3
3c
f3
fb
dc
08
eb
fb
f4
f1
00
09
f8
03
f9
e7
ea
da
0b
1e
ee
fe
fa
e7
3c
f8
00
0a
f6
0d
eb
e3
f4
10
f7
f2
fb
05
e6
f5
17
d2
dd
0b
12
ee
05
ee
ea
0f
47
e2
d3
f2
06
fc
f1
e1
f9
f0
fd
13
c8
e4
f4
66
e5
02
e4
0b
02
0d
f0
e0
03
2a
3b
f5
06
06
3f
03
3b
f3
15
09
01
16
31
d9
03
f8
f5
fa
1f
f4
06
ef
f1
08
f7
26
f2
08
03
ff
0f
ec
f1
39
de
04
30
0e
e8
f8
fb
f3
0e
f8
60
00
05
ee
eb
e9
26
08
07
e9
fe
2a
e2
fe
06
11
f3
f6
ed
ec
1f
e9
eb
31
f4
0e
06
ed
d8
26
11
fb
12
13
05
da
ee
12
f1
1f
fa
11
e6
f5
1f
f0
ea
24
62
01
e6
01
fa
0a
fa
32
fe
f4
fa
eb
d1
f4
36
16
fc
f3
06
05
fc
f0
fb
ea
f2
fa
c8
fa
ed
fd
00
fc
e0
e2
fd
f5
01
da
02
1e
e5
39
e6
de
eb
e8
f1
f9
e2
f8
f1
fe
fa
06
05
e1
e4
e2
ea
eb
f7
fc
01
10
fc
19
f8
0c
0c
f3
dd
e2
ef
f7
32
eb
f8
f1
09
ff
15
03
3d
10
fb
da
fe
dd
e8
11
fc
09
fa
e9
42
fa
f5
f4
f0
fb
f4
ec
e9
ea
fd
05
f9
f8
05
00
c1
03
e7
f3
23
22
fc
15
f9
f0
fe
f5
e9
1e
da
ff
f1
02
39
0b
d9
fa
fb
ed
ec
00
2a
00
e7
e4
35
0e
ed
01
fb
f7
4d
d8
ef
e0
ed
cb
ee
d9
db
e7
fb
ff
f8
10
f6
07
0a
f8
33
a8
f1
ee
f8
e8
f1
ed
eb
0b
00
f4
41
e8
f9
f3
09
f0
10
2e
e9
0b
e8
f3
e4
f4
02
e9
e2
f9
34
10
ec
f6
23
05
e0
14
f6
08
e2
f6
0b
08
e0
06
58
e9
e4
1c
02
0f
2e
e4
f2
e8
1b
dc
eb
fd
da
e8
f7
ec
f1
07
ec
08
e1
f3
ee
06
f5
f4
f6
07
f9
f0
fe
f2
05
10
07
ec
04
d5
05
ee
e9
fc
18
fc
3d
2e
1c
f4
e1
eb
e1
f9
17
e2
e8
d7
ee
ef
eb
f9
f6
e5
f1
e6
00
07
ea
10
60
f7
2f
e6
fa
f1
23
e0
0b
0f
f4
01
07
f6
1d
df
09
12
f1
f2
dd
06
00
14
eb
ea
de
de
ed
f2
12
de
ed
4a
e5
fd
f9
fc
15
fa
f2
f0
1a
0c
fd
17
f3
06
06
1f
f4
e5
e3
0d
f1
58
ed
f7
f7
fb
06
06
03
f3
eb
36
e3
ff
33
f7
00
ea
f5
1c
f0
08
eb
e2
2b
42
11
fd
ef
ef
f5
f3
f7
ea
31
f9
f3
02
f4
fa
e3
0f
0a
18
e4
fe
07
26
e9
33
e5
f0
f7
fc
0b
ec
fc
e1
f8
d5
01
f4
1a
ce
ff
fe
ec
0f
fa
ec
0f
f7
eb
dc
f7
f5
02
f7
37
fb
fe
e4
f2
e9
eb
18
ff
fe
ef
fa
ef
02
f4
16
05
f0
12
fd
fb
d6
ef
eb
e7
e3
f6
dd
3b
f9
0a
08
f8
08
45
e9
e2
00
f5
eb
05
01
e4
14
fc
d9
0b
03
37
ed
ea
08
d6
12
e9
01
02
fc
e7
00
0b
fc
f7
e8
ee
e7
01
20
ed
db
f3
01
e5
de
fd
f8
dd
f9
f8
05
e4
e7
fe
09
ee
0b
f1
f6
e4
e0
c7
fb
2d
03
f6
15
0b
05
f0
ff
f1
f2
10
db
25
f2
fb
14
09
e1
f4
0c
fa
04
f6
13
f7
fd
f6
e8
23
11
f2
3d
f8
02
ed
f2
e8
fb
f8
0d
09
f6
e8
ee
fb
eb
4a
fc
21
23
04
f0
f5
e9
f8
15
1d
f1
67
ed
ee
f4
19
f4
09
0d
12
e9
ff
29
ef
da
f2
02
1b
db
f0
14
02
f0
f2
f1
f4
eb
1a
f2
f5
f9
da
17
ea
f2
fd
f5
09
0b
18
fd
fa
14
00
f8
f1
0b
16
f7
03
fb
fe
00
0f
15
00
e3
ff
f2
f0
e3
0b
f9
fd
07
28
f9
20
ec
09
d6
f1
f0
ff
ea
fd
11
1d
f5
d0
fa
e5
fb
db
eb
f9
e4
f1
f5
fd
ef
fe
0e
1d
0d
f5
f6
f0
f6
24
0f
02
fd
00
00
e2
dd
06
e6
24
04
eb
0c
05
18
df
fd
e8
d4
fb
18
10
0c
fb
dd
f4
ea
f3
fc
d6
ef
fe
04
f3
e9
fd
04
0e
ea
fd
ed
01
16
f4
f9
09
04
ce
d9
f8
f4
05
f8
07
fb
e7
f4
f9
f1
0a
0a
06
02
09
e1
fe
11
ea
f3
f0
f0
e7
08
02
ec
02
10
fe
f4
04
f4
03
ee
ee
ee
f4
0b
fb
11
fd
ec
f2
d7
df
ef
23
0e
fc
f0
f7
e9
16
0e
24
fd
06
f8
ed
06
fc
1e
ed
e3
e3
ed
ed
e1
ee
06
09
1f
ea
05
e9
22
f4
1b
db
e2
e8
00
04
0e
dc
04
ed
e5
08
02
05
e5
f6
e2
ee
e2
1a
ed
d2
eb
e6
00
06
f8
ef
1c
fb
ee
f6
18
08
ec
cf
cf
f2
03
ea
f6
0f
02
e4
fa
09
18
f7
11
1f
f8
20
fc
02
da
e7
04
18
07
f8
0b
f1
04
00
1d
fe
13
dd
12
f3
2b
07
fa
07
16
e0
f8
05
0d
28
f2
d6
fb
f5
e2
05
dd
01
0a
12
12
e9
37
1e
e7
fe
f0
0a
09
f4
03
21
09
06
ff
c2
09
00
f2
10
ef
02
1f
06
f9
0b
e6
19
00
e0
e4
d3
ec
25
03
cc
04
11
f2
04
f1
fb
ef
eb
ed
f1
da
fe
14
df
10
dd
0e
0b
07
02
1c
f8
ea
f3
16
e3
f0
04
eb
f9
06
f9
04
03
18
f9
f0
22
e1
ec
fe
dd
02
04
ef
34
fd
fc
f0
f8
03
e4
0c
fb
fa
f1
01
fe
17
26
0c
f2
de
f5
ef
fc
f5
f7
0a
f7
09
ff
00
f9
f1
21
09
0b
f0
0e
00
f8
f0
f9
f2
10
ee
e7
fc
0a
f2
fa
ed
fe
fb
10
de
19
26
0b
0a
07
05
fc
fb
09
03
fd
f8
19
e8
f1
11
14
f8
ff
ee
05
e0
06
05
d5
02
04
09
e8
e8
d8
00
1f
fc
dd
e9
07
ed
09
0f
12
f1
f6
f2
19
2b
17
09
f2
0d
f5
f4
00
f4
f3
ff
f0
fb
1b
ed
17
ea
fe
04
25
09
fe
de
f4
f5
f5
f7
ff
0d
01
f5
dc
fb
f8
0d
04
09
10
fb
0e
f6
ec
ec
01
f8
fd
ea
f4
e8
e9
06
12
f9
ff
e2
ef
fe
fa
ff
10
ea
eb
f9
00
0a
ed
ff
03
07
ed
ec
e9
00
e8
1c
26
fb
f0
fd
2e
0a
15
e3
fa
f5
f9
fa
08
f6
ee
f5
2d
03
ed
0f
f0
00
10
fb
fb
e9
e4
08
ef
ec
f1
ec
ce
fb
17
0a
04
fc
f8
e9
ea
fa
df
0a
0e
ed
f8
1f
cc
02
1a
04
1a
01
fa
23
16
06
01
17
cf
0c
00
f8
fa
1b
fc
0e
e5
01
10
ec
e3
fe
11
ee
ec
f5
ed
0d
01
e7
f8
ef
10
f9
dc
0f
ec
fd
f7
07
09
fe
e9
07
fa
0a
0d
fd
fd
ff
12
0e
f3
f8
11
ed
00
f3
15
fd
fd
06
05
f5
ff
fb
00
00
03
f5
09
fa
f9
f9
ea
fd
02
0e
ee
13
ff
fa
ec
0f
11
f4
f3
f3
17
f0
07
ef
f7
e4
fa
d8
10
06
ff
2a
05
13
0d
e7
01
e9
02
07
05
07
11
ec
f1
db
e8
f6
d8
db
ec
16
fa
f0
f6
12
12
0e
0f
ff
0b
cb
0a
0c
06
0a
08
da
fc
24
07
f0
08
fe
0e
00
cd
22
ed
ed
fc
02
f9
f5
0b
e1
22
09
d9
da
ff
fa
f3
10
15
ff
f8
1e
f8
f6
0c
0b
00
e7
fc
f2
08
f8
f3
06
3d
07
15
10
e7
01
0f
fa
e6
19
01
e1
0b
f4
11
0d
fb
c7
ef
1b
f5
0c
f4
ef
07
f8
e3
ea
ed
ec
03
ee
06
ff
07
f7
10
07
0f
dd
ff
1a
28
db
ff
db
1f
22
fd
dc
10
f8
27
f2
00
e7
00
f1
d4
08
0d
de
fd
eb
fa
ed
06
fd
f1
16
17
00
04
11
11
06
ef
e3
ef
04
f1
f3
07
eb
0d
e0
1e
e6
f1
e7
00
12
02
eb
d0
fc
19
fb
f5
f2
09
06
1f
10
f4
f0
f7
cf
f9
04
05
07
18
e4
01
e3
e9
fb
ef
f8
ec
e8
ea
fe
f9
ed
f2
f0
24
04
fd
e6
fb
f0
f3
f5
0c
1e
f2
f8
0f
fd
dc
00
e1
19
ff
de
c0
fe
13
11
e6
ee
09
fd
f0
da
f7
db
f8
ff
ee
fd
e3
08
f9
08
f0
ed
eb
07
f8
19
fb
f2
ee
05
d8
18
e8
f9
14
e0
05
02
ce
ec
d6
17
da
fc
ee
08
e9
fa
04
db
0a
27
f5
05
02
0b
f0
fb
f8
e6
17
fe
06
00
d7
f4
0d
08
00
bc
f1
f1
f7
ff
fa
03
e2
ef
0d
dd
f9
f6
ed
ef
ec
e4
f0
f7
01
ea
fb
f4
1d
05
01
e4
e7
e4
ea
f0
00
ee
f2
ff
fb
ef
15
f9
f3
d6
04
13
25
f5
e7
14
fc
fa
05
d2
f7
fa
19
07
f3
ef
15
09
ea
03
07
fb
f0
2a
ec
f6
e3
16
ee
fd
03
07
f3
f5
01
f5
f6
e2
1d
c2
05
fc
ee
02
00
06
f8
0c
05
f5
21
ea
f6
0a
05
0b
09
13
eb
df
ec
f8
ec
0d
ef
f3
35
0a
e6
eb
0e
31
0c
d1
04
f2
ec
00
f9
f9
fb
fc
01
06
1e
f3
fe
1c
ce
09
ff
2c
17
07
0e
19
f0
31
f3
f2
da
f4
f2
f0
e0
02
eb
0f
fe
e7
eb
f1
df
ef
df
0b
fc
eb
0b
05
04
e7
eb
fb
ec
ec
f9
e0
f1
ec
f0
0b
ef
dd
1c
04
e9
f7
01
eb
00
02
f2
e2
19
e1
ee
e2
02
20
01
1b
f5
ff
0d
fa
12
01
07
f9
db
06
e4
f4
fe
e7
fd
ec
fc
ea
f2
ff
00
02
fc
be
1d
12
f0
f3
ee
09
ea
c8
0a
f7
15
0e
f1
e3
e4
db
f8
06
f5
06
fc
0a
04
ff
05
de
e2
e6
ee
f6
e9
fb
db
ee
e3
fc
05
f4
f9
05
08
f4
ee
ea
e0
e0
0e
06
ed
f8
fc
1d
02
f2
0b
fd
14
f6
3e
ee
f3
ec
ff
df
28
fd
02
04
0a
eb
fe
0e
e8
05
fd
fc
e5
f3
05
fa
f6
e8
de
08
e4
f6
dd
ef
6b
f6
ee
f2
fd
fd
0a
03
07
ee
fe
f9
e8
f3
f1
f3
04
f1
15
f4
0b
23
2b
04
07
ef
e9
f0
06
fa
0a
1d
ed
f6
f4
f5
e4
0a
d6
09
ed
03
f9
f3
fd
f5
06
fe
da
fa
ef
f6
f0
f6
f5
21
37
0a
02
ec
05
ee
f6
f3
e6
0e
ef
e6
f0
e6
02
ee
f2
0c
03
03
1d
1b
f6
0a
dc
f4
00
da
18
fc
19
d2
f2
0f
f7
f8
ea
ed
1c
18
e9
24
fd
07
fd
04
2a
01
ee
fb
ed
df
04
0b
ee
eb
ec
18
ef
e4
e4
1d
32
ef
08
f7
e5
fd
e2
e2
ef
f1
f0
f9
fc
06
f3
02
1c
f8
0b
ee
07
f4
04
11
0a
09
27
09
e0
f5
e9
f8
e4
0a
ee
18
fe
20
0b
f0
eb
0b
ee
02
04
fc
f3
ed
e6
f7
07
09
14
13
11
ef
08
ee
07
00
fe
16
de
fc
ee
fe
10
ee
09
fb
f8
0d
fa
12
00
f7
f3
fd
03
08
19
08
de
ee
ef
00
f9
ef
db
fa
fa
ed
01
e9
09
fb
06
df
e3
f1
1f
f4
02
12
d9
d5
ff
24
f1
09
0c
e0
0f
f0
03
e6
f3
13
01
fa
f1
f0
d8
fe
55
fa
2d
08
00
f6
e8
f9
e5
f6
03
d0
0c
fc
e4
e5
f2
e4
ef
fc
08
2b
eb
17
ea
fe
01
ec
08
00
1d
e0
01
09
15
0e
ef
f9
f6
ec
12
f6
f4
1a
19
07
dd
e4
02
fc
44
fd
fa
ff
f8
f7
e7
f0
f6
00
f5
09
05
00
ff
ff
02
f7
f0
e1
e0
f0
21
fe
eb
fe
0a
0c
e0
1e
09
f0
f5
0b
fb
0c
00
08
fd
fe
e1
eb
0a
e9
0a
0d
fb
f5
ea
01
1a
04
e9
07
ee
f3
f4
0f
09
ff
00
0c
e7
fa
fe
f6
fb
27
14
2f
f3
0c
28
03
fc
21
13
20
0e
0e
05
f7
f2
0e
10
02
db
1e
15
f5
ef
05
fc
06
0b
0e
10
eb
ec
ea
e1
c8
e3
00
f5
ed
f8
0e
09
ea
0a
fc
1e
10
f4
d3
0b
df
d8
fb
fd
ee
36
02
05
06
1e
ff
0b
07
f1
0a
29
08
f6
08
0b
e6
07
e4
10
17
da
ea
e9
ee
13
1e
ec
03
27
f3
f6
02
11
0c
f7
f8
02
09
f5
f1
e0
ec
04
12
ed
fb
09
fd
ff
19
10
04
12
17
eb
ff
03
23
fd
ef
e4
fe
02
fb
13
fb
0d
dd
14
fe
08
e5
f3
18
05
fc
2d
f7
01
fb
12
1b
f1
e7
f6
10
f2
17
07
fe
0a
1c
04
07
f7
10
0b
fa
fd
03
e3
ef
0d
0a
f5
f0
14
0d
28
0e
ea
f1
f7
e2
35
f2
fc
e3
f7
ce
ea
00
07
f8
f3
ec
0f
0c
0c
ee
38
11
ee
11
e2
ec
ef
fa
f8
02
f4
f8
ed
bf
10
06
ee
fe
0e
d8
04
ef
f3
28
16
14
f7
05
15
fd
e8
f0
e2
ed
f8
db
f7
09
04
f8
48
00
0b
ea
e7
19
fa
f5
e8
0d
e1
f2
03
01
e6
f4
03
ea
eb
fb
f5
04
04
21
ea
d9
f1
e6
fa
ef
08
ed
12
1b
fb
ed
22
f9
f2
0c
fc
df
f1
25
f4
e7
03
f9
d5
e8
ea
23
e2
fa
ea
ef
eb
ff
fb
fa
01
1b
00
ed
14
f2
e7
06
2d
f2
e4
f6
41
e6
0b
f4
f0
f1
1a
ed
fd
e3
10
f8
ee
e7
fd
fb
18
ed
0c
f4
f6
03
18
e7
12
1a
13
f3
ef
06
02
03
fa
f1
e4
fd
00
33
ef
07
09
00
f9
e2
d9
f4
0b
f4
0e
ef
0d
33
ec
f6
d7
f9
ed
f3
f3
e0
16
e5
09
08
03
f2
0d
0c
eb
fa
ef
f6
e9
ef
f5
03
09
fc
f6
fe
de
e3
d8
19
ee
eb
02
f3
f2
16
ee
fe
ed
06
fb
ee
e6
f4
e6
0c
ff
f0
dd
f2
e8
f9
f0
33
ee
fe
25
16
e9
ff
12
01
e2
f5
1d
11
01
e9
09
26
f5
ff
ee
f1
0d
ff
f5
07
fe
f5
f4
d2
e5
f8
e8
10
fb
f1
df
f8
df
fd
0d
27
fa
16
fd
f3
17
ec
f2
e8
ff
0d
e2
ea
f9
0f
e5
e0
f3
13
1c
ec
0e
f1
f3
03
fc
ef
f3
07
10
0d
f3
fb
fd
fe
f6
0c
f5
cf
f7
06
06
13
fa
d9
fe
03
fd
f8
eb
fa
08
f9
f9
05
f0
e0
e9
01
17
df
ed
14
01
15
fd
fd
fd
e0
0e
14
10
04
12
fc
fa
f5
0d
1d
0d
e6
f5
f3
dc
ed
f7
10
f6
f2
12
e5
fe
e6
08
1e
e5
fc
08
19
e9
fd
09
06
fc
fb
eb
ec
ea
fd
f5
fb
f8
e4
e8
03
05
08
ff
0d
ed
da
f0
fa
e8
01
e2
e1
e5
f7
f4
f4
f7
ed
f2
ee
fb
02
f3
fc
f9
ed
f5
0c
07
f5
ef
21
ec
ec
0c
14
fb
08
ee
08
e4
eb
13
ec
ff
09
00
15
02
15
e8
d9
cf
dd
02
0d
fd
ee
02
fa
fe
fb
01
e2
d6
06
f7
0d
2b
f4
ff
f4
fd
f2
f7
e6
e7
f4
f4
fc
17
eb
eb
24
1e
f1
ef
f8
e1
08
01
0c
dd
f7
05
db
0c
f2
f2
e5
f6
f8
ea
f9
f3
f3
fb
00
f6
ec
1c
dd
eb
f5
ef
1d
03
e2
f8
ef
0d
e2
fc
f7
ed
fd
10
fe
09
f7
e0
06
04
04
fc
eb
f7
26
f5
0a
15
01
17
02
03
1c
e5
ec
e5
0e
21
e9
e7
ed
fa
06
ec
ea
0e
ea
0c
f7
07
e3
07
f7
ee
ea
f2
fb
e6
ed
f4
e8
04
fb
fa
e8
ec
f7
01
ee
db
e5
f8
02
fc
ff
e7
15
1c
fd
f3
fe
f6
14
03
ef
d4
f5
41
e6
f6
f6
ec
fd
0f
eb
e9
11
11
f3
1b
f9
e9
04
01
e9
ff
f3
fe
12
05
fb
eb
04
d7
f3
05
f3
f4
09
f4
fe
24
01
e5
f0
f7
fb
f5
07
18
00
00
08
ef
f1
15
f1
e4
e6
14
de
00
f8
d4
f9
cf
ff
00
f2
ef
ed
01
e6
07
04
04
fb
f5
01
09
f4
01
f6
d1
f9
ff
f2
fa
ef
c9
11
11
da
07
15
f6
12
16
14
fa
ed
ec
ec
f4
dd
ec
f5
f8
0f
fc
f9
f2
f7
02
f0
ea
e8
e4
fe
02
11
05
f3
06
f9
fc
f4
00
18
f1
10
f1
f8
f6
e3
f3
f3
1e
ed
fd
31
02
fd
e5
e3
f3
00
fb
04
01
f4
f4
fd
ec
f4
23
fb
f6
eb
0b
f0
ff
f4
d3
12
f4
ff
16
f3
da
ef
09
04
02
fb
e1
e2
01
08
03
12
f4
06
f2
1a
15
f5
fc
13
e9
f9
e9
f1
0f
ed
f7
08
fa
e2
0f
02
fa
09
0a
05
f5
ed
01
ee
06
01
fe
f4
f5
fe
f5
ea
f9
03
e8
f3
11
1d
f0
e8
ff
e2
08
e8
d6
e0
dc
0e
ec
df
e6
02
06
fd
16
02
ed
e4
f2
08
ea
0d
fb
ee
da
fd
de
e5
06
fe
f0
f0
ec
04
e7
ef
fc
e8
ee
17
e9
0c
f2
ef
e3
ed
cf
fc
ed
ee
e0
f7
ef
f6
24
e9
0c
f6
12
f6
e4
0c
f8
f1
16
f5
fb
23
e4
ed
f7
27
dc
e9
f0
02
03
f4
f5
15
de
11
f5
10
db
08
22
f1
17
e6
05
0a
ee
0e
09
d9
17
f6
0a
f6
01
e1
e1
2a
f7
ed
fa
d7
c8
05
e4
12
f9
fe
ee
f5
f3
ea
e3
f2
f0
f0
e3
ff
f5
14
fc
ff
fe
fb
f0
06
04
ee
b5
ed
12
cb
f0
0e
08
eb
18
e2
e6
f8
e0
01
f8
08
29
ea
f6
e6
ff
eb
ee
f7
10
e1
fe
f4
00
f6
f5
f5
fe
e8
00
f1
fd
00
e7
e7
f0
07
ed
04
f5
f6
f2
05
e2
0d
ed
06
00
0f
fd
fa
05
f7
10
15
37
01
db
0e
f4
f8
0c
ef
02
ef
dd
17
ea
e4
04
00
e9
db
e3
f8
f2
f4
1e
01
ff
05
f1
07
15
0b
0c
ef
fd
f8
02
1f
05
07
f4
dd
fd
01
00
00
f1
eb
f2
0c
ec
f2
00
ee
f9
d9
13
df
0f
fb
f4
df
00
08
e1
ef
f1
e4
1c
06
fa
12
e8
28
e4
04
fd
e9
06
1a
04
e2
f2
01
1b
f1
16
d6
f1
f8
1d
fe
de
e3
00
10
01
04
f8
14
d5
e4
f1
f3
cf
00
06
f1
f5
e0
f1
05
07
d0
e7
ef
0b
f8
10
00
05
01
01
e9
f1
07
fa
ea
fb
ee
16
00
d2
fe
f3
f5
f9
fb
14
c4
fa
01
0e
f5
fa
dc
d7
fe
f7
f5
10
ef
eb
f1
f6
ea
07
e8
16
10
fd
08
12
0b
08
e8
f4
ff
f0
f1
ef
e2
e2
10
fb
e1
f4
04
f3
f3
f2
04
ed
fc
fd
fd
cf
e7
0b
06
f9
00
fb
f7
fe
ed
ef
fd
ed
ed
ed
ee
f9
0f
ee
1b
ef
d1
fd
ef
12
fa
fa
f5
03
f9
e0
07
13
da
e1
04
f5
ef
08
f3
ed
df
f2
f3
15
e4
0d
f3
d8
f7
e7
05
e2
f9
ed
ff
ef
fc
31
f6
05
0f
06
00
eb
de
02
13
1b
1c
04
ca
f0
ef
ce
f9
e8
f0
0e
e1
ef
18
f4
0e
e1
eb
20
0c
dc
08
db
f9
02
e7
05
e5
f3
f1
ee
03
01
f5
13
d7
f2
fe
0f
fb
ed
0c
dc
e8
05
e1
ed
e8
ed
f8
02
0c
07
f7
05
ef
f4
05
f7
f0
f8
ea
e6
f7
fe
d4
d7
f8
42
1e
03
ff
f6
09
09
26
16
21
f6
f0
fd
d7
e0
0d
0c
f0
f9
0c
06
e3
f9
1a
f1
f4
f4
05
09
df
f7
0e
ef
04
f7
ff
f2
f7
f2
f8
06
f4
03
0d
f5
1c
de
f3
ea
ed
fc
27
01
fc
fe
fb
f2
08
fe
e9
0e
f8
fa
08
e7
f2
e4
e3
f3
01
fe
0b
11
06
08
f0
06
19
11
e8
e5
fa
f4
0b
05
f6
f9
e4
07
d9
f8
ee
d3
f5
da
f0
07
17
1b
0c
da
eb
00
03
f8
14
fb
15
ff
05
2a
fa
f0
fa
02
ee
f8
f0
fa
df
06
f7
13
03
21
f0
11
0c
f4
20
f0
13
fe
e8
14
2b
09
fc
f9
f8
e8
f9
05
04
f1
0d
f3
da
ed
e4
f9
f2
ed
16
fe
02
f2
0b
01
0c
18
10
ee
fd
ff
e9
f7
db
ee
fb
03
f4
f2
f1
18
02
05
db
e9
f2
f3
dd
f9
64
f3
de
04
0f
ff
f1
18
d8
f4
da
fd
e4
0b
ea
00
f1
12
1d
f7
08
fb
e6
04
0c
e8
e4
02
e2
e4
f8
d9
03
33
f7
ec
f3
f7
f2
f0
0d
fa
f3
17
e5
fb
f0
0f
fd
eb
f6
04
e0
fc
0c
0e
28
e9
e9
0c
ff
fb
ec
06
f8
23
f6
f4
02
fc
e3
fc
fc
06
ee
ea
e8
fb
05
fa
d8
fb
e9
ee
06
e8
e1
12
fd
f8
fa
f1
d2
03
0b
dd
04
04
e1
11
f9
ee
f7
09
01
bd
0a
16
ee
09
ea
d5
e6
fc
05
f1
f9
0e
f5
fd
1a
00
ff
03
f2
07
eb
ee
ff
1e
f9
e2
f8
f7
ec
09
f8
f7
cb
ef
0a
e8
1a
f0
03
ee
11
ac
eb
e3
0d
fb
02
06
de
ea
f5
d5
f9
4b
14
e5
ed
09
01
db
f7
f4
f9
42
f3
fa
e9
19
f0
06
0e
ee
d5
01
ed
ff
0e
c7
e7
e8
17
f6
0d
fe
fb
f3
f0
01
ec
e8
fc
e7
dc
23
f8
09
2d
03
ea
12
11
d5
f5
d7
d9
21
fa
26
1a
15
f1
eb
14
d9
01
01
f7
d3
22
06
f7
ff
f2
f9
fa
f4
31
49
ef
f2
3d
0e
f8
03
e3
f9
18
1c
ec
ee
07
e9
28
05
e6
06
fa
06
f9
fc
02
37
4d
f8
0d
fd
1a
e9
cf
fe
e4
11
f4
f0
e0
fa
f9
e5
ea
d0
ee
f9
04
0b
0f
ed
e8
f3
06
51
f1
fd
f8
ef
e0
fa
fd
f1
f8
ec
f5
f1
ff
f4
e0
e9
e9
10
ef
f6
e5
fd
33
ea
f4
e8
03
f7
f4
ff
2c
f2
03
ea
d3
f2
e1
f2
f5
e7
ea
e8
e6
ea
ee
ff
ea
03
f7
f6
df
1e
fd
0d
ef
04
eb
fb
e3
e4
ed
e4
ed
00
f4
e4
fc
00
fc
f4
02
e7
e2
f9
c3
05
ec
01
e8
fb
f8
fe
de
ed
01
e3
f6
e8
e5
e4
27
fd
f1
f8
df
fe
08
dc
f0
f8
25
fa
e0
df
04
f4
f5
fb
f4
0d
f2
eb
ea
eb
09
ec
f5
fb
f3
e0
ee
10
e8
ef
f7
f3
d8
f1
08
0d
01
37
f6
f9
fd
f4
f3
04
22
f9
f3
f9
04
ee
14
fb
e5
01
2a
ef
e7
ee
fd
02
fd
eb
09
f7
f8
f8
f1
fc
20
ed
01
f6
03
00
04
e8
25
23
f3
ea
f5
06
e4
06
03
f7
05
0c
fb
06
dd
03
ec
e4
06
f9
1d
f2
1b
e5
e3
fa
ed
ed
f1
0c
ee
10
ce
ed
14
18
e5
0a
de
d4
f0
fb
fa
ed
0c
f0
ea
ef
03
f5
2e
f4
e3
fd
f0
0e
cd
fb
fd
e9
e4
e4
f6
f5
e6
eb
10
f1
e4
19
fe
0d
ee
ef
03
f6
d8
f8
fe
f2
f6
ee
e4
09
59
d5
f6
ff
f3
fa
f2
fc
f9
f2
f0
e9
db
06
08
fe
e6
f4
00
fd
1c
f2
f1
f5
ef
f1
ff
d3
02
f3
f5
fb
03
15
f4
fd
e6
fb
05
e2
f5
e8
f7
10
0a
e1
e9
e5
fb
ee
f9
ef
e9
1b
08
1f
e8
0d
1f
d6
e1
ec
08
0a
e8
f4
09
eb
e3
f3
f7
0e
12
ee
f6
f4
f5
f8
f4
f8
ec
f0
e3
07
f0
fe
e8
ea
06
f8
04
e7
07
f1
ef
f9
02
08
f8
02
0c
ea
fd
00
e5
fa
e9
f9
20
f3
f3
13
10
ed
f1
0b
f0
e9
0e
0a
ff
e4
df
24
24
22
1a
e2
e3
0c
ed
f4
48
de
e1
e8
fb
0b
f9
37
e7
f8
0a
f5
17
0f
f4
fc
1d
db
07
1c
08
ef
fa
f6
e5
07
ef
ed
f5
18
42
18
dd
0d
ef
ee
25
e9
f0
f3
f8
ef
02
e8
ec
f9
e9
fb
fa
f6
0d
f1
f0
f5
fc
02
e4
41
11
f2
fb
2d
fe
1e
f9
f1
e2
fa
f2
33
ed
d3
0b
fc
f5
ee
fd
e9
ec
09
06
f7
0d
35
e6
ea
e0
f5
f2
f5
ec
04
ef
24
f5
d3
ef
32
f2
fb
1d
f2
f8
f5
f0
f1
20
e8
eb
f8
d9
e3
f1
e7
ea
e3
e6
0f
09
ec
00
f2
0f
2d
00
db
fe
e0
ef
1e
29
0a
d2
1b
03
f2
00
ef
02
e2
e9
fa
32
e7
06
fc
fc
fc
e9
f6
ee
04
e4
f1
ea
3e
d9
03
18
f2
60
06
ee
f3
ed
f0
e9
e7
ef
ec
f6
db
1f
ef
01
d3
f1
f6
07
e6
00
10
f8
f2
e4
e8
14
f2
da
1c
0b
f5
00
34
05
02
12
ea
28
fc
fa
ef
e7
e2
f1
df
fe
ed
07
f1
09
eb
f2
e1
02
00
fe
f2
e7
f1
19
fa
df
49
fd
1c
ea
f8
f3
02
e8
e9
15
1f
fa
02
0b
f8
fb
e7
fd
28
ff
db
ec
eb
f7
f3
f8
f3
04
c5
eb
e6
f8
f8
f4
ef
f5
e6
ec
f7
65
ec
31
0c
ef
ee
ff
0f
e5
e6
2c
39
f4
f4
e5
fd
0d
00
e8
34
0f
fa
1f
f7
02
dd
12
00
e4
cb
d5
0e
f3
0a
ee
07
e4
02
fd
f5
14
e1
eb
da
ee
fc
05
fc
f6
01
1b
ee
01
e4
20
dd
22
ed
ee
e5
05
ee
ec
f1
1b
57
00
01
00
d5
fc
e3
04
f9
f6
07
fa
15
04
f9
f1
f8
f7
f1
0b
06
15
f5
ef
e9
57
e7
01
42
d3
09
fd
10
f9
16
0d
f9
05
f5
f0
29
16
f6
23
08
e4
fd
22
16
f3
f5
e6
06
ee
e9
e4
e2
fb
fc
f4
f5
0f
f2
0d
eb
0b
fc
db
04
02
e8
f0
e3
12
f8
cf
0f
f6
1e
fc
e2
25
fe
02
ef
f8
27
f9
f8
fb
f9
14
da
f6
e7
fc
ff
0e
ea
f7
10
f0
de
eb
03
f0
05
05
fa
f9
f0
e8
e5
09
f7
f3
0c
f1
fb
e5
f0
fb
f5
ef
e7
f1
e6
f9
f3
ee
f4
05
09
eb
fd
05
d4
f6
f2
ef
04
f9
1c
f6
f3
eb
dc
fe
03
01
16
ed
e2
e7
05
ef
eb
e3
f3
f2
0a
37
45
e6
f5
05
43
d9
0c
f3
24
1e
15
01
1a
fd
f5
f3
fc
ea
45
f5
06
ff
fb
fd
22
04
fb
30
03
ff
f8
f9
f0
f6
f7
fc
da
07
00
fd
12
3f
f2
db
e4
22
15
e0
d1
ff
e9
f7
0a
d5
0b
f5
f6
f5
f7
e5
f2
13
dd
f9
f6
ef
f6
e5
e9
02
ea
d7
07
f6
fa
f5
f5
e6
0f
ef
dd
f2
e7
eb
0b
1d
09
fe
df
fa
f9
ee
fb
f0
fc
f7
f9
f7
32
29
f8
f3
f7
49
02
ed
02
dc
fd
e5
39
f1
fe
f0
f6
