fb
04
fc
e3
22
20
02
fd
ee
f8
10
02
e2
e8
14
ee
08
db
ed
f3
f0
f4
05
12
fd
e4
e7
fc
e9
f4
fe
fc
f1
e2
04
f6
07
f6
fc
09
f4
e6
02
ee
ee
06
e3
ed
0c
e9
d8
fd
18
0e
fe
03
fb
3b
e7
02
03
0b
ce
05
00
0d
ee
08
e9
fe
16
f2
14
0c
fb
2b
fa
00
15
ff
11
1a
f6
ec
db
23
12
01
1a
10
0b
ed
eb
00
ee
0e
f5
14
f7
df
01
f1
f7
ff
05
ff
3c
ec
fb
e8
f7
fd
02
fe
0c
04
fd
ff
13
fd
ff
f4
12
ec
f8
08
d9
15
fe
fb
fd
20
02
fe
e9
dc
01
03
fd
04
15
39
16
f6
f4
e3
07
28
08
04
05
e9
06
fb
00
e5
20
f3
07
02
0c
09
ff
e8
f6
ef
f1
13
f8
f3
06
f4
20
ec
13
f0
12
19
e8
fd
09
0c
0e
05
11
02
e7
fb
1b
fc
ee
08
06
f7
e5
f4
ff
01
ff
f9
fa
17
f9
03
f5
f7
16
24
0b
fc
f3
f4
08
06
1d
1c
12
10
1e
0b
0e
fa
f2
f5
00
19
f3
02
04
0a
02
02
ee
f2
27
f5
f5
03
05
fe
1b
1d
03
0d
05
e7
f2
18
03
f6
11
fd
e3
10
1d
fa
f3
10
06
ee
23
e4
1b
02
fc
07
eb
ef
ea
ff
f7
08
f6
06
08
f6
f9
f1
ef
15
fb
06
fe
1c
f9
15
0f
30
0d
08
10
08
06
02
fc
24
ff
f4
03
fc
0a
12
e7
fa
fa
f6
f1
f9
fc
10
f0
f3
01
ed
ea
02
e9
16
ef
f9
1d
f5
11
24
07
20
f5
f7
da
f9
ea
f6
14
0e
0f
fc
e4
ff
0e
e8
1e
fe
05
0e
0f
f5
dc
f0
ea
10
ff
f4
e7
fa
f5
fb
e5
fa
06
ee
02
f9
17
03
ef
ed
e4
fa
fd
f7
e7
10
04
19
dd
f7
f8
06
e4
f6
09
ed
ff
f3
fc
0a
f3
13
0b
03
03
e5
f9
02
04
fb
08
06
f8
0b
1a
f2
ec
09
0e
16
fc
0c
e6
ff
fe
f5
db
0a
ee
fe
0a
e0
f3
04
2b
fa
e6
14
f9
fb
dd
f8
df
e7
04
f1
fd
fe
0a
0b
ec
fe
1a
19
29
f8
fa
ee
f4
0a
f8
f2
e2
fc
27
fe
05
fe
0c
f7
e7
df
08
0a
1a
e9
0c
0f
0a
09
0c
f3
db
1a
fe
18
1c
fb
f5
f3
08
24
ec
fd
ed
f7
f1
fe
f3
f0
ee
1a
03
e1
04
f8
ff
12
06
05
f3
f5
06
fd
ff
ee
19
fe
0c
05
04
f9
00
e6
02
ef
06
ef
05
e3
ef
10
fe
ff
0e
04
fc
fb
fb
0a
f1
f5
18
e0
0d
f1
1d
0e
fc
1f
f3
0d
15
0d
fd
09
10
ee
04
f0
11
06
09
fb
03
eb
e8
08
de
10
fb
09
fd
fe
f1
14
fc
03
19
f6
29
f4
06
f3
20
04
fd
02
03
fe
0f
f0
fb
11
02
e1
d2
ed
07
df
fd
ed
01
f8
f6
e0
f7
05
f8
03
fc
f3
08
1e
11
df
f7
ff
25
08
15
f9
00
e2
08
e4
01
ff
f5
ed
0b
17
05
0e
fb
e5
e2
09
17
03
0d
d8
fc
02
fe
e9
05
22
08
f7
0d
11
14
e2
f9
03
ff
05
f0
0e
f9
09
f1
09
3a
01
fc
ff
0e
25
fc
0e
ec
f6
ec
e9
09
06
09
dd
0b
06
e3
fe
f9
f8
ee
01
ed
1b
f0
f9
ec
f2
f5
fe
1c
fc
10
ef
f6
f9
10
c1
07
14
00
fd
fe
1e
01
e5
fb
11
f2
eb
fa
f7
f3
ff
ec
07
1c
ef
01
19
0d
16
01
df
fd
e3
04
30
06
f2
f1
08
d7
fc
fb
12
f2
02
f4
13
08
2b
f2
f6
03
0b
fb
00
f9
ff
21
15
e0
e1
fc
e5
eb
02
0d
20
fb
f0
e4
dc
12
03
03
0d
04
04
e9
15
ec
ed
f9
03
f2
02
0c
fa
0f
d0
f1
d2
ff
ea
07
20
0b
f6
ee
07
ea
f0
fa
ec
0e
02
07
1d
08
1f
19
e9
00
11
f1
ec
f2
f7
e3
ea
ff
f9
f6
01
03
09
fb
0c
07
f1
f0
ff
0d
eb
2d
eb
e6
fb
ed
1a
eb
ff
1b
e3
f4
12
ff
14
13
ee
04
fe
ff
ff
01
f1
f6
fb
03
18
1b
05
14
06
07
03
fa
ef
06
07
f4
1e
ec
04
f9
eb
15
fe
e7
12
06
ee
0d
fd
f7
f2
f7
06
ee
e7
1b
08
e6
1c
21
13
02
02
05
06
f3
f7
d0
0c
0a
f5
fc
f0
10
08
02
04
10
f6
e3
0d
f6
17
fb
25
e1
f8
06
d6
11
0b
e0
fd
fe
1b
16
fe
0e
e9
f8
00
01
f7
f6
fb
fe
e2
f0
fb
05
2d
ee
16
f5
00
1c
00
0b
10
2d
f3
f4
07
fe
fc
ff
d9
fa
f4
07
07
03
07
fb
ea
06
06
ff
f8
fb
ef
eb
2a
17
1f
09
f2
f4
ef
f9
11
0b
06
f4
f5
f1
0e
f3
f5
07
fd
08
14
0e
12
f4
01
11
24
ee
0b
04
01
0e
eb
ec
f5
f8
13
ec
26
02
fb
12
f3
f5
03
18
f8
00
ff
17
00
fd
ed
f6
f9
00
05
01
f8
09
f7
e9
08
e7
11
20
0a
ef
e8
ff
f5
fa
e3
f4
ff
08
fd
e8
dc
e8
f9
fd
fb
05
01
fd
fd
08
fc
fc
ed
f6
03
09
fd
fa
ef
04
07
fc
0f
15
f2
00
f1
08
f9
25
00
18
fa
0b
2e
0c
01
11
12
f9
e8
ef
ff
03
fe
05
f4
f9
05
dc
2b
fa
03
f7
08
fb
0e
02
28
e6
14
fc
08
07
02
10
03
e2
e7
f5
1a
23
eb
f3
fe
fc
0d
e6
1a
04
07
0e
00
fc
f8
e7
18
00
17
eb
13
0f
0f
03
fe
17
da
09
1d
fa
ef
39
0c
ff
07
08
0d
19
0a
11
f4
e9
05
0f
fc
e2
e3
16
f7
12
d8
f0
e9
f7
f9
f9
fb
2d
f8
fd
c4
f8
f8
fa
f7
00
0d
fb
1e
fb
12
ec
06
10
f3
05
e9
fa
21
ee
e3
0e
ed
fa
fa
09
fb
04
08
0b
dc
11
f8
0b
e8
03
0e
fe
12
fe
ed
0e
0d
fd
01
2e
ee
ef
ee
03
ee
e8
fd
02
06
15
22
19
ca
01
f7
f6
ed
f9
16
fb
05
f4
fc
01
07
06
16
f3
f9
18
e5
04
ec
2c
0c
05
13
fc
02
06
ff
f8
fd
06
fc
fa
f3
fc
ed
ff
0b
ef
f3
2d
04
ce
fa
ff
09
ec
2d
f8
05
2a
ed
f8
1c
f6
fc
ef
05
15
db
06
f0
0d
04
20
d6
e2
0d
29
05
0b
0d
01
0b
fc
12
fa
0b
1f
f1
fa
1d
1e
c5
fc
00
f3
f5
05
1b
ca
f3
0d
e0
13
13
24
ee
f3
ef
21
f3
0f
10
00
f8
f6
e9
e2
e9
d9
08
0b
07
35
1a
00
eb
20
de
03
ed
01
03
f2
f6
05
01
14
02
20
02
e3
01
31
04
1f
0e
ea
f2
1a
fb
11
02
0b
f1
33
e5
0b
0a
1a
04
06
02
0d
1e
fc
01
03
11
10
0b
ea
0e
fc
ea
f8
01
1b
e6
04
e9
fc
06
e5
ff
e4
e5
e7
03
0f
0d
0e
ff
09
f1
02
f3
f4
fa
04
fb
f9
f8
01
f3
12
f4
02
01
0b
f0
eb
07
f1
ff
01
20
f5
0c
16
0d
09
03
d4
c7
15
f7
13
f8
14
08
f1
10
02
ec
11
1c
de
10
e3
0e
0f
fe
ff
f3
e9
d5
e4
fd
0b
1f
01
db
04
f2
e9
ea
12
0e
09
f0
f7
e1
13
ec
2e
15
06
05
10
02
00
d8
ec
dd
13
05
f1
06
fe
a9
0f
ef
eb
18
fb
f0
21
ee
01
fc
fa
1c
f4
05
0f
10
1c
fb
f6
18
ca
05
20
05
df
f7
f3
12
23
07
f7
fc
f2
f3
00
ce
fc
ff
f3
fa
04
01
0a
ee
1a
05
03
0f
e2
09
04
14
11
f7
fb
11
01
07
fa
0c
ce
10
e2
3f
26
eb
08
22
e6
e5
13
07
05
e3
1f
ed
f3
fe
e7
02
0d
f5
f4
fd
ee
0a
f4
06
fb
f0
f7
ef
00
eb
ff
0f
1e
22
02
1a
0e
f7
1c
02
fa
f2
00
0b
01
f4
e6
18
fa
07
0d
e4
df
19
fc
fc
15
18
e5
cc
0c
0c
26
fa
fb
fa
02
f9
f6
f2
04
14
e1
03
29
e9
0f
14
01
e1
0e
e0
f5
11
03
2b
e9
08
18
ec
f9
2e
f4
f3
0f
02
02
14
f4
0c
0d
fb
ff
14
0a
dd
30
f5
fd
ed
f9
09
ee
0d
08
1b
11
e4
02
08
07
04
0f
e9
e8
fb
cc
07
fa
11
11
f3
0b
17
1f
0e
ff
19
05
13
09
e3
ed
ff
03
de
f3
fc
14
ea
0a
15
10
1f
00
fc
18
14
fb
e0
0e
f0
11
25
0e
06
03
f5
14
14
07
14
0b
18
05
f9
f2
00
09
1e
1f
27
05
07
06
f9
07
00
0d
eb
c7
f5
01
03
02
07
e4
f8
0a
27
18
05
de
df
08
fd
d9
14
f5
17
00
14
f7
2e
15
ea
12
0c
06
f0
ff
29
d8
03
17
f7
f2
fe
0b
f2
fd
f9
f7
12
0b
ff
03
13
1b
fd
fd
0c
f6
06
14
f2
0c
fc
e5
12
fb
06
e9
eb
1d
10
ca
0d
fc
08
db
f8
f2
ed
f8
f0
05
10
13
05
14
ee
e4
04
f4
fa
f3
d3
0a
fe
f6
ff
06
24
fc
12
f8
fe
df
41
fa
07
d6
fd
07
f3
f9
15
08
ee
e6
0f
03
0a
f7
e7
e9
0d
06
ed
ed
fe
07
06
0c
0e
03
25
f8
19
15
fa
06
ee
03
d3
fb
fb
ed
fd
e7
12
fe
f1
e7
f2
e9
0d
0d
12
01
e7
2d
03
02
18
10
f6
02
f3
e9
f9
fa
14
ea
ef
00
09
ef
0f
13
d9
01
02
f8
16
f3
f6
ee
00
ed
09
fc
f7
02
0a
e7
15
02
c4
ee
f0
11
0b
fe
0d
f4
0d
19
d9
f2
15
00
16
03
f1
fd
ed
0a
f4
15
f3
fb
00
08
07
f7
09
f5
f1
14
22
ec
e8
24
2f
fe
34
ef
e2
ce
e7
fd
04
0d
fc
0c
11
0f
03
05
21
fa
f6
0c
0a
f8
e5
0d
02
03
fa
d4
f8
0f
1d
12
fc
07
07
08
f6
09
0a
ee
df
11
13
14
18
f3
10
ec
1b
fd
29
1b
ea
17
21
03
06
ff
25
e7
06
fb
f8
16
fc
0f
ee
f6
09
fa
0c
f1
d3
07
ed
e6
09
fc
0b
f3
0a
0f
e8
ff
fb
06
08
17
df
07
1f
d9
e7
0e
eb
d3
ee
03
13
d6
03
0d
28
fe
05
fd
ed
0e
f0
13
00
06
01
f6
0a
00
04
ef
f3
ce
15
e8
f3
0e
e4
ff
ee
fa
2c
ee
01
03
15
ef
da
01
00
f6
0a
f3
f8
eb
20
ef
04
fc
ee
02
19
03
f1
26
03
fc
e8
fa
ef
03
13
11
0d
f0
0a
ff
0c
0b
0f
1e
21
f3
fd
f2
16
f9
01
05
06
16
fd
08
f7
f0
0e
e1
f2
f6
08
fb
e1
f8
f5
00
fb
fb
00
fc
06
f8
19
05
fa
fe
ec
f3
11
f6
4e
22
06
ff
10
11
05
f3
ef
ff
42
ec
00
15
05
02
08
08
03
04
f6
f0
00
fe
e5
01
fd
ff
e3
c6
2b
01
0e
11
0b
19
dd
0b
00
fc
0b
f7
ff
1a
ff
0d
fa
1a
00
0f
dd
03
11
0a
f5
f0
f6
21
e0
f5
00
01
ea
10
03
03
39
03
00
ef
0c
ec
f2
eb
18
f7
f9
e8
00
04
fd
0c
04
0b
28
0f
00
de
0e
05
fc
0d
09
06
15
ff
19
13
f8
ed
1d
12
0b
02
09
f7
08
21
08
03
e8
f6
f7
0d
00
ea
f2
fd
27
15
f2
37
2c
34
10
32
fa
03
fb
0b
fa
06
01
ea
01
1a
e5
06
06
20
fb
fd
10
02
19
e2
1b
1c
0a
e7
00
04
00
17
f4
0f
ee
00
0c
db
f4
0a
fd
fd
07
e1
ec
01
f2
23
02
e8
12
ff
26
03
f6
12
0c
f6
15
f9
fa
fe
e6
fc
f9
31
f5
1a
f2
0a
f9
11
e3
02
00
10
0e
1e
04
fa
0a
ff
df
0a
16
08
1b
1e
ee
ff
08
f2
1e
ff
f6
04
f9
01
f4
f2
f2
f3
00
2f
14
f5
15
04
13
fc
f4
f0
f2
f9
0d
06
f5
f5
f3
0f
f5
f6
06
22
1f
fc
e9
f0
07
20
12
23
10
26
07
17
03
ed
14
11
23
ff
07
d4
05
fd
00
fa
f0
02
fe
1f
f8
f9
15
0e
1c
fe
fe
0d
07
fc
02
09
2e
fb
06
e6
02
eb
fe
16
1e
e7
f0
04
ee
fd
14
02
f0
f7
f3
2b
0d
0d
ff
f5
f2
04
fc
1d
0a
00
f5
00
1a
0e
29
08
ff
1d
01
29
f6
09
1b
fc
0c
08
05
04
02
16
fd
18
0a
05
fb
14
15
1b
0b
e6
09
fe
0b
0d
1a
f8
10
06
e2
06
ed
e4
19
df
f7
0b
06
04
0b
f0
fe
03
f0
f5
ff
05
20
f7
06
20
d6
05
20
f0
08
24
21
f1
25
03
ea
f3
fb
f4
f3
14
f5
04
06
ff
fa
0b
25
d6
17
08
fd
eb
20
26
58
0e
fe
fe
01
ef
ea
ef
d4
f4
14
d7
1c
f7
03
02
06
f3
11
08
08
ff
22
15
03
f7
15
fd
da
e7
04
03
05
f9
f3
fa
f3
ef
f2
e6
1a
ea
03
f3
05
f5
fe
0d
fc
fd
1b
05
ff
f0
fb
0f
fb
fa
17
13
19
0a
f5
00
fe
fa
f0
1e
0f
07
ec
fd
dd
12
f9
05
01
fd
0e
0b
e4
04
0c
fc
07
c9
ed
10
e0
fd
01
07
ec
00
db
fd
ef
02
04
0f
cb
00
02
00
d8
00
fb
03
13
0d
f9
fe
e2
01
e3
03
ff
05
05
3c
00
ff
fd
04
f2
f2
1d
0d
10
07
13
07
f6
02
21
ff
0e
fa
10
04
07
ec
02
12
fc
04
f6
f0
fb
12
1b
f2
17
e7
f9
e5
10
f8
15
00
26
12
14
ed
04
f7
15
01
f2
07
0d
17
00
1c
de
11
e7
fc
22
02
01
10
eb
02
12
fd
17
1b
e2
fc
01
10
18
e0
06
0e
15
0c
f6
fb
08
06
fb
0e
08
fd
f3
0a
ed
f9
fd
f4
03
ef
02
00
19
f8
fd
f0
fa
ef
ff
1d
0e
ea
12
f6
1a
15
24
ec
0e
fe
ec
0b
f1
0b
0d
ff
16
f9
16
05
1c
0f
04
f0
fb
de
f8
1d
2b
09
ed
05
13
12
13
ee
f0
08
d5
f8
ff
13
ec
e7
e9
12
01
f5
01
ff
06
df
00
01
ee
00
03
ee
ff
13
f0
15
0a
06
01
f3
03
00
cb
dd
f9
0e
31
10
15
02
ed
f8
ff
fb
f2
11
0d
09
fc
04
0a
f9
09
ee
fb
e7
05
00
fc
01
01
ff
fa
16
16
d5
02
fd
f2
dd
0b
2a
28
fc
fe
05
fb
03
01
02
fb
00
07
09
08
f6
22
00
04
cf
01
10
14
01
1a
09
f8
f4
0a
0b
ec
09
03
e5
f9
e2
03
fc
f6
f8
11
fc
01
1b
07
09
e6
1f
26
f9
0e
11
00
f8
21
ea
09
f2
0b
01
0a
f8
19
0a
f3
ee
ec
0a
16
f6
f8
f0
f1
f5
f8
06
00
0a
10
14
f2
fb
11
e4
e8
fc
19
04
0c
09
f4
02
09
05
f7
f4
0f
fd
dc
13
0a
0e
0a
26
e6
e4
04
06
d3
e9
29
0b
0b
e9
d9
26
fb
0f
00
15
f9
fe
ff
27
fb
ed
08
21
fd
f3
03
19
03
16
01
19
0e
07
f7
0b
1b
f6
e2
01
0c
f9
0a
fa
01
09
d8
fc
fd
11
ff
ed
07
08
10
06
06
fb
ea
08
17
de
f3
02
e8
f8
07
eb
f7
14
e0
d8
ef
e5
ff
fd
1b
0b
14
fe
e2
07
01
ff
09
25
f9
08
15
ff
f7
19
10
20
fb
0b
ec
13
e7
ee
ee
ed
f6
07
ec
f6
e7
0a
0a
08
10
f5
f7
f3
fa
f9
00
08
20
fa
f0
17
c2
e7
11
ff
f2
0c
08
24
4a
06
1d
1a
f7
e7
06
0c
15
24
04
02
0d
05
02
08
f1
01
03
e8
0a
f5
00
01
13
26
03
fa
fd
f9
2d
09
fc
09
0d
3e
12
e9
fd
18
13
fd
fd
f9
e9
eb
03
02
ed
17
00
fd
03
1a
fe
00
07
0c
e9
03
01
07
1a
23
06
ee
f9
1a
0b
fb
0a
18
fe
f2
e5
23
03
23
fb
f8
eb
25
e7
01
16
f7
f8
f9
14
05
02
02
fa
03
1c
0f
f6
09
05
ed
e1
1d
22
f7
1d
f0
0b
db
e2
0b
fc
12
eb
09
03
fb
fe
fe
fa
1f
0f
21
12
f3
fa
04
0b
08
fc
19
fd
09
1d
ec
2a
ed
f7
0a
08
fd
ff
fc
04
0a
f2
0a
e9
fd
15
0a
fa
e7
f8
03
19
01
02
df
1c
19
1a
f5
df
ff
2f
0e
21
03
ea
14
06
12
f1
16
fc
f1
34
ee
11
15
0e
f2
0f
f6
0c
13
f9
1b
29
ff
0e
fa
13
ef
02
01
fe
eb
12
fd
fa
ff
13
09
02
07
0b
09
d3
ff
fb
0f
f2
00
1e
ea
e7
14
0e
04
fb
09
f5
04
fe
35
04
1e
08
09
06
16
05
04
2f
f9
09
ff
f5
1b
1b
06
fc
fd
10
1c
fe
03
43
ef
02
f6
fd
e7
06
10
23
f9
13
fc
18
fc
1b
12
fb
f5
05
ec
fb
18
de
ff
fe
f4
1b
06
f4
19
06
02
0d
d0
fc
f5
08
04
db
f5
ec
0f
0a
00
10
03
05
05
18
fd
05
15
1b
02
01
e8
f6
ff
fc
eb
eb
f7
12
19
0d
f4
16
f2
04
29
1b
ff
05
f1
fc
01
fa
04
02
f9
04
05
0f
0d
ec
03
f1
11
d1
1d
0b
15
ff
39
0a
fe
0d
ff
17
f9
f6
13
ff
06
f2
f7
27
f9
24
0e
e5
e8
00
14
f8
f3
ef
1a
11
e6
0e
02
f4
fb
e5
0d
18
1f
f5
fc
fb
e7
f9
da
04
17
f4
fc
04
17
01
17
cd
f5
02
08
dd
01
21
06
ec
fd
07
f8
e6
ef
d5
0a
01
f9
e0
eb
f9
11
24
fe
f9
ef
1f
f5
e4
ca
e9
02
f9
00
31
02
f6
f1
e7
03
00
fa
e7
fa
ec
e9
1c
1a
e4
01
05
ff
18
f3
04
f5
fd
f1
0c
0b
48
05
04
eb
fd
09
fa
15
e8
00
e5
fc
f6
19
04
fb
0e
08
07
0b
eb
02
00
0c
0f
ff
0e
eb
ea
ef
f6
ff
00
03
16
f5
fc
18
f6
0a
fc
ff
0c
01
10
fd
10
03
e2
01
fc
0b
bf
08
ff
12
01
ff
04
13
fb
0d
ff
17
09
12
d6
19
f3
fe
fb
f4
ef
14
f6
15
ef
fc
f2
ff
f0
1a
22
03
f1
eb
f4
e3
f2
fa
12
02
19
f7
fd
ef
e6
02
0c
dd
f1
03
fc
ed
d0
03
0d
fe
07
05
27
f5
08
0e
08
0c
15
19
15
e9
1b
fa
ed
fd
11
03
05
03
05
f0
1c
fa
f3
14
0f
f1
ee
00
10
f6
ff
12
e8
17
fb
f6
f4
f5
f4
fa
f8
fc
08
e5
07
e6
f8
0d
f7
04
fc
f9
f2
f8
e8
f6
2b
06
f7
2a
f8
00
f5
f5
d1
ed
0e
0c
d5
f2
ef
0c
f5
0b
22
fe
15
17
fc
ff
fb
fb
08
09
03
00
ec
e3
1b
24
ea
ec
27
f8
0f
e8
07
14
fd
fd
05
f4
0a
eb
fe
0a
02
27
0d
dd
19
06
01
19
f0
11
c6
02
05
08
f9
10
fb
32
d3
f9
d7
10
f7
3f
1d
05
13
04
f8
fc
15
d9
f5
35
ec
f9
f4
f1
18
0e
eb
e4
0b
0f
fb
f5
0a
d4
03
eb
2d
eb
df
f5
f4
eb
1d
0e
f8
da
fb
09
00
fe
fb
20
0b
fe
02
09
00
f6
f5
f7
ec
13
f0
dd
1c
02
f9
01
0d
fd
09
ec
f6
03
1c
04
ea
01
14
f6
01
14
09
00
21
0a
02
05
fc
f1
07
06
ef
fb
e9
fb
fa
20
ee
09
f4
19
17
03
f5
00
00
04
15
f3
1f
dc
f2
03
07
fa
02
f3
06
03
d9
00
08
ea
ce
f2
23
f8
f4
29
f1
06
ec
00
04
1a
11
1e
06
0b
1d
fe
01
ed
fd
f1
f2
01
03
0a
f1
f1
22
e4
0d
fd
e9
ed
00
1a
f2
ff
f5
00
eb
22
fa
d2
03
f5
00
ff
ff
1e
05
0f
fe
f7
12
16
fa
ed
0b
e8
00
ee
f6
1a
25
f5
0d
0f
11
eb
37
08
02
e6
fc
02
00
e5
e6
0a
ef
f1
ef
fe
f8
08
04
f6
f5
de
fd
fc
23
02
fb
ee
eb
f3
e3
07
0c
f9
fc
f2
f7
f6
fa
fe
f7
f7
fe
fe
f2
01
00
03
00
1b
ee
07
f1
17
1a
f4
e8
ff
08
02
04
06
e7
ff
ed
10
04
ee
0d
02
41
07
00
fa
13
04
f4
fa
0d
f9
fa
fe
ff
15
ea
15
f5
01
f4
ee
03
05
eb
fe
0c
f0
1f
e0
09
06
14
f2
ff
08
ed
e7
04
fa
f1
f0
fc
fd
14
02
f8
f7
ff
1e
15
0d
ef
0b
00
ef
0b
17
e3
00
03
f2
0b
03
ff
ef
ff
f8
00
11
fa
0c
e8
10
f4
fd
0f
0c
fe
ee
d4
e0
05
ff
01
e8
05
0b
f5
14
f8
f0
fe
1f
de
05
fa
e2
f6
01
33
f4
02
e2
06
f2
04
f6
18
ef
ff
fc
0b
1a
17
ed
eb
f5
f9
fe
0b
02
f3
09
eb
27
fd
02
07
00
ff
f4
01
12
03
f6
f9
08
1a
f3
28
09
0f
05
de
ef
09
1d
2a
fa
ea
0d
fd
e4
17
fa
07
f7
fb
fd
16
ee
02
d9
12
ff
12
ef
ec
08
ea
f9
00
04
d4
00
02
fe
ee
05
f5
03
fe
fc
f4
03
0f
21
1f
09
09
09
2c
04
e2
fb
08
fc
01
f5
ef
09
22
22
f6
fb
05
15
f8
fd
ec
f1
12
10
20
01
13
ee
06
e1
fd
f3
eb
fe
0e
06
10
06
0b
21
e9
ea
05
06
d4
f1
09
06
10
f5
f4
04
fb
04
ff
de
f4
f8
0e
14
f3
f1
fa
00
f4
fe
f9
f4
19
fc
10
ec
e7
ed
08
06
fe
18
f1
fc
ea
f4
00
fe
15
f2
e0
1f
2c
e1
fe
03
03
fe
05
1f
1d
06
14
f9
08
fe
ff
f5
15
f7
03
07
0e
f0
07
04
02
fd
13
eb
20
f6
ee
1c
db
ef
ea
04
e8
fd
0b
0e
09
29
ff
f7
f9
1e
e4
08
08
12
d2
0c
f1
07
08
ee
ff
00
f3
f8
f5
02
00
05
ff
fe
0d
0f
0c
bb
fd
06
11
00
2e
0a
ee
03
fb
09
09
1b
e1
f3
f0
1a
f1
ed
ea
fb
02
0b
25
14
fa
fb
fc
da
0f
0a
07
f2
ff
07
e5
ef
ed
f1
01
03
06
13
20
f7
00
13
08
1d
13
fa
f1
08
14
e4
1c
f6
24
f5
00
e3
01
19
01
f9
ee
ff
f3
01
00
02
16
01
fd
02
10
09
18
08
ff
ea
ee
f8
f5
0a
02
f5
0b
09
01
ea
f1
1b
f5
05
00
f2
05
07
fb
0b
03
1e
04
ff
0a
fe
03
f9
f1
01
f7
fb
00
e6
09
f7
02
09
fe
f4
f5
1f
f4
f6
fb
fa
f2
06
f3
08
f1
09
fe
df
0f
06
fa
ff
f4
04
f9
01
41
d7
16
0e
ee
06
14
1e
ea
f4
f7
05
f9
00
0d
ff
0c
1b
0c
15
09
f2
f0
28
0a
f3
f6
fe
e4
27
f1
0f
ff
10
fc
e8
e5
11
14
ea
0f
10
f1
19
e6
06
22
00
f8
e3
08
00
fc
fc
de
0d
02
08
03
16
1e
00
f8
e4
03
f1
f0
fc
e9
f9
16
0b
ee
21
df
fb
fa
ff
d8
f4
17
f9
f3
fd
0c
17
f7
0c
f5
f2
1a
f7
08
e3
03
03
dd
f5
f8
02
0a
19
05
07
1a
fe
e5
fd
e2
eb
02
13
06
fd
d2
00
0e
0a
e0
04
e8
f6
0c
fd
fb
f7
de
16
04
09
f4
ff
18
f8
05
fe
e1
f7
fb
d5
f0
f3
f4
fa
03
f6
e0
10
12
15
e5
07
f6
03
f0
0d
00
e3
eb
11
f1
f8
fc
fe
12
fd
0a
da
d5
0a
07
0c
06
02
e9
05
05
18
f2
e7
21
05
f8
eb
01
0c
ed
11
ec
0d
ea
10
04
fd
da
d5
05
15
00
fd
f1
15
fa
f5
0e
fb
ed
e3
f4
08
0e
ff
f2
f6
fa
fe
03
14
ed
ff
da
04
ee
f1
f2
f2
ff
ee
ff
1b
f7
02
00
1b
0a
05
0a
07
f3
ea
fd
01
d8
f9
f4
cb
24
f1
fa
0f
1a
f0
f2
0b
16
fa
02
da
f6
d5
d6
1a
0b
f6
f4
fc
f8
e3
22
09
16
20
fa
ed
00
0c
0a
ff
02
fd
03
ee
02
14
fb
0d
e2
0f
f3
10
f6
0b
fe
21
f9
11
04
05
ff
0a
f2
e6
0d
12
f7
04
ff
f2
f1
f4
18
0f
f9
0d
05
0a
0a
f7
d4
04
f9
d8
00
ea
ee
f9
f2
28
05
02
e8
f4
ec
f5
f5
de
f0
fb
18
e9
d1
08
0b
1c
fc
ea
0a
18
fc
12
1b
f5
10
06
04
06
14
07
fe
09
08
fe
0e
e0
ed
15
fe
f7
27
fc
d8
fe
16
f6
03
08
03
0f
fe
fb
01
f5
fb
16
ff
ec
10
03
ed
f3
05
19
fd
14
06
d2
fc
e2
01
0b
07
10
0a
d9
fc
fb
f6
12
dd
fe
19
fe
f7
01
f4
f8
fc
f6
0a
0b
0b
1e
09
ec
03
02
e6
1c
00
f0
0f
1c
f4
01
0a
f0
fb
ec
12
27
e0
e4
07
e5
ec
19
f2
15
0c
05
f6
f4
f9
db
e8
f8
07
cb
f0
eb
fe
12
0d
15
06
12
06
25
fb
fe
d6
fe
00
f0
20
db
fa
fd
f7
ed
0b
0c
f1
e8
f1
05
e7
ed
07
fb
10
e1
f6
15
dd
0d
07
f6
f1
03
f4
dd
ff
eb
db
f5
f3
f0
08
e2
17
f7
ec
fe
ec
1b
f2
f0
f5
0e
05
07
de
10
fb
ee
ea
f7
fa
dd
fb
f1
fe
f7
ed
f9
05
e6
fd
f5
eb
e2
12
f5
eb
0f
0a
09
14
e6
1c
04
06
ff
f7
fb
0b
eb
e4
f0
f9
f4
f0
0a
02
1a
e5
f2
26
f5
34
f6
1e
0c
e5
f4
eb
f5
1b
0c
f6
f9
01
f5
fd
e2
ef
09
16
e9
03
fe
21
f1
e7
06
06
df
f5
00
fa
f5
2b
17
00
eb
39
f7
16
07
e9
08
18
02
ec
05
05
f1
e5
06
1a
08
02
e9
eb
10
01
32
eb
fd
fb
f2
12
16
16
f2
fc
0f
0e
fa
f1
f6
fd
00
0b
06
f5
f1
04
03
06
09
0b
fa
15
fe
ed
34
ef
ff
01
19
17
0e
e0
00
04
23
02
f9
28
01
03
10
fb
fc
fb
e0
16
04
20
fb
0d
f4
ee
f3
fa
ea
dc
16
ea
0a
fe
02
0e
08
ff
f5
17
e1
02
16
13
ea
14
e1
fc
0b
fa
f5
05
09
16
fd
00
0d
07
02
1b
14
fc
fe
d9
e8
dc
05
0a
eb
ee
d4
14
f4
e9
fd
ea
fd
f8
00
fa
16
ec
fe
22
0e
e2
eb
ff
01
e7
fb
00
f5
e1
0a
11
1d
14
de
f8
0f
13
02
da
0a
01
17
f8
dd
dd
01
02
19
fe
13
0d
04
09
07
07
fd
02
04
0a
fe
f8
eb
ed
f2
03
02
ff
03
f1
fc
fd
fa
0f
e8
07
fd
08
16
1c
e7
f6
f9
03
e5
fd
14
02
ee
03
ff
1d
fd
11
14
fc
fe
0f
03
e8
06
12
15
eb
04
f9
ff
09
21
d9
ff
c5
e2
f5
fa
01
10
eb
e3
00
ef
fc
02
0a
eb
ea
10
04
03
0e
01
31
0b
f7
ea
06
09
fe
11
f0
0e
f0
dc
03
17
16
fc
f2
eb
03
f9
09
12
00
e8
f2
e6
e8
ea
28
de
f5
06
f3
f1
04
f6
f1
10
f0
10
ec
11
19
0a
26
03
f4
10
d0
fd
f8
ef
fe
fe
f9
36
eb
e6
0b
db
02
e6
fe
f3
03
d5
05
16
07
f2
01
17
fb
ea
fb
04
04
16
ef
17
03
0f
d2
19
15
11
01
12
08
ee
f2
ef
19
fd
fd
1a
0f
0f
0a
e9
e0
07
fb
08
f4
10
15
00
00
02
07
fc
0e
f2
25
e5
0f
0a
0a
13
0d
01
17
ed
ec
12
06
f8
eb
0d
f6
05
16
0b
f7
ee
0f
10
1f
f9
07
e7
00
f6
f2
00
14
10
05
ff
fe
f9
ed
de
01
f4
14
05
fd
00
05
f3
0d
13
05
1b
ea
f6
f5
05
ef
f1
f3
05
f2
05
e5
f0
f8
11
de
0c
fa
fa
e9
03
fb
0f
0a
01
fd
e7
ea
1e
d3
fd
10
05
03
fd
1d
02
f5
03
f4
f9
12
fe
11
ea
d7
0d
08
07
ff
19
f3
02
ff
e9
f0
00
13
00
0c
05
f5
04
2f
07
f0
0d
fe
15
e4
01
fa
fd
16
e9
01
f6
e9
1b
04
27
f8
03
e5
13
fc
00
05
03
f1
00
03
ed
fb
f0
f8
fc
0a
06
0a
ea
ef
f2
19
ce
f9
fb
ff
f5
2b
09
fb
f1
ed
ff
f9
07
f9
0b
14
17
0d
e7
06
05
dc
0b
0d
e3
17
04
14
27
ef
f6
ea
f6
f2
10
ff
04
fc
f3
f6
ed
0f
f8
08
19
0a
07
fa
11
0b
0d
11
f4
f7
16
0d
f7
05
05
1a
e6
f0
10
ff
30
07
17
fc
04
f5
15
fc
13
0f
04
30
fd
09
02
f8
e3
fa
ef
19
08
26
fd
12
f8
02
08
f7
fb
11
14
1b
06
ef
ec
ea
10
fb
e0
f0
00
f6
01
f2
04
31
1a
0b
f9
1f
10
0b
fe
07
0f
fc
2c
f4
29
10
0a
fa
e5
dd
21
fb
0c
ed
0f
0a
10
08
29
29
05
13
1b
15
0c
1c
dd
22
09
2d
1d
fc
f7
f3
0f
0d
0f
2e
ff
00
f8
ea
0a
12
fb
f2
ff
17
08
d9
17
06
3c
04
fc
22
15
ea
f8
1b
16
e4
f3
11
15
22
28
fa
04
1a
32
ea
06
04
3e
38
08
0b
15
f0
1b
05
01
ec
02
f6
10
02
e8
14
20
07
e2
06
ec
08
17
e1
e8
23
fe
1b
f6
22
14
21
11
24
dc
01
16
0d
0c
0a
2a
ea
0b
f5
e8
05
f5
ea
ff
06
03
f5
fe
11
f1
16
04
ec
fe
fd
dc
07
05
06
30
fa
19
17
02
1c
11
0e
09
1d
23
04
fe
fb
0d
12
04
0c
ed
f5
ef
11
04
fb
ef
01
fa
f8
f3
ef
29
fd
1f
1b
0f
06
ef
14
12
ee
ea
03
11
1e
17
17
ef
ff
04
0b
06
0e
ed
0b
fe
19
19
e4
f8
ea
0a
03
1b
da
2c
e6
09
f9
0d
fb
02
02
01
14
ff
18
ef
f0
02
fc
ef
18
0b
dc
e9
ec
0c
fb
ee
fc
e7
16
0d
35
30
fb
00
17
07
0d
1f
03
1b
1b
f4
05
fe
16
0a
ee
ef
08
12
f7
2f
f1
0e
07
e6
1b
08
db
10
19
f6
06
07
fa
07
f9
05
00
2d
fd
f4
04
0f
25
f5
02
08
f3
ef
09
fd
f2
07
e8
15
02
f2
f8
13
fe
f8
12
fe
01
ff
0b
03
21
14
05
02
f5
0b
f8
f2
f6
0c
23
02
fd
0c
13
0d
23
fb
12
fe
07
03
00
01
28
00
0c
00
03
04
ef
09
0d
02
2a
00
0d
f5
e6
20
dd
f0
3f
07
fc
0d
02
dd
19
0e
ec
0f
de
02
19
ef
01
e7
17
01
f5
fe
10
15
f2
f2
13
08
00
0e
24
f8
11
1b
fb
fd
02
0f
12
f9
22
fc
0c
05
05
e7
f7
0e
04
06
fd
f9
e6
05
15
13
fd
14
f8
02
f8
0c
fd
12
fe
f7
f1
0f
09
0f
e0
d9
03
ee
06
03
08
fe
17
dd
fe
14
ed
08
24
02
0d
fc
19
01
f6
e8
15
17
17
14
17
10
ed
f8
f5
ff
fb
d2
0e
f7
11
ea
ef
01
0d
f8
f8
f9
2e
f0
10
01
f2
f9
f1
04
03
14
2c
ff
0c
0f
eb
e6
f9
16
02
ff
0b
01
fd
0f
07
15
19
06
f7
01
0a
03
05
fa
23
fc
ff
ff
fc
11
06
f2
11
02
ef
19
05
1e
f6
f6
05
16
e4
0c
fc
25
02
0f
18
15
25
0a
29
ff
f1
ec
ec
f9
f2
1b
f7
ed
20
ff
04
13
ec
f6
fb
ec
e2
0f
00
18
02
13
e2
f3
0a
08
f5
0b
11
02
05
f5
0e
09
0c
15
01
01
07
15
f6
05
f1
23
22
0a
0c
0e
0d
fe
0c
06
09
0e
22
13
07
f0
fc
f9
fa
e0
fb
fc
1e
f8
f5
e1
06
e7
03
e9
20
fb
35
f3
fd
23
03
f5
15
fe
fe
0d
08
12
07
10
29
f7
f1
08
01
0b
01
30
f4
ef
f7
01
09
14
0b
21
15
14
19
fb
06
0e
ff
0e
05
00
10
fb
25
01
1a
02
f3
0d
ec
f1
07
1b
0f
03
09
0a
1f
03
fe
11
24
0a
0e
25
fc
0b
00
fb
07
1e
e2
00
05
0f
12
30
07
f2
0f
2b
c5
03
16
37
03
e7
10
00
04
11
f9
f9
f9
ff
19
07
fc
06
05
1c
03
ff
f3
03
f6
de
2b
12
1a
f7
0d
f3
06
fa
0a
0f
ed
0a
2f
06
de
12
12
05
e3
07
fc
11
d4
0c
07
2f
03
19
b9
fb
e6
f6
24
03
24
0b
04
00
06
f7
43
fe
df
f7
1b
22
12
08
1d
f5
30
06
00
2a
07
04
eb
05
11
00
15
02
f8
fa
e8
f9
0b
f7
3f
fb
08
f7
10
0e
fa
ff
05
06
2c
dc
07
fb
06
2d
ec
07
00
f7
ff
00
0f
f1
f6
f5
fc
18
16
fc
fc
07
fe
ee
13
1a
39
12
3f
fc
05
00
0a
eb
0c
11
f5
39
27
15
0c
f0
f6
07
fc
21
e1
f6
07
0f
0f
27
ff
01
fd
11
03
ed
0f
15
13
1c
f9
28
02
08
f8
34
fb
1a
f9
14
0f
0d
0a
0a
26
1f
16
0f
06
13
27
15
1f
e9
f8
1c
fe
0e
01
f5
ff
f3
18
03
ff
fa
f8
15
02
04
f0
0f
16
0c
01
ef
0f
fe
0f
0c
fd
01
e3
0b
04
f0
01
eb
07
0d
de
0b
09
15
fe
10
29
0b
fd
fe
01
09
0b
f9
dd
fa
fc
16
fa
08
15
e4
f5
10
ff
00
f2
fe
04
ff
03
f5
fc
e8
15
08
02
f9
f4
05
06
05
14
01
23
ed
e3
0c
0f
e3
e8
e2
0b
17
11
0d
eb
0e
10
0d
05
fd
ea
0c
f6
08
fd
18
09
08
e3
31
f3
01
04
1f
0c
f2
ec
f6
16
0c
01
16
fd
05
fb
2a
f3
14
0e
14
08
07
09
ff
d8
f2
1a
0e
0f
f6
1e
0b
fd
20
01
17
00
02
1c
ff
fc
f2
2f
13
f0
df
03
f2
22
01
3e
03
ea
26
15
11
22
ec
06
09
05
01
31
01
16
1e
23
04
fb
1d
2c
5b
ed
fb
f9
df
f6
fd
02
fd
01
12
e7
f5
fb
ec
0c
f4
f0
ee
0e
fe
02
fa
e5
29
15
f5
15
f8
20
fd
07
f1
e8
f1
f3
e9
fd
19
00
e3
13
13
f1
18
11
f9
ce
fe
f0
ef
e9
0b
e7
fe
e5
fa
06
03
0d
02
e6
d6
f7
d6
16
f0
0a
fa
fb
fb
e9
17
05
f4
0a
c7
d8
f2
f8
fd
dc
ee
00
ea
0d
e2
10
01
ff
12
0c
de
fc
ef
ed
de
e6
f8
ea
f9
ea
f1
c9
12
05
17
fb
18
1c
04
00
fe
0a
34
ee
1d
d3
00
24
0c
fa
04
12
f6
05
08
e7
01
0c
1b
09
19
01
f4
00
04
de
19
e4
e3
d2
07
0f
1a
fb
f9
0d
03
ee
07
f7
06
07
ec
f9
da
01
ff
fd
ec
df
02
2a
f1
07
07
f8
e3
ed
06
d7
0e
0c
0a
01
18
05
01
c3
1b
f6
f9
f5
fe
fd
d7
f7
fa
13
0c
0e
f9
06
04
2a
f5
f7
f5
fc
f5
27
df
07
db
07
03
f4
fe
01
f3
e2
e7
f3
e6
06
e9
22
e4
f7
f1
18
e0
fc
e2
06
03
18
eb
fc
01
13
f0
ff
0e
fb
fa
da
03
ed
00
ff
f9
f2
f8
ed
ff
f2
04
fe
11
05
e9
ef
12
f6
dd
ec
fb
07
0e
ff
e5
fe
15
fa
f9
fa
3f
f4
09
ea
d9
01
07
fe
fb
e3
10
fe
f7
f7
09
19
1f
1e
f5
e2
05
02
f9
db
eb
f4
ab
e6
13
fe
06
01
0b
e5
36
f0
00
e3
0d
19
09
0a
01
03
e0
05
f1
fa
ff
e6
f6
26
f8
fb
fa
f2
e6
f5
c9
01
13
f6
ed
fa
d3
08
f8
03
f6
e4
03
27
09
e8
f7
06
24
03
e3
ec
08
02
eb
15
0c
08
11
cf
e5
17
e2
0d
0b
20
ee
2c
cc
ff
09
ee
fc
ff
06
f5
06
1d
04
0d
f6
f2
e3
0c
01
00
3f
06
d7
f4
f7
01
f5
01
05
04
f6
21
c7
f8
04
16
09
f6
ec
04
e2
e8
e2
dd
fa
03
ef
0a
0d
f9
09
2f
fb
0c
f4
07
f9
f1
de
12
24
0a
f4
06
f6
f4
f1
e4
01
e4
10
fe
00
e6
03
f3
fb
f4
f3
07
01
05
2a
e9
e8
03
0c
f0
e6
fd
fe
ec
fe
03
e2
09
f2
07
f6
ec
0c
ba
18
d9
fd
f2
00
0b
12
f5
00
f5
11
fb
ef
17
fe
fa
f1
fd
ff
e6
f1
fa
1b
ea
ee
e2
dd
11
fb
24
1a
02
1e
1b
1d
0e
10
f0
04
0c
26
22
f0
fc
17
07
dd
d0
03
e4
05
06
0e
fe
ff
ff
17
ee
eb
34
ee
0f
09
0f
0a
08
03
0b
f0
e5
f2
eb
f2
fc
fb
ea
fe
e9
d2
ef
fc
ef
03
26
17
cb
02
ed
d1
ff
ee
13
0b
c4
14
01
ef
02
e3
ec
14
04
03
00
f8
fe
e4
07
1a
eb
25
1b
05
da
fe
da
21
08
fd
f6
06
ed
f9
02
0c
eb
02
15
e9
fa
0f
f4
fa
f6
e8
10
29
05
cd
0c
d8
07
eb
0b
08
0d
cd
f5
0c
f0
e5
f2
1a
e9
00
02
e5
0b
ee
17
e4
10
08
ee
0d
c5
fb
f7
fe
e0
14
1f
00
e3
f0
ea
eb
17
22
ca
10
12
03
10
05
01
eb
fa
03
fe
ef
07
f7
03
db
f8
ec
07
fb
08
08
f7
f7
11
01
fb
04
1f
fa
00
12
08
0b
17
ff
06
0f
10
02
0c
e9
0b
d8
ef
f9
00
f0
e7
f9
ff
f8
ff
f8
eb
0a
fd
e5
1d
04
ea
06
12
31
f4
ee
f5
0f
0c
11
d7
ef
02
0b
13
01
f2
04
e5
2b
f7
13
08
d5
05
ff
09
db
15
f6
eb
15
b4
f4
c5
ef
05
e9
d5
0a
1e
09
e5
06
11
09
ec
06
04
f7
02
08
cc
09
1b
fa
fe
f9
07
da
d4
00
17
fa
f1
f5
06
07
11
03
01
f0
fe
08
fb
08
01
2b
1b
f1
14
0b
22
fa
f7
30
f0
2a
2c
fe
ff
1e
fe
0b
18
08
17
fa
e5
fd
ed
f2
13
06
f2
10
1f
06
f1
02
0e
d4
00
16
07
0e
e9
0a
14
03
f9
0a
1c
06
16
f3
fd
0c
0b
02
0a
21
0c
e8
f3
f4
0d
18
02
05
44
0e
f1
e6
08
00
e9
04
fa
04
11
01
f5
fa
06
18
eb
05
03
0a
12
01
f8
fa
09
f6
09
07
15
e6
fb
14
0a
01
0c
16
e0
08
04
10
01
e5
c6
fe
f7
1e
fc
e2
f4
eb
ea
03
14
0f
e6
ff
f3
09
1a
05
fc
11
10
30
30
fb
20
f0
0d
15
e8
10
12
03
e5
f5
01
eb
27
01
0c
19
03
fe
e7
ed
01
0d
e8
0c
e2
01
33
eb
22
f8
09
fe
f6
04
cc
fc
35
f9
fe
fa
ef
ff
0f
fe
ea
ff
f8
fe
fd
03
39
f2
04
f7
ee
15
01
03
0d
fa
fc
d9
f0
21
e4
f2
17
f5
e2
05
ed
f5
fa
f8
0f
f6
e3
e1
0a
fd
0c
dc
2d
11
0c
ef
d8
de
f7
ef
0e
07
f4
f9
fb
14
13
1f
a9
fb
e6
fc
f6
02
e6
fe
fe
d6
27
28
07
fa
f4
ff
09
00
fd
0d
e7
00
fc
26
14
ed
09
07
f8
00
1b
f9
fe
0b
05
09
ef
03
11
0b
0d
fa
11
0b
ed
17
e0
f1
09
1f
f1
01
ec
00
1d
f2
0a
f2
fd
f4
1c
00
29
19
0c
e0
f8
0c
06
cd
ff
23
1d
19
f6
df
e7
fa
20
04
12
10
fd
f7
fd
13
24
fa
e8
03
eb
0a
fb
00
06
ff
e2
00
f1
04
f6
16
ec
04
f6
fa
02
14
f3
f1
fb
02
dd
e1
01
d2
06
f5
25
fe
f9
20
17
08
ea
04
f1
2c
de
f4
21
de
f8
fe
f4
e8
09
f0
ea
af
d9
00
05
fd
f9
0a
d7
2b
20
33
f1
03
ee
e2
ef
f2
f5
eb
f9
07
fe
f7
08
00
f4
fc
e2
1a
e0
e9
f8
ea
fc
f3
e6
e6
04
19
d2
f7
1a
16
e8
fe
fe
ff
f4
df
0a
11
eb
10
fc
1c
be
13
ec
f3
23
fc
0e
f2
fe
f4
05
0f
1a
1f
f4
ee
09
17
ec
03
fd
00
ec
29
03
0e
f5
32
ea
01
ff
d9
de
f6
fe
f6
0a
ed
17
07
e9
15
08
ec
fb
f7
09
2a
e6
fe
e4
fa
dd
eb
d1
0b
fb
ff
f0
19
ec
00
0d
15
f2
01
f0
0f
1e
fe
f4
30
0f
ef
09
fe
ed
fb
fc
04
fc
28
00
03
fe
1a
05
0d
03
16
f7
ec
fc
25
07
03
f2
08
fa
e7
f5
f7
04
f6
ee
01
0e
de
08
02
04
07
f2
11
ff
0a
f6
f9
fd
0d
f0
f4
0c
e1
d6
fe
d7
03
28
ff
f4
06
08
e4
d8
ee
fa
c5
d5
14
0a
08
00
f5
fd
03
2b
0a
0d
d4
fa
12
04
ed
08
0b
12
0e
f7
1f
f9
00
f8
07
20
f7
ee
fd
ea
09
d2
20
09
fa
fc
e5
f9
f8
fc
1b
e6
ee
26
04
09
14
0c
05
07
0a
12
ff
03
03
e4
ff
02
ff
19
f9
ff
02
08
f5
15
ea
f6
ff
0d
08
19
11
15
ec
f1
16
08
05
19
e4
e9
0a
0d
da
13
ec
ff
ec
08
fa
14
fb
db
e4
06
10
f9
fb
10
08
f5
f3
22
0a
f7
f4
fc
e4
07
19
01
fc
fb
0d
0b
03
12
f2
19
14
2d
e4
e2
0c
16
ed
14
f1
f8
f9
fc
ef
01
09
e8
fb
fe
f9
f3
07
01
f7
d4
3f
12
ed
f4
01
f5
10
04
01
12
2b
0f
ff
ef
19
1c
f4
04
ed
0b
0e
16
f7
fb
1e
fc
19
f6
11
e3
03
1d
11
f4
10
17
1f
e1
fc
00
ee
16
f2
0f
01
01
04
1c
0a
03
2b
08
ef
0c
05
19
e9
01
01
f9
07
ef
fa
0c
fc
33
05
1b
e4
06
10
2b
ff
e2
f3
06
be
fa
09
0d
ee
fc
3e
f0
f3
02
ff
e8
08
e7
f3
14
03
f5
ee
e8
fc
f6
fc
16
07
eb
bb
ff
fc
f3
0e
02
f8
04
10
ff
e8
ff
26
11
fc
dd
07
2c
0e
06
2b
05
f8
14
fe
0f
da
f9
c9
18
e0
16
eb
ef
f0
06
07
18
02
1c
1a
f2
e1
e6
03
09
f9
df
fe
0d
f9
05
01
06
fd
eb
fb
f5
fa
05
db
f8
fe
20
05
f8
e1
0b
01
f2
00
11
13
fc
00
32
ee
06
fd
07
2e
f3
ea
fa
28
ed
1a
fc
12
f2
fc
16
0f
09
10
ff
07
10
0e
20
01
fd
08
ff
09
11
f0
fe
19
02
e6
00
08
0b
15
06
f9
0c
11
e2
34
05
01
e4
0b
ff
e3
f2
e4
eb
0d
07
15
ef
e8
02
f6
f3
13
07
f6
1a
fe
ef
fb
1b
45
01
fc
f8
cb
e5
fc
14
28
f8
14
f3
0d
07
0d
f9
fe
ee
df
f6
00
12
fc
fc
f7
ff
01
2b
fd
e8
e6
07
ec
2a
12
03
fd
e2
17
05
1d
10
e9
10
ee
09
f4
fb
03
23
f3
e1
fd
f3
15
fc
00
23
06
16
f3
0a
e7
f7
1b
e7
fe
05
25
0f
fe
e2
05
fe
17
ff
fa
12
fd
03
0d
db
f0
01
06
01
f7
00
f7
ea
fb
f5
e5
1c
06
fb
09
09
ff
29
f4
f2
e7
f5
0f
f7
03
fd
06
f2
df
09
ff
f4
00
fa
0e
f3
22
fe
f6
f7
ea
08
f1
16
21
1f
04
1e
ed
de
29
08
02
fe
06
20
2c
f4
fe
f8
f7
12
e4
03
ed
11
12
fd
ed
fd
17
00
07
2a
16
13
f2
01
1a
16
f8
06
0f
0f
f3
0a
0c
e9
1d
0c
02
12
21
db
08
07
0c
f0
01
0f
f6
15
00
e1
05
fc
0d
03
05
f6
fe
de
f6
00
01
13
f8
08
e8
09
04
05
01
fe
0c
01
e8
f1
e6
11
15
1c
ff
06
0e
04
eb
1c
01
f9
fe
ef
ff
03
05
1c
ff
dd
13
f3
06
f4
ea
0a
2b
1b
0e
00
e8
09
fa
06
f1
0a
09
0d
f4
14
0f
f3
00
d5
00
12
fd
05
03
1b
13
f8
fb
00
f2
23
1d
25
12
f1
02
13
20
0d
02
32
fb
f9
0c
01
06
00
02
fb
f5
da
13
ee
08
05
0b
ec
f1
14
df
08
0a
fe
03
fa
e1
fc
f9
0a
0a
23
08
ea
f9
15
f6
05
24
f9
00
08
db
cf
0a
14
f0
f8
ea
05
e1
ea
f5
f1
e6
15
07
f9
e9
f9
fd
11
e9
f5
0a
fe
fa
f3
09
10
f5
e7
e2
fa
25
01
ed
04
fc
1b
0a
ef
f1
ec
1f
21
01
f9
13
1a
f3
1d
0b
07
03
15
01
05
fb
05
e5
df
16
fc
f4
ff
12
fd
ed
16
fb
0d
1a
f8
f8
f7
f9
e8
04
09
0a
07
05
05
0e
01
09
f6
f1
03
de
ee
e5
fd
fd
10
00
1e
02
04
05
16
04
09
11
fa
01
da
12
0c
15
0d
12
e2
04
e4
01
06
0d
06
f2
0a
1c
00
f2
fd
08
eb
ff
16
e6
04
fc
f4
13
fa
2a
13
1d
ee
20
03
fc
14
12
fb
f0
14
19
e9
fc
f5
00
fc
07
f5
01
fd
ff
16
0c
2d
df
fd
22
31
07
f1
03
07
fd
00
ee
e0
ea
db
23
fa
f9
1b
e5
0e
24
ff
03
e3
fd
fc
00
f8
08
0e
04
fe
f9
3b
0d
ff
ee
05
0b
10
28
17
02
fa
04
11
0e
18
03
fb
ff
ff
15
eb
04
20
08
06
fb
0d
e9
09
0a
f6
ec
09
22
03
10
02
e8
fe
05
fc
fd
f3
fc
15
0c
07
23
09
f9
17
00
ea
0a
19
f5
19
fd
f8
f4
05
fd
1a
ee
f8
fa
fb
e1
01
fb
f4
f8
19
07
eb
f5
30
09
e5
01
02
15
e7
05
0f
00
dd
ec
02
d7
14
f9
f1
d9
f1
04
fd
ef
12
ed
f5
03
ef
0d
1e
fe
10
19
19
14
08
fd
fa
db
08
fe
f2
22
fa
db
f6
f6
ea
08
12
00
c7
f7
ef
f0
fd
fd
f3
03
ed
22
04
02
ef
ff
28
e0
ea
f7
f3
ee
1f
e9
0d
f9
08
eb
11
ee
04
eb
04
06
f7
fe
fe
fb
0e
ff
f3
01
fc
18
0c
09
e7
12
24
26
05
15
05
08
09
ef
05
00
01
f5
09
1b
03
09
00
f9
1b
0b
e3
07
df
0a
03
0b
fe
f5
ec
04
ff
ed
23
05
ff
0f
fe
fb
d9
f2
fb
06
02
22
2b
00
0a
01
0b
00
e1
09
f1
fd
f9
d8
fe
02
fd
f7
16
08
28
13
12
08
22
dc
f9
06
f3
e9
fb
fb
25
0f
fc
db
10
0c
f3
f6
ed
fc
0f
01
ff
08
ec
f8
00
04
06
0c
ed
20
02
04
ff
1a
e9
00
13
f0
f2
03
f6
18
1f
ed
10
06
18
f2
29
01
1b
00
0a
f8
0d
01
f6
1f
fe
f6
fd
00
05
f7
f8
ea
04
00
f8
04
f0
f2
0c
fb
fe
15
fb
1f
16
08
eb
d2
0f
08
fd
06
14
0c
fb
0d
e9
fa
f1
05
06
e4
1c
f9
09
09
0d
0d
07
eb
f3
f7
e2
03
16
20
ec
ff
ff
fa
04
0d
09
fd
fa
01
04
ea
f7
14
0c
f8
f2
28
14
0f
0d
13
0c
15
3d
f5
0d
19
ed
1c
f0
fc
f2
0d
eb
f8
ff
f6
18
fd
e5
e5
ec
fc
09
13
05
26
d8
02
12
f3
23
0e
00
ff
0a
ec
06
08
0f
02
ff
de
03
ed
21
fc
f1
f3
e2
05
08
1e
09
ea
02
f5
1f
10
1a
0a
0d
f7
ef
26
e7
e7
f8
ef
f8
f3
0e
0b
e5
0f
0a
02
06
14
0d
10
02
f9
00
0c
08
11
15
f5
ea
f3
f9
ee
09
03
03
19
0a
f8
07
f5
01
14
f2
06
f1
f5
14
fb
13
02
06
0a
04
e3
e0
23
14
f7
04
ff
2c
f5
04
f9
ce
ff
f9
17
00
02
ff
f6
f5
fd
1a
06
01
fc
25
04
fc
e7
00
f0
08
0f
10
1b
ff
f8
14
d5
1f
22
20
2e
f0
22
fa
fd
04
f0
01
e0
ec
03
fa
08
09
e0
f1
0f
07
31
de
f9
19
0b
f3
d2
19
fe
15
0f
09
01
0c
4a
04
ee
f7
0a
00
f8
f6
03
e5
02
0c
1a
04
fb
15
29
10
09
eb
e4
09
03
d8
12
08
fb
05
01
e8
0d
09
0e
ea
ff
f1
fb
02
e7
fd
fb
e8
f6
0e
07
03
0f
0f
03
f9
fa
f7
05
ee
fb
ff
11
02
e4
03
01
f8
00
1c
07
00
29
00
12
0d
06
f1
f4
f0
f3
f1
f5
0a
21
df
ea
d6
02
e7
19
05
ee
0d
1c
f7
e9
13
fc
09
ff
fa
25
f2
e0
10
01
0b
0f
ef
06
2e
1f
05
11
ff
18
fe
03
34
18
f5
00
0d
2c
0f
05
09
f0
df
13
21
dc
fa
09
16
04
16
13
2a
0e
e9
26
06
fc
eb
11
f9
06
11
02
f3
09
09
d4
f6
12
11
07
06
f4
fb
f4
ec
f3
ff
f0
fc
13
f4
0d
fd
03
0f
f3
e9
e9
13
09
12
f6
fc
17
ff
e4
15
25
fd
09
01
02
02
fd
14
ef
fe
fe
05
e1
fd
00
fd
01
36
20
ef
10
fa
0d
fb
0c
04
fc
ea
d7
02
03
fc
ea
fc
0f
0d
07
f2
f1
f8
e6
fd
01
02
07
0a
f5
04
01
0d
e7
16
fa
f0
1b
0f
20
14
0c
01
e2
09
24
fe
01
fe
ee
02
e4
fd
02
fd
f6
03
03
fa
10
ed
f1
0b
f6
f5
06
00
e6
01
ff
0b
f6
eb
f0
e8
0d
ff
e9
fe
e2
09
f7
e6
1e
0c
1a
22
06
17
09
f7
f0
14
fa
f8
21
01
11
f3
05
f6
0b
18
e8
fc
ff
05
0b
0b
fe
04
04
01
04
0e
ff
0e
1d
ff
04
e8
10
f1
05
0c
2c
04
0f
fc
f9
15
f7
f5
f2
13
f6
12
d4
16
f0
19
f3
14
1e
f3
24
e7
fe
ee
e9
02
0d
f6
f8
1e
e8
1a
fd
0c
00
09
fe
01
fe
05
fc
06
f9
20
1e
fc
0d
03
1a
06
ec
ea
09
fc
ff
04
f7
06
06
13
01
e6
ff
12
01
f6
f7
03
f3
fd
09
03
07
11
03
08
27
09
1f
04
00
ef
1a
ec
ef
f7
08
0e
fb
fc
11
05
22
20
0c
0a
eb
f9
ee
1a
ef
ec
fa
e4
09
17
fe
f5
15
0f
e4
00
18
e6
00
e2
e5
19
f6
ea
02
ed
ff
08
fb
f8
1d
ff
f9
f5
f0
07
f1
fe
1c
ed
ef
ff
1a
f5
fc
ff
31
e4
24
e8
12
f6
11
2a
06
00
f7
0e
16
0e
25
f9
fd
01
f9
f8
ea
04
fc
05
fe
00
f6
0b
0b
08
ff
14
19
05
13
00
05
eb
06
d3
14
04
08
f9
f8
fa
d4
04
d8
01
fd
d6
fa
fe
fa
11
10
fe
05
00
1c
ff
0f
fc
00
e3
ef
fb
15
ee
f7
fa
ed
0b
0c
1b
ff
05
fe
10
2c
16
0e
19
eb
ee
f7
f5
fd
01
07
04
07
f6
f0
e7
f1
f2
0a
ea
f1
02
d8
d8
12
14
f3
fb
02
e3
19
e5
1a
f1
f4
0e
05
20
11
03
0f
3d
1b
f9
03
09
06
05
06
ea
0d
00
02
02
f1
ef
2a
11
0b
1e
0c
fb
03
06
fd
04
ff
0c
09
13
07
20
0d
0d
13
fc
1a
ef
0d
03
f3
0c
f6
01
05
03
f1
0e
f6
00
24
f6
00
d1
0d
f2
f9
e6
f0
04
04
fd
0d
0f
eb
07
ff
fe
08
fc
fb
0a
fe
03
e0
00
e1
fe
09
14
0a
05
04
f9
f8
14
e7
ef
1c
01
03
f4
00
09
01
fe
13
d8
0c
fe
eb
cf
0c
fe
f5
fb
00
f2
22
10
fb
fd
f6
0a
f5
ef
fd
06
f5
12
f5
ed
09
eb
f5
d1
04
fb
05
01
ee
fb
f3
fd
19
f4
14
f0
f1
0d
ea
14
01
08
06
fb
ff
00
f6
18
fe
f1
fb
10
08
02
03
12
06
04
16
f2
09
1f
f1
ed
e4
f3
0c
08
25
ea
f1
05
01
de
15
08
ff
00
ed
03
28
ff
f8
07
3f
05
f5
f0
c8
00
06
15
da
f5
05
0d
f7
fe
c8
0d
df
f1
e3
0a
fb
20
01
ff
0a
17
ea
1e
fc
d9
f8
df
e8
f0
11
21
e6
f1
46
05
eb
e2
01
f3
23
e1
03
0c
f3
04
ee
f5
ee
e8
07
0e
fe
e7
f8
16
f0
c8
03
0a
fd
02
0e
04
f5
0f
3b
f4
fc
00
f0
33
14
0f
0e
eb
ee
0c
08
ee
f3
02
06
fd
0c
03
1b
0a
18
eb
d7
03
0b
18
f3
f4
f6
d5
d7
01
03
f8
08
ff
05
eb
18
e4
f8
18
dc
e5
35
f6
e9
00
ef
0a
1c
f8
db
04
e9
22
fd
e4
f8
db
fb
0f
f8
00
fe
ff
ec
ff
f5
19
de
06
df
ef
ff
09
17
ec
ce
03
2d
f1
e3
ff
0a
0d
03
fa
de
e6
0a
f2
fa
0b
05
f5
21
ca
19
f0
16
fc
fb
fc
f4
09
0b
f0
e7
f5
10
00
e9
00
04
02
e7
f3
e8
e3
ee
15
fa
f8
23
06
dd
0f
eb
fc
06
f2
f5
f7
ee
f5
04
02
f1
e6
0b
ef
ee
0e
ed
04
fa
06
ed
39
28
fc
f1
16
01
cd
05
26
dc
fc
05
e4
f1
32
c1
c8
13
00
f2
13
eb
f3
10
ff
10
0d
02
fd
e5
ce
13
4b
fb
d9
15
e9
f7
cc
de
11
1d
13
ec
ef
1c
0b
0c
fa
f6
19
f6
ee
01
c7
2a
f5
11
f6
da
fd
03
fe
d6
03
13
ee
09
e4
30
cf
04
1e
ec
f1
e9
0c
1a
e7
0b
0c
dd
e7
17
03
f4
e5
04
da
17
ff
1c
fe
e5
0a
e7
f7
fa
f0
0c
10
09
e9
08
18
25
11
d3
f7
d4
10
ff
11
f7
ec
f2
fe
01
f3
f4
18
cb
02
04
dc
1e
02
da
ec
0f
0a
0a
0e
e9
f6
fc
be
f2
09
f8
ff
12
09
f6
0e
f7
ff
d7
0e
f6
e8
04
ec
de
ed
f7
f6
01
e6
ff
08
f7
f9
2f
1c
cc
14
10
07
05
00
ef
07
0f
0c
0b
0d
1e
02
f8
f8
c7
0a
cb
f8
c3
f1
ef
09
05
1b
13
08
17
09
08
31
0d
ea
e2
dc
04
dc
15
ff
f9
b6
00
2b
e4
de
08
f6
ef
15
ed
33
ec
09
cf
07
f1
ec
ec
f6
16
ce
f1
fc
04
0c
e9
04
07
18
13
15
06
05
0a
d9
df
2f
17
fe
08
d0
01
1c
0a
0a
29
de
08
db
fb
05
12
00
fc
d7
f3
0a
f4
07
f2
21
f3
e8
00
0c
f4
fd
f3
00
df
e8
db
1d
0c
11
14
dd
f5
14
05
cb
16
14
e4
2a
c2
0a
03
03
00
04
00
05
0b
09
e3
f6
fd
08
24
f8
10
26
24
dd
0e
f2
f4
e8
fa
0c
20
05
01
f8
d8
e0
f6
00
28
07
d9
f4
f9
0e
ea
e4
07
f0
ff
de
15
1b
fc
e4
0d
05
db
f1
fd
09
ef
0e
f7
01
ef
f7
e2
15
13
f8
e4
11
19
09
00
fd
df
f7
e9
fe
f9
20
dc
05
13
1e
24
fc
ff
19
fc
d6
30
02
ff
fe
ec
02
0a
f8
f4
1e
02
f2
03
0e
13
01
19
e9
c5
f5
f8
00
f5
cc
0a
f9
10
04
0e
ea
05
ec
fd
f4
fc
d2
fd
fd
2f
0c
f8
04
ef
0a
10
14
f2
e3
04
14
03
01
08
eb
db
e0
02
f6
d5
02
cb
ef
ec
29
fb
07
df
07
ed
f6
03
fc
ff
ed
1b
fe
f4
f9
0a
23
11
08
0e
f7
17
01
10
d1
00
26
06
f6
0a
f0
05
e2
09
01
da
f7
06
fe
12
13
01
c4
fe
e0
f4
f6
09
10
1f
e0
f2
1a
c6
e2
e8
01
28
ed
eb
ff
06
00
df
e1
f7
d1
f4
fb
ec
07
ee
de
08
3d
01
ed
0a
04
11
15
07
06
1c
fd
e4
01
f7
0f
f5
fb
ef
f4
fd
17
fd
f8
f3
bb
21
21
2b
0f
ef
f7
22
f8
f2
fc
16
db
ff
00
e2
0b
03
f8
fd
17
f1
f6
09
3a
f4
da
02
fc
ee
07
0a
17
df
fb
14
e7
00
ff
00
fa
06
ea
1c
f4
e1
db
f8
03
0b
ff
eb
e7
04
ff
ea
fe
f7
11
f8
fe
de
f8
f0
03
06
f2
fd
14
13
00
ff
d4
25
f3
15
04
ec
0b
fb
f2
14
1a
02
09
1a
31
e1
14
0e
1b
e9
fd
e1
15
1d
f2
ed
0e
01
00
f2
0a
09
06
de
06
fb
0e
f9
f8
01
f7
1f
f8
00
ed
f0
01
f6
04
12
d2
15
47
ed
f8
04
cb
11
fd
f7
07
11
0b
0e
eb
ef
0b
e4
07
f9
e1
f6
fb
17
03
16
fc
0d
24
fd
06
07
07
02
0d
27
0c
0a
07
09
f9
04
01
25
01
05
03
fd
01
2c
ec
01
de
16
02
0b
f1
0f
32
1e
c0
f1
ed
1e
0e
fd
54
09
15
fb
fb
00
0b
ef
fc
b9
f8
04
e2
f3
e6
da
10
fa
ed
14
e4
1a
07
0e
ca
03
08
1e
11
0b
01
06
13
e9
f9
07
fa
05
0c
15
09
02
12
ff
f8
07
f4
f2
13
fe
fd
36
16
07
fa
11
fc
0c
f8
01
fc
05
1d
fc
e9
13
01
fc
01
02
0f
fa
23
f4
fe
1f
f2
1b
e9
fd
e4
e6
f9
cf
17
07
04
fc
11
0f
1e
e1
1e
01
e4
08
0c
f3
14
e0
f8
f0
ef
04
09
04
e4
0e
17
12
06
05
22
20
fc
eb
dd
ea
fe
fa
20
bc
03
ee
cc
ff
e5
fb
fd
0a
32
f8
00
ec
ec
eb
e4
0c
07
f0
fe
09
fe
e3
1e
e8
fd
f6
00
0b
e5
1d
ec
e6
dc
1b
f8
14
f6
07
ee
fe
06
f0
f3
16
fb
fe
f8
06
16
ec
08
f2
e0
17
fe
e3
d4
06
01
01
0b
09
dd
ea
f9
1a
f9
05
03
10
16
0d
ee
0f
ed
d6
e5
05
04
ef
09
f9
f2
16
09
0a
06
04
fb
fe
05
db
f5
18
17
2d
e6
01
05
0f
03
07
0c
1a
f0
00
f6
0d
ea
f4
05
cf
f3
0a
f5
03
c5
03
fd
ef
01
11
f8
00
0b
fd
f9
04
e8
f8
01
f3
08
05
05
e9
fe
0b
06
fb
0f
0a
1d
03
10
0f
fb
fb
ef
ee
19
f1
e8
03
06
e8
d9
01
06
f3
d4
0d
f0
fd
e5
07
02
ea
00
0d
1d
f1
fb
07
f6
f2
f4
f4
f1
fb
e8
07
ed
e9
02
fb
e8
f3
fb
fe
eb
fc
f9
04
16
ea
12
f7
0a
0b
e7
17
0f
e6
f9
08
f7
f5
10
fc
fb
03
fb
00
ef
fd
e3
05
fe
f8
f9
08
f8
fa
1a
e9
16
00
03
0d
fc
00
ef
08
f5
eb
fd
cf
f5
e9
03
12
0d
e7
e4
f2
11
04
06
04
1f
ef
02
eb
0a
0e
15
eb
fc
0b
d7
01
0a
01
09
f9
01
0e
f4
05
f8
ef
f9
0e
eb
08
09
f4
15
04
f2
fa
0e
fb
0c
f9
f6
f6
06
df
05
0d
f8
00
1c
f4
df
06
04
00
f7
09
05
02
f9
fd
de
fc
1a
0a
04
0b
fa
f0
fc
1b
e5
18
04
f4
dd
fe
1a
ee
fd
fb
f8
0b
d2
fc
de
fd
e9
05
ea
f2
1e
0d
f9
f8
f3
0f
0d
eb
2d
0b
1a
e5
00
f9
07
e5
fc
ef
e8
e5
f5
fe
06
0e
17
e7
1e
f7
09
f9
2e
e3
05
ea
01
f7
f9
20
f5
06
05
32
fe
1f
e9
fd
26
e5
16
f0
fe
22
05
04
f3
ec
fc
12
1b
e4
04
12
fc
08
fc
dd
d7
20
e8
fc
e9
ee
05
ff
18
d7
ee
e5
22
ee
0a
06
18
f8
0a
22
26
02
fb
0d
ec
04
08
e5
d0
08
05
f4
f5
0c
0b
07
00
f7
f2
fc
fa
eb
01
10
e5
07
0a
03
02
0f
f0
e4
f9
01
10
dc
f8
f0
dd
fe
fd
18
01
13
06
09
0c
fe
16
04
fa
17
f4
08
07
0a
01
03
06
18
0e
e0
16
03
26
e8
f7
03
f4
02
ff
f5
fc
f3
0c
fc
05
0e
fb
e5
0c
fb
f9
02
02
03
20
f4
0e
04
00
0c
06
04
09
ef
e1
02
18
ff
fc
01
01
f7
f7
f0
1d
04
0a
f4
df
df
ff
f7
f3
e2
03
f9
19
10
f4
d0
08
ed
fe
d5
fe
e2
f9
05
00
d0
ea
ff
06
08
f0
23
15
ed
f7
13
e9
f3
f5
0e
de
08
e2
02
e2
09
03
0c
0d
f6
1d
00
0c
09
0a
1e
f8
f0
16
14
1f
0f
e1
18
e6
fe
07
f4
08
f7
ea
dc
fc
02
f1
08
11
e8
00
03
02
f9
fe
0d
ed
dd
ff
f2
08
ed
02
f5
f5
f2
04
eb
ff
02
e0
11
05
0a
ea
0b
d4
16
eb
fd
f7
f4
fd
f8
06
05
0e
fe
fe
04
fb
00
f7
00
fa
d3
1b
08
14
02
f9
07
f1
1a
da
18
e2
ff
f5
f2
03
05
fc
05
2b
01
28
00
f6
10
ed
f6
f7
e7
0d
0c
06
ff
08
04
f8
00
fd
ff
02
f2
12
0c
fd
f8
19
06
02
cb
f8
fa
dc
12
0c
20
ff
10
fa
fc
0c
ec
07
01
d8
06
fa
f9
00
08
0e
1c
f7
19
df
ff
38
f6
f5
fd
ee
f1
0c
eb
03
da
d8
f6
fb
e4
f9
cd
15
10
0c
f0
26
e9
f4
12
e4
e5
26
03
fd
10
ff
19
0a
00
ed
02
f5
0c
ee
04
f2
f7
04
fb
23
00
ea
00
fb
01
e6
dd
d4
0e
05
f7
dc
e4
f2
04
0f
f3
05
11
0c
ff
0c
f8
07
08
ff
fc
0a
11
01
dc
1d
fd
07
e3
eb
ed
fa
12
0e
ff
f0
13
f1
08
f8
1c
0b
00
08
fa
eb
fe
e7
fc
d4
0a
0a
19
03
fc
fe
12
f9
f9
fc
e8
fb
f4
0e
f8
12
fc
ee
05
f6
fd
0e
16
ed
2f
05
ec
1b
ff
fb
14
ce
ec
02
f8
f4
fa
ff
19
14
f1
f4
f8
2c
ef
0a
e7
fc
fd
03
16
f5
03
06
0e
e8
05
e9
e1
f3
05
1c
f9
fb
fd
f8
0f
f0
fb
dc
05
05
fc
fa
e7
0b
f5
ec
fe
28
ed
15
fc
f3
d5
01
01
08
01
fe
09
05
eb
04
03
f4
08
ef
00
fb
21
39
f3
ff
1a
22
ee
ee
f7
0e
ec
32
f7
ff
1c
fe
1b
db
ca
ec
06
eb
fa
14
f4
ee
15
fd
ef
02
00
fc
f5
20
05
f3
f4
e6
f2
23
fc
fc
05
08
e9
17
26
fc
ec
d8
fa
10
f9
05
08
f4
ef
ea
f6
f8
0e
08
0d
fb
f7
f0
ed
01
ea
02
f5
0b
11
04
0c
e6
0d
f4
00
27
0e
fc
01
e9
06
ff
0e
05
05
02
ea
03
ed
fa
f7
f6
e7
f1
0e
ff
02
f1
f4
e1
f1
0a
f8
f8
03
f5
11
dc
01
fa
de
0d
f6
0e
2c
01
0d
f1
17
18
f1
09
17
06
ee
05
f8
0c
18
01
0d
07
02
f4
07
00
dd
fa
0a
02
fb
fb
f9
fa
0b
ee
ec
fd
02
04
db
00
07
f8
0a
f9
fc
07
1a
01
05
fb
09
0a
e7
01
0c
08
fd
18
03
01
e6
fc
c8
f4
15
06
f7
00
d8
25
fa
f0
df
f8
f3
04
10
0d
07
fc
04
10
3d
fa
02
0a
08
16
f2
d6
06
0b
f1
e3
0a
18
f5
f9
06
f8
fc
0e
ef
fb
0d
09
f6
f9
32
07
f0
ed
41
0b
f7
e8
16
f0
f0
e5
fa
f0
d1
fb
e9
01
06
02
1b
0c
fa
0b
fb
09
de
10
05
01
e7
f8
eb
f5
f2
10
00
00
04
13
03
02
36
f1
e7
00
ef
35
12
db
02
0a
13
d9
fe
0d
fe
dc
f6
e9
e7
04
d2
e8
df
fa
21
e9
eb
e2
00
0c
e6
00
fb
11
1d
c2
08
d8
06
17
0f
11
0a
07
ee
0d
22
3b
e5
ee
f6
01
20
04
ea
0a
f9
0f
f8
ef
03
26
10
11
f3
06
ee
ff
ec
09
08
1b
11
16
07
ec
ed
03
06
ff
da
fc
02
11
11
0a
fa
0e
10
0f
1b
1a
cd
ef
f2
f5
18
0d
f6
f9
db
ef
0a
15
07
11
f0
01
13
04
d9
ff
f0
00
eb
14
0e
00
14
10
de
e9
02
d2
18
06
fd
fc
00
ed
f3
f6
fe
fa
ee
fe
fb
c7
0e
e9
e6
fc
11
db
f0
f9
0a
ed
1e
f9
07
0d
ef
f9
d9
f8
11
06
16
e8
18
00
e5
f8
f2
03
f8
13
2e
16
fe
eb
ff
14
03
02
08
ff
09
03
14
11
01
0f
d2
ff
f8
00
31
19
11
fd
0e
12
ed
f4
16
ff
ef
03
e3
fc
0b
04
fd
fe
33
dd
0a
fb
23
f6
ff
fa
f6
f2
ff
0b
f4
f1
fa
2d
03
e3
f6
ff
00
08
02
fa
de
1d
0b
f9
0c
e5
fe
e5
02
29
fa
04
02
ef
d1
e3
0c
16
15
fe
ef
03
10
0e
1d
1d
01
0f
08
e9
12
ff
06
f8
28
03
dc
17
fb
26
10
f3
f2
19
0f
fd
1b
f2
12
fc
f2
0a
18
05
07
0a
e0
22
ff
fa
f3
fc
fa
17
0f
fd
0c
e6
0a
d0
0f
03
07
f9
f6
fa
07
f7
ff
02
0a
ff
07
fa
dd
0b
f8
02
0d
0f
0d
23
17
11
ea
10
17
f4
2c
f8
f5
e7
f7
f5
21
01
fc
12
00
f8
c6
16
32
ee
ea
01
ea
f9
1e
40
19
f9
0c
02
1b
19
07
f6
0a
d8
f0
fb
06
07
f7
f3
06
f4
f5
1c
fe
fe
2e
1f
08
fa
0b
f9
fd
06
04
05
fc
10
0d
f9
26
fa
fd
11
f9
d6
ff
ea
f6
12
fd
e7
e7
05
f2
13
ef
ed
24
e2
0d
01
fa
f6
fe
20
e6
ed
1f
01
03
fb
08
10
fd
ff
0b
eb
f3
fb
01
08
fc
db
0d
e2
f1
f7
f2
05
f7
0e
2e
40
09
0f
0d
f9
1f
12
fe
f8
c0
f0
fa
ff
fd
d9
f9
e6
f2
f2
03
f5
09
20
04
2c
26
03
0d
da
14
d2
23
1b
fa
e5
3a
fd
fc
f7
04
f9
06
0c
ed
f9
f0
16
fa
12
f1
fd
f4
fd
2d
12
fe
01
05
fe
ea
dd
11
15
ee
00
11
07
17
16
13
f3
ef
0c
fa
04
f7
00
1d
fd
e6
ed
ec
fa
fb
e5
f6
ff
0f
ee
f8
05
fe
00
ff
fc
08
12
00
15
f9
08
02
f1
10
ea
cd
18
19
f5
0d
06
1f
f9
19
05
f1
ec
ed
10
f5
f7
f8
fe
24
12
f4
f3
01
ff
01
0b
08
fb
f9
f1
fd
00
02
0a
f7
1f
f8
fd
fc
0a
f7
04
02
03
f1
0a
e3
00
0f
e5
09
fd
07
03
12
e9
ee
1f
f5
09
f1
0e
02
08
09
0b
fa
fb
f7
f0
04
00
05
ff
ff
cb
ec
01
03
00
07
f7
05
03
e4
3a
0d
d9
09
f7
10
0e
ee
19
e7
04
fd
e5
eb
03
fa
d6
0e
08
fc
ee
01
11
f5
04
fa
f3
ef
21
f5
ea
d9
fb
f8
d9
fa
fc
09
03
ff
f7
fe
f4
ff
04
eb
ec
f6
df
f9
eb
10
fd
e0
0d
0d
12
08
24
fe
13
06
ef
fc
fb
0a
0c
14
fc
fc
20
f3
e4
10
0f
e4
1f
f0
f7
fa
dc
eb
ef
03
01
56
f7
cb
21
04
01
08
e4
0f
15
0b
03
ee
0c
fe
15
0a
07
01
15
00
11
cc
07
fe
13
f4
e8
04
ed
06
df
1f
f1
f9
f0
fb
03
fa
fd
12
ff
fc
0c
fa
ea
08
1b
0a
ec
16
28
07
1f
12
f3
0d
20
e5
fd
07
f8
1f
17
03
0e
06
0a
06
1c
07
08
03
e3
0b
ff
f5
f5
06
21
d0
ff
ef
0f
00
10
de
00
16
f2
f7
16
fd
12
de
f6
e6
01
27
f9
01
0e
0d
0e
0d
00
06
d6
f4
e8
fb
18
ef
fd
e6
ef
fe
ea
06
00
df
ee
d4
01
1b
0a
20
0c
f4
f6
0c
09
00
2d
fe
e8
11
0d
11
1d
f4
eb
fc
07
05
ff
ed
06
0e
13
f5
10
06
03
fb
f7
24
01
ec
10
dd
ef
f2
0a
1c
0c
fc
0a
fb
02
f7
fc
00
2a
10
02
0c
ff
f8
f5
1f
f3
01
de
f9
0a
e8
19
10
07
0d
13
1e
fd
05
0a
0e
01
fb
02
03
f7
fe
18
fd
30
eb
ed
13
e6
e7
1f
00
04
ff
12
f5
11
e1
03
1a
15
fc
26
03
04
01
18
0e
fa
1b
07
1d
08
f4
f1
03
f7
0e
03
f8
ee
04
30
05
f2
fa
f1
ff
f1
01
01
ef
10
f9
06
fb
fd
f3
10
04
0b
f6
13
03
ff
02
0f
ed
db
0b
ff
40
f8
05
f9
08
0f
09
0b
00
ff
ff
04
18
df
e8
f4
05
05
f2
01
04
15
13
ff
fa
0e
16
18
07
2f
1a
10
fd
fe
04
07
f8
ed
08
24
12
ea
05
ee
05
fb
fd
fd
ef
dc
0b
17
02
e6
fe
f8
15
1f
de
06
00
16
0b
07
fe
e1
f2
05
e9
ff
17
1c
00
02
f5
fd
07
05
e5
f3
ff
14
0c
02
ba
cf
0b
ff
ff
fd
f9
f7
dd
04
0b
e9
10
f2
d9
0b
00
fd
f8
27
fd
f2
03
f8
12
20
00
12
06
f5
01
0c
03
ed
fd
de
e1
cb
f3
05
f7
f5
05
f2
ea
18
fe
04
05
07
06
e5
f1
fe
ea
09
ef
0d
01
fd
1e
fd
13
e6
fe
22
0a
fd
01
02
cf
e0
06
0a
0e
fd
df
f0
0a
e9
fa
16
01
22
e7
eb
20
18
3c
f3
f3
fd
0e
07
fe
1f
ee
14
0f
0f
09
c3
18
f5
1d
cd
ee
27
20
14
fe
e8
f5
f7
17
00
e2
fa
01
f8
fe
0c
fe
18
fd
f8
f4
0f
e6
ee
f8
ea
17
d5
f3
f7
0d
ed
05
e7
12
18
08
05
08
ef
04
f9
0b
19
ee
23
e1
e3
f4
f3
fb
0a
f9
04
e3
fc
fb
c4
fa
f4
05
06
ff
03
fb
ed
01
04
0a
12
f8
00
f3
14
06
f8
e2
36
f1
fe
e1
ee
f5
09
09
2f
14
1a
fc
00
23
cb
ef
00
00
c9
d2
ef
05
11
01
0c
fe
02
fb
21
fe
f4
eb
02
06
f7
1a
0e
06
f3
0e
1b
08
11
e0
02
d8
fa
0f
03
ec
f3
f2
25
fd
fb
e4
f2
f9
fd
0d
04
46
f8
d8
e2
ff
14
25
fa
f8
ec
01
ec
03
fa
03
fd
0d
fb
1d
17
15
14
f4
0d
0c
09
01
0b
01
f9
29
03
0a
09
22
ea
ff
12
00
08
0f
12
fe
16
11
ef
2a
d1
e7
2c
15
e6
fe
fe
fb
f7
0d
0c
02
ec
0b
02
25
06
dc
f0
05
eb
0c
f1
f8
04
08
16
05
1d
fb
0d
fd
0a
fb
ec
04
20
f5
00
0c
00
03
2d
f3
23
fe
27
1c
12
07
0b
05
3a
17
17
f4
0d
ed
f3
03
20
01
14
f6
ef
0c
f7
ef
06
0b
fe
0d
fe
0e
ff
fd
11
19
fc
fb
11
0b
14
fa
ec
1a
08
0c
ef
fb
15
df
02
f9
01
04
0c
e1
e0
0e
ff
fe
05
03
0d
ff
e9
e2
f7
fe
15
f8
d9
c2
f7
14
1e
14
0e
f4
22
eb
2a
06
02
12
02
1b
17
f6
02
15
f4
db
06
0f
f5
10
05
2c
0a
da
19
07
fe
01
fa
06
e9
12
04
ff
f2
0e
ff
02
1b
f5
05
0f
05
fa
02
1d
f3
08
f9
fe
26
e7
f4
f6
f5
0f
0b
1a
06
0a
03
f6
04
16
1e
f0
f6
f7
04
e6
26
f5
d8
0b
07
ef
f7
03
10
fe
07
03
13
07
0f
f9
eb
15
fa
fc
f1
f5
fd
ff
f3
e5
f7
2d
f1
f6
f1
02
03
08
e4
fb
10
1e
e0
ec
f5
f6
ed
04
e6
c5
ea
fd
12
08
12
06
f1
e9
ec
05
11
0b
04
28
13
ef
1b
14
0d
fb
d5
0b
f8
0d
e2
03
07
e7
fc
1a
10
07
0a
f8
e8
11
16
1f
05
fa
f4
10
04
13
f9
06
fd
1f
0f
f6
0a
ea
fe
ea
fb
15
f8
ed
f6
db
15
01
f2
fc
f2
dc
0e
03
e8
f6
07
00
03
00
01
00
f4
19
0e
07
f3
12
07
32
15
e3
f4
1d
00
2e
00
ec
c7
0c
12
f6
d4
13
f6
17
e3
fc
11
0d
03
09
0f
12
fd
02
e5
06
ed
0e
24
05
1c
f6
f2
01
02
00
df
e6
02
fe
fa
14
ed
d5
fc
35
fa
0d
13
00
1c
02
04
15
0b
fa
27
f3
02
c1
18
07
fc
09
08
e6
0b
f8
07
e0
ea
f3
e3
13
fc
2e
0e
fe
f9
1d
02
22
0e
f4
08
0e
06
fe
fc
e8
0d
28
f6
f1
04
0e
fa
f4
00
01
10
29
f1
06
14
fe
ed
0d
06
d2
f2
fe
18
e5
00
04
10
fd
fa
08
e0
f6
01
17
00
07
ee
ec
2d
0f
11
05
e8
06
fa
0a
e7
08
fc
03
07
f8
06
fc
03
14
f8
ff
f7
05
0a
11
ff
fb
f0
06
0a
19
ee
fe
eb
0b
f9
01
ef
d5
13
1f
01
00
d4
f8
0b
0e
28
1d
13
d3
f6
f0
f1
df
00
0e
1b
4f
fa
f5
ff
ff
f1
ef
03
00
ff
e3
f5
e3
0d
f4
14
09
28
00
0e
fb
09
e3
fd
00
0e
ea
d4
fe
00
f7
00
01
2d
32
fe
08
fc
dc
f7
e5
f9
fc
20
16
0b
e8
25
fc
e7
fb
f3
e9
ff
f5
09
06
2c
0a
fd
ec
0e
08
16
03
dd
1c
f4
ed
fb
05
e9
0b
fc
19
fd
12
01
20
23
13
07
18
0b
05
09
fd
ff
18
1b
0a
17
3b
2c
07
13
03
fa
04
fb
10
00
f8
ed
0d
f5
0b
f8
01
fe
05
ec
09
f7
0b
04
ff
f7
00
fd
01
0c
06
0e
ff
03
00
2b
2a
e9
0a
db
f8
09
fd
f2
f8
ff
01
1e
0e
e5
0c
02
0e
0b
17
da
0b
0d
05
11
0c
e0
06
f4
0f
33
ff
02
e7
1d
e5
1f
ff
fe
ed
ef
e5
fd
02
fa
04
09
e2
fc
ec
23
0c
03
e5
23
ff
48
0f
f0
18
0f
ff
10
e6
00
31
f3
28
0a
15
e9
02
ef
0a
0d
00
11
f2
0c
15
08
db
ff
04
ee
06
fe
fa
ef
07
1c
ee
f3
07
0f
05
14
06
e8
05
0a
08
f8
15
fd
fa
01
04
fa
00
1d
f9
ff
e6
0e
02
ea
25
f4
0a
11
f2
fe
02
10
fa
0a
0f
0d
fb
e6
10
2d
fb
0d
f5
e1
fe
ff
23
1e
f8
12
13
ff
24
f9
0c
0e
1b
11
02
f6
0a
04
1d
e3
18
f0
fe
1f
12
dd
e0
02
0a
fb
08
f3
e4
02
e5
d9
ed
f9
2e
0f
1c
fe
0b
08
14
f2
e6
03
0a
0a
1e
f4
0d
0e
05
e4
f3
20
07
1d
0f
e4
f4
07
f3
00
d9
00
24
17
0b
04
17
09
01
0d
0f
fd
ea
26
01
17
0b
00
05
f9
e1
ed
f9
05
16
14
2f
e4
01
f0
03
0e
04
e9
20
17
0c
ef
11
eb
fd
ed
f7
f1
05
fd
02
eb
10
ff
0e
d1
ff
f9
1e
fb
03
d1
1b
e6
fc
eb
f9
fd
06
14
19
1c
f0
0f
09
16
0b
0b
01
00
fa
05
0c
f8
1f
f1
e1
f4
20
f2
e3
07
ed
ef
11
03
01
ff
02
df
e3
f9
ef
01
e3
f6
09
fa
09
0d
fc
16
13
05
e8
ed
f2
f3
ea
fe
e7
f9
da
fb
e5
fe
06
f9
0d
f1
02
04
02
f3
14
24
f0
00
f6
02
01
fd
f8
d3
e4
00
e8
de
e6
fe
07
e8
f5
09
08
ed
03
0b
f4
21
e9
01
f3
09
12
12
28
1b
05
ed
f8
06
00
f7
0e
db
0f
08
12
fe
0f
07
03
fa
da
f3
03
f9
02
0d
03
fe
0c
e1
f7
ec
ff
f9
f6
2b
09
fb
df
f9
be
07
f5
05
f7
ed
f9
f8
f1
3b
01
23
f2
fd
e1
fd
ed
e8
fc
f9
ec
00
06
f5
f2
01
02
f5
e5
12
f7
fd
11
c3
1d
03
f8
fa
22
e4
0a
ed
f8
0c
e1
f9
02
fc
f8
e8
f2
f9
0c
13
ef
e0
ec
e9
ef
f5
f8
01
fc
00
fa
f1
ed
09
04
f8
f3
03
fb
f7
fb
ea
f7
de
ff
0a
fc
f3
f8
1f
04
02
08
f0
fe
f6
0a
f5
0e
00
f8
d3
0a
d7
df
00
1d
03
07
0a
f0
fc
e8
f4
fb
f2
ee
f1
06
f0
06
02
f2
f7
16
09
2b
fe
f6
19
fc
fc
eb
eb
f4
fe
fa
fb
07
01
18
f0
e5
f8
f1
10
0d
11
00
ff
f6
1f
09
ff
f0
f3
f1
de
0a
02
01
ed
e1
04
f2
04
0e
fd
fb
0d
f2
f3
e7
00
e6
3e
f2
10
d0
dc
06
08
fc
fd
1e
16
e4
f7
16
c8
15
02
de
e3
e7
f6
23
0b
fd
f1
ed
e1
fd
08
0d
0b
ee
1b
ee
f4
0e
f5
00
01
fe
f7
e1
01
f2
e4
f1
f3
e8
07
e8
15
e6
04
dc
f5
10
fa
f7
ef
e8
fe
f1
f0
04
2e
fe
0c
0c
14
fd
0a
06
f3
01
f6
f4
01
03
fb
05
d4
ef
0b
fc
02
1f
dd
0d
ec
db
01
05
f6
fe
29
07
ef
ec
f9
ce
3d
0d
05
fc
13
f1
fa
02
e2
d1
f2
07
02
03
06
fb
f6
07
02
eb
fa
07
05
f8
d9
fa
f5
e8
fc
d4
08
d5
ea
38
d3
f3
e4
f5
fc
11
14
f0
f4
e1
f1
fc
00
22
fd
f4
f4
d9
0c
20
ec
f4
cf
16
08
05
06
01
02
e9
fe
f8
ee
01
e3
fa
07
03
09
ff
e7
ec
01
03
e7
0a
0b
fe
0b
f8
0e
f2
e7
f5
f8
f0
ed
eb
ec
0d
f4
05
e1
ff
fc
06
e5
e8
fc
e1
00
f0
e5
09
03
ee
f7
fe
fa
f6
e4
04
e3
01
fa
0d
f9
03
f1
f9
f1
04
ec
07
f5
f5
f9
04
e5
df
12
fe
06
1e
f4
02
0a
eb
07
fe
e9
f4
10
0d
12
e9
07
b7
f0
06
06
06
20
e7
03
f3
14
05
f0
0a
ed
f5
23
07
10
e9
e7
fd
03
f4
ef
0f
ef
e7
f3
d4
d6
01
03
db
f4
00
17
fb
0b
dd
df
f9
02
e4
14
e3
f4
0f
1b
01
0b
07
00
f6
f1
0b
ed
1a
f3
ea
f6
f3
14
f7
dd
ec
f7
fd
04
f6
01
0f
07
f1
f9
ed
fd
e3
ef
11
19
0c
e4
db
16
fd
fd
f0
f3
0d
08
22
fa
09
ff
03
04
fb
fb
fb
e9
0d
fc
ee
e7
00
fb
0c
1e
01
1d
06
fa
fd
f1
fb
fe
fe
02
16
c6
f5
02
04
fa
fb
e8
03
e0
fc
f8
fc
03
06
f7
e0
fb
1c
df
0e
05
09
fc
f9
08
05
fa
e8
10
f5
fe
15
f4
f3
01
12
fc
09
f9
f6
e4
06
1d
ec
f8
ed
ee
fd
f6
fe
05
07
01
06
da
da
04
ff
13
ff
ca
e3
03
d3
fb
04
00
07
fd
dd
fb
18
03
08
09
e7
f3
e5
f6
20
d6
01
17
e7
f9
f0
11
e9
f5
0a
09
16
03
f4
09
1c
31
02
06
04
ff
08
02
04
19
d9
08
f1
04
fd
13
f2
f1
05
e8
fb
fb
f5
fc
0c
e9
0d
dc
fc
1b
09
f1
dd
09
0c
de
1a
e3
f8
0d
03
12
fd
f1
00
17
12
e4
f0
dc
f1
d8
ff
1c
e1
f9
07
ff
fd
02
0f
03
16
fc
04
e7
e1
21
e4
10
fe
02
0e
0a
fc
08
dd
ea
e2
05
0d
c6
06
dc
f5
ff
03
ef
fe
04
f7
0f
e4
ec
d9
f8
01
f6
f6
dd
08
04
25
f5
1e
fe
fd
f3
f0
f0
09
e8
ee
eb
fd
2c
fd
18
ea
ed
fb
e9
0c
ed
f1
e6
08
14
f9
05
fd
db
f0
f4
fa
ef
fb
f8
0d
1a
3b
f6
fb
04
f7
f7
fa
f7
f0
e3
f1
e2
00
fb
02
f8
d7
fa
03
02
0e
f9
f5
e1
f2
e6
1e
05
f0
01
37
ef
17
0f
ec
fa
f5
0e
2d
fa
e0
ef
e8
f2
13
f5
f3
f1
00
f4
fd
0e
e7
f5
00
f9
07
08
fc
11
f9
05
07
08
e4
fc
e0
dc
f5
c6
f1
12
00
fa
d3
10
0f
ec
f8
f0
d6
f7
f9
0c
fd
01
fd
00
e4
ea
f3
20
d3
f9
06
00
f1
09
03
06
01
01
fb
16
f2
ef
07
00
fe
dd
f3
05
fc
f4
ff
fc
f4
f8
f7
15
07
f3
11
08
1b
14
02
02
0d
ff
04
fa
09
cd
ef
03
fd
e6
ea
fd
0a
ed
f8
15
12
f6
14
f3
1a
10
f9
eb
07
00
ff
e7
fd
f4
fe
e6
06
02
fa
ec
01
e7
fa
09
f9
f3
d2
eb
05
cf
06
00
d0
07
12
f7
fb
0d
f9
fd
12
fc
f6
07
fe
fa
07
06
05
0e
ef
f3
de
f8
f2
f3
ed
f4
e1
06
ff
fb
e0
06
26
ef
11
e5
f5
1a
dd
f1
e0
fe
e9
e4
fb
eb
ff
07
eb
01
0c
f9
ef
d6
f8
f3
08
e1
fa
f4
1d
0a
fb
04
f2
dc
09
07
ee
01
0b
00
f0
ea
01
fb
fa
e7
f8
0c
0e
fa
f9
da
2e
f9
1d
0d
f8
f5
fe
1a
17
d9
01
0b
d1
ef
f8
e9
fe
09
40
06
0b
f9
08
0e
01
17
07
0c
28
f8
23
e1
01
22
f5
0e
e3
06
ef
c6
46
db
0d
f9
0e
01
09
26
f5
0a
19
18
ed
1a
01
0f
0f
fd
1b
10
05
05
2a
04
19
18
f7
09
ea
e9
20
f3
0c
0c
03
16
f9
f9
11
04
fe
05
e7
21
21
d9
14
fc
1f
fb
02
04
f4
ed
fc
e8
12
ed
1e
e5
fe
11
e5
f0
fc
fe
ed
0c
07
f5
04
04
09
ed
fa
f8
05
07
15
21
fb
02
13
fb
0f
fe
16
03
00
1f
15
12
fc
08
22
f8
21
e4
fd
fe
f7
fb
20
19
33
fa
e1
07
f1
15
ff
f9
1d
03
f1
f9
04
05
04
11
0c
fc
21
32
00
f5
08
e4
0a
fc
07
fe
ff
26
00
01
ef
14
24
01
0c
ed
e9
f9
00
14
35
16
19
fc
13
f5
f4
f4
20
13
fb
f3
03
1b
f9
e9
fd
03
de
fc
19
05
06
28
de
dd
f7
ef
09
12
09
fb
d5
05
08
11
0d
2f
08
07
2b
ff
14
ff
f2
f2
f9
fc
0b
0e
e5
fb
23
ed
fa
c1
04
02
13
d9
10
f2
fb
0b
10
fc
01
fe
1b
12
00
23
0a
1f
11
f9
e1
17
f8
05
0f
f5
0c
17
0a
19
f4
f2
10
07
00
f0
0c
10
f1
f7
16
00
fc
14
d4
f4
0d
08
19
f1
fc
23
09
35
00
0e
fd
fd
00
ff
1f
0d
04
06
17
fd
13
11
00
f6
0a
fe
17
fb
15
17
14
0d
2a
e7
04
f7
00
b6
12
09
f8
e1
00
1c
38
e2
f5
da
07
29
19
e9
16
1b
e8
f9
f5
21
06
23
15
08
24
da
02
0b
fe
02
01
1a
0a
04
f9
f8
ee
16
19
16
f0
09
04
e7
22
03
10
f3
09
d6
31
fd
0a
ed
0a
00
2f
29
fb
ff
e0
2a
10
e4
ff
06
02
fa
10
02
05
04
00
0b
05
1c
01
fb
10
13
e3
2c
22
ff
f4
03
16
12
0d
eb
25
eb
e3
f6
1f
23
ea
ed
1e
19
05
13
35
07
ff
36
03
f8
eb
1d
25
e4
cb
0f
0c
fd
fe
f9
f5
f8
05
2f
e9
fb
1d
14
1d
07
f9
0b
08
12
13
ea
1f
08
00
00
ff
f4
f5
f8
fb
f6
02
03
00
f8
01
ee
f9
14
1a
0e
d3
05
fa
f3
f5
04
30
f9
05
0e
e0
03
23
eb
fd
0a
ea
0b
02
09
02
1a
f4
08
0e
08
fc
f5
f8
02
0c
1a
fb
15
fb
fc
1a
e8
ee
0e
12
ff
0c
f3
04
13
ff
02
f8
ec
f8
15
20
18
30
20
06
0a
18
fd
02
1e
fc
0c
f6
13
01
f4
eb
f6
fc
e6
01
0c
ff
ed
0f
0b
fb
f9
f2
0d
11
05
f7
14
26
f6
0d
09
0a
18
e1
1a
11
e5
03
04
06
05
06
22
20
01
d9
ef
02
fd
dd
02
f8
f1
12
12
09
fc
03
07
06
15
d7
0f
39
00
05
e6
ed
fd
1d
13
f3
01
07
fd
27
f7
f8
02
1b
1e
fa
e0
07
15
0c
26
f5
03
15
fb
08
06
f6
0a
02
0b
f7
08
fc
f5
14
1e
12
fa
1b
e9
2a
03
ff
f8
e9
08
0a
02
02
f6
11
f6
00
eb
0d
1d
fc
07
ea
14
f7
03
22
fb
fe
0a
fc
0f
fe
01
0b
f4
28
0a
02
1b
01
2a
05
f6
fe
f6
0c
f8
11
f8
fa
f8
09
0c
0e
e0
0e
1b
0f
fe
03
19
10
07
f4
05
f9
12
07
e3
0c
0f
01
f3
1b
fb
fa
ee
e6
02
03
ff
16
2b
1d
26
f2
0c
0d
27
d1
f9
15
03
d9
e9
ff
0f
f6
06
0d
fd
1c
0b
16
0c
f4
02
04
fc
06
e0
0e
12
1f
06
04
1b
03
eb
2a
00
f3
17
ff
22
11
09
06
03
20
eb
ef
d9
10
f2
0b
fc
00
27
1b
01
18
fe
ff
02
02
0e
ef
f5
1c
12
06
0c
06
d7
05
f4
e1
dc
17
11
fd
f2
11
0b
df
14
1b
06
11
10
0d
fd
07
f5
21
03
f6
1d
12
11
f9
fa
15
23
f4
08
07
23
0c
e2
23
12
05
fd
f1
15
20
13
2b
f3
28
18
1e
fd
0f
00
e5
e7
0b
29
01
fe
fd
ff
04
0a
0c
27
17
f4
02
e1
10
fc
07
10
29
fb
da
e9
0b
fb
05
fc
ed
f5
f0
16
0f
f4
18
05
18
f7
19
19
ec
ec
ff
f4
fd
0d
03
00
0b
10
e5
01
1a
f0
f5
07
03
02
2b
f4
fa
fe
09
1e
fb
f2
ff
f9
ff
fd
21
09
04
fb
f9
1b
14
0b
14
0a
ec
1e
12
20
e4
08
dd
05
09
0a
1b
03
04
f9
14
f6
0b
27
00
16
03
16
fa
07
fe
22
13
0a
fa
16
0a
05
11
fb
00
f7
fa
ff
00
14
fe
06
2d
fa
e4
06
fd
28
14
01
26
09
0a
1c
ec
06
01
0f
04
01
fb
06
f6
fa
1f
0c
de
01
01
ff
0d
fe
19
f3
f9
06
19
17
01
ec
09
ee
1d
0e
15
05
16
fb
0f
0b
fc
16
01
ef
ee
01
e5
fc
04
0c
eb
f7
06
1a
02
f7
f6
f0
04
f6
fe
ef
fd
e4
00
04
03
ef
18
0c
1c
fd
0c
f5
06
01
f9
09
fa
05
f5
f9
e5
28
fe
e4
26
f7
fc
f0
01
f9
fd
f1
02
fe
0a
fa
0e
17
11
08
fc
f1
03
06
03
06
10
00
e9
fd
15
12
13
07
37
18
14
1a
d6
13
12
0e
e9
17
f3
06
0f
fe
f1
cd
fd
0f
f2
0a
13
f3
fd
00
fd
0e
f2
fc
27
fb
fc
25
32
e0
2c
2c
fb
dd
fa
f9
2a
dc
07
00
44
fb
02
22
13
f6
0a
0c
0a
0d
19
25
21
0f
1e
cd
15
fd
f0
0f
11
02
00
01
1f
02
1c
dc
04
05
e4
06
e8
01
02
e0
fd
dd
01
f3
0f
03
c4
1d
17
fa
f6
06
fc
ec
0d
13
ff
04
ed
23
f7
ff
0d
d7
f7
eb
0d
18
08
f9
fe
f5
15
f4
e8
07
08
e9
1b
fb
fb
f8
17
ff
08
22
fd
02
14
f0
14
fc
ff
00
fb
01
d1
20
07
fc
d4
01
fe
04
fe
fa
09
ec
f5
fa
ea
ff
e0
00
fd
15
f9
f7
f6
f7
fb
fe
1d
03
09
fb
f7
0a
fc
0a
13
07
06
e7
dd
e0
00
f5
14
e2
09
ff
e4
d6
0f
0a
e9
13
1d
0d
07
eb
08
12
ff
fd
20
12
04
09
c6
25
c8
1a
fd
ec
f0
0b
1b
fd
0c
ff
fb
07
1c
de
07
fb
ff
0f
02
d9
33
fc
14
13
f4
fb
13
13
01
fb
0e
1b
fa
05
00
10
14
f7
0a
f8
01
19
f4
fb
09
02
f9
00
1a
26
00
04
01
29
00
ee
fa
01
df
03
26
ea
ed
06
06
03
0a
17
07
2e
ee
ef
08
d5
02
e1
f6
04
02
05
db
f9
01
08
eb
22
ff
17
02
f6
21
f7
df
f2
21
04
ff
f9
06
d2
01
cd
14
f0
16
02
27
e9
dc
1f
16
13
f6
0f
0e
03
0e
f5
06
1c
08
04
00
ef
08
f9
e1
fb
f3
07
00
04
04
15
fe
f2
f9
0d
0c
fc
0e
0c
0c
f7
0b
0e
2b
f8
09
10
fc
de
39
12
e3
0f
07
0c
ff
e3
ee
fd
04
e4
ef
10
fe
0a
e8
ec
f8
f7
1c
1c
fa
0d
fa
1b
05
fa
31
18
0b
f9
04
d1
f1
09
fc
fb
bf
03
17
f7
00
2b
03
f9
0a
fe
1f
01
17
17
2e
08
04
10
00
20
e9
0a
eb
1e
01
fd
e5
0d
ff
ca
1b
12
f4
02
ef
02
11
12
02
0d
ef
09
00
e0
f6
e3
e5
16
04
21
ee
e9
0a
f3
fe
00
03
f8
f8
0b
f0
12
11
08
f9
2d
04
df
1b
f0
ee
1a
f9
ec
04
f5
0b
fc
f1
13
12
ef
36
09
e3
0d
05
14
e2
34
28
02
c2
02
f9
0c
fe
03
fa
23
fb
eb
fa
11
1c
15
f3
27
0b
06
06
e3
fb
0f
f1
e6
13
f4
04
07
0a
fc
03
05
0b
07
09
ff
10
18
ec
05
27
07
0f
22
09
16
ff
d2
fc
e0
f2
0b
ea
16
02
ff
19
08
f8
fb
05
0a
07
0e
07
f3
d8
14
13
fb
03
11
00
f2
01
fd
0f
f9
f4
e3
fe
f1
fe
fa
f1
0e
f8
ec
fc
08
f1
3e
fa
28
0d
fd
1a
08
fd
07
06
f3
04
fb
ea
f1
08
19
22
ef
04
eb
01
0e
f8
fc
17
1d
1c
05
fd
10
f1
19
05
f1
d8
ed
fc
fb
f3
fc
e4
20
fd
ed
13
00
3c
0b
13
11
fb
f2
10
1c
fd
f3
12
d7
f3
06
ea
06
d5
ea
06
0b
05
dc
fa
fe
10
1f
0c
06
f6
e8
12
fc
fe
fb
ea
ef
13
01
04
dd
10
01
1b
e3
f5
e8
fd
02
19
fd
ee
e3
11
0a
38
db
fa
01
06
06
e6
14
f7
fe
f5
fd
fa
02
d4
1b
f1
f0
de
f7
fd
f0
f4
01
e8
ee
db
ec
fe
0b
e8
f5
0d
fa
0b
0a
08
32
04
19
0e
0b
fe
10
eb
ef
fa
ff
18
fa
09
f3
00
01
fe
1b
03
fe
00
03
fe
ea
f9
e6
0c
12
2e
ef
fe
fa
02
ef
f4
f7
06
02
f4
f3
01
f1
ef
23
04
fd
f2
fe
0f
fc
09
0a
06
ff
f1
f4
06
ef
fd
06
10
e0
f6
04
ee
02
14
f9
01
2f
e1
f1
07
09
fe
13
f4
fb
fa
e2
fb
eb
d3
02
f0
dd
21
f3
0c
0a
16
f3
0f
fa
f3
00
17
23
0a
34
ff
12
fc
e6
0c
06
13
e9
07
0a
0b
e6
f8
e3
0d
ff
f8
ff
f9
11
df
ef
fd
f1
11
26
fb
ee
f9
f1
14
08
f2
08
f8
f5
02
0e
fd
ee
16
22
16
02
f2
ca
ff
fb
01
03
ec
12
04
e7
05
07
f7
00
18
f8
fe
f6
19
0b
15
20
11
04
d4
0a
fc
d4
00
07
f6
f2
03
f9
0f
07
03
04
00
e7
07
26
1d
01
27
0d
fe
e1
0e
0e
2f
09
16
f9
1e
16
02
0b
0d
f6
f0
14
0e
f1
ef
ff
0f
e6
0d
06
11
05
00
f5
13
11
f9
21
fd
07
00
08
04
15
fb
f1
20
02
04
f9
f4
13
01
0b
e7
09
09
fa
0d
0b
05
f8
fc
01
15
ef
4a
f7
03
05
0a
fb
ea
1d
f6
ed
f7
16
00
ef
02
fa
07
27
f6
f4
14
fb
08
07
04
f3
f9
f1
f8
e5
20
25
e5
f6
00
05
04
1a
e8
02
f9
11
ee
03
08
ef
13
e3
0f
fd
e6
f8
f4
fb
f6
22
01
fc
08
04
00
fa
e3
e7
24
fb
04
05
fd
00
12
ff
09
0d
05
08
f4
05
00
25
fa
07
fd
10
ff
f4
fe
f0
f5
0d
0f
db
04
1e
00
f6
f7
0b
fe
20
1e
ed
0a
ea
20
e0
ee
f8
00
09
f1
f4
03
f1
02
fe
ef
1e
04
e1
fa
09
07
e7
fb
e9
0d
0b
f9
ff
fa
0d
eb
f8
01
02
0b
00
05
03
05
20
e0
13
11
fc
fa
f5
f4
f1
00
fd
18
ff
06
cb
01
ce
d8
00
2d
1a
fa
ff
09
d6
ef
fa
fb
fb
04
08
fd
04
f5
05
02
28
04
eb
fc
1c
0c
f1
11
06
f7
09
bc
d6
f0
d6
13
2f
f8
f8
1d
ed
f6
1a
0a
f2
13
e9
0a
02
11
12
11
fc
f2
10
dd
0f
fd
17
1e
17
03
c7
f0
f8
46
f2
fb
33
f9
00
e7
17
f2
f8
0d
08
fe
f9
20
e7
fc
14
ef
05
c7
df
05
02
01
fa
fc
01
04
07
f9
1b
e9
f7
fb
ea
fe
05
0d
f2
d8
05
e8
05
f8
fa
fd
fb
07
02
e8
fb
f9
17
f1
e2
05
eb
09
03
f8
ee
fb
f2
05
d2
f3
03
13
09
09
1e
e6
0e
eb
17
01
f3
e9
d8
06
f6
f5
02
d3
e0
0e
0f
ff
0f
03
04
cd
01
ee
fe
04
cf
f9
f9
0e
ed
07
de
05
e8
f7
09
fd
ef
fd
e6
02
02
05
13
f9
f0
eb
f0
fb
00
f9
ee
0c
fb
08
fc
0d
1b
fb
fd
f8
f2
fb
fb
10
f5
ff
fb
c8
01
fa
08
ee
fc
f6
05
df
14
07
ff
13
fe
fc
eb
f2
0a
22
0a
f9
01
09
fc
f3
f8
ea
ed
f4
f9
fe
e5
e1
06
f6
fe
f2
00
f7
06
04
f8
04
ee
d6
38
fb
f4
02
f0
e8
04
07
11
05
06
ff
fd
01
03
01
f4
e2
0f
fc
ff
08
11
00
02
f7
fd
ed
05
06
00
f9
04
01
ed
fa
09
13
ca
0d
fe
ea
f9
21
04
f7
0a
ff
08
08
f5
1a
ec
f7
06
fa
f5
0c
05
1d
07
f4
07
e8
2a
fd
fa
07
f6
ff
d5
11
ee
f1
cb
f4
fc
f2
e6
f2
f1
f1
04
f8
01
01
f2
08
fb
05
18
ff
f6
fc
04
f8
ee
da
0f
f1
f2
ec
f7
f8
ff
c5
e9
02
fc
dc
05
e8
ff
05
07
f5
c9
16
d6
14
01
07
e8
f3
28
05
05
f5
e8
d6
ef
09
f0
04
fe
2b
ee
15
0e
04
e2
e8
06
e5
e3
09
0b
ea
e0
e6
f2
f9
1e
08
1f
10
da
d5
f2
02
0b
f2
15
fd
fe
09
11
04
12
f4
fe
fc
e1
fd
f7
20
fa
eb
07
f2
05
ff
12
08
04
fb
ff
0b
11
05
ee
f8
0e
f4
e2
07
f1
05
fe
01
ec
ef
e5
ff
14
f5
01
f5
00
23
06
e7
f5
13
0b
fb
0d
ed
15
08
02
ff
ea
ed
0a
f2
0b
fc
0f
00
03
fc
fc
e9
f7
0b
05
fb
03
eb
ed
02
f9
0d
e0
f9
ff
1e
ed
e8
fb
e4
24
f5
20
0f
e0
e8
00
14
ff
e7
eb
ec
07
0c
f5
0b
dd
f2
f7
22
fc
ff
e4
dd
fd
0b
e9
ef
0b
e8
05
fb
05
fc
f9
15
ff
fc
e7
ff
03
ff
00
0c
fd
e1
01
fe
ed
06
e8
11
ff
11
fc
09
f1
02
f0
e4
f0
f8
d8
e2
ef
07
00
fb
f9
fe
e8
1d
0a
02
e5
ea
f9
ef
0b
ed
f2
0d
03
ed
ff
0a
12
fb
f6
ee
09
dc
0e
11
0b
f2
07
00
06
0b
f8
09
00
d8
e7
0e
e3
e7
ff
f2
f2
f7
05
2e
03
fd
10
f9
e3
0d
f2
00
fc
f9
e8
07
f8
eb
0e
1a
02
01
eb
fb
07
00
ed
e6
05
19
f3
f7
eb
e8
fb
0f
e0
f0
fa
f6
cf
f1
f7
17
ee
16
e1
0a
06
ff
de
eb
0b
f2
ef
0f
dc
ec
06
d7
f9
04
03
de
0a
06
07
0b
04
0d
f7
d8
ee
fa
10
d3
04
d3
05
eb
f2
0b
ff
00
f6
fe
f4
16
04
05
f0
08
20
15
07
03
f5
04
16
02
13
f1
06
ed
fc
01
02
fe
c2
f2
fa
d1
10
f1
05
05
fd
ed
02
ea
09
e8
e7
06
ea
09
fc
f0
fc
03
fc
ef
f5
f9
07
f5
e9
f3
f9
0a
f4
f5
fc
06
03
f3
10
ea
f4
0c
fa
ec
0f
14
07
f1
0a
f3
11
09
13
09
ee
fc
03
ee
23
e1
04
0f
eb
06
f8
04
f1
f3
ea
fd
f9
05
f4
0f
10
f0
09
06
df
02
1f
fd
ef
11
ed
ee
eb
07
f9
f4
fd
fb
fa
24
08
1a
0c
fa
f9
06
dd
fe
ef
ed
13
03
fb
cf
00
fd
f5
ef
09
f7
f9
11
f4
10
02
05
f8
e0
f2
16
10
f8
07
04
37
08
fc
f6
0b
fb
f3
13
f7
07
fb
10
01
0b
04
09
ec
d6
11
05
08
e9
00
01
e3
f9
f1
fd
f4
0e
f7
15
04
18
f5
06
08
23
f5
13
22
e5
1d
ff
21
fd
ef
06
c5
fc
10
10
fb
0a
fd
07
ea
1d
fc
1b
ff
dc
12
c3
1e
05
00
e5
06
fd
11
f5
fb
ff
dd
ea
ff
f6
ef
fa
04
e6
0b
02
08
f1
fe
17
e1
f8
06
03
f2
ed
f6
16
f2
0d
fd
f6
f2
ec
f4
0c
ec
01
00
f9
ff
de
00
e3
d8
0a
ef
03
02
e8
03
ff
07
f1
0e
f6
f6
f1
16
fb
0c
0e
f3
de
e7
ff
0b
f6
fb
e3
fb
e3
01
0b
ff
0a
07
08
f8
ef
e0
06
ff
fd
08
0b
e9
02
e9
1b
0d
dd
0c
1d
fc
01
fe
15
f3
03
07
f3
ca
0b
fd
10
f5
fc
f8
f8
02
0d
f3
01
08
11
1a
02
fa
08
00
04
02
09
cf
0e
1e
fa
fa
de
fd
0b
e4
08
02
04
0a
fd
f3
0d
13
0b
f9
22
00
f9
05
00
ff
f2
00
f7
01
fe
1a
f9
07
e4
dd
0a
fc
00
ed
18
f4
05
0c
06
09
10
d3
00
e4
07
ff
ef
04
16
f5
1a
fa
d9
05
1a
0f
fb
0b
d4
fc
e9
fd
f6
f2
de
e6
f0
2e
fd
ea
f2
ea
db
0e
fc
01
fc
f9
f3
f9
28
1f
00
eb
16
fa
fe
fe
02
ec
d9
07
0d
de
0a
f3
e5
fe
06
dd
02
f1
fd
17
0d
08
04
ff
13
eb
07
00
e9
08
0c
e7
1f
01
f8
0f
0c
fd
0a
fc
e8
07
01
f5
01
fb
e9
0f
e5
f2
e9
0e
f5
cf
f1
d1
f9
ff
0a
19
ff
03
eb
de
0c
ed
fb
f0
dd
f1
fd
fa
ee
16
fc
0b
f5
e6
08
09
fe
f8
ed
07
01
09
f6
ec
fc
13
fe
f4
dd
f2
f7
cf
0b
12
ec
cc
f2
0c
dd
f7
f2
f9
ff
01
02
f0
13
0c
dc
06
e4
1d
f7
e3
ca
0a
f8
02
ea
04
fb
03
fe
fc
e8
04
de
0e
00
ed
f7
fd
ff
f4
0a
f2
fa
09
fc
e9
f2
e8
ea
00
07
f8
ef
03
15
0b
07
ee
02
07
df
f8
f7
f3
e1
f0
01
f6
10
e7
f9
0e
f2
e4
12
00
f9
fe
df
0a
1c
19
10
01
03
fb
e6
14
04
f0
0b
01
0d
ee
10
0d
02
e5
14
0b
0e
fe
f7
0a
fa
f5
fa
ed
eb
1c
06
ee
01
fe
f8
01
fc
fd
20
fc
fc
f5
06
f9
f8
02
0e
03
e9
00
f2
06
f5
0c
f3
0e
fe
00
f1
05
0d
fb
01
05
02
f6
02
03
d1
11
fc
01
d2
04
14
f4
ee
ee
05
08
02
00
0c
26
fb
fb
07
dd
dd
ff
f2
f9
f6
fd
04
e7
ff
f1
0b
eb
12
19
f2
0b
13
05
ed
f9
fe
e2
01
e9
0b
06
2e
eb
f3
fc
f8
e8
f4
f6
d1
fa
07
f2
12
f2
07
15
00
e1
16
fe
e9
00
e1
12
10
05
07
0e
fd
fa
00
0c
f7
e6
f9
fb
f2
07
f7
f6
ec
0a
fd
fd
e1
f7
03
07
f6
ee
02
f7
fe
f6
f9
06
f6
08
20
1d
1a
09
e9
f8
f2
fe
d0
e5
e9
ff
f1
fa
1a
f1
12
00
08
e0
09
f7
fb
1b
fd
f7
02
f2
0b
fc
f9
08
06
f3
07
f8
f6
fd
f2
fd
de
f5
ef
0b
07
ed
f8
08
00
08
10
08
f0
fa
23
e2
f7
04
16
f0
fe
fb
06
fd
0a
f1
24
e9
fe
f9
ee
ed
fb
dd
02
0a
f4
05
e6
1c
ec
ec
e1
00
fa
13
04
e8
f0
12
0a
1d
ec
10
fc
f8
f2
02
02
06
f5
de
f5
00
00
10
ed
e4
05
ed
05
1e
f3
02
00
e7
e8
f2
f5
15
04
03
04
db
0a
fe
21
fa
0b
f1
de
05
ff
ff
18
c5
fa
f7
03
20
0f
01
f9
d7
fd
05
f5
0d
dc
fc
01
fc
0a
f9
04
f2
18
f3
0c
05
f3
f5
fe
01
16
06
05
eb
fb
e9
03
f7
13
06
02
08
ce
1f
ef
09
0a
1f
fd
e8
f6
0a
ff
ed
f0
05
f8
01
f9
01
fe
1e
05
06
d3
ec
11
fc
19
e0
fb
09
fd
dd
fe
f4
1b
fb
d9
0f
06
e9
e9
17
e7
00
ed
f9
f5
f2
c8
06
0c
06
eb
f8
00
f7
10
ea
ff
ed
fa
0d
ee
13
fd
0e
ec
0b
d6
06
e4
ea
fd
d9
fa
d7
09
0d
0a
f0
f5
13
df
ef
f5
f6
fd
f0
02
ea
02
eb
fd
fc
00
00
f1
0d
f8
d9
10
02
0a
00
05
da
03
0c
e6
f7
fe
ec
18
08
fb
f4
2a
ee
4f
e9
fe
08
f6
0c
ff
f0
04
0c
ff
ef
01
06
15
03
f3
11
05
fd
e7
03
f3
ff
03
ff
25
fc
e9
17
f9
fc
eb
fb
ff
f2
0b
f7
e0
11
09
01
f2
02
ef
d7
dd
09
fe
1e
02
04
02
10
f5
f8
03
ff
e7
17
05
03
e6
06
16
ef
d5
00
ed
10
d6
04
04
05
13
fc
03
f8
e9
ff
fe
06
04
22
16
ff
05
e1
d6
08
07
eb
ed
02
01
01
ea
0b
fa
0c
0a
f6
fc
02
fa
ea
1c
e2
ee
f8
01
ef
1e
0f
fd
01
01
08
f7
02
11
e0
ec
fa
02
fc
f2
e6
0a
e8
f2
07
01
f2
12
fe
02
f0
02
05
01
ee
e0
ee
1a
0e
f7
0f
20
eb
e7
e5
fc
ee
e7
ee
f8
0f
f2
00
f3
fa
10
0e
07
1c
06
e8
0c
0a
f3
fb
f7
fc
f9
10
f7
26
f0
08
00
ed
ff
12
f9
f8
06
0f
e8
01
f6
f6
fc
00
eb
08
0d
ed
fc
f0
f3
19
03
1d
06
d7
04
02
15
06
f4
0b
fb
14
f3
ff
05
d7
fc
da
f2
09
fb
00
04
fa
ff
17
e5
02
02
01
0c
fb
25
fb
0d
d3
df
e3
fe
08
03
e1
09
f8
ff
fa
d9
f9
e2
f5
18
e9
ee
f5
07
0b
10
08
17
08
fc
f5
1b
e5
d7
fa
e0
e5
ff
01
fc
05
f9
fa
07
e7
f0
01
06
01
f8
12
de
f9
01
f7
eb
28
fb
0e
02
ff
f2
09
f6
f0
eb
13
f9
e9
e9
f2
09
f0
f8
0e
f6
16
0a
00
0e
f3
d4
f8
f3
04
02
fd
dc
e8
ed
f9
01
fd
07
1d
09
fd
10
2d
35
d3
f1
f3
dc
12
e9
d7
f9
f2
ec
dc
fc
12
13
02
fc
e3
10
fb
14
01
fb
12
ef
11
e1
e0
ff
ff
16
e6
01
ff
fc
03
ed
ee
03
04
fa
17
fe
00
dd
fa
eb
fc
16
0b
f0
ec
f1
d3
06
fa
15
eb
f1
ef
0b
f1
09
06
06
38
ed
e8
0e
eb
1a
02
10
d7
fc
fc
fe
e7
08
21
12
f4
f9
fc
0a
08
03
ec
fb
ec
0c
f9
0d
f6
05
0c
01
15
f9
0a
ee
fd
f1
24
1d
f8
e2
fb
f1
f9
00
f9
f5
01
08
f3
ed
e5
d6
07
e0
17
fd
00
00
fa
f3
e9
06
08
05
f7
d3
f0
f6
fe
03
01
f0
fe
e5
2b
02
07
02
fb
e8
01
d3
f2
1e
f4
09
ef
01
00
f4
13
fe
f8
0b
0b
f6
15
fb
fa
09
fd
03
17
24
0f
15
fb
ec
f4
f7
f4
e6
00
f3
f5
e1
fa
f7
eb
fd
f9
01
08
fb
e8
05
0d
03
0a
e7
fc
00
13
00
ef
0d
f9
fc
fd
11
34
eb
05
db
ff
f2
f6
09
ff
f8
ee
05
08
09
e9
ff
f3
ed
f6
fa
fb
00
f7
e6
09
04
14
13
fd
e9
ff
18
06
13
03
ed
0a
e6
fd
07
12
f2
15
fd
2e
f7
03
d9
f8
fa
15
f8
f1
02
fa
02
f1
2b
f4
06
c4
fe
dd
2e
18
04
fe
e1
05
f8
e5
05
f7
02
07
f6
fe
10
f0
22
fe
f5
e2
1c
e5
fa
08
e3
e7
e5
ff
fc
f4
f4
f8
01
14
11
08
f1
e8
fc
0b
00
f8
1a
f3
d5
0c
10
d9
ed
f1
12
ef
f4
de
f5
ff
36
f9
03
0a
ea
08
02
f3
f1
ff
11
19
13
05
0b
05
10
f8
fa
13
ec
04
ca
fb
0b
fa
fd
0b
ff
e9
f9
03
01
0b
f1
18
02
e4
f7
09
de
e5
1b
0f
19
eb
eb
1e
fc
00
00
04
f5
05
07
ec
f5
05
fe
14
ea
0a
f6
f8
f6
fb
f7
f8
eb
f7
df
f6
05
06
0e
fe
dc
e5
ed
ff
f7
07
09
e2
fd
02
07
02
0a
ff
0c
1b
fa
e3
07
09
1d
e5
14
01
16
17
f9
e5
f0
08
f2
16
f5
03
f0
d9
ee
01
0e
f8
fa
04
05
dc
f6
fc
0c
e6
01
f9
17
17
f9
0e
fe
02
1d
fe
10
fc
da
f4
e7
14
f1
fd
fa
ec
11
f8
f3
16
dd
08
f5
dd
f1
f7
02
ef
03
fc
07
fd
eb
0d
00
04
f7
fc
e5
15
f0
26
f1
fd
ee
07
f9
d9
08
fc
0c
eb
ec
0b
ef
e6
f2
03
f5
ef
eb
f0
04
0d
05
fe
21
07
17
3c
01
01
fb
f8
0a
0b
18
da
f5
fe
1c
0e
da
09
ec
dc
25
03
fd
02
f7
13
fa
14
e8
05
e9
05
01
eb
0a
f4
0d
07
03
e1
08
02
02
f1
e9
26
f5
e4
03
ef
14
10
ef
d5
0b
ff
f8
1a
11
17
fb
f7
f0
0d
0e
05
f5
e3
05
fe
12
ea
06
dc
f7
1a
05
0f
de
f4
e8
25
ff
f7
16
f9
37
08
0b
04
f0
f4
f4
f0
f1
ef
f0
eb
0c
db
f8
f6
f6
01
f5
e4
08
b6
e8
fb
eb
09
00
1b
fa
09
0a
0a
f0
fd
fd
01
16
05
ef
0c
f8
01
ee
06
02
00
08
04
ee
05
06
f6
01
0a
07
08
0e
fa
d0
f9
09
11
26
df
f4
f9
0e
21
e8
12
09
02
f6
03
02
22
f7
0f
fa
09
fa
02
fa
f3
ef
19
08
e2
e8
03
18
fe
eb
ff
fe
fb
0b
e5
ef
26
de
e8
fd
f1
1a
1b
fc
01
00
fc
ee
1e
ff
ff
fb
e9
fa
e8
f6
fc
f3
f4
09
09
12
fd
04
c1
0f
09
f9
15
2a
fd
0b
03
00
fb
fc
f0
e1
f5
eb
1c
e8
f6
0a
f1
f9
f0
f8
16
25
04
ee
18
ff
08
1e
05
08
0c
e0
0a
ff
1a
12
26
fb
04
fa
05
f7
f8
00
12
14
ea
07
01
e8
fa
24
0a
12
e5
17
05
f7
fc
fe
ee
0a
f6
eb
f9
f2
db
12
0d
fc
03
08
05
e8
0c
0c
ea
ef
fb
0c
e4
0f
13
25
05
eb
0f
11
16
fe
05
e6
df
f6
ec
15
fc
fe
08
03
06
0a
fb
04
0d
f9
ed
fd
01
1f
e7
0e
06
0f
f1
10
d6
09
ed
06
f7
ee
0a
0f
22
f8
f6
f3
e0
e4
03
1c
e8
05
1d
04
0b
1c
00
fb
1b
ff
eb
07
f6
1a
ee
ff
f4
f9
d6
db
f0
20
0c
fa
04
e6
0a
08
e4
ee
f9
0c
00
20
fb
e8
23
e6
0d
0b
fd
02
0d
f5
1c
0b
fb
f4
e3
f7
0c
f0
1f
14
06
e7
03
04
e8
ff
f1
e2
20
0f
0f
0f
06
0b
02
12
04
0c
f0
02
f9
04
04
fa
04
03
fa
11
e6
03
1d
10
06
00
ed
f7
fc
f3
fe
fc
11
e3
fa
18
fd
1d
14
0f
f2
0c
ee
15
eb
f4
08
dc
f5
0e
09
05
f5
fa
02
00
df
fd
0e
0a
dc
e4
0c
12
04
f6
00
d7
09
fa
18
e0
2f
f9
f2
e5
f2
ec
0a
f1
e0
fb
d9
ea
e3
15
0e
da
19
e1
0c
1d
29
f5
05
d8
06
02
08
d9
0d
04
f8
12
f6
ef
0e
27
0b
d7
f7
f9
e4
f2
0a
06
f4
2b
29
f8
ef
ef
05
07
ff
01
ff
f5
e6
08
e6
04
db
06
fd
18
f3
0a
09
14
f8
f6
ec
df
ff
f8
10
02
14
0e
ff
f7
17
02
fa
12
16
f9
27
fd
14
f8
fa
14
db
fc
02
03
ec
0d
fd
df
09
e1
0d
14
16
1c
26
ff
ed
01
0c
08
04
fe
c7
e2
fe
06
e0
e7
fa
f0
f3
fa
ec
22
f7
0f
f0
f3
01
0f
f0
0b
04
dd
fd
ea
fc
eb
e5
0c
f2
09
04
07
ee
fa
f2
df
0e
ef
d9
21
03
ed
08
1c
01
07
df
01
f4
01
14
f2
09
fd
10
f6
fa
fd
f3
fd
1b
ff
f0
04
fe
ef
14
0d
e4
02
01
01
f4
f0
f7
1e
f9
c0
1f
f5
01
eb
e4
f3
fe
fc
f9
d2
d7
e1
f2
fa
dd
fc
c6
ff
fa
fc
e3
08
f8
e8
ed
17
ee
19
22
01
ff
05
fc
ff
12
f4
eb
0b
fc
13
ee
19
e2
e8
19
ff
d3
10
05
cd
ea
f3
05
0a
f7
08
09
e3
03
ea
08
0e
ff
f4
01
12
16
02
f1
07
01
0c
ef
02
00
f1
f8
f8
d8
ed
09
02
e9
0f
03
26
fd
02
fe
fe
fc
fa
06
e5
01
03
06
01
00
f9
ee
e8
0a
01
ff
f3
f6
f6
fd
ef
f8
0d
01
03
f1
03
e5
0d
03
fb
f5
f0
fd
04
1a
ef
fb
06
f8
ef
19
1d
06
f0
e0
f9
03
e0
09
0f
02
df
f6
ed
04
ef
03
00
08
ff
f3
f7
ee
22
e9
fc
0d
f5
14
0d
06
0b
03
fd
17
04
fa
1c
0a
06
06
f6
05
eb
eb
02
06
f5
18
ea
09
07
f3
fc
fa
0e
11
44
22
e5
ec
f4
f6
0e
0c
e8
25
e9
fa
da
06
fe
02
08
10
00
11
03
13
0e
f1
20
f4
f9
ff
0c
10
04
18
09
e3
de
07
1b
16
fe
ef
ee
0e
f6
08
d9
e7
f7
f8
f2
05
07
01
0d
18
11
16
07
ec
fb
13
ed
fa
e7
0a
e2
0e
f7
00
e5
f3
fe
fe
00
10
ef
01
03
e7
08
dc
fd
14
f9
fe
eb
e7
19
01
fa
f7
fa
ef
f4
0b
18
fe
f0
03
f2
26
19
e6
09
f2
ee
e9
d5
00
f7
e1
05
20
09
13
f7
03
0d
00
f6
e3
e9
f5
ff
f0
0e
ef
10
0f
f3
e4
07
ed
0f
f5
00
e0
05
d9
03
f7
05
fa
f9
05
f8
0b
f7
06
ec
d1
08
08
13
fe
08
d8
0c
fd
15
ef
05
05
e6
0a
fe
01
11
07
fd
03
08
f1
fb
f4
f3
f8
f1
fc
f4
0a
f9
ec
13
f2
00
f9
10
10
10
02
d5
f7
2a
f6
03
ff
fc
00
f0
f0
d6
15
f6
11
0b
e4
eb
d2
d5
03
10
0a
04
f8
d4
0e
e2
fd
fd
da
f1
fc
0d
ff
fd
fd
f0
f9
f4
d2
08
f0
eb
20
eb
fc
e4
07
dc
ec
0a
ed
f9
00
01
f9
27
d5
00
1e
fa
f7
08
fd
09
07
fc
22
ec
ff
21
f3
f9
02
d8
0a
ee
f5
eb
ef
eb
0c
08
04
ff
07
08
f5
13
f8
04
fe
d4
13
0f
05
ff
eb
28
0e
f8
08
de
ea
15
e7
f3
e9
1c
03
f4
29
ff
f3
13
f6
f9
f9
ef
06
f7
04
f7
ef
04
0d
07
0d
ea
26
0a
12
f5
02
18
fa
e9
fc
fe
0b
eb
01
f7
f4
04
12
da
1c
fe
0b
fc
22
fd
e8
0d
05
dc
0f
05
14
fc
09
e8
f3
0c
f9
11
f4
ca
06
36
f9
2b
f4
0d
13
f7
fd
21
03
1f
08
f5
10
0b
dd
f3
04
fa
05
1d
fe
fc
d1
d5
06
ff
f2
eb
31
0c
e1
eb
06
2a
09
0a
f3
f6
02
0a
e2
f4
e5
dc
ff
22
11
12
f9
00
f3
eb
d9
0e
dc
17
03
0a
0e
f2
fb
0b
f0
18
ed
ec
f8
0b
f9
f3
01
f6
f2
09
f5
00
ed
f3
12
01
de
f1
19
01
04
01
01
01
fa
07
1d
fc
ee
17
01
f0
f1
f7
fe
1b
04
e8
f3
18
fc
fb
e6
e8
f5
1e
06
f1
16
23
fc
05
fb
ff
f1
f7
ff
09
f0
03
1b
19
11
03
0c
ea
18
ed
fe
01
14
e7
09
12
f6
17
00
fe
11
07
13
03
f5
02
ee
fb
ef
03
04
03
dd
ed
13
0a
13
ff
21
12
06
dd
02
f7
10
e8
0f
e5
0c
09
ed
05
e1
d8
f1
ea
0e
e8
0c
f5
03
00
00
e8
f6
f2
30
e8
f0
00
f9
02
14
d7
00
f8
19
05
fa
f5
dd
17
d5
10
17
e3
0d
fd
07
d4
db
12
f3
13
e1
0b
f1
ee
0d
fe
0d
1a
00
fa
f5
e6
00
1f
13
e3
01
13
08
fe
13
04
f8
f0
fa
fe
0d
f7
fe
06
2a
1d
ec
22
07
fd
11
1e
02
ff
f2
f8
f5
02
dc
e0
19
e3
04
05
df
02
08
fd
e0
e1
dc
01
0f
0c
e4
f1
1a
17
f1
fe
e4
e2
f8
fd
fd
42
08
fa
cf
ee
f1
06
fd
08
f9
11
03
0e
e9
f8
fe
0e
16
f3
16
fc
ff
d3
0e
f4
fb
f8
01
0c
2a
01
f9
ed
15
e3
01
09
05
08
ff
02
e7
00
01
e0
fa
ff
ec
12
f9
03
06
fa
03
03
fa
00
f9
f1
ea
04
07
fb
ec
01
e0
03
fb
15
e7
02
f6
f1
e9
d7
ef
05
fe
f3
e0
f6
f9
ed
e5
0c
00
f8
f7
ee
09
03
0a
fe
f9
f3
f8
02
08
11
f3
1e
fa
fa
11
f6
ee
f4
10
03
05
f1
e9
03
01
1c
ff
11
ef
07
f5
fd
15
fd
f7
ee
09
0b
ec
e7
0d
2a
01
2b
2e
f9
ef
de
19
fd
f3
04
f2
3d
0c
e9
ef
06
0e
f1
fe
0e
eb
09
f6
09
04
f2
f6
fb
f8
f1
0a
ec
f3
05
f3
07
13
02
ff
13
e1
17
19
fb
fd
e6
f4
06
0a
ff
12
04
02
09
15
1b
e4
f7
02
ca
e5
fe
01
13
d8
07
f6
c8
e3
f6
f4
09
00
fd
14
1a
00
e9
0e
f0
d6
02
ef
00
fa
01
17
fa
f4
0b
f9
13
03
dd
0a
f0
fa
fc
eb
f9
e9
1c
0d
29
01
f6
0e
05
04
0b
fd
1b
0f
da
05
f3
02
fb
f2
fe
12
f1
fd
f6
03
fe
f2
f7
d5
18
f0
1a
e6
1c
e3
08
f8
0e
f4
ed
13
09
03
11
e3
fe
25
ef
0a
09
df
fc
0c
fc
0a
de
21
fc
fd
08
f6
0a
fc
2e
fa
02
f4
ff
ff
fd
fb
fd
d7
13
fa
fc
f3
ef
07
fb
fc
f0
f5
06
00
0f
03
f3
fd
f4
1c
01
dc
da
f9
ed
f6
1a
07
09
d5
ff
ce
00
06
e9
1c
e9
f8
ff
ff
ec
fe
f4
fb
fe
dd
02
f6
ff
04
13
d8
dc
0d
fe
0a
f3
ef
f7
05
fd
e6
0b
0b
e1
f6
02
e9
05
2e
fb
0a
06
e8
00
d4
fb
f8
fb
fa
f5
df
ff
fe
08
fa
0a
0a
05
08
28
05
fc
ec
0a
fd
fb
f2
ee
dd
f1
eb
f1
e3
f4
d2
fe
19
08
fd
0a
f0
e8
11
0c
ef
ed
0a
f2
dc
0d
f5
0e
f1
eb
fd
13
e9
ec
08
de
dc
f0
f1
fd
0e
07
f2
db
d8
06
02
18
05
e6
fe
0d
fd
f6
05
16
00
f9
05
01
00
f3
07
f2
17
01
fb
06
ef
06
fc
fe
d7
fa
fe
18
29
02
01
fb
08
00
fa
f6
0e
f0
fd
f1
1f
fc
dc
f4
00
ed
02
02
0e
10
e6
ec
08
f7
fd
00
fb
09
0b
e6
15
06
da
09
e6
01
02
07
fe
1f
1b
f9
fa
f1
e5
08
00
16
01
10
06
06
cf
e0
09
09
f4
02
fa
05
e1
03
10
fc
22
f2
06
f9
ea
f3
f3
f6
da
00
05
f7
0f
fc
f4
fc
0d
f1
f9
01
03
0f
07
fe
f9
f8
e3
ee
f4
f3
f9
09
f4
f8
19
f4
0e
db
11
10
08
fd
f5
fb
1b
00
1a
14
0d
f4
02
f6
f0
10
df
ef
d6
1f
ee
06
32
cc
2c
0a
ea
08
15
ff
fa
e0
0d
f5
e7
e2
00
fd
f7
e2
19
12
fc
fb
f3
28
f2
10
fe
eb
17
fe
e2
e2
f8
dd
f3
f3
dd
04
fe
f0
ed
01
fd
e9
0d
ff
06
13
08
26
fd
f4
eb
f8
07
e6
f8
e2
f4
eb
06
02
f4
fa
11
f1
02
fc
e5
09
03
18
02
ff
eb
f2
fb
03
11
fd
ff
fd
00
fb
f6
06
01
f0
04
01
fe
09
18
07
f9
f4
de
11
ec
07
04
e4
f3
e6
0a
19
21
04
08
ff
e3
f7
e0
15
08
f6
fe
e5
13
e4
0d
e4
fc
23
ed
10
1d
db
0b
e4
f9
f8
0a
07
fa
de
14
03
ee
13
ee
0f
03
f9
ed
e6
fb
eb
0c
f2
01
d3
fa
f9
fc
ed
0d
fd
f3
fc
00
0f
fb
05
fe
d3
fe
fd
14
fb
08
10
e3
08
f5
09
04
e3
f3
fe
03
09
f5
ef
ec
f2
01
01
09
ed
0d
24
f3
0a
eb
e2
eb
02
ed
12
17
07
27
04
02
f1
13
13
00
f9
ee
d6
fc
04
09
f5
03
04
ed
f5
00
f9
e8
15
0a
09
0d
0d
eb
09
fb
1b
e2
f1
f1
f4
09
05
d7
fd
f9
0d
ef
01
e3
0b
05
02
fa
fc
08
e4
f7
0c
f8
01
13
e8
13
18
00
05
f3
08
04
14
f6
ff
d4
f3
fd
02
f5
f8
e4
27
20
04
f9
fb
12
d9
08
f0
0b
f2
f3
d0
f9
f7
f8
05
e1
0d
0e
fd
e7
e7
05
09
17
0b
02
e0
f9
01
fe
0b
f1
d8
d5
e7
0a
f5
fe
19
12
13
d5
00
08
02
00
05
03
df
0c
e6
1c
e1
f6
d5
04
06
f7
f8
00
08
11
e1
0a
10
dc
f4
10
04
17
f7
06
f0
f6
04
1c
fb
06
00
eb
02
04
02
f5
f9
1b
f8
0b
e4
fd
19
d9
fa
fc
e8
fb
ee
08
f9
15
06
16
13
03
fa
f0
10
04
01
e9
db
e2
03
eb
0b
02
f3
09
2a
20
03
1d
f0
15
19
fd
ee
02
f0
f2
f8
d2
ed
f2
33
ff
e3
09
04
f0
fc
ff
0d
ea
04
f7
fd
a7
1b
37
0f
f1
ed
0c
02
f3
fe
f0
e3
1b
0c
0e
f8
01
21
05
20
f7
05
01
f1
08
11
13
03
fa
10
0e
e7
1a
00
f2
07
10
f1
fd
0e
ed
05
f7
02
17
fa
f7
de
04
29
f4
ed
01
fd
ee
f6
1d
00
fd
e4
07
fb
00
f4
22
d8
04
0d
06
e2
ee
23
04
05
eb
01
fa
f9
10
f1
ea
d6
14
ef
07
1e
f1
05
10
ec
ea
de
05
fc
07
0f
f7
f1
04
03
fc
e3
02
f8
dd
20
0b
19
17
f3
14
f6
08
dd
f7
0b
f8
05
04
f0
ea
07
e1
f9
f9
f3
f1
f2
06
0a
02
06
f5
e0
05
02
0a
f9
20
eb
05
e7
f2
df
f9
08
0f
f9
14
f4
00
f5
00
02
f0
0a
f5
15
03
0a
f9
07
06
0e
f5
1d
f8
f1
12
fd
f3
eb
05
fe
ee
00
fb
ec
ed
02
f4
f8
0c
ec
04
00
07
2d
03
05
08
e3
1e
0a
e6
f8
fb
09
f1
12
17
ee
dd
ed
dd
fb
01
fb
ef
ed
f5
01
00
11
18
03
16
e4
06
fd
13
0b
ff
07
10
fd
f5
fb
f4
fb
04
0a
ef
08
1d
fc
ff
15
f3
fb
02
0f
08
00
f2
ea
ea
03
05
18
05
00
f9
01
ee
19
15
0b
ec
13
05
f7
25
ea
20
0e
f4
09
ff
d4
df
e2
f3
03
e2
01
11
12
f9
1e
d5
fd
01
ec
fb
f1
ff
ef
fb
ee
df
26
1b
06
14
0d
f9
02
ef
1b
04
05
f5
f1
0c
01
03
05
f9
26
1c
03
01
fe
02
dd
ea
07
ea
04
ef
10
11
03
c9
01
04
0d
54
f5
07
f3
10
fc
34
0d
15
19
0a
f9
09
03
f4
f2
04
18
fc
fd
f4
f6
2e
f3
02
00
f6
f9
10
f5
e1
00
f0
f5
fd
0f
08
f6
ff
14
fd
29
04
f2
14
1b
05
04
00
0f
0e
14
f1
eb
f2
dd
00
0a
14
06
06
06
1c
e3
01
ef
fc
09
08
fc
fd
ef
f3
09
f3
fa
0a
01
01
02
dd
f0
02
de
20
03
dd
03
17
03
00
18
e7
fd
fa
0e
f6
f9
14
fe
ef
eb
e6
fe
f3
00
0d
f9
0a
ea
fe
11
fb
f8
04
f8
02
e3
f7
06
00
e4
31
1c
10
ef
1b
d9
ff
d1
f0
f6
fa
0c
f7
02
09
f7
08
08
d9
d8
01
f1
de
01
de
ff
dc
f4
03
fc
f3
e3
22
14
fc
ef
f0
f9
0a
f8
08
ed
13
15
0e
00
25
28
03
07
02
07
0e
f1
fc
0e
e7
1a
f9
26
ff
fe
fd
04
e8
04
05
f5
0b
fc
fc
f9
0b
0b
fc
ff
04
04
e4
f9
11
08
0c
e4
12
f1
e8
14
e6
f7
ee
fc
fe
08
f5
10
2d
00
fa
fb
f2
1c
09
d9
f5
12
f8
f6
fb
ca
0c
fa
dd
1e
fe
fa
20
e7
d1
f6
2b
02
06
e3
ec
ff
dc
fa
06
0a
fe
11
fe
ec
01
08
f1
09
ef
fd
f4
1a
12
09
00
02
ed
0d
0d
09
02
f9
12
0e
10
fa
fe
fd
07
2b
f5
f3
0a
e7
d3
ff
03
0d
00
40
01
08
e5
09
ff
e5
f1
12
02
f7
00
f3
f0
14
0c
0c
ef
f7
13
0a
0b
01
f0
0f
1a
18
f8
f7
fc
03
f4
d7
14
ef
f1
e3
0a
18
02
06
fc
19
1a
01
ed
02
1c
f8
0c
16
04
f8
1d
0c
1e
01
12
e7
fe
ec
05
f1
ed
cd
0a
fc
f4
27
e6
f6
f3
31
fa
f2
16
f2
1c
ec
36
13
02
0a
09
0f
0f
b7
f4
d9
02
00
0a
02
e3
04
ff
16
fb
22
f8
1a
0e
f5
03
09
1b
f5
ed
22
10
d3
23
17
e8
fe
f5
f2
01
e1
25
f3
e4
f2
00
f7
07
00
16
1f
1b
10
f6
1a
18
ef
07
fc
e6
f4
fb
e2
f5
e1
06
f8
0f
f0
03
14
f4
3b
15
00
f1
03
01
0f
08
13
e8
e3
f2
03
1b
0c
e2
04
0c
f9
02
08
dd
04
fa
f6
fa
de
15
05
12
f7
18
fd
de
0b
1a
dc
f5
fe
fe
05
0b
09
06
0a
f3
1c
df
fa
04
0f
e2
26
1c
0f
1d
f6
0b
07
04
2f
db
f2
10
fb
1c
17
e7
08
12
1e
ec
ec
fa
09
0b
e1
f8
df
15
08
0b
fc
19
03
e8
00
ef
f2
11
01
10
04
0a
09
f4
ec
e2
f2
1e
fb
ff
e9
ff
d4
0f
08
01
ed
fa
01
e5
f4
f6
1d
0d
ff
03
06
17
09
fa
01
00
f9
0a
f9
ee
de
07
08
fb
ff
13
15
21
10
fd
12
fd
f6
0b
07
04
0b
f9
1f
ff
09
fc
fe
24
f3
fc
f3
ff
ea
d9
0e
05
f4
0f
fc
fc
1a
1b
e6
16
e8
06
03
03
f3
01
fb
03
20
f7
fc
e8
e4
0b
ef
e5
f2
10
f4
fd
ee
03
03
f1
f7
17
fa
05
0c
0d
f7
05
15
1c
fd
e0
fb
fb
08
f4
06
f7
17
17
0b
05
08
f8
fa
f8
f4
18
fa
e0
01
1a
fa
f9
d9
12
0d
07
21
fe
e4
01
16
e5
12
f0
0c
e3
28
05
da
17
fb
07
e3
e6
1f
e6
0e
fc
fb
01
f8
0f
02
0b
fd
f2
e2
2c
ef
fe
f0
14
28
06
f2
06
ed
d9
16
11
00
0e
0d
05
e8
ea
0b
fb
1c
e8
f4
f5
f5
fc
f1
fd
04
0c
0d
14
16
36
fd
fa
20
0a
0e
fe
15
f4
04
25
10
0c
29
03
02
ec
06
11
03
fd
13
07
16
03
fc
0e
04
0d
eb
07
04
37
f0
06
1d
f8
01
06
20
22
09
19
10
06
e5
08
00
24
f6
14
fd
1d
21
19
03
2a
0e
07
d1
f2
ee
f5
21
fa
ed
fe
0c
08
26
ec
00
dd
db
f3
f5
0b
fe
e7
f6
fa
e9
09
06
00
0b
fa
ef
fc
fd
05
23
f8
f1
19
14
2c
13
ef
fd
06
f4
2b
0e
f2
04
f8
06
0a
03
0d
0a
0c
13
dc
12
f6
fd
f3
e1
fd
02
1b
fe
18
fd
0f
ff
15
f7
f4
21
03
01
de
11
0d
f9
e2
fc
ec
08
ef
0c
2a
20
de
fd
ef
d9
02
03
15
f4
f4
05
f1
fb
e3
12
cb
0a
01
11
01
fd
f3
f9
f2
0a
0b
05
09
e1
14
fb
01
f2
01
d3
04
fc
15
e8
03
02
fe
01
11
37
ee
47
ea
fe
07
19
f6
18
01
00
e9
1c
13
fe
e2
0c
e6
06
09
fd
08
fd
d6
19
fd
fb
00
11
ed
04
2b
f3
0b
23
06
0a
0a
f4
ff
fb
ff
0a
09
13
0b
e2
f0
f9
04
0e
06
14
12
1e
00
05
e7
fb
f3
07
ff
e1
17
0e
02
0a
fe
07
fb
12
f8
1b
0d
0d
e0
01
1a
fa
03
f4
15
07
00
fc
06
02
0e
f7
05
f3
15
1f
08
06
f1
0d
00
0d
fd
16
1f
f1
08
06
fd
f4
2d
05
fe
14
ec
0c
17
08
13
01
11
00
00
cc
ea
08
ea
fa
b5
00
ea
14
02
f7
01
f5
e9
03
f2
e3
f9
0b
0a
fc
15
fd
fe
1d
08
fd
fe
1b
fa
ff
f7
f0
f1
fd
fc
15
0a
1d
01
ed
e6
d7
23
09
01
ec
f7
f3
09
ec
00
07
e1
02
ed
0a
01
f2
f0
07
0a
18
06
f7
fd
00
fe
fe
08
fd
0f
00
f9
0c
df
fb
23
05
ef
fc
01
08
14
16
11
0a
ee
17
2a
02
07
fd
1e
19
ee
0a
fa
08
fe
fd
f4
1d
f1
13
ff
e3
20
ed
01
06
0d
fd
fa
d4
fc
08
e8
f9
01
02
d8
fe
09
00
f9
09
15
de
07
08
01
ff
12
09
04
f6
e8
12
12
ef
18
06
ea
fd
f7
03
e1
fb
1e
f2
02
fe
00
18
00
f5
f1
12
e9
ff
f5
14
fe
e6
fe
fb
0a
18
14
03
09
0b
fe
11
00
02
05
f8
f2
1b
f5
ee
ec
f6
f1
e2
09
f8
fe
f1
1d
df
19
26
0d
f5
d3
03
1b
f7
f9
f8
0c
fe
e3
03
fe
e8
00
01
03
05
10
11
0c
13
0d
fc
28
e3
00
06
18
1c
d9
12
00
e2
e7
01
05
f6
ec
fe
ee
04
fe
ff
13
fe
05
ef
ff
1a
fb
f5
e7
14
e8
04
04
06
fe
13
fd
fa
f6
04
fe
0a
ea
16
08
ed
ff
0a
f5
0e
f7
07
27
09
03
16
f3
ef
0f
12
f4
02
f3
07
01
1a
ff
15
e8
28
f6
f7
f7
fa
1d
0e
03
f2
f3
06
fc
06
05
1a
ed
12
0e
03
11
0e
ec
e7
ed
10
f4
fc
f1
ea
01
03
00
f8
0a
fd
f9
0e
0e
e4
04
fe
1d
06
e3
0b
f3
07
e9
03
ee
f0
0d
e6
1d
f7
09
e9
de
f1
f0
16
e3
15
00
07
00
f4
f5
f2
f8
fd
12
f6
00
de
ea
03
fe
0a
fe
0a
17
0a
ef
ff
ec
04
03
fe
11
0f
11
fc
0b
01
1b
fd
0c
0c
f7
ea
02
0d
fe
f1
18
f9
14
fe
04
f3
02
ff
f5
0a
00
ea
e8
ea
0a
01
f8
e4
07
c0
02
08
08
fd
fc
0d
f1
13
05
03
f3
04
ff
09
eb
fd
e0
04
08
fe
29
eb
04
f7
20
02
0a
fa
fb
03
e7
ed
fc
ef
e9
10
e5
02
0c
0e
0b
1c
fc
3f
09
09
ff
21
10
fe
0d
fd
14
ff
ef
16
0a
ed
f1
0b
2e
fd
ee
19
f1
02
ff
f5
1d
e2
df
b8
ff
d5
03
00
ee
fb
0a
00
dd
dc
2b
f1
f8
e9
ca
e4
d0
cd
23
08
14
f4
2a
bc
e8
f7
22
07
3a
2a
06
f8
03
d1
ff
02
f6
fc
07
08
eb
1d
07
06
07
42
06
07
f1
13
e8
f3
bc
08
17
42
f6
09
22
11
08
d4
09
10
f1
0b
c8
e6
17
fc
02
d4
fb
09
0e
ec
e3
1b
02
c6
16
37
08
fc
e9
1c
08
27
f7
0c
e7
f9
06
0b
18
fc
0a
2a
0a
11
dc
1b
f9
ff
e0
d7
f5
ff
31
02
f5
0e
f0
e5
f8
e5
09
ff
14
e6
df
fa
ee
ee
f4
fe
52
ee
04
05
fb
fa
0b
07
f5
f7
02
09
e6
18
11
0e
03
06
0d
41
12
04
f3
0a
09
17
ef
11
ee
f5
1c
07
f8
1f
06
0c
f3
eb
fd
06
0c
f6
0a
df
ea
1a
0b
12
1b
0a
07
29
da
14
02
04
1e
fc
e6
f6
00
18
dc
f5
03
0e
f1
35
0f
00
0f
ee
00
02
08
ec
03
0c
f1
fb
0e
fe
0f
16
27
eb
f5
00
fd
d5
28
07
ee
ee
eb
29
f0
f2
00
f3
01
34
10
03
0e
ec
00
e1
06
e5
e2
0c
01
f1
07
09
1a
17
0c
06
fd
e8
fd
f1
05
0b
16
1f
05
3f
37
f8
ff
03
c8
0a
f9
f4
f3
df
2f
0f
0f
28
e3
f9
03
e6
14
fd
38
07
ec
00
e3
ff
03
f0
08
27
27
d9
04
fa
14
e8
00
f1
e8
1b
00
df
f3
25
3d
dc
ca
dc
fd
e2
f5
0c
ff
ec
fa
de
e8
21
f0
e8
f6
07
ed
fa
0d
09
de
1d
f0
05
00
ee
08
1c
e0
db
09
11
17
1f
10
09
0f
0b
2d
06
05
f3
f6
fe
07
e8
f9
18
d8
fd
fd
db
02
f6
08
e1
0e
c6
f7
f5
fb
24
15
f3
12
d4
0d
ca
0c
e6
02
01
ff
0f
f3
ea
dd
30
15
ff
fa
cd
06
d7
fc
0d
17
17
01
ff
f4
12
f1
01
0f
35
0b
6b
e3
fd
49
03
f8
fc
0b
de
f9
e1
de
fa
19
0f
25
ff
fb
e0
e5
ed
cf
eb
d8
e2
02
da
07
f8
e7
05
cb
df
1f
df
14
e4
07
e6
eb
06
25
0d
1a
29
ee
08
e9
ce
cf
f2
fa
fd
fa
fc
00
3b
18
e3
22
f2
15
f7
1e
15
11
ee
fd
01
1a
1a
fe
f4
f9
db
2a
23
19
fc
17
12
19
f7
2d
14
e4
f5
03
21
fb
15
f9
f9
23
ed
0a
fb
d0
02
07
0e
e9
00
e3
1b
10
0c
f4
1d
1a
eb
ff
11
ef
eb
d2
f1
ec
23
ce
f9
fc
19
d7
07
f2
34
24
13
2c
22
24
ee
bf
f2
f6
f4
e4
bc
07
e2
1f
0f
f9
00
06
2f
17
ed
13
10
e6
ee
32
ee
ff
2b
d0
10
23
f1
fd
04
f7
09
c7
1c
11
09
19
ff
25
c8
08
f1
ed
f1
06
f8
03
e7
14
c9
e5
f4
02
48
fa
04
ee
16
07
1f
e6
d3
19
27
04
2f
31
1d
00
af
d9
20
04
f5
06
22
20
db
15
1c
0a
ff
e5
06
df
0e
e7
ec
df
f7
05
11
05
f8
f4
ca
db
fe
17
fc
d4
09
02
ee
04
18
1e
03
ee
17
fd
fc
1d
fe
12
eb
03
0f
07
29
f8
fe
11
fa
f6
0d
0a
ce
36
fe
03
00
f2
fe
0d
24
0e
e4
eb
2f
14
f2
ee
f2
05
e1
19
19
21
ff
00
27
1b
db
df
41
03
06
00
fa
cc
f2
01
14
f1
09
0e
0b
12
0e
e3
02
e5
b3
07
07
ce
fc
f8
f7
fc
04
eb
01
01
13
04
5a
fe
f1
1b
27
fb
ca
f6
0c
18
e5
02
fc
03
ef
1d
f5
f3
10
09
fc
f6
09
04
00
19
0e
06
04
21
21
ff
fc
05
fa
36
01
17
d3
2b
01
eb
e5
13
f3
f6
16
e3
f2
09
d6
e8
0b
e9
15
46
14
f4
04
11
00
de
17
f8
34
fe
fc
f6
01
e1
d2
1f
d7
22
07
12
f6
ea
f2
fc
04
0e
e0
15
25
3e
c2
2b
f2
02
ea
2e
07
0b
19
01
92
14
f6
f4
f9
f7
e5
fd
f7
e9
0a
f7
28
12
0a
fb
e2
14
2a
13
20
1e
07
e8
ed
f5
fd
fc
e9
e6
f6
0a
fd
22
eb
20
ed
28
16
f0
d6
12
fe
11
f4
03
fd
e4
14
fc
f3
02
db
0c
4f
ed
12
f7
fa
21
ec
09
05
02
ef
04
0d
fe
0b
d4
08
dd
bc
fb
02
08
0d
f8
d7
05
18
fd
0e
01
f7
08
c9
fa
ec
f3
00
2a
22
f1
fa
1d
e8
f6
06
06
1a
28
e9
01
14
d0
07
f9
10
fd
01
0a
2f
00
38
00
0d
28
dc
ee
0a
16
1e
ff
25
06
2b
00
21
04
28
ea
0f
03
06
15
f5
e7
f6
ec
f6
04
0d
f8
f8
d7
07
03
e1
16
f1
cb
21
1f
ed
06
08
e4
01
01
fd
22
00
ff
f6
1c
f9
00
01
1a
12
e7
fa
d1
e9
eb
13
eb
f8
ed
f4
21
f3
f9
d3
fe
e5
14
01
f8
f6
0a
d7
20
0c
f4
1d
f6
d5
5c
ff
c6
dd
19
51
01
0d
d8
e1
07
0e
22
09
00
e2
00
06
23
0e
09
d8
ef
12
06
fb
fc
01
0f
f0
eb
e2
14
03
07
ed
ff
21
de
02
ea
01
08
de
05
20
ef
f0
0f
18
03
18
14
03
fa
da
de
c1
05
07
bc
e7
06
fd
fb
2a
00
34
fd
f5
15
04
f8
07
13
f7
04
f7
e6
07
05
07
ff
e4
fd
03
d6
18
20
fd
f8
ff
eb
02
07
fe
1a
19
f9
e9
f2
01
18
01
dd
f1
e3
36
17
2b
22
fd
04
e9
ee
01
e9
1b
0a
e8
fa
0d
f1
f3
eb
f8
fd
08
e8
de
ff
e4
06
da
e3
03
25
09
1b
f5
0f
f7
0b
f7
f6
04
dd
ea
ee
0c
eb
00
fe
0d
ef
04
f3
f9
f5
e7
e5
e9
f4
f1
fb
04
17
15
ee
d6
05
11
eb
f6
0a
04
e3
02
09
f8
0c
06
e9
02
fa
07
ea
f2
f0
eb
e0
0c
0c
ff
e8
01
d6
fc
04
f4
f5
eb
e5
0d
0b
13
e4
05
09
0c
e9
08
ef
f1
ed
07
12
f6
ff
f5
00
09
1e
04
f6
04
ff
00
e7
09
fa
fe
f9
01
12
0a
eb
dc
ee
fa
fc
f8
01
fc
e7
06
fe
f4
fd
fe
f0
ce
0f
fe
fb
f7
15
f4
01
fa
02
13
e9
f7
f1
ff
d7
ca
bf
00
df
06
fe
01
fc
e9
0e
ea
f4
f2
f2
e9
ec
fa
e3
04
f0
fa
e9
02
eb
01
0c
07
e8
f6
04
16
db
fa
f7
08
e3
d5
fd
f2
12
0f
f0
06
fd
08
f6
f9
11
f7
f4
04
0a
04
fb
09
09
01
ff
08
fe
e3
00
02
e6
fa
04
f3
fb
09
f8
19
ff
0c
0c
f0
11
28
e1
fb
ee
05
e9
ec
11
ec
cb
fa
10
f9
f3
f7
dc
e1
13
06
f7
0d
f5
01
0e
07
12
04
f8
f1
02
d8
0e
df
18
07
f7
03
13
06
d6
dc
14
f2
fb
f4
08
19
03
f3
02
ea
eb
dd
0c
fd
e7
ec
e9
f5
e2
ed
0e
0a
0e
04
0b
ef
fe
07
08
fc
00
03
e1
fa
12
dc
e9
da
0f
11
ee
20
0d
16
db
00
f5
e1
ec
05
0d
e8
00
eb
05
28
ef
f0
ed
dd
f6
f2
f7
13
25
fd
1d
f9
fd
11
eb
00
e7
f1
ff
0b
01
eb
c0
16
f0
0d
f8
ec
d4
f8
02
e5
fb
ff
04
0f
f9
03
08
df
02
fb
fb
fb
fa
eb
06
f8
00
14
f8
ed
f2
f8
f9
fa
c7
07
e6
f1
fd
0d
16
05
ef
12
30
ea
e8
fe
e4
01
fa
e3
fd
f5
04
f0
05
ff
f6
f9
f0
1c
e5
09
12
00
e3
cc
0a
f3
ff
ef
1a
f5
ff
f9
d7
f9
eb
fa
f3
ed
13
f2
de
e8
fc
dd
01
f5
1c
08
fb
08
fc
03
fb
09
01
05
01
fd
f2
24
fd
06
0e
07
e8
0a
01
ff
f1
f7
07
04
ed
eb
d9
e4
18
10
ef
fc
15
eb
ed
f5
e1
01
0a
fd
ea
0a
ff
db
fd
0b
f6
f6
f1
f0
f1
fc
f4
de
29
08
09
ce
f6
f6
2f
13
0a
00
f3
dd
e2
ed
0e
14
07
00
fc
fa
ee
f5
fd
01
ea
02
fd
fc
f8
e5
f2
f2
e9
fb
ff
f0
dc
ee
04
e4
03
15
d7
f1
0e
c1
36
fe
fc
f2
fa
0d
19
fc
0a
f8
15
f5
0d
fa
0b
10
0f
03
f8
f6
db
02
04
d0
ee
00
fd
e4
fb
07
e8
f1
00
00
ea
fe
e8
fa
01
14
f9
16
f6
e8
0f
f0
f8
08
df
e1
de
f2
0b
fa
ff
d7
06
09
e8
f1
0e
f6
e9
e8
fc
ed
0e
e5
fd
e7
12
ff
ef
ed
06
10
f6
f9
01
f5
02
0d
e8
07
ff
0b
00
ee
0c
09
f5
eb
f3
08
0a
ed
fd
ff
f2
fd
06
f8
f1
06
f8
1c
f9
e6
ed
10
fe
01
0a
f3
ed
08
0a
e8
1b
00
f9
1a
01
fa
eb
05
f6
f9
02
f2
f0
12
2b
ee
23
01
f9
f4
ff
f5
09
ec
fd
16
0d
f7
ea
07
ee
d8
f5
ce
fa
f1
08
0f
09
09
fa
f9
01
fc
ef
0c
ae
ff
15
04
ed
fb
ef
0b
fd
fa
f6
0c
07
ea
e7
e9
24
fd
f6
fe
f1
f0
f6
f6
f7
f0
02
05
f5
0b
00
dc
04
22
f0
0b
ed
0b
f2
0b
1e
fc
19
d9
f1
f5
ff
f6
e1
e8
07
f0
fa
04
de
08
1a
ee
ef
f7
f0
09
f1
f7
13
f4
e8
ff
29
05
ee
08
f2
d5
ea
f7
03
10
ea
05
1c
15
ef
f3
0c
fb
09
f0
fc
f3
08
e4
03
ec
0f
07
ee
fc
d3
fb
f2
d9
eb
17
e3
f3
08
01
f5
e2
04
e6
f6
fc
19
17
d9
0b
ff
ff
00
07
eb
02
02
fd
fc
f7
e6
e3
0b
12
01
06
01
00
ec
f1
07
fe
02
eb
f6
f2
e0
ee
2f
f9
ea
df
e4
fb
06
fc
16
e3
d4
ec
e6
fc
10
fa
fe
fd
08
0a
f3
17
e8
1f
fd
ed
eb
f3
ef
ea
04
17
e9
ed
cb
fa
ee
10
f7
16
1d
11
07
ed
00
e7
d5
e8
10
2b
ea
04
21
f1
06
1a
fd
0c
07
16
01
f8
ff
f7
e9
db
ff
01
04
0c
10
05
fb
03
13
e4
03
e0
02
10
08
f5
ea
23
f2
14
ee
29
02
02
15
de
fc
fb
f3
ee
e4
f5
f3
fd
0c
ff
0e
e9
f2
00
d5
f5
04
ff
00
f9
02
e5
fa
06
f3
0e
02
ee
f4
09
07
ef
ea
f4
0d
08
fb
0c
fa
e8
f3
fe
eb
ef
01
f9
f9
fb
26
05
f6
26
f4
01
03
fa
13
f2
f7
fe
ff
06
ee
ff
fc
f3
03
0f
f4
f7
fa
01
ea
f2
f8
07
07
fc
f7
e5
19
0b
fd
f3
f1
18
01
ec
e5
e3
f1
fb
fc
0f
ee
fc
f3
fe
f0
e7
f3
03
02
d7
fb
f2
d1
f6
f0
11
fe
f5
fb
0b
0b
0a
0e
07
f5
fd
e6
04
f5
fe
e1
fe
14
dc
e2
f7
f5
09
f5
e9
f5
e1
ff
fa
34
04
fe
f0
cc
e7
08
f0
00
06
07
01
e7
f9
f1
0d
d6
04
f5
08
08
04
ed
ff
c0
f9
f2
fa
ed
02
10
e0
19
1d
e5
d3
fb
21
02
fe
0d
13
f4
f4
0a
e6
ed
fb
26
05
f4
fb
18
04
f1
07
17
f0
03
d3
e7
f9
23
0b
ed
fb
f9
e3
05
01
e9
0c
ec
09
17
f0
fb
bb
fc
12
0c
0e
09
0a
ee
ef
13
ed
16
fc
06
16
ed
09
12
e5
ef
f2
09
f4
fe
fe
f8
03
ea
f1
01
01
fc
f8
08
ee
1d
ef
0e
fe
f3
f1
fd
0f
f6
00
f1
0a
08
ea
ef
df
06
fc
06
c5
0d
01
15
05
14
ff
e7
db
22
ed
f6
02
ed
2b
01
fd
04
ec
12
fa
0e
06
15
e3
fe
0c
03
f7
0f
fb
06
f6
02
f0
05
ff
2b
f8
05
ff
12
f3
02
be
dc
0a
21
f7
2a
f8
d7
fa
ff
f8
1e
0b
eb
0d
0d
fc
00
09
ec
21
1c
27
0d
ed
fc
f7
0e
05
1a
e9
07
fb
fd
f9
ec
f6
06
04
f9
0e
02
01
fd
f8
fb
11
21
fe
17
03
fe
05
2f
01
f0
19
02
f0
f5
fa
02
0a
15
f9
03
e7
da
00
f6
fc
e1
0f
fe
e6
e4
f2
04
0f
0b
10
ff
e5
12
f8
e3
fd
05
0d
e7
07
03
19
0d
01
12
f9
f9
f9
19
fa
fe
fc
f1
fa
11
07
01
f7
f5
f2
0d
f4
14
1f
fa
ff
02
f4
d6
16
f9
ff
e9
e5
fb
d9
00
23
f9
e4
06
07
0f
ea
10
00
fb
00
08
fd
19
f9
08
f6
e3
0f
f4
f8
ed
fa
08
0a
02
ec
0c
0a
e8
c7
0a
f7
01
f4
f9
0f
f7
e5
f7
04
05
08
0f
ff
f9
08
00
10
fd
ed
04
f7
f8
0b
ff
f5
fa
fd
e4
fb
0d
22
0b
11
05
f8
e6
16
10
10
fd
ed
fe
e7
f5
f0
f0
ee
fa
f0
f1
24
f9
15
0f
f3
e0
f1
05
08
ed
eb
f8
20
f9
f8
ea
0a
07
19
22
1e
0b
fd
ff
f3
0d
fb
fe
f8
0d
e0
02
0b
e9
ce
f6
0e
00
0d
f2
ef
e8
fa
0f
fd
df
1e
ed
e6
e4
04
e1
05
1c
0b
fd
e0
01
04
0a
ee
06
ed
f3
07
05
fa
f6
17
f3
fb
ef
06
06
e9
e6
08
06
0c
f7
08
f2
fe
dd
ff
fe
fc
08
02
07
27
02
f2
13
03
eb
f6
fc
06
2b
22
27
ea
f7
0b
f2
f0
24
04
04
f2
0b
09
fa
0f
fd
f7
14
f3
f4
fb
fd
f1
08
18
e8
e9
02
e3
04
0b
f2
fb
0e
f0
f9
14
f6
f1
f5
00
18
ef
fa
e9
e9
00
02
01
ef
0c
dd
04
fd
07
20
ff
26
03
dd
f5
fa
00
0d
fb
04
07
05
df
03
1f
fd
f0
e2
f9
f1
f3
f4
1a
1f
d6
1d
00
34
f8
0b
16
10
ee
ea
f8
f0
f2
fc
e3
e4
e8
06
09
03
d8
f4
f4
ee
dd
e1
ee
03
0d
0f
10
f4
f7
15
fa
ff
f9
02
f5
00
fb
0a
ee
05
fd
e7
ef
07
f9
0b
fe
f4
fd
ed
04
2d
0f
03
ff
e4
0f
00
01
fb
f7
d6
f9
ff
ea
f5
0b
fe
f5
f9
15
fc
14
f1
06
fc
ee
fe
0e
06
fe
f5
ca
0c
fc
0a
25
f8
08
e2
f3
00
1e
12
17
08
02
09
0e
02
05
24
fa
f9
02
f8
08
ff
07
dd
05
0b
0f
0c
2d
fe
ec
02
eb
fa
17
ed
0e
00
e4
f0
02
fe
0a
0b
0d
e5
f7
ec
0a
0f
03
fe
01
05
0c
fe
08
fb
f5
15
ea
ea
18
07
eb
f2
07
ed
05
0f
11
02
f7
fc
10
fb
01
f2
fd
f7
f4
13
fa
19
14
05
00
fc
0f
f6
0a
f1
04
fd
f5
0a
00
03
17
ea
f6
fe
10
0f
e0
eb
0e
22
fb
f1
0c
f3
ef
15
16
1a
fa
f7
f4
0c
09
14
f1
fa
d7
05
fa
ff
0b
f7
f8
fe
f6
00
ff
0d
f3
de
fd
f0
f1
10
f8
0c
cf
08
30
03
22
ec
19
e3
1d
ff
02
01
fd
26
fb
01
d9
2f
07
0b
ac
00
1a
13
fd
ff
f7
08
00
0c
f9
e3
f9
01
f4
02
ec
14
f4
05
fe
f1
e8
de
26
f9
08
f7
1d
f1
f3
0d
f8
f3
e4
ff
05
05
e7
e2
f7
06
fc
03
f4
e1
1d
1a
fd
f3
01
e1
0f
0b
d9
fd
03
01
10
14
01
fe
05
10
01
03
01
f4
e2
10
f8
dd
ef
e8
0e
02
ec
f7
11
e2
22
fa
e1
f9
06
05
ba
08
0e
06
f0
04
fa
23
e3
ed
f4
fa
fe
d7
eb
dc
f3
15
fc
ef
ed
f1
05
02
03
03
19
e5
0c
ed
10
f7
d7
f7
e2
fe
eb
0e
fe
e8
02
09
07
01
fc
fd
fe
ff
de
fc
e3
eb
fd
f8
ee
21
d5
16
03
0e
e7
09
fd
04
f9
f6
f6
f5
04
0c
02
fc
06
fe
f6
f9
02
f5
01
03
ee
02
11
0f
0a
f1
10
17
20
eb
fc
f1
1c
10
f4
da
dd
ff
f9
f5
fd
fe
e9
08
10
07
f1
f8
db
26
f2
e7
1b
e4
07
ed
fc
0f
03
1b
fa
e3
e8
fe
10
1d
ef
fe
11
fd
f8
f6
0c
32
fc
d5
f6
ea
fc
f4
e2
fa
0b
0b
fa
ea
07
00
fb
12
01
04
ff
04
e2
fb
0a
01
d7
09
14
c2
10
fa
0b
0e
04
fd
0e
fc
03
e9
ff
f7
f5
f3
e6
ff
fd
f1
e1
ef
13
fa
1a
ed
01
07
0f
e3
13
e2
17
01
fe
f4
fc
e7
09
db
12
f9
f9
f2
f9
fe
f5
f6
de
20
fa
f8
f5
f7
d0
e6
ee
ed
0e
fc
15
f4
e7
f5
e0
f4
f8
da
fd
e4
02
e3
fc
f6
fd
fb
f7
e8
07
fd
18
ed
ed
f6
17
0d
11
09
fc
03
0b
01
0e
ed
ee
fc
f8
04
01
23
fe
05
08
fc
f1
0b
e1
07
fe
02
d7
e2
10
ee
db
02
05
07
03
05
0d
02
ee
f0
e5
eb
02
f2
04
fc
12
fd
0c
0f
fd
2c
fe
1b
f2
f5
fe
fd
07
fd
12
f4
de
0e
09
1d
f9
ee
f7
12
f4
e4
03
fa
08
00
fb
ef
f5
0b
cd
ed
ff
03
ed
0a
0e
dd
fc
10
13
f2
07
ff
ef
cb
fb
1a
e2
0b
01
fb
14
ed
fe
21
fe
0c
1f
e6
de
fe
ff
09
09
eb
12
e7
2b
04
1c
cf
34
e4
fb
ef
ef
17
38
15
ea
04
ed
ef
e6
ff
02
f0
eb
ce
fe
00
fb
03
ed
e6
1e
fe
d9
fb
e8
0d
f6
d2
20
14
fb
05
e6
fc
c7
ce
10
ea
12
fd
e7
ee
18
e9
21
0c
01
16
13
11
02
ee
f9
06
07
fd
04
f3
12
02
65
01
ec
2d
0e
ff
08
33
ff
0c
f4
07
02
fd
d9
18
04
ee
0c
fb
00
f1
d4
08
10
ed
d3
03
f6
fc
0d
10
01
1b
f2
ff
f9
01
1c
fa
fd
05
f4
2f
01
1a
fb
ff
2c
fa
f2
16
ec
19
d4
0a
e7
05
fc
f3
ec
fe
fb
09
13
01
eb
fc
06
fb
ec
e3
f4
35
e3
07
0c
f0
2e
11
eb
15
ee
0e
20
f7
d4
0f
00
12
f1
0b
fb
f8
ff
ef
04
f7
d2
03
f5
05
ff
02
f0
e8
13
f8
f8
05
0c
f2
07
07
3d
16
04
01
eb
fe
22
f4
08
1a
e6
02
26
f5
16
16
05
fe
e9
27
05
0d
ec
cc
11
0c
da
d7
0f
0f
33
01
f1
fd
fd
fb
11
df
03
ed
f7
0a
ed
1d
0b
f6
45
00
fa
07
1b
0a
2c
fa
13
04
f8
fb
fd
f1
fa
f3
1b
06
e5
f6
f2
0c
f7
0b
f0
e2
e3
04
d0
f3
10
e4
ec
e3
ec
21
e8
e7
05
f7
f4
fd
05
26
05
e3
05
1f
06
cc
24
e4
11
14
1b
06
c9
ff
0b
09
0e
ec
f2
db
f0
0d
fa
23
07
18
18
0a
03
05
fa
10
e0
09
f8
f6
19
12
e9
14
f5
17
f6
ea
f9
f4
1d
fd
1f
e8
e9
fb
0b
fa
d0
00
03
fc
f0
02
18
e2
cf
fa
eb
e8
f1
05
ee
10
f2
1f
17
e3
1c
f9
fc
f1
e7
e5
01
11
00
0d
04
f7
d7
0a
f6
ef
fe
e2
ec
0a
0b
ed
18
12
1e
c1
cf
f4
f0
26
e6
d2
16
33
20
e1
f5
f9
23
df
f4
e9
f5
03
e5
0f
01
ed
f3
eb
fc
f9
da
0c
0c
db
ef
05
fb
01
f8
e5
ee
f8
05
1e
ff
12
e0
f5
f1
01
fb
ec
12
e4
f1
03
ce
00
12
ed
1c
f7
f7
0c
35
02
e8
fc
1d
0d
08
e0
1e
d6
00
f2
1a
02
f7
00
18
06
ef
f8
13
cc
06
df
0c
0c
f4
09
08
04
03
fd
01
f9
d7
00
1e
f4
ff
dd
da
1f
07
17
f3
1d
d5
14
ec
e6
ed
17
19
23
0d
05
e0
ff
02
f5
03
d3
0d
0d
f5
0d
03
17
de
f8
18
0a
fc
21
d5
0a
1a
19
25
d9
08
0d
fa
09
f6
f4
17
0e
03
04
f5
04
fd
0f
08
0a
f3
c5
ed
21
fc
f1
fa
d8
0b
e2
07
0f
0c
f6
08
f2
05
18
22
0d
f4
d3
05
26
e9
ee
f5
01
f9
df
13
d3
e8
34
08
0c
1a
e2
e1
02
f0
1d
06
09
04
1c
1c
db
ed
f9
e1
dd
09
04
d4
01
f4
cf
02
f9
07
fd
04
df
ee
05
0b
fa
0d
0c
01
fa
f8
0c
0a
fe
22
15
e5
f3
d6
04
23
0c
f7
d3
e5
0a
fd
03
f2
f7
e8
09
fe
12
09
1b
f8
16
07
f8
f7
0b
fe
fe
09
3f
fe
fd
00
11
f0
00
00
01
cc
10
1d
1c
fb
22
fe
06
12
e9
e4
f4
13
07
0e
2b
ea
19
ec
e4
07
27
01
03
ec
d5
22
00
fc
fa
0d
43
13
f5
ff
e8
1a
ef
f6
16
3a
13
09
fe
10
f0
15
04
e5
2b
f3
ff
e7
f3
0a
11
1d
22
04
12
1d
01
22
00
fc
c8
fc
27
fa
18
13
ed
18
f4
d4
f3
16
01
02
f4
f8
ff
21
fe
e2
40
ec
ff
05
0f
0d
1c
10
2d
f5
1a
ee
fe
e7
05
f8
f3
15
2c
11
f3
f4
e1
1d
0f
de
98
02
03
10
06
fe
e5
f6
23
e1
c9
ea
e6
fe
11
0b
0f
0b
0c
fc
2b
26
0d
22
fc
22
eb
1f
0c
2f
11
04
fb
00
f4
ee
0c
13
06
08
2e
f5
31
09
11
0e
03
f9
24
fa
fc
e1
04
33
f4
fa
f4
e9
ea
fd
de
13
ea
ef
df
1b
fa
05
08
0f
dd
15
fb
14
ee
f0
d1
11
01
08
f2
eb
fc
1e
0d
04
4d
da
f1
fb
fc
1c
e6
01
14
d7
12
0c
33
e7
11
0f
dd
fd
0a
19
1a
21
28
f4
ec
fc
fb
0c
07
f5
0f
df
ff
17
01
e4
fe
2c
06
e3
33
0d
17
ce
04
14
f8
f7
10
f2
02
f2
e8
03
f1
f8
07
f4
19
09
09
0a
13
1b
f9
00
f7
ef
bf
ff
e9
05
0c
eb
e6
ed
0d
0b
d2
21
ed
0e
24
fa
21
1e
f0
f3
fe
f2
17
eb
e4
fb
f1
14
02
08
0a
07
fa
ff
ff
e4
fb
fc
dd
ff
f3
d4
07
f8
0e
01
e1
17
f4
06
fd
0a
16
23
f6
07
e4
f8
e5
ec
d6
e7
0b
df
f2
ea
1e
19
f8
da
08
1b
21
df
0c
07
06
2c
d0
f8
fb
fc
e7
13
e9
e9
04
16
02
f4
00
1f
f0
04
d9
fb
11
e3
09
12
03
09
e3
20
c2
f6
f8
fc
fc
e2
f0
09
e3
fc
0a
03
d3
ce
e9
f2
14
eb
21
ea
05
dc
13
07
11
20
fb
21
ea
0b
01
fc
fe
eb
f1
08
f4
f8
09
fd
09
f7
f4
fb
f5
ff
1d
f9
04
20
fc
e3
0c
f6
0d
02
04
2a
f1
36
25
de
19
00
04
ee
fd
f2
cf
0f
01
f1
e4
02
e4
ee
ee
04
2c
f6
0d
11
e4
18
fb
03
08
f4
fe
29
f9
bb
ed
fe
ef
f9
ea
f9
13
09
f1
09
0b
dd
f6
0e
e9
2c
f3
01
1c
e8
f0
05
11
f0
f7
d4
1c
09
e2
de
06
23
f1
fb
e5
fb
e8
e8
fe
19
00
f4
1f
f8
06
f6
fc
0e
1c
f3
f4
28
04
01
f7
0e
04
da
f4
0d
f9
f5
0c
03
e5
01
e8
fb
1a
fc
f3
22
f1
00
f3
f9
05
05
f7
f6
05
f9
fa
fb
0e
f8
fd
02
07
27
f1
0e
06
f9
f8
fe
fd
f9
01
17
fc
01
eb
10
fc
10
e8
02
00
fd
09
06
d7
fb
0e
00
01
ec
da
fa
03
0c
06
02
e8
f1
01
e4
f8
ed
0a
fe
03
f4
d1
01
12
fa
ed
ff
1e
0f
c9
fe
dd
ed
28
ed
0c
ed
fe
0d
02
f1
e9
06
e6
2f
db
02
f6
fb
dd
01
07
fc
f7
12
e2
ef
0f
fb
fe
f0
f7
08
13
1c
f7
0b
fe
fa
00
0c
f6
01
01
0b
0e
f5
ed
f1
03
15
06
eb
fd
f5
fe
0d
01
f9
e5
03
fc
db
00
08
f7
ff
f3
09
0b
08
00
02
10
fe
02
d8
dd
3f
e7
ef
07
05
09
fd
02
ea
fa
04
11
f8
27
fc
fb
06
fc
0b
f1
00
0f
02
fb
e8
fe
fc
f3
0f
f9
13
00
fc
f6
d9
df
0b
ef
ec
f5
ea
03
ff
f8
f5
f7
00
fb
0f
e8
ea
01
26
0a
f6
ff
ff
e5
ea
00
01
f8
f4
10
f8
03
fd
14
18
e5
1d
e4
0a
ed
ec
02
15
fb
f3
e9
0a
15
24
ed
eb
0a
f3
14
f1
eb
02
d4
fc
10
f6
e3
fe
11
f2
e1
15
f8
ff
ef
f6
db
ea
ef
e4
ff
ea
dd
0f
e9
f8
ff
e7
e0
fd
00
f2
06
fc
e3
f4
f6
f2
fe
13
e3
e4
34
0e
01
f1
e8
fc
da
08
fe
17
16
01
ff
f6
df
02
0b
f8
f7
eb
07
00
e9
f1
d6
f3
ec
04
08
10
ff
f4
0a
ec
f3
0a
fa
03
03
e0
da
1a
f9
01
1c
0f
e2
f8
fd
fd
00
00
06
08
18
10
dd
ea
11
ff
1d
f9
f0
e7
e8
05
ed
e4
f9
03
11
14
0b
00
f6
fc
d2
0b
08
fc
ef
fe
0c
fb
f3
ef
f1
ed
fb
23
d0
f5
01
fb
01
f6
14
1c
03
f5
f4
03
06
fb
f4
07
19
0d
f8
f3
e7
01
f1
fd
00
fa
25
0c
07
0b
f6
16
f2
0d
fb
f6
d9
31
f2
df
da
06
05
06
f4
07
07
f0
16
28
d5
04
f0
f6
0b
e9
fd
fb
c4
14
f4
f2
e8
ef
10
ec
f7
f4
15
0c
e4
16
fe
11
e1
e2
f3
18
01
08
eb
08
16
e7
e6
16
e7
f7
e8
12
f2
09
f9
08
f6
1a
04
e9
06
f8
01
e6
f0
0b
11
e2
0e
f4
fa
fd
f9
f7
ee
f6
0d
e7
07
0c
f9
fc
fc
ff
01
29
f5
ee
1c
f1
fc
0d
e4
f5
f9
fc
21
12
de
f8
09
04
e0
fc
f7
07
fc
ea
eb
0b
e3
03
02
04
02
ea
f0
0b
f6
e1
ee
f9
e4
0d
e1
fd
e9
f3
e1
02
07
e4
0b
0d
03
e3
fb
e7
08
11
ff
fc
05
23
ff
07
05
09
0c
f8
e2
ed
0b
fd
03
14
ef
e8
fd
03
fd
f9
00
02
0a
06
fd
0d
07
0d
02
ed
04
e9
fe
fe
06
19
ec
f8
08
e6
fa
eb
02
03
20
03
ed
f7
f1
e3
f9
f0
06
10
20
13
0b
e6
00
00
e0
ef
0e
07
06
dd
f6
f9
eb
fd
04
06
f1
f5
fa
00
f3
f1
06
ec
fa
d8
ff
fb
07
18
f5
fc
f3
00
ea
09
04
f7
0a
03
fb
f3
ed
f6
e3
08
fe
fd
0e
1a
df
0a
0f
f5
09
f4
fc
0c
f1
f6
e8
00
15
1d
13
ee
e9
11
ee
f7
01
07
0e
af
fd
09
ec
f0
0f
e9
0b
03
f2
0a
11
f0
1a
fa
11
ff
19
fd
e1
00
02
0f
fb
0c
d6
fe
f3
12
f7
04
06
0c
f2
f2
03
fe
f0
de
1b
0f
0a
e0
e2
1b
e7
fa
01
00
00
03
e2
ec
15
1d
0c
fa
ec
fb
ea
0d
f7
0e
ff
ff
e3
0d
10
fb
f5
01
0d
db
08
f3
ff
0c
f6
08
06
ff
f8
0a
f4
ec
f8
d7
15
06
04
fe
d0
00
0d
ec
08
e7
02
f3
ef
fa
15
07
1f
1b
07
1c
0e
f0
f9
ef
fd
eb
ea
0a
ff
05
e9
e5
06
ef
02
eb
f1
f6
e2
f0
db
03
10
d9
f5
fa
00
02
f4
15
ec
f5
f0
1d
fd
e9
f2
0f
0b
0f
1b
1a
df
fc
23
e5
f0
fc
06
ea
0f
04
08
e1
fe
f3
14
17
03
fe
e3
ca
fb
fc
02
fb
d2
f5
19
02
02
ed
ee
34
f5
f2
0b
00
f4
f2
04
f9
dd
f0
f0
05
ff
05
0f
08
0f
fd
ee
f2
fa
fe
24
fd
f1
08
06
f1
df
f6
d2
05
eb
f1
f8
13
f0
09
0c
19
17
ef
1f
fd
f6
01
07
f3
00
04
fd
e5
fc
0b
0c
f8
16
11
06
04
14
00
0c
15
08
df
f3
0a
eb
ff
f2
f5
03
f2
ff
e3
09
c3
ec
f7
ff
f9
fc
f5
0d
f8
14
e9
e1
fc
f1
0c
fc
07
10
00
e7
02
07
f5
f9
01
d7
e5
e6
f0
f7
f6
f0
0f
08
10
0d
17
02
1c
f5
08
fc
e9
ed
f1
27
f7
01
03
f2
0c
fb
de
03
0d
18
f9
e9
02
18
fc
f8
09
19
f8
f0
24
ec
ff
fb
f1
01
f6
f5
fb
03
f5
fb
08
db
fa
03
02
02
0a
dd
02
e8
00
12
e5
f6
00
e3
00
fa
eb
09
e7
fc
f4
14
f2
f4
fe
f5
18
fd
f8
fb
1d
06
13
04
02
ff
f9
1a
17
07
15
00
02
ee
f2
fd
0b
f6
fd
f9
02
08
f4
ed
f3
ef
fd
0b
e5
03
0e
26
e3
11
07
e8
f6
05
f0
ef
fd
04
fc
c4
f4
05
1b
3b
e5
05
0f
00
f7
23
04
03
09
10
16
10
ec
14
d7
0c
0e
06
fa
f9
02
fe
14
10
ff
11
12
f6
fe
eb
fe
ef
0d
05
19
1a
16
04
0e
17
09
13
e4
ff
15
fe
21
09
07
18
03
0e
11
e6
ed
0c
f9
fc
e3
15
0e
12
ee
ee
07
e9
19
f8
11
05
07
f8
fc
fa
e1
07
ef
eb
04
0e
0b
f6
02
11
f2
08
02
ff
06
02
fd
20
0a
0b
11
0e
f9
10
0e
11
05
fa
ea
f2
fd
18
07
19
00
ee
05
1b
02
ea
d6
ed
0e
08
09
f0
0e
20
18
de
f4
1b
fc
ef
f5
fc
f1
f0
10
01
0c
00
ef
13
1e
0b
20
e4
14
d3
fd
e6
f7
14
fc
ff
28
17
07
04
f5
05
ef
03
ee
fa
ed
06
03
03
f4
e7
f1
e1
0a
0e
0e
04
f1
07
f2
21
16
10
f9
0d
fb
f7
02
02
13
ff
fd
10
07
ed
15
f2
02
12
01
0b
fb
e2
f1
fd
05
03
0b
26
03
eb
2f
05
10
0f
fa
08
eb
f2
f2
e1
f0
0d
0a
0d
06
0a
f8
16
ea
f6
f3
f4
13
01
ff
0b
e2
0a
05
10
fd
f9
1e
f6
1f
23
f2
10
dd
09
04
05
ee
e4
0f
06
fd
e8
04
f6
da
f9
07
0c
f6
11
09
fc
06
fd
fb
14
16
03
2a
07
f2
ea
00
e1
fe
dc
10
16
09
f0
12
2c
04
f0
0d
e1
f2
f8
ec
e8
17
04
12
00
f9
2b
f5
00
e8
02
fa
fe
e7
ef
f9
1e
11
01
0b
03
12
c9
fc
f5
01
ff
0d
2b
19
13
f2
e9
e5
e2
14
05
fd
08
04
09
e2
f6
f4
2d
eb
0d
fa
f9
ed
ef
0f
09
ff
1c
00
0f
23
03
12
fa
00
06
0a
17
16
03
1c
ec
04
0b
f3
15
13
1b
25
f9
02
f7
2f
18
fd
16
02
11
10
12
f0
27
19
fd
1a
1c
ec
18
05
17
0d
00
f9
07
0f
e4
2a
fd
e6
0e
f7
fb
fa
02
ff
f7
10
0d
1e
e7
f3
f9
1e
f7
04
0b
ed
fd
08
f4
03
0c
27
f9
fd
0c
1d
03
19
13
fc
09
ed
02
fd
f9
f7
03
27
dc
fd
06
0d
14
f5
15
1b
e5
e2
ec
2c
f4
f3
00
01
0c
ed
10
ec
15
17
fb
12
fa
06
f4
ea
08
04
ff
f5
00
08
0a
10
13
06
12
f2
03
0d
ef
fd
17
f8
f8
ee
f4
21
0a
ec
1b
d8
ff
0f
21
ff
0c
fa
16
ff
ed
0b
e6
d6
14
fb
e7
03
eb
04
fa
0b
0b
0e
0b
11
0e
f1
04
fd
f7
14
f7
06
0e
00
e4
fd
ea
12
1a
d9
fc
ec
f7
f8
fd
08
ff
1c
f7
f3
db
ed
fb
13
fe
02
1c
11
09
0e
12
f6
12
f7
fd
ee
1f
34
f8
dc
0d
15
12
ee
e1
00
e1
10
16
01
0a
ef
f8
f8
fb
e9
f5
15
13
24
0f
02
eb
0d
f2
0a
f3
f6
0c
02
ea
10
10
19
04
ee
15
01
04
f2
09
03
fc
f7
0b
0c
fd
ee
f6
ec
06
1b
10
05
06
19
0d
f6
0c
f6
de
f4
f8
20
fa
ff
08
fa
f4
ea
e7
07
03
06
e2
ec
27
06
04
04
df
0c
2c
f9
08
1e
f5
01
ff
f8
03
e1
b0
0b
02
d4
08
1d
ec
2c
d4
1b
1f
21
06
fe
ff
fd
f3
1d
0d
fa
0b
eb
0a
f8
06
03
e6
e8
0f
03
f2
11
1a
03
fa
11
07
03
ef
ef
0d
00
fb
0d
12
04
03
ef
0f
25
00
0d
13
f3
17
02
eb
05
07
08
02
ff
17
0b
02
08
fe
05
e7
1a
09
ea
00
f4
1c
1b
03
07
02
39
12
05
e1
3e
0c
12
fa
f2
f5
19
12
de
f1
f5
06
10
11
f8
29
f5
1f
0b
06
fe
07
10
f9
e9
16
fc
15
0a
0c
17
f7
d0
16
0e
0b
fd
0d
fe
e1
e2
e9
12
18
fb
02
1e
e4
16
ff
00
13
05
21
19
f7
f6
f4
f1
e4
eb
e8
ef
ee
06
ff
08
06
0f
06
02
e8
f6
16
0c
fe
19
02
ed
11
f2
f2
f4
0f
13
08
07
0b
24
20
f9
ea
08
11
05
ef
e5
fe
fc
0d
06
10
0f
f9
3a
0b
25
04
f4
fb
f8
fc
2e
08
ed
fa
1b
ee
fa
e5
fb
0e
18
01
10
f4
14
25
02
e1
f5
12
eb
fd
0e
f7
00
00
00
13
ee
e7
0c
10
15
f1
f6
17
e4
10
ee
f7
fb
f1
04
0e
19
0a
0d
1d
ef
f7
02
03
04
fc
f7
fa
fe
f9
0e
04
fe
d0
1f
15
13
00
e4
1b
f0
f7
17
05
20
04
21
f7
07
f7
e9
fd
f6
f6
15
07
fe
02
05
00
07
0e
ff
11
eb
e9
e0
11
e6
f6
ed
0a
19
f3
fd
18
fa
08
08
f6
0a
f7
12
f3
fa
ff
05
19
0c
ed
f0
0d
fd
f6
08
03
00
29
e7
0a
0a
14
f9
ff
f7
00
ef
10
08
02
fa
f1
07
06
12
06
e5
08
16
1c
07
ed
14
0a
03
12
13
02
f2
f9
15
f6
f7
07
02
25
13
fa
09
fe
f9
12
05
08
13
06
07
e2
0b
0b
0d
f1
08
4c
ee
09
1c
ef
f0
fc
0d
f1
ff
fd
21
fe
f6
ff
12
e6
0b
f9
12
fb
05
14
03
f2
07
14
10
05
f9
f5
f0
20
07
fa
10
e7
00
f8
fe
ed
04
07
16
dc
08
00
f4
fc
07
f1
fe
d4
ff
16
f2
02
19
f3
06
f1
0b
f8
03
15
08
0d
07
d9
e5
f1
f3
0f
1e
0f
19
f8
0a
19
f7
05
0f
0a
0b
1d
1e
f3
0c
13
0a
dd
0a
01
01
01
1f
03
2c
f9
11
16
0a
10
21
1d
ea
f6
1f
0f
0a
34
f0
fe
13
06
10
02
28
fd
01
e9
3b
2c
f1
1f
e3
d7
f6
ee
0c
fd
31
ef
f5
d0
04
14
2b
00
ee
fd
f8
ee
fe
d2
14
ef
0d
13
13
27
f5
fc
12
10
f9
1a
36
e8
29
0c
fe
e1
04
eb
ea
05
0b
02
f8
16
0c
17
fd
03
db
18
e9
ee
02
e5
23
d5
03
f1
f9
23
07
f4
10
05
1e
00
0c
0e
12
0d
0c
fd
1c
fe
03
3c
f2
fe
0e
20
e9
23
fc
10
09
18
14
dd
01
fc
06
ff
ff
07
15
fc
be
fe
fe
46
14
0f
e7
e4
f9
13
ee
14
13
05
05
1c
f1
03
1c
00
f8
eb
27
f8
02
2f
ff
00
e9
fa
17
0d
a5
24
fe
fe
f9
e4
e2
0f
f8
0f
ed
1a
ff
f4
fc
14
f3
03
ef
05
00
2c
1c
27
1e
f3
1c
12
0b
db
fd
26
f2
13
f6
f2
1b
03
cc
0b
f2
e8
0b
1b
f8
cf
24
f2
07
ed
f8
f5
01
f2
11
f8
04
0d
30
12
05
17
fe
2e
f5
e5
02
03
df
ff
f5
e9
21
10
e4
17
09
19
22
14
f2
ff
e0
fd
06
17
1a
15
22
08
0f
24
fd
16
10
1b
0b
e6
05
d9
0a
00
0a
ef
f8
09
00
1f
10
28
0d
fa
02
ef
31
fb
fc
21
db
09
eb
08
fe
eb
0c
04
fb
02
21
f5
12
08
39
09
0a
11
15
f8
ee
03
0f
0d
14
df
f3
0d
03
fb
01
0c
f7
00
04
f4
00
f9
12
cf
0d
22
06
e6
fa
08
05
21
f6
ea
fa
11
fb
ff
f9
ff
f3
11
13
2e
fc
12
f7
ef
0a
17
49
33
19
f5
10
1a
12
09
0b
dc
24
f8
27
18
17
1a
0f
fe
2b
fa
fc
11
e1
03
0a
fe
24
e5
d7
09
ff
1d
ff
16
06
e7
06
eb
10
fa
07
00
d5
ef
11
fa
14
18
05
fe
de
ff
15
00
e1
3b
0d
f1
ed
04
13
f3
fe
18
f1
0d
09
fb
0a
11
fb
00
f7
05
22
0f
1d
f3
fb
05
fe
fa
17
29
02
e7
cb
0f
bf
01
ba
f0
17
14
0b
0c
ff
f1
10
ec
f7
f6
f3
0b
05
ff
11
06
20
15
19
00
02
f6
e7
17
de
05
2a
0d
e9
07
ff
1a
fd
12
00
19
1b
f7
10
08
e5
23
00
14
e9
0f
f5
ea
03
f4
0b
23
03
dc
11
f7
f0
f5
fc
e0
14
14
31
f1
16
d9
f8
ec
0f
0b
0c
fc
29
0c
fa
fa
fb
17
23
26
f1
fc
01
e8
16
e6
ea
f4
dc
f7
2d
1d
0c
f5
ef
15
06
15
fd
f5
04
e0
04
e2
d8
ce
02
1f
0b
ff
fb
fb
17
fa
41
07
f8
fc
03
f8
18
fa
f1
d1
27
ea
01
f8
f3
fa
07
fa
07
f4
11
27
f9
15
03
03
fe
01
3f
00
fb
0f
09
fb
f4
e1
1b
07
05
03
15
15
ff
e4
e4
0d
02
30
16
ed
25
46
ec
ea
29
22
ff
10
f8
08
0a
2a
27
07
0a
f7
06
e5
01
f6
fd
07
17
09
fc
0f
19
fe
d4
0e
19
10
03
e6
1c
18
21
fd
e5
da
db
04
1b
01
e9
21
1b
fe
f9
1b
f6
01
f2
fb
01
08
fd
f7
fe
f5
1a
f9
fc
02
f3
2b
16
f3
12
1c
12
f3
ff
08
f3
0e
0a
f8
1d
23
d7
0e
fe
f7
04
0a
06
e8
17
09
01
0c
f8
fb
fe
14
ea
09
19
04
24
e3
0c
fe
e5
f2
02
e0
29
08
05
1e
09
36
da
de
2f
01
f7
12
fc
16
08
e8
21
01
fe
e9
0d
04
11
f5
fb
f9
08
0e
04
f8
00
e5
ed
f3
1e
0b
01
f3
07
06
e7
0f
14
0d
f6
36
f8
1b
46
01
f8
fb
f2
31
f3
1e
a8
fd
23
f7
03
0a
01
1f
21
fe
f5
37
e7
fa
02
1e
fa
11
f6
01
02
19
f7
16
2f
08
08
fa
02
fa
03
05
07
19
11
15
fe
f7
ed
0c
03
ea
e8
0a
11
16
1b
13
00
14
f0
eb
08
f4
15
0a
ff
08
f8
e0
f3
01
11
f7
fd
1d
02
0c
26
ff
05
0c
fe
f0
0c
ff
10
fa
09
00
2b
04
0d
09
19
12
07
f3
18
16
fe
cd
0c
db
04
11
f5
12
ef
17
10
f4
2b
de
f0
0a
17
10
fb
e3
18
11
13
ed
f0
f8
0a
f1
fd
10
0b
fa
28
ec
10
26
fe
07
1c
1f
07
0a
08
1a
10
06
20
c9
f3
0f
03
27
e2
f1
0a
01
1d
ee
23
43
fa
1f
f8
04
01
09
32
f5
1c
03
19
10
08
0e
ef
04
07
dd
ed
01
06
03
2d
19
0b
ff
11
07
39
f5
ff
13
fa
2a
0d
fb
1a
0e
03
e4
02
fc
ec
0b
20
ff
1a
0e
05
ff
e9
fd
06
06
06
21
11
11
0e
f8
f3
f0
f6
05
14
05
21
fc
25
04
1e
00
05
1f
05
00
f7
e0
03
24
12
ed
12
05
0d
f2
fd
04
03
01
d9
07
02
0e
15
0f
dd
ff
ff
ff
fb
1c
13
03
16
0f
e8
ee
f7
18
05
03
09
db
15
f8
fd
20
f6
f6
01
1d
e8
29
ce
f5
0e
19
fe
fd
02
15
1b
13
fa
03
0b
05
f4
f7
38
11
16
03
03
fc
fe
0c
15
f0
eb
05
12
ed
ed
02
fb
06
e0
fd
fb
f4
0f
f0
0f
f3
09
03
f8
e7
01
01
06
27
01
07
08
04
ff
0b
e6
06
e9
dd
f7
01
03
