07
0e
2e
51
2a
3c
31
4d
0c
34
26
2b
23
38
23
0d
6a
0b
35
42
0e
f9
26
44
20
1f
3f
51
64
31
43
35
30
37
1b
44
10
26
22
2f
5f
3d
49
31
55
02
0e
1f
2b
0f
2c
3a
30
2c
43
0c
45
36
13
3f
3a
27
05
cc
26
5b
81
57
3d
24
59
1b
2e
35
25
1f
27
39
03
3e
27
49
46
08
35
53
f6
06
5f
23
54
2d
2d
a7
20
2e
36
2c
2b
22
46
ad
25
b2
25
4b
2f
34
3f
55
2c
25
34
3a
2f
5b
14
68
1b
2b
4c
3c
2e
3d
27
05
3f
4f
07
e7
34
4d
46
58
43
36
f4
3f
4c
37
25
28
dc
60
25
38
93
24
1d
21
5d
32
fe
28
37
3c
35
6c
3d
e2
35
57
0f
37
41
0e
2d
6c
5e
b2
3b
32
d8
fc
50
3e
3a
37
3a
2c
13
3c
3e
b7
3a
ad
39
56
18
03
11
3d
38
c8
32
44
4b
17
12
e3
d1
2f
32
21
30
37
55
3d
47
54
3c
52
15
48
3a
3f
37
55
45
0c
d6
1f
3f
40
1a
40
40
34
9f
08
31
4e
46
3c
19
33
44
3f
42
00
5e
3f
d5
57
1d
27
fe
2e
f5
3e
39
3e
2e
fb
0a
34
7f
51
3c
26
41
0b
4b
16
00
2a
3a
cc
45
0f
2f
f9
1e
06
37
b7
65
17
3e
e2
10
fb
a7
2e
2f
cf
2b
4a
52
01
03
28
2c
2b
2c
1b
06
33
c3
23
25
8a
1d
1d
4b
f0
04
5e
3a
3d
3a
32
ea
4c
ab
03
f2
29
3d
28
27
41
33
3f
23
38
30
3f
10
2c
31
be
2d
21
21
d1
2c
11
44
45
08
13
21
3c
35
27
37
06
01
db
19
55
33
fe
12
03
24
35
52
44
35
0f
0e
23
3b
08
91
38
27
f4
23
3e
4b
fa
48
2b
2f
fc
13
1a
11
4b
28
43
29
55
b1
4e
45
3f
1f
0f
30
31
ff
a1
bd
3c
23
e8
19
19
13
61
24
35
2d
15
19
41
ce
40
0a
04
46
37
ba
28
3e
1e
4b
b6
47
25
30
5c
36
34
4a
42
20
98
23
32
af
38
18
31
ea
0a
27
5d
77
29
0d
c1
2e
43
26
07
43
08
37
19
fe
46
18
4b
4e
1b
3c
d0
30
3a
e4
32
3a
06
90
28
2b
3d
3f
4a
48
72
1a
37
66
33
21
2b
a5
37
24
11
ed
20
39
27
29
31
c3
36
2d
05
05
9c
16
4b
2b
15
01
2a
5f
3a
34
50
21
e9
42
32
45
41
38
44
3f
0b
1c
24
ac
ec
0e
2c
3b
12
0a
0d
26
07
43
2c
05
4d
5b
5d
13
13
c6
5d
fa
51
0a
4e
1c
d4
39
17
36
3c
3f
3f
01
44
36
40
2b
1a
1c
32
c4
30
4c
bb
2d
f2
3c
40
3f
34
3c
40
01
11
f7
48
