ff
d9
fa
f7
f0
f5
09
f5
c2
cb
05
01
c7
bd
df
fc
fd
ff
17
ad
02
ec
e9
03
01
ea
c8
ca
f0
e2
f4
9f
a0
13
05
ce
de
c9
ec
fd
ec
d7
05
c3
00
03
c4
d5
f7
0d
b8
e5
fd
17
b6
d9
ea
bc
fe
f3
06
16
fe
f1
bc
f6
09
e6
f2
af
d5
0a
0c
d3
d2
a1
12
bd
e4
d7
b6
fc
eb
b7
0b
fe
ed
db
bf
ef
da
cc
fb
12
ed
ea
e6
02
e4
1c
ac
e7
b4
fd
0d
e0
08
e0
e3
f0
ef
0d
e4
d4
08
eb
b8
e5
10
fe
fb
ff
e6
ec
f4
b4
ed
fc
fd
cf
fe
e0
ab
fe
e5
f1
d3
00
1b
f4
f9
de
bb
da
e1
10
0a
d9
06
ff
01
d0
0c
a2
0b
ec
b1
e0
d8
ca
fa
fa
d2
dc
c9
d2
12
cc
d8
cb
fa
eb
b1
dc
de
fd
f0
e1
d0
fe
cc
fc
92
07
fb
1b
17
f7
dc
04
1c
df
1d
14
d2
e2
dd
05
d8
fb
0d
ec
00
f4
ff
bb
f2
8b
12
e6
ea
06
e5
e3
d1
e6
f2
f2
d4
e5
1a
cc
03
0f
12
f5
d8
e7
f0
fc
c3
f9
f3
ec
fc
dc
0c
e0
03
02
d8
0d
bf
13
19
f9
f7
0e
e3
03
12
33
0b
db
df
d5
ca
bf
e0
f3
fe
d2
eb
ed
04
0f
d4
02
19
ca
f2
07
00
d5
05
f0
de
e2
05
1a
db
e4
00
fe
f1
ea
e4
e3
b5
eb
f1
b6
af
d5
c5
de
dc
ac
f9
09
da
bb
06
d6
fe
ca
e1
ff
d2
d2
12
10
d4
ff
00
f6
a9
eb
93
d9
c6
d1
fa
e1
e9
e9
ce
f4
c0
e4
ed
16
c7
a9
cb
ed
d1
19
ed
df
f6
ba
fd
04
fe
ba
fd
02
d9
fa
f7
f7
fa
dc
f9
ec
13
fb
ba
d6
94
c5
f3
01
15
f2
c7
db
b0
d8
be
eb
f2
f0
14
da
ba
e1
e0
dd
dd
c8
ee
02
d7
cb
fa
b0
f7
02
d2
d7
e4
f3
02
f2
e1
1f
fc
ee
22
cd
db
c5
fd
c4
ca
eb
19
d7
fa
0c
e6
bb
fb
f0
ee
fa
e8
0d
e6
02
1f
06
d1
e7
fb
eb
db
10
db
04
f2
ef
e7
ca
b7
f8
e2
0f
b7
e0
fc
da
f2
92
d5
d9
01
b9
f1
d4
1b
e8
21
94
01
f5
fb
ee
e9
0e
fe
cd
fa
e6
c4
ff
fd
bc
e7
d8
da
db
c5
ed
ca
eb
f6
f6
0a
12
d4
fd
0c
cd
eb
e2
c9
df
d6
11
e1
f0
ed
c3
c0
f0
ed
df
d2
f9
ef
fc
15
09
9f
06
f1
ca
e7
e6
f7
06
f3
c0
b7
f3
c9
fb
f6
f3
dd
f3
d1
cc
f5
f2
d5
d7
d3
ba
07
f7
24
d9
06
da
0a
e4
ee
c2
db
d1
16
b8
e0
f8
c6
de
ec
ee
03
d7
da
e9
e7
14
de
ef
d8
d2
e0
ef
d5
fc
d3
f5
fd
f4
bf
06
99
1e
09
0d
06
f9
04
ee
42
c6
12
02
f3
ce
e3
df
d1
f1
dc
03
ff
d7
98
e8
e8
db
12
ef
f9
bb
ab
f3
bb
b1
ef
fd
d9
e0
ca
c7
0c
bc
fc
dd
cf
05
c2
d2
e6
b8
03
cd
e7
fc
d4
c5
27
df
05
0f
e2
11
bf
bb
0c
e3
e8
c6
b7
00
dc
f4
f4
d2
b2
d6
d1
cb
ee
f0
d2
cd
e0
c6
0b
fb
12
e0
96
0a
f2
cf
dc
d6
ee
f1
f8
02
dd
fd
df
fa
f2
d2
fa
e9
ec
0c
e2
f2
c3
a9
10
cd
fc
eb
d6
c1
0c
fc
f8
ab
fd
aa
da
c4
13
02
dc
b3
0b
02
f5
b7
09
f8
0f
0a
fe
f8
ea
b5
e8
bc
d4
fd
04
ed
ec
11
17
ea
cf
fc
ce
3c
d6
fa
d5
f0
eb
f6
f0
c7
ef
e5
f2
f4
11
fc
e5
f1
fb
d6
d8
f3
f7
e9
02
09
f1
10
0b
de
03
08
0b
1f
fe
f2
ce
f9
e7
ad
e8
ce
cc
d8
0c
01
12
0a
1e
0b
1d
ef
00
ef
f0
08
fa
ae
0e
cd
04
eb
fb
f8
c9
e1
07
f1
fc
f3
e2
da
a2
aa
e4
f0
06
c0
f7
e7
ed
12
06
e0
fe
f8
14
cc
0d
ee
b3
f2
ba
ee
c8
e0
da
0b
de
e5
fd
dc
e7
d7
05
6c
f6
11
e0
f5
08
26
0a
cd
b4
fa
c0
d9
dd
b3
e5
ff
0d
f7
0b
cf
12
d5
0a
ec
f2
f4
d9
bd
fe
78
fe
c7
ed
de
e6
b0
f9
e6
df
ba
f8
fc
f4
db
13
d0
ee
e4
cf
18
d7
d0
db
20
cb
33
fb
cf
f8
e6
e2
11
c8
e3
03
bf
bf
ea
c1
ac
eb
db
17
1c
fd
d2
ce
d3
d9
0f
bf
f2
d2
d4
c9
e4
fd
d1
c7
f2
f1
d8
f0
00
d4
dd
e9
b5
c7
ff
05
c6
8d
cf
f1
b6
d1
c4
e6
13
f0
ec
fc
eb
dc
ea
0f
d3
b1
c6
04
c2
eb
e9
c7
c5
d5
f8
eb
c2
0a
f4
10
e8
d5
fc
12
d1
27
cf
d1
0d
e6
1b
cb
ef
dd
f4
d2
f5
da
13
d1
04
06
fc
ec
fd
ae
c2
d8
0b
d4
fd
d6
f6
ba
b8
d3
ca
01
03
d1
04
b0
ec
fc
e6
f6
00
d4
fc
f5
d3
dc
fc
f7
eb
ed
e8
d6
05
c7
02
d8
bf
06
db
c7
ec
03
9f
f3
fc
ee
ea
14
fc
08
f5
f1
dc
d7
fb
d0
ea
fe
25
ff
b6
a4
f6
f8
1f
15
e1
08
f0
05
df
e8
09
e3
0f
06
ce
d4
fd
af
da
ea
ff
0c
0c
e3
e7
18
e9
dc
e5
12
f1
b2
d6
db
da
00
a5
5e
e2
f1
dd
cc
ea
f3
f3
eb
f4
ff
f9
fc
00
e0
b2
da
fb
f4
e6
d6
c5
b2
f7
af
e7
d0
17
bb
00
e2
f1
db
25
e5
b1
16
d7
ef
c4
c6
e2
c3
dd
db
00
00
d8
f2
19
f6
de
df
b7
ec
df
0e
0d
fc
10
d6
e2
