f0
e6
01
1a
25
18
f2
0a
22
14
f3
ff
d2
ef
df
e7
08
e9
ff
fa
0e
db
f7
16
e6
ee
00
06
df
11
03
f0
09
05
f0
f9
0a
ff
d3
f8
0d
00
f9
15
f7
ef
04
09
f7
f8
ff
df
2b
03
fd
f8
0f
f0
f1
09
0a
e3
24
f3
ff
e9
1a
e3
fc
dc
1a
f7
18
01
d6
ff
f7
0d
f9
ed
f4
f3
f0
fa
0c
09
e5
ff
21
03
01
ff
f0
0b
e7
02
f7
f2
26
f0
f3
f1
10
0b
02
17
03
ed
ee
01
16
ef
ea
12
e1
fe
0e
07
06
f1
0b
f9
f5
ef
0c
e9
f3
e1
1c
1b
05
fc
fc
e8
0d
ff
0d
eb
12
09
ff
ec
f6
1c
f3
0c
f3
fc
06
00
df
d5
fd
09
0c
e6
08
fd
09
f7
1e
0f
18
12
ff
f0
e0
ed
01
e3
25
0a
0f
07
f5
0c
14
21
08
da
0c
07
0a
f9
f4
24
09
02
ff
fa
07
fd
f5
fe
fb
e8
e4
df
06
02
df
1a
02
0a
12
ef
fe
11
0a
e3
14
08
13
fd
f9
13
f9
f3
f4
01
06
24
09
f4
e1
f4
ca
eb
ee
f1
ec
f6
0a
38
1a
02
eb
01
15
04
f4
1f
04
03
d1
fd
04
f4
df
e3
ee
11
15
f3
ec
ea
02
f3
1a
f9
29
1b
03
02
08
15
d6
f1
fb
0d
f4
f2
05
0b
fd
ec
01
15
ea
f9
10
ed
ea
17
14
ee
fc
db
00
fe
fa
22
09
06
f7
e5
16
fa
e9
df
18
fc
07
f4
0f
03
1d
f1
04
05
f5
05
0b
e8
fb
09
d2
df
09
e5
f7
e3
ef
15
14
f9
f4
05
e7
0a
ea
ff
fe
fa
f9
f9
fd
fa
04
0b
f3
06
16
e6
0b
14
0a
fb
f5
22
e8
e3
da
cd
e1
04
e9
f4
f4
d4
14
eb
fd
26
e4
0d
11
00
12
f8
f2
e6
f9
ef
f5
23
ec
0d
f3
08
0b
07
fb
e9
0a
10
ec
04
13
0d
f1
ff
fd
03
ef
da
19
07
06
f1
de
05
ee
00
16
1f
e7
0b
01
fb
fa
23
09
d1
f9
18
ed
22
fe
ee
df
f4
d4
19
f9
03
fd
db
f7
eb
f8
f5
fb
f5
fe
06
f7
fc
0f
30
22
e5
f8
f1
fd
dc
ed
0c
0c
fc
18
0c
dc
16
ee
12
15
ff
e1
e4
fb
ed
14
18
08
0d
0f
d9
f2
01
f1
1b
fe
eb
fd
f9
fd
f3
0c
02
f0
fd
08
f2
0f
fa
e8
0d
f0
fd
e3
f9
0f
03
f5
ff
24
eb
dd
f7
23
0f
15
11
fe
eb
dc
01
0e
1c
10
d6
fb
f3
10
1a
e3
fd
18
e6
f7
1e
fa
11
ee
04
ec
fb
f6
fb
14
0d
f5
fa
01
f8
e9
0b
07
f2
0a
02
d7
04
ea
ec
04
0f
0a
f5
f5
17
0c
17
f2
05
06
09
06
03
f5
1b
05
f8
f7
0f
fd
14
09
e7
0f
f4
03
1a
f6
f3
fe
1c
04
0f
10
d9
ff
fc
f4
16
1a
06
e9
f8
fc
02
06
f6
f5
04
fc
0f
1b
04
fc
03
1f
12
fe
fc
09
0b
16
15
03
1e
2c
09
fc
11
ea
1d
f8
01
de
ea
ec
f8
fb
13
fa
06
e7
33
fa
04
17
0f
ee
0a
1b
05
f0
1c
17
2c
f1
06
ec
f2
07
fa
eb
0f
09
10
07
ff
f9
16
eb
11
f5
00
15
18
08
01
f8
0e
01
20
f2
ff
fb
dd
10
0d
03
da
f2
2b
18
23
fc
d6
16
ee
0b
f6
05
f0
19
02
08
fe
27
0f
f1
e7
e5
0c
e8
e2
0a
ef
eb
16
f7
fc
07
f6
fe
15
0e
f6
03
f2
11
f9
16
02
0d
01
0a
00
df
fb
11
f0
15
ed
21
eb
e1
ff
06
ff
0a
0a
ff
36
04
f2
16
0d
10
ff
1c
f2
e4
cb
f5
06
fa
f5
fc
1a
f5
f7
fd
f2
10
dd
fa
ef
09
fe
00
f8
e9
f8
14
e8
d4
f0
f9
15
0c
ec
0c
f4
ed
03
e3
0a
08
16
fe
0c
e7
dc
fb
f8
e7
01
f1
fd
fc
02
df
0d
00
fe
ee
fb
f1
f2
f4
ed
e1
17
f0
0b
08
ef
e8
09
06
e8
dc
03
04
eb
0b
ee
0c
05
0c
02
f9
10
02
ea
0f
e2
f4
19
13
e4
0c
09
fe
00
18
f3
f5
18
e6
ee
e8
d7
fa
d5
27
06
02
ea
e5
09
f3
f6
f4
e0
11
01
0e
f3
01
06
e9
0d
fb
f8
08
e8
00
f9
05
ed
ff
f9
fd
0e
ff
0e
f5
d6
07
e9
ff
12
0b
eb
28
d1
f4
ee
19
02
08
f5
21
f0
1e
f1
fd
27
fc
01
c3
18
0b
f8
e7
fd
06
e4
0e
f8
08
11
03
31
ff
f2
11
10
28
2f
f6
ff
09
f7
ff
13
cd
09
02
fc
26
f8
f9
0c
1e
e3
fe
f9
10
18
fe
fb
17
eb
ee
15
f3
01
fa
00
03
14
fb
f2
08
07
fd
17
e8
25
05
fb
15
0b
fe
e5
fd
f0
f1
25
01
08
dc
19
ea
0d
13
0a
e5
08
12
ff
db
0b
f9
01
f6
e8
e8
f0
01
f5
1b
03
0f
1f
e4
d1
ef
0c
05
fc
00
09
0a
ea
e4
f2
f7
0e
05
18
1d
14
1b
19
11
18
00
fa
fc
14
f0
0b
1f
16
eb
fb
08
e2
15
00
eb
f1
f7
0e
eb
eb
18
1c
fe
0c
f1
2f
13
eb
fc
fa
fa
ee
df
f0
ef
07
f1
0b
f0
06
08
dd
0d
03
e5
e0
fe
24
09
19
1e
10
04
0a
f2
ed
01
de
02
14
f4
ff
fa
09
ed
0b
ec
07
fd
f0
13
2d
04
f7
26
2a
07
27
00
d6
f9
f5
01
04
e7
f5
00
06
f3
0b
0b
fa
11
2d
15
f8
1c
14
16
0b
eb
04
0f
fe
f2
fd
e8
04
f6
db
f1
13
06
07
0b
de
0e
03
04
12
01
ca
f0
fe
fd
0d
f2
f3
19
11
e6
20
02
f9
17
e3
ec
e3
07
f5
07
1e
01
fd
e0
f2
fc
fc
f7
0b
01
f3
00
05
e1
fc
0b
ff
f9
ef
04
05
14
03
f6
18
f9
0f
01
05
f6
05
fc
06
ee
05
f4
e8
1d
fa
05
02
fd
d8
f7
ed
f4
e6
e7
f0
12
0f
f4
ff
0d
40
f5
fa
0c
21
09
22
08
01
ec
fd
ed
01
0c
07
df
d5
ff
fa
13
f3
13
1b
f4
f2
01
0f
14
07
d9
ff
18
0f
09
ee
07
15
1b
f2
10
04
fa
e8
f1
e5
1c
1b
07
0e
ef
f9
e3
f9
e4
f1
17
10
09
0b
06
15
02
c0
f7
0e
01
ff
02
f4
e7
11
ea
bb
02
f5
09
02
0a
f9
fb
29
03
f1
da
0e
fa
e1
d8
02
0b
06
06
26
1e
f3
d1
f9
ee
eb
13
0d
fb
1b
1a
f5
00
02
14
18
fb
e3
00
15
07
13
e8
f5
27
1f
0a
2b
03
00
00
e9
eb
e3
fc
ea
f9
1b
12
0e
db
05
06
ef
fc
23
10
f6
1b
fb
15
04
f2
fc
f3
e6
2b
06
f0
f6
2a
21
fb
dc
f7
e8
ff
21
1c
01
db
e0
ea
e0
30
09
00
f5
e9
08
02
dc
1c
e5
e4
1a
02
f1
1c
19
15
13
02
24
1a
e4
fb
07
2e
fb
f8
32
21
0d
0c
ea
16
f3
08
23
df
08
0e
fe
0a
0c
10
0c
e4
01
f7
ec
f3
f9
05
0d
1c
f2
04
19
22
e8
21
07
01
eb
f1
0c
07
ee
e6
24
0f
25
01
10
f3
01
0b
f8
e0
06
fe
1c
f1
e9
1f
ff
06
f2
1e
00
f3
f0
f7
f7
18
e5
3d
0e
cc
0b
ef
d8
07
02
0f
1f
df
ed
47
f2
20
19
1a
0c
03
1a
1b
f0
0e
e8
0b
08
fd
40
e4
fe
18
f7
01
0a
fb
0b
eb
03
fe
f1
f7
25
23
14
24
15
0d
13
08
fc
ea
fe
23
25
0b
ec
e9
ec
f0
1b
db
e4
02
e0
26
43
fd
e8
12
28
da
e4
04
db
10
f0
20
24
f8
17
19
fd
29
08
f5
dd
fa
fc
fa
ff
06
ce
e1
dc
0d
28
07
01
e3
f0
10
f8
35
e9
11
2b
02
0c
17
e6
04
ff
f5
06
e2
dd
1f
12
03
04
14
06
fb
28
e9
04
f0
0a
05
08
e6
ec
10
0e
da
fe
18
2b
06
fa
ea
db
1e
f0
16
f7
ec
e7
d9
ec
ed
eb
14
dc
ef
f8
07
03
ec
28
02
f7
17
0b
ea
ec
0d
26
1b
0c
08
31
f5
f2
0f
e1
10
11
de
00
03
2f
11
e2
17
21
05
1f
f4
36
30
fc
ee
0d
02
38
0b
f5
ef
05
02
30
2d
ee
0c
10
db
1c
3d
ec
eb
e0
2a
eb
fc
de
e1
0f
0e
13
ec
04
09
09
ef
ea
0c
1d
fa
fc
0f
1d
eb
f4
0f
04
ff
12
17
e5
1e
16
14
18
05
0b
f4
0e
1d
14
0c
f3
d8
08
f6
fc
c7
10
e4
0a
02
19
1b
f4
05
e4
fd
d3
20
f8
ea
18
1e
ea
f4
f7
0f
e4
ce
1c
14
2b
d5
f5
ec
f0
19
03
ca
03
e8
e9
f7
f3
eb
11
16
1d
0e
00
c6
f1
d8
0a
f1
c0
f3
06
26
ee
1b
e6
ec
fc
0f
f4
02
1e
da
ef
15
04
f0
fb
e8
fd
ea
04
09
f6
fe
f8
0a
00
0c
ea
12
1a
11
fc
e7
1c
fe
14
0a
e5
f1
05
fb
28
03
0c
01
14
f6
09
1e
10
ee
e2
04
06
0f
f8
11
f0
17
fd
08
e0
f4
f5
0d
2f
22
0e
03
da
db
01
0d
06
fc
ed
05
01
0a
16
fe
f6
12
f4
06
e3
01
fb
2c
07
f7
ef
f4
fb
fd
fd
fa
11
f4
08
08
e4
08
f5
f7
db
18
fb
00
f4
f5
f0
e9
fd
2f
e3
c6
0f
0b
05
42
1b
f4
c9
10
15
03
fe
e6
db
b7
f1
0a
1a
ed
01
11
ef
de
22
f4
11
ea
fc
f9
10
e9
fd
f5
01
da
01
39
f0
29
f7
07
20
f9
13
fb
2a
05
eb
04
df
06
d2
d0
10
ee
f5
1e
e2
d9
21
f1
fe
09
12
f2
0a
2a
0f
fe
fc
0f
ff
0f
ee
e3
2b
00
eb
0a
f9
f0
d9
2e
eb
f9
06
f7
ff
25
e7
08
f5
11
fe
df
f4
10
15
07
e4
18
e5
e6
e1
0b
f5
0f
e3
08
07
ee
fd
03
e8
09
e4
08
04
e2
d6
09
03
0a
12
06
16
1e
0b
18
0d
e9
de
ff
f9
05
18
09
0e
ca
d3
04
1b
fe
db
09
ff
ee
1e
df
04
04
f9
e5
17
e3
f5
10
e8
16
09
0f
fa
0f
f5
23
0d
df
19
f5
1f
fb
10
37
e0
eb
26
ec
fb
fc
16
10
ee
dd
f1
29
fc
06
0b
16
2a
db
01
1b
0b
e4
f9
11
00
14
00
fb
e4
e1
0d
dd
f6
fe
0c
fa
f2
16
ff
18
f5
15
ff
e9
1c
f4
e9
00
d2
17
f3
e7
e6
e9
1d
05
1d
0d
3f
1a
f2
35
ed
f2
1d
f5
c3
03
02
01
19
d8
ed
f5
fb
08
1b
03
1b
e3
0c
00
12
f3
03
11
ed
eb
1a
d9
d3
ff
e4
04
0e
0b
ee
ef
f3
17
fb
e6
0d
e5
13
18
de
00
26
1d
fc
28
0a
fb
f4
ee
f7
0b
fd
ea
fa
21
e9
f3
d3
05
09
23
e5
e9
04
f1
0e
18
eb
0d
05
28
0d
00
03
05
e4
16
d9
13
18
10
0a
2c
df
e0
e5
28
09
f3
01
dd
fe
d9
33
ff
f3
0f
04
1a
ea
16
e9
1d
32
d5
ea
30
10
22
d7
06
22
03
1d
17
f0
18
f6
04
09
fd
1e
18
10
df
ed
30
f9
f5
ff
f4
01
0a
01
20
f4
e8
f8
e8
f8
0f
f4
e9
1a
f4
02
ff
f4
ea
08
ba
fb
0a
1f
25
cf
05
14
15
15
ff
e1
01
e7
d2
21
25
28
0e
08
fa
1f
f3
1a
14
e3
f3
42
b8
dc
22
0b
06
0c
22
f8
28
ef
06
13
29
f9
f6
1d
13
fc
fe
fe
fd
fb
f1
1a
fa
07
ee
f5
ce
dd
fb
09
19
23
17
00
f6
d7
e2
ee
f3
ea
f9
f0
27
f1
fe
f5
e6
f9
0c
02
ce
eb
24
20
f4
fc
03
cf
f9
07
f5
00
eb
f4
05
fa
09
08
25
ec
0e
31
14
f6
e7
f4
f3
f9
09
e2
f1
e2
fa
0d
08
01
fa
09
d7
07
04
ff
ef
f9
fd
24
e2
17
02
18
17
e2
ea
fe
09
e6
14
cf
ec
03
0a
fa
f4
ed
fa
0a
f9
f0
f1
f1
28
fb
ec
eb
23
ff
ee
d5
f6
ed
05
eb
f2
00
0b
f4
05
08
14
1f
11
1c
13
f2
fa
01
f1
fc
e8
21
11
f4
b6
ea
fa
00
e5
ff
fe
19
fc
28
e5
1f
3c
fa
14
37
17
e6
f0
f7
0a
06
0c
fd
c4
ef
1e
21
15
19
f5
00
ed
22
fc
f7
12
f5
2c
f8
28
d4
0b
1f
11
fd
03
22
e4
2c
18
06
f2
01
ea
11
22
0d
fe
f5
f5
f0
06
04
fb
ed
03
11
10
17
fc
e3
0b
2a
fd
32
d4
2a
cb
ee
d7
d5
de
e8
fe
2e
fc
d6
f6
05
d6
02
d0
e8
10
f1
13
ea
1f
f8
16
09
f4
e6
17
f4
23
01
02
04
22
fd
09
f6
0a
ed
fe
ff
fa
ff
2c
3b
05
1e
0e
0b
ef
f3
f3
f6
15
e9
f3
0e
0a
0e
2a
01
06
0b
1b
e0
eb
01
0e
f7
e2
f1
16
06
f7
f8
13
e6
14
ee
f1
f8
fb
18
02
00
cc
e5
f0
f6
d2
f1
16
13
f4
f7
fb
eb
07
fc
ca
05
de
17
eb
00
0c
24
18
f8
1d
e0
f5
11
ea
05
25
de
f4
fb
e8
0a
e1
0c
01
f7
e9
23
f6
ef
00
f8
e2
e8
18
18
16
f8
f8
05
f6
ec
08
11
f5
0d
10
ec
18
20
f4
e8
07
eb
e2
fd
ee
21
d3
ed
04
e7
f1
0f
f7
f7
ed
e8
e9
00
ed
db
ea
b9
07
02
12
fe
f5
e6
f7
01
23
de
e5
f0
e5
db
f8
f9
f2
fb
e3
08
06
df
1a
02
11
fb
01
f1
f7
e0
05
da
0c
00
0b
0f
f5
ec
f1
fb
09
da
08
ed
fc
e9
ea
15
fd
1c
04
01
f9
0d
f9
f9
ff
10
21
13
0c
f8
11
f4
ee
f0
04
f5
f8
e0
fc
eb
fe
1b
04
fb
ff
12
e3
00
21
11
f8
06
e3
0b
0d
0d
e0
f9
fe
09
ff
0e
05
0a
02
fe
e9
25
0c
03
d0
f9
11
16
eb
f0
f0
03
0a
07
f8
de
eb
ee
04
07
0c
ed
08
05
06
f8
1c
f4
fc
e3
e7
06
d9
f6
19
05
06
0c
fc
0e
dc
07
02
14
fc
13
dd
17
10
31
27
fe
24
0d
ed
fc
04
11
f9
15
03
07
08
e2
cb
ec
fa
eb
fa
ee
11
e8
f7
14
06
f7
04
1b
ef
01
16
d6
02
07
e4
22
0a
df
0f
f0
f6
06
10
0e
ef
ef
e5
f3
13
f3
f4
11
fb
f5
06
e7
e7
10
28
0c
d4
ed
ee
f4
10
f4
e8
09
fa
ff
1d
04
07
0c
07
0a
e7
e2
f5
16
f1
ed
10
0d
fb
f4
fc
01
f2
f8
1c
ef
11
12
f4
e3
fe
13
f3
21
fb
0b
e2
00
f8
f8
02
2e
e6
f8
01
fa
08
d8
07
05
0b
01
e4
18
f1
fe
0e
00
05
0f
fb
f9
fa
f3
e5
ea
0c
f7
09
fd
dc
f7
f8
0b
f2
10
10
df
08
0c
05
f8
ef
12
01
d2
14
0d
f8
eb
09
11
05
f2
ff
1d
fd
21
13
ee
f1
fe
f2
04
1b
05
0e
19
fb
0a
0b
f5
ea
ed
07
0e
20
27
18
fd
e6
19
13
fb
ee
fc
17
0f
e2
05
11
ee
0e
f0
03
f3
1f
05
16
fe
e4
e7
0a
e8
e3
16
11
02
fb
f4
08
27
04
e3
10
00
0e
09
22
fb
fa
f5
19
03
f5
ea
f4
ef
11
f6
05
1c
f8
22
ff
f5
01
14
05
05
f9
02
05
f6
de
0e
e4
0f
02
04
f8
ef
ec
dd
f5
ff
05
02
fc
fb
f6
ef
0e
f8
01
14
e4
00
0a
fa
09
fc
16
e7
08
09
1a
19
e2
ee
00
01
f3
ff
13
1c
d8
25
23
f9
cc
fa
e7
f2
0a
11
0f
07
10
e1
17
e3
eb
10
e3
24
1c
f8
13
f9
dc
fc
f1
ee
0a
d1
17
04
f7
0b
0d
da
03
f6
fa
f7
13
18
08
15
f9
e2
12
f6
21
ee
e2
05
f2
f9
01
15
fa
32
f7
c0
1a
e5
00
18
10
fb
06
fe
27
06
f9
ea
d3
07
2b
12
02
fc
1a
0d
e5
f8
ef
ed
08
0f
07
01
e1
fc
ff
fb
10
05
e7
f0
08
f9
ed
02
2a
09
0b
05
fa
f9
ef
0b
e4
1a
ed
f6
e9
04
e8
09
22
eb
0c
1c
03
fb
00
dd
f7
06
15
ee
fd
03
d5
f4
e7
15
fc
f2
e3
fc
0a
f7
0a
ed
ea
ff
ea
f7
03
e9
03
0a
0c
12
ef
e9
ee
fb
10
fc
03
f4
0c
05
eb
d1
07
0e
f1
09
17
15
f7
09
fd
de
dc
f0
f2
2b
fe
e5
e4
e3
26
17
fb
06
03
f8
15
e1
dd
fa
d8
07
0c
ee
1b
f0
20
08
00
07
20
fe
bf
1f
1f
14
11
16
ec
ef
ed
0b
03
da
22
ed
06
f0
25
05
04
2e
fc
e9
01
fe
dd
11
0c
0f
c7
f4
f6
1e
ee
07
e7
ea
02
f7
ca
e4
dd
e1
f0
ed
0d
17
ee
e7
01
f0
06
ed
0d
f4
1c
e1
eb
ff
f1
0b
e7
e2
13
00
17
13
e2
fe
1e
22
1a
07
f4
34
fe
e1
e8
f9
fa
0c
dd
16
13
03
08
14
1d
ef
14
f9
ff
03
0b
cd
e8
e8
20
f3
ec
e0
ee
13
f9
df
ee
03
ff
02
03
12
f6
28
e0
06
19
0a
eb
01
29
f8
fd
10
c6
04
d1
1a
15
17
ff
0f
fe
2b
1e
07
06
04
0b
d9
28
fa
e6
1c
17
f5
f2
00
ef
07
e0
fd
0d
12
e9
1e
2a
ff
20
fa
05
10
0f
e8
2b
35
fe
f3
00
e4
08
f9
0e
07
ff
25
dd
e4
0a
1b
fe
0d
08
f6
04
11
ed
0f
f8
ee
06
ff
ca
fb
f4
02
cb
04
08
00
f6
ea
e9
f2
eb
0f
18
f5
19
ec
0b
e1
1f
0e
0d
e5
fa
ef
f5
12
fb
ea
fe
10
fa
d9
eb
fc
f0
1c
09
04
f9
db
1a
0b
1a
0c
e7
07
04
cb
05
de
10
09
12
16
f7
27
ee
03
04
fd
08
eb
0d
df
e0
00
f8
17
f5
de
1f
ef
09
22
e9
ff
20
d0
02
ed
fc
14
fd
01
11
38
17
03
f3
dc
10
08
04
09
0e
01
ea
0d
1c
d3
f1
0c
d9
01
ff
00
f0
06
0b
e6
dd
fe
1f
f8
0e
0b
07
07
f8
08
04
dc
f3
fe
d2
00
12
05
1a
f0
e2
1e
00
f2
f3
11
0c
f7
e0
0f
02
e6
f1
1f
d4
11
c7
ed
ec
12
00
fd
10
ed
fb
dc
f8
f7
e2
f9
ea
10
fc
fe
01
10
0c
e9
1d
e9
f8
f2
fa
f5
0d
e7
0e
1a
19
d9
d5
ef
13
eb
e6
f9
e8
e7
09
17
e6
07
15
f5
33
e1
fb
ec
01
eb
f3
0e
14
f1
ef
d8
f9
17
0f
10
0a
da
06
1a
fa
15
1a
f2
13
26
0e
1e
e8
0a
e2
07
13
fb
1e
f9
0c
ee
01
11
1e
15
ff
01
f6
02
f9
04
c8
f9
14
03
38
f5
fb
10
04
12
fa
1b
c8
f8
ef
ef
fb
e1
f3
17
15
0d
fe
ee
fb
0f
27
f0
04
0c
0a
0c
38
1e
fc
f4
19
f8
13
fd
07
ed
06
01
fa
df
d1
f5
00
ff
ff
f3
03
e8
ed
dd
ea
ea
c8
00
0d
0c
f2
fd
ff
17
12
f8
f1
f1
f4
ff
1b
2d
ea
e6
31
08
3a
f9
0b
0c
0a
02
02
19
05
13
1e
fa
fb
f6
e5
14
fb
06
f3
15
08
20
21
13
ee
f0
ed
f9
05
17
ff
18
09
0a
06
f1
0e
d9
d2
1e
06
04
fd
0b
f1
e9
f6
fa
0f
07
21
fc
20
08
06
fa
03
ed
e7
07
19
fb
15
ee
1e
0b
eb
f4
fe
17
1f
2b
e6
0f
ee
10
f3
ec
06
0e
fe
04
f2
01
02
1e
cc
f8
11
1b
f6
07
0d
0c
0a
03
e4
fa
0e
0f
de
f1
fe
f7
04
ea
e7
1a
e9
17
11
06
e7
ff
e1
f2
1a
00
03
e8
0a
e3
0a
cf
00
26
05
06
02
1d
0a
fc
00
e8
0f
10
ff
f0
d8
05
fd
0c
f0
28
e1
e9
17
11
0b
05
f1
f3
e6
fb
f5
06
d6
0c
05
fa
0f
d8
ff
fc
08
01
07
06
0d
18
fe
ef
f3
18
ff
f7
ea
04
03
0b
18
08
13
f4
ff
f4
08
f8
10
f0
08
e7
01
fc
fe
0b
01
fe
ed
c5
16
0d
0c
22
e4
1d
0d
f5
04
07
e4
eb
d9
0d
e6
ec
02
ed
06
fe
e7
01
3b
10
06
07
e7
f7
fc
e7
11
fc
31
f5
ec
c0
00
1c
fe
10
f9
f9
03
06
e2
09
09
15
0c
10
08
0e
f1
19
fe
fe
15
d7
ef
ed
10
de
e9
e9
ed
15
03
04
ef
29
ff
29
f1
00
13
00
f3
fb
e7
e6
02
12
f5
18
dd
18
26
20
fe
e1
02
00
e9
1a
20
f9
02
ed
f5
f7
1c
08
f9
0a
0c
fb
f4
f3
f8
f8
04
e8
16
f3
f6
0e
04
10
e4
16
28
ee
fd
13
17
19
1a
f7
0f
ee
fb
fd
14
df
f0
f0
01
01
fe
18
0a
0b
d2
07
e1
f5
fe
e5
d5
04
25
01
e5
0f
04
1d
ed
f9
f2
e7
0e
e0
05
d1
0b
e9
05
05
05
ef
f4
0a
f5
04
fc
ee
e4
20
06
13
f2
22
cf
f3
25
f9
22
fc
ff
14
18
14
0d
1c
07
08
06
f9
f5
e8
fd
f7
07
c2
e0
e4
23
0b
17
08
fe
f8
15
df
f4
f9
e0
04
0e
fb
0e
ef
dc
0c
17
02
f8
fa
f8
10
fa
05
fc
13
0c
f6
05
ff
05
00
df
e8
16
fd
f8
ef
19
ef
03
e0
e6
05
07
23
1e
ef
f4
09
f1
fa
08
f2
1b
1e
e5
ea
10
13
2e
f3
e6
e2
ef
03
0e
ee
13
d7
07
09
00
ff
00
02
07
03
08
da
12
f7
0b
16
fd
f9
fc
fd
f8
09
0c
ee
ee
1b
f8
ba
04
e3
fc
08
09
e6
05
01
0b
25
14
dc
f2
12
f8
ee
e9
f3
ff
20
fe
e7
07
f0
17
01
01
00
04
01
f0
07
eb
fe
d4
ff
06
f3
15
16
05
d6
f7
14
f2
0c
f0
1b
0f
fd
15
25
1a
eb
2e
00
ff
ef
07
f8
28
f0
eb
09
cd
fd
04
e0
fd
03
dc
1e
2f
f1
fa
f0
f0
dd
e7
13
34
f9
05
19
f0
10
12
ef
0a
07
12
ea
1f
0e
07
1a
ef
fe
0f
fe
23
1c
37
0a
01
f9
17
1f
f2
1c
f7
f4
02
05
ee
29
eb
28
f1
f5
0f
03
00
ff
ee
1e
01
0c
fb
07
d2
0f
0f
26
09
06
ff
03
e6
e4
08
00
ff
fe
16
e5
0c
1f
f1
f8
fb
0e
f1
f1
fb
f7
fc
14
1a
e7
fa
1d
f7
d3
f7
15
ec
0f
c9
16
00
01
f8
ed
00
03
02
f3
ea
fa
d5
f5
0d
e8
f8
08
fd
fd
03
08
d3
fb
ff
e9
0c
02
05
13
ea
22
09
00
11
e9
dc
f0
01
1d
e0
06
07
02
09
03
ea
15
08
fe
08
f6
f1
16
fe
0d
11
ed
e8
16
d5
df
01
f0
07
fa
0c
fb
0b
04
05
ef
01
f9
ea
f8
f7
06
0f
f7
f0
fc
00
fd
d9
f4
fe
f4
0f
f6
05
02
ec
fa
f2
02
0f
e7
09
ec
07
02
e0
fa
3c
03
eb
08
fb
fb
1a
fa
0e
ee
ee
cc
04
fc
00
0b
15
1c
05
fc
f9
06
fd
13
15
11
1b
24
d8
e8
0c
f5
23
21
1e
18
0c
0c
00
0d
03
01
04
f4
15
f8
05
2d
1c
ec
f8
f0
fa
25
e2
37
09
f7
e6
0a
14
12
ed
24
25
09
04
0c
f6
f2
e9
f8
b5
0b
d9
1c
0c
00
34
f4
17
05
fc
0c
f5
f9
fd
f5
f5
19
1c
01
26
f9
f0
09
0e
f8
0d
ed
f5
d9
fd
de
fd
03
1d
01
f1
e9
0e
f8
11
19
fe
ef
e3
e0
f4
e8
31
ff
ee
ff
ed
03
e7
25
06
27
f4
fd
c6
f4
13
23
22
00
1a
08
17
0e
d3
f8
fb
03
d9
f8
ff
06
dc
f7
09
05
e9
0b
0a
f9
f0
00
ff
f3
fa
1b
eb
fe
13
1a
05
04
ff
08
0c
0f
10
d7
06
e8
f9
e9
f5
19
ed
f1
f2
f1
0f
09
fa
fa
f0
e5
28
05
fb
fc
08
0d
05
ec
f1
0e
f9
02
e9
fe
11
fd
f7
e7
f3
ec
f9
f2
0a
04
03
18
ff
22
e9
e3
06
df
e2
e9
f4
09
0f
ec
0e
f9
18
fb
03
ef
e9
e8
ed
f8
fe
fd
ff
09
f4
1e
f5
0b
e7
e8
f5
01
16
11
e1
13
ee
db
0b
f2
1e
e4
0e
f2
25
2f
ec
f3
07
f0
04
04
19
1c
e7
fb
f6
d0
ec
07
01
ff
07
f4
fd
f6
1d
f8
0b
06
da
03
16
0e
f2
04
02
04
24
0e
ea
f7
f0
df
f9
09
f1
e6
ff
d0
fc
fb
fa
f8
07
f4
13
fc
f2
ff
fa
02
fd
e5
f0
f9
0b
e2
05
e5
df
e7
fd
e6
09
f8
fd
fd
06
03
21
de
fa
e0
c9
dc
07
0b
fc
e8
f7
1d
00
f5
fc
fd
26
27
e9
e4
f8
06
0d
01
f0
fe
fa
08
20
16
02
0e
ef
05
f5
07
e7
fa
00
10
03
d1
ee
08
0d
fc
e6
f4
21
02
e8
11
f5
f2
ed
d3
e3
e1
f0
0d
0e
e1
e9
08
f5
dc
0a
22
f6
10
fa
01
17
f8
27
fa
e9
f6
19
fc
09
f4
e9
fa
03
d0
19
f2
26
27
14
f2
16
d7
f8
f9
16
0c
f2
fe
01
f2
f4
e5
0e
01
14
fb
0e
13
1b
09
0e
01
10
fb
00
f4
f4
08
fb
02
fb
fa
ef
14
f9
cc
f0
0c
0a
ff
01
fb
00
2a
06
0f
14
f9
2d
18
08
0e
f8
0e
0b
07
f7
f9
09
0d
01
06
07
16
10
f9
0b
2c
22
ed
0e
16
f7
05
09
0c
0d
08
10
ea
f2
f7
0e
ee
f8
f9
11
fd
f4
0e
11
fc
09
14
f7
fb
14
f3
0e
ee
1f
fc
08
14
11
17
fc
14
f6
f8
f4
03
11
f1
f7
0a
f7
1c
ea
f9
03
04
02
17
1e
17
06
02
2a
f5
d9
11
fd
19
fc
16
04
15
ff
15
1d
f2
01
ca
19
1d
ed
0a
11
f0
f2
03
09
fb
dc
0c
b8
e9
00
e3
10
1d
e3
02
01
fc
f9
0f
13
1d
22
e7
19
f4
e7
f5
f8
f3
fb
f6
fb
f2
18
01
fc
0d
29
fd
fa
0b
0f
20
04
1e
ea
e1
29
e4
d8
f0
13
0b
e4
d3
1e
f6
19
e6
ed
fc
e6
0c
e0
1a
07
fa
02
e4
e8
fd
19
14
08
0e
fa
f4
fa
0e
ed
df
1f
05
fa
08
e6
05
f3
0f
02
f0
1b
ea
01
00
f7
25
29
00
ff
17
16
f9
14
eb
14
ff
f3
15
fb
04
1b
12
13
15
f0
fb
fb
11
c8
f2
27
ff
24
2d
f9
03
14
14
17
05
0a
0c
04
06
07
00
e9
ff
e2
e5
1f
00
1b
0a
07
e5
1e
ed
04
16
fd
e1
03
f0
2a
0f
0d
15
1f
23
10
01
1c
06
13
fc
e1
e0
16
d9
fd
fd
f1
f2
ed
04
f4
f9
f1
fd
0b
e3
f3
e6
12
04
fd
19
fb
16
07
15
01
27
d5
05
05
d0
05
10
16
05
f6
19
0a
df
f7
06
fe
19
18
f9
ef
00
03
f0
df
f9
fd
0c
e9
11
fe
f0
01
f5
f3
13
09
ff
f6
f3
ed
03
17
f9
04
dd
f4
05
03
e9
ed
d5
d8
f7
ff
d8
09
0d
22
e1
16
27
ef
18
16
0f
0f
e9
f9
14
11
11
e2
0c
05
1f
ea
f0
1b
30
e7
e3
ea
08
fe
f4
07
f0
09
17
fe
0d
1e
0b
0e
1f
04
0a
0e
fd
02
19
ee
fa
fc
0f
ca
f3
e8
ce
0b
ef
20
0b
19
f4
f6
f5
f2
e7
07
19
00
f7
f8
fe
bc
ef
0f
fc
08
f0
0a
fc
ec
f7
f8
09
1b
03
04
06
13
ea
22
0c
27
08
03
de
e0
05
1a
11
fe
0a
26
f4
d2
15
0e
ff
10
eb
19
f5
fd
0a
0b
f8
de
f6
19
1a
fa
3d
f1
f7
19
08
e7
0f
02
1e
f1
2c
16
f8
ed
0c
11
16
f2
f3
04
02
f9
1e
22
e5
05
23
03
3a
03
cd
28
f0
f2
f2
06
f7
01
f5
06
06
20
04
f2
0b
00
21
f0
11
02
04
fc
0c
21
1b
15
06
0f
06
02
f2
fe
ed
fc
11
f4
f7
fa
e8
1c
ea
e3
06
1a
16
19
16
e6
0f
f9
fa
01
0b
21
f6
19
ef
03
e5
12
09
e5
f3
05
3c
17
f2
03
1f
1c
16
fc
03
08
21
ca
fc
06
2b
01
f4
fc
ee
ea
06
07
00
01
0c
0d
24
1c
f9
09
fe
11
fa
f7
21
15
de
11
10
f8
14
f9
f5
fb
f5
14
20
f3
20
1b
09
1c
e4
ed
f2
16
fe
e2
f9
13
07
1a
23
f9
15
0d
e3
0a
fc
04
fc
f7
f6
34
08
f9
09
e3
f8
13
2e
2a
11
fb
ff
e0
0f
02
04
06
11
12
dd
e8
0e
f5
1f
04
fe
13
24
f8
00
22
00
05
07
e2
21
f8
ec
d5
fa
01
e6
ea
ff
23
ff
02
f3
07
fe
0c
f1
03
12
db
07
1e
db
f6
02
1c
14
fc
13
01
f5
f3
0f
ed
dc
f4
0e
ee
17
f2
03
ef
fd
03
15
fe
f6
fc
f9
27
11
f2
fb
ed
0e
13
10
fc
ca
e2
15
ec
30
fd
20
d7
fe
1d
da
12
33
1a
f2
07
26
11
fe
18
f4
1a
0b
39
eb
fb
05
0f
f8
15
fc
19
0f
07
04
00
1b
f1
23
0a
ee
f9
08
eb
0d
ff
22
12
12
fb
16
1a
02
21
11
f5
f6
fd
f0
0e
1c
e8
de
19
f6
1b
e2
f8
fa
28
fa
09
00
fb
ea
18
e4
02
1e
f2
06
e4
28
f7
fb
f4
08
20
17
07
03
01
fd
01
e1
08
1a
e6
0f
04
1c
e4
23
2c
19
0f
17
f0
e9
f8
d9
fe
fb
db
ec
f2
fa
2e
f1
2a
e9
16
0a
15
0c
f7
fe
14
09
34
fc
ec
21
dd
2a
fa
05
e3
fb
16
06
09
00
04
27
01
22
f9
d4
fb
f2
ef
1c
3a
21
fc
12
fb
0b
02
f7
f0
18
06
18
ed
dc
dd
01
0d
f8
1c
ff
f9
0a
24
23
da
10
0a
e6
16
18
27
1b
17
fd
16
13
0c
f5
ff
f8
1f
08
28
14
f4
f5
ec
f6
f3
10
d9
04
0c
39
29
1a
10
0b
0b
fb
05
f9
e8
32
03
21
10
f7
16
ee
10
12
f8
f9
f6
12
03
01
05
fd
dd
0c
19
e3
dc
0e
e8
23
ee
fe
e0
ff
02
fa
17
1a
07
16
0c
e8
f6
ef
fc
16
dc
f8
e4
31
f3
13
06
f1
ef
2e
0a
0e
1b
f6
0c
ef
f8
fc
1e
ff
e8
01
fc
fc
02
ea
f5
0b
ef
e5
df
f7
10
03
f0
1e
05
0f
f9
d0
f2
1b
f6
0b
f1
f0
ef
ec
05
c2
10
21
0b
ed
ed
fa
18
09
07
ff
e1
0b
09
03
10
03
26
12
07
0a
2b
f2
06
0a
1a
0b
f7
01
16
f5
0d
fc
03
06
02
fa
fd
0a
11
fb
17
d1
de
0b
eb
fa
fd
10
ec
e4
1b
e2
df
1c
fc
f5
08
00
35
e2
08
e0
f9
d0
0e
d2
24
f7
0b
11
0c
0a
22
30
10
35
fd
07
11
e9
f6
19
f0
1c
dc
09
08
0c
03
fd
fe
d5
e0
e9
26
fd
fa
f3
e8
fd
0f
12
03
fd
1e
07
d3
04
04
de
27
0e
e4
f0
32
f0
fd
1b
fd
02
ff
01
05
24
0a
f9
f9
0f
f0
0f
ef
f8
0f
02
0d
15
fc
21
f3
0e
fc
02
0d
ed
02
f8
00
00
ea
27
17
07
10
08
e1
07
e1
05
f8
15
0f
fb
f9
0d
12
2c
d9
03
2a
18
29
e1
df
02
f0
f0
19
04
10
07
0a
f4
fb
ee
04
d6
0f
16
1e
05
16
13
f8
e6
ec
0a
12
ef
17
12
f6
04
e4
f0
fb
20
07
00
05
06
00
0d
ed
24
1d
02
fd
0b
fe
ff
e8
00
f9
15
16
2a
e3
d4
00
06
ce
fd
0b
1e
23
ea
05
fd
f4
ef
f6
14
12
00
02
05
0a
ca
1c
16
fb
05
e8
05
07
f5
dd
f9
f5
fd
03
00
fd
01
02
fc
13
12
f0
e4
0b
e6
f7
ee
f4
1c
fd
d8
04
fa
f6
0b
0e
ed
0c
ff
ce
08
eb
e2
1c
0b
07
18
e3
09
17
ef
02
09
f5
f0
30
f8
f7
d9
10
26
f0
ee
02
f9
ea
f6
0f
2e
01
27
09
10
fe
f0
28
f7
f7
fa
07
09
06
0e
e6
03
eb
ed
f3
0c
ea
ff
e5
09
e9
12
f9
f2
15
e6
17
09
de
e7
02
19
0c
09
22
f6
f1
09
1d
fe
0c
14
16
08
0c
fe
0d
04
13
31
10
f6
fb
0a
07
06
f4
09
f2
fb
1f
f8
df
10
e7
f5
03
06
ff
07
16
e8
ef
05
fc
e7
fc
f2
ff
e1
1a
fc
fc
e8
d1
fb
07
f1
ec
09
1f
fd
24
f6
e7
f4
f0
ff
0c
17
e4
08
06
19
03
df
18
e4
f9
f2
00
01
01
d3
0a
ef
c7
de
f1
14
f6
e1
fc
f4
f8
1c
fb
dd
00
f9
e2
f6
14
0e
08
0c
02
f2
0c
01
f9
0d
29
fe
05
14
f8
dc
04
f6
f2
f8
f6
f1
15
ff
f4
0a
17
f0
09
0d
d5
0c
e3
18
d5
f9
f4
0a
06
03
fb
14
03
dc
f9
f3
f9
31
ed
15
0b
ed
15
de
04
01
02
06
07
10
09
00
1e
04
05
f3
0a
ef
01
05
fc
04
1f
bd
df
ee
ed
f2
e1
0d
08
16
f3
1c
03
15
fa
fe
15
14
1f
2e
00
03
19
fb
1c
23
d9
f9
03
16
fa
ec
f3
fb
ee
19
01
04
dd
26
f5
ed
16
ea
ee
f7
0b
24
f3
f5
c6
ff
db
f2
09
f5
e3
09
e9
ff
11
10
f4
18
f9
ee
f9
ec
d1
03
eb
fd
dd
f1
ef
f3
d2
02
04
f0
0e
ea
00
ee
14
09
12
cc
eb
ec
f3
e9
06
05
0f
e8
07
21
0f
00
f3
07
0e
fc
03
fe
10
e7
1a
f5
fc
e1
e5
f8
19
f8
ec
e2
24
15
01
e9
0d
01
3d
12
0b
f0
ed
01
15
11
d6
e2
fd
f1
eb
e3
01
f7
0a
ea
f0
fe
0e
fd
fc
e1
07
fc
0f
15
f7
06
1d
e2
f3
eb
08
07
08
fc
16
0c
d3
05
2f
dc
fa
f5
27
02
01
0c
f7
17
07
18
2a
fa
0c
e7
04
02
10
e9
1f
1c
f5
de
d8
09
df
04
ef
e3
2b
1f
02
0d
df
e0
cb
0a
f1
06
f7
e9
0b
33
e8
2b
15
e6
04
01
ed
11
e9
fd
ef
15
f9
e5
0c
f4
21
f9
f2
16
f6
15
f8
c9
c7
18
dd
00
0c
e2
0b
0d
ea
f9
f4
fd
e3
05
15
1c
15
e5
f1
19
11
eb
f3
f7
de
07
00
ef
e9
e4
e7
19
dd
09
e5
f8
07
1b
04
f0
03
f4
e6
14
f8
f9
d3
fe
10
fc
fb
00
05
e1
0d
fa
1b
e9
00
27
02
fb
1d
0a
fb
f7
19
1c
16
1b
07
fc
1b
f2
e1
fb
1f
03
e5
07
fd
e3
f7
11
03
ee
0a
1b
0b
0b
f8
11
08
ef
f1
e6
f6
fa
fa
ff
f1
29
13
17
0b
12
e9
18
f7
18
0a
e3
0a
0a
00
d7
e7
17
f1
11
2a
05
09
07
d2
0c
f2
02
f3
13
f1
09
e6
18
ef
f3
06
f6
15
ff
04
00
fa
0f
f0
dd
f6
f4
09
f9
ec
0b
00
0e
0a
fd
c7
f3
04
ca
e2
f5
f1
14
f3
11
04
01
d8
fe
19
ff
fa
11
1a
18
16
fb
ef
e6
1f
13
02
ec
0e
06
24
e9
16
0e
fe
ea
13
0d
ed
f0
14
fa
f6
dd
ec
f8
e9
19
15
fa
04
06
e2
df
13
10
03
f3
fa
1c
f4
09
f2
f7
fe
11
d8
11
1b
f8
f5
05
e7
cf
df
ff
01
10
ff
1a
18
05
e5
ea
03
02
d3
01
03
ef
ec
0b
f9
06
12
0a
03
f6
f7
ee
db
15
ec
35
ef
02
fb
f1
01
de
14
08
fb
1d
16
ef
f3
0f
fa
e4
f3
f6
ed
07
0c
09
07
1c
f4
fc
13
e3
11
ef
ef
e5
02
13
0d
e9
fd
ee
19
06
04
ee
fe
e9
ef
14
0b
f2
e6
d6
0c
11
f5
ee
e6
10
f8
07
fa
09
04
f1
de
0f
f5
03
f2
09
1a
09
13
e9
e8
fd
cf
0e
21
01
1a
e5
12
02
ed
f5
f4
06
e7
0a
e9
fb
03
0c
0f
f1
f5
0d
14
02
eb
f5
ef
0e
07
1b
0c
fd
f2
d3
0e
0a
05
0d
e0
11
02
f1
ec
0b
08
05
1c
ea
e2
f7
12
d2
f7
ff
da
1e
00
07
e6
11
e8
03
ff
02
fc
e5
11
d1
f9
f5
ef
e3
1b
14
eb
30
f9
f6
01
1a
05
37
e1
06
ed
18
0b
18
31
15
f2
07
1a
07
10
f8
f5
11
e7
fe
f9
28
24
e9
1d
10
f2
f5
0c
f2
fe
f4
21
24
00
0c
1d
05
0c
fc
15
07
f0
f1
fd
1e
0e
e7
14
03
f1
fc
ee
08
1c
ef
f9
f5
fa
fd
17
ff
f7
09
08
f6
f7
f0
f3
f9
ff
02
01
e4
05
e3
14
e3
0a
4e
f7
0f
ee
f1
ff
c6
e8
01
fe
14
06
22
06
01
fc
07
ec
03
fe
f4
16
0a
03
0d
01
05
f2
0d
01
dd
10
e0
f6
00
fb
ed
02
0d
14
0c
1f
ed
e4
18
0d
fd
2b
f5
23
eb
07
e6
27
33
0c
03
fe
fe
ee
12
05
1f
3f
15
05
fa
09
10
00
03
0e
ed
f7
12
e6
04
f7
ea
db
07
f0
0f
ef
0f
fd
f6
00
0c
04
16
ed
f5
0c
2c
03
ea
b8
f9
02
f4
11
fe
f3
f7
1a
17
fd
f4
0e
03
d9
e5
fc
f7
0a
0a
f9
06
07
25
ea
f8
f9
fb
f6
12
02
e9
07
0d
20
04
f4
f9
08
f4
06
1f
10
13
f4
15
f8
04
0a
f8
f5
0e
0b
0c
08
f8
07
e8
ec
fa
f4
20
00
09
f0
03
ff
1d
f0
ea
0b
1f
13
03
03
05
ed
fe
fa
f5
e2
f6
db
06
02
f7
33
ff
de
1b
02
e9
13
f3
25
c0
f1
02
f9
e7
0d
03
f9
e9
05
1b
dc
f5
06
14
fe
fa
ef
fd
e8
fc
05
f8
f5
ea
1f
dc
f5
f5
f3
ff
29
fd
0d
03
ff
0a
10
f3
fc
15
f8
ee
e4
fd
fc
17
f1
fe
0c
01
fc
0d
f5
ef
f5
28
10
f8
ea
ca
fd
ed
db
25
d7
17
e9
07
0b
f7
f7
fd
d8
17
07
18
11
0f
12
e1
0e
f5
3f
22
ee
e7
4c
28
14
f9
16
fd
ca
f5
cd
ff
f7
08
ee
e5
fb
e1
12
0d
17
1a
fa
f9
04
d4
f0
f3
27
fe
0f
ef
f6
21
fd
01
f3
f2
09
0f
f9
e7
1a
f7
f5
fe
36
ef
fa
cf
04
14
1d
ff
10
0a
0f
ed
ee
f5
18
14
22
1b
fc
03
17
67
f7
dc
e7
ea
ed
11
d6
eb
e3
e9
fc
ea
e4
e3
fb
28
f1
15
2d
d0
ff
14
01
e7
10
e6
f7
ec
2f
31
1d
f7
e6
fe
1d
13
03
14
2d
39
20
f2
f9
1b
f3
e7
00
34
f8
e5
df
44
ff
d2
e6
13
07
1d
f8
f9
dd
f9
ed
fe
27
1d
f0
1a
dc
f6
28
0a
de
0c
da
03
1d
f2
22
db
f0
fd
09
30
31
e6
da
0a
e8
e7
e0
19
fc
0c
0c
f8
0a
fb
0f
f3
e2
1e
ce
08
24
0e
26
14
f8
d6
27
25
e3
03
2d
2f
4d
fc
ff
1a
0f
12
fc
59
fa
f4
06
0a
dc
ec
c3
30
0c
09
0d
02
13
0d
19
fb
16
f3
fa
22
18
09
02
2b
f2
e8
f8
1c
f8
f8
16
e8
ee
12
22
f5
f7
02
22
18
24
ee
02
19
f9
01
04
1f
05
d3
21
3d
03
09
d6
0c
01
12
fa
f7
2b
38
e8
cf
0a
03
02
0b
e1
ea
06
03
eb
21
02
0e
f2
09
09
44
1d
0e
19
f2
25
10
1f
cd
e4
3a
fa
12
16
f1
27
15
20
f1
35
0d
ed
12
37
04
f3
fb
e2
e5
0d
01
f4
e1
e7
11
ef
dd
ec
2d
0b
14
1e
12
dd
02
fc
15
d9
21
19
21
23
3f
f8
02
1a
1b
23
e2
0b
ff
f1
23
ef
f7
07
0d
04
da
0f
f5
1e
23
0a
02
0b
1d
02
e0
05
21
03
08
03
1f
ef
0d
05
eb
2a
1d
cd
f3
2f
ef
06
09
e6
16
d0
d8
20
f0
06
43
fe
fa
eb
00
fa
0a
fa
d2
23
de
bd
de
07
27
22
db
e6
f4
0f
f7
07
eb
f3
f7
10
06
f9
f6
13
eb
02
24
f2
f5
0e
fa
36
fc
05
2c
e5
11
39
ce
00
f2
ed
0d
02
e6
13
e9
e9
06
05
f9
f6
f3
10
d4
15
21
14
01
f9
e4
f2
1b
30
23
ee
db
03
f9
04
18
fd
05
0d
20
0a
01
05
0c
2f
fd
0d
0a
ef
f0
f2
fe
da
16
1e
d0
04
39
10
37
2f
ed
03
13
2c
e6
24
ea
e8
01
32
13
02
2b
00
fd
f2
00
12
21
15
05
26
0d
e3
e2
f6
fb
06
f5
d7
f4
32
e9
f3
21
1b
09
f4
ed
10
15
0b
02
0c
db
db
0d
0b
03
26
f0
04
f7
1c
10
21
f8
02
28
c9
0f
19
fd
e7
14
13
0e
05
ca
16
f2
0c
d0
f8
20
f3
2e
ee
ec
e2
f5
f8
0a
ff
ff
3f
13
02
2e
2a
10
23
ea
1d
1c
e9
df
16
2d
2c
f3
ea
1d
df
01
1e
ec
2b
14
f8
f3
f8
e6
f0
1b
ef
d9
01
10
d6
14
de
f3
08
0a
0c
ff
fe
fa
1c
09
0a
04
e9
20
ee
f4
17
f2
10
03
f4
fc
f2
fb
f7
19
0f
30
f4
14
fe
c9
1f
fb
1b
1c
f1
1b
09
03
d9
e4
f6
fc
10
ec
f4
38
ef
05
2c
fc
19
07
17
01
f7
20
00
e3
0c
05
5b
ec
01
00
2d
e5
f7
1c
0c
dc
03
f1
15
20
23
06
06
eb
0a
07
f6
18
20
f3
f8
23
cf
30
1d
04
17
04
0c
ee
06
21
e9
1c
ef
dc
00
fb
f0
46
1f
19
34
08
f7
c5
cb
0b
f8
f2
18
f7
fd
07
0d
2b
fc
07
0a
f8
00
19
d8
02
0f
05
2d
19
c9
ec
e0
0d
04
f9
1e
1f
09
da
11
ea
1f
03
ce
de
f7
0e
06
f2
0d
03
25
f9
ea
fc
27
23
e9
09
01
25
fc
25
05
dc
f5
cc
06
fe
03
06
00
f9
eb
d2
fc
f2
08
f8
0f
d7
eb
0c
ce
fc
f0
0b
f8
25
20
eb
ee
11
db
0a
0f
1d
35
0f
e9
e5
0d
fb
09
e1
14
1c
1a
0c
05
f8
19
20
f7
f6
22
12
10
0b
ea
3b
df
f7
30
d6
19
07
03
d1
f8
1d
f9
0a
eb
18
e2
c4
fc
f3
28
f3
e9
02
00
32
10
1d
08
d7
02
f9
e2
05
f3
06
08
df
f9
33
fc
e8
06
08
1a
04
19
09
26
d2
0c
3a
02
07
2f
e2
f6
0b
f7
fc
2f
06
07
fe
02
ff
08
29
df
e9
f0
2a
ea
d8
26
fb
1d
f3
e4
0e
fa
0b
10
18
d8
06
fa
18
dc
17
f7
ef
f8
f4
ee
1a
04
2a
08
2e
e6
e1
fe
07
e9
03
06
15
18
13
3b
2f
19
03
22
e0
03
04
e4
0a
dd
1d
ed
d3
07
d6
0a
0f
02
18
1c
18
ed
03
dd
f2
01
f3
ee
14
19
f2
0f
d6
eb
0b
d8
47
2a
e9
f8
f1
13
fd
fc
ea
02
e5
e4
02
05
00
22
05
02
08
32
f7
1c
f6
f1
27
05
ee
fa
19
0f
04
ff
01
fb
09
f3
08
16
f9
07
16
cd
0f
c4
0e
21
dc
11
31
e7
03
02
ef
14
d0
11
01
e8
ee
02
27
3a
e5
ea
ff
28
08
0f
1a
e2
13
f9
f6
1c
0d
fd
e4
e3
25
20
ea
d8
08
f3
1e
20
c9
1b
e9
e6
dc
eb
f8
f8
22
07
06
01
e6
25
ee
d2
09
16
dc
0f
f1
fe
12
28
19
11
fd
ed
fc
ea
f4
12
34
1f
16
0e
0f
07
0d
ff
f6
d2
e5
d5
ee
eb
2a
ea
08
f1
03
2e
f6
04
d8
0c
12
e9
e4
14
0e
15
1d
11
1d
05
f7
22
04
11
00
e9
fb
20
fa
fc
d7
ea
05
25
f4
ee
02
e9
f7
ff
0b
33
08
fb
0a
2e
12
0a
24
f7
d7
22
f9
ef
08
ef
d7
e4
0c
27
ed
15
20
fa
08
25
fe
e8
15
00
bc
06
0b
30
f8
1a
03
fa
ef
0b
21
f3
01
ed
12
0c
fb
10
eb
06
16
07
0e
17
15
09
16
06
ff
f6
31
e0
13
09
ff
fb
1c
31
17
18
fc
f2
23
15
33
02
18
f4
f2
f3
2c
ed
19
29
13
f7
0b
18
ee
ff
f1
01
09
29
f6
08
1b
f4
27
e9
fc
12
0f
ed
3e
ff
fc
17
0a
13
e5
f3
07
45
08
16
03
29
f8
f3
17
03
29
ff
f3
08
e9
19
f6
02
10
09
df
ff
dd
f2
16
10
f0
0b
e9
2a
dc
1a
fa
06
06
01
19
0d
19
21
18
2a
0d
0e
0a
27
e1
1b
04
1a
06
14
fd
26
06
e2
f9
0a
0f
e9
ec
f0
1a
03
ec
fa
12
ff
10
fa
2e
0f
0f
ee
ff
20
d6
e8
f5
00
01
fd
01
ff
28
08
04
ee
fb
1a
fb
ef
0e
09
f6
f4
17
f9
2f
f4
26
0c
11
f3
23
00
0d
f2
23
02
03
f3
16
11
ef
19
15
fa
1f
fd
02
e5
f3
ec
fe
22
23
03
fe
09
2a
00
ef
0f
0d
fc
21
0e
1c
f1
02
f7
d9
21
fc
e1
0b
e5
eb
ef
bb
f5
27
fa
15
23
08
2e
fd
13
f4
12
08
14
08
05
12
1f
eb
27
f9
01
29
29
ee
0b
14
22
f8
14
f7
f8
f1
19
f0
01
10
de
06
1f
0c
f5
29
05
0f
06
fc
f7
21
f7
1a
fd
1a
1d
07
06
0c
0c
d7
ea
22
2c
fe
13
27
05
16
0d
1d
fa
10
f8
07
09
13
06
09
35
34
01
0b
08
15
10
3b
08
02
e5
12
2f
27
16
0e
0a
0f
fc
1c
e9
25
f0
13
0d
f1
1d
00
16
04
de
1c
f3
1e
e7
0d
0f
03
f0
f7
1d
0b
fc
e9
f6
12
e0
0b
f8
f8
08
f9
19
04
01
ea
fd
0c
2d
00
f4
1a
21
fd
fc
1a
ec
00
fd
19
07
15
2b
e9
fc
f1
1a
16
fd
06
06
08
e6
1c
dd
03
ef
06
1f
e2
e9
16
21
22
f5
1a
0f
08
17
f6
f6
08
0a
1c
c9
e1
07
e7
f6
e8
11
0a
f8
00
01
ee
fd
f1
08
0a
f5
e7
f6
03
02
fb
04
24
ea
0f
eb
22
dc
16
15
1e
fe
19
07
de
28
0f
f7
1a
07
00
0b
0e
16
04
1e
0e
e6
ff
f4
25
fd
07
f7
1c
0d
0b
fb
03
04
00
00
e3
18
08
1c
14
02
0c
01
21
0d
22
30
f5
e6
da
1d
f6
22
08
eb
e2
00
19
d5
13
ff
fa
f9
13
08
f1
1e
ec
13
d9
fd
e3
ff
fc
fa
16
e8
0c
12
f1
fa
f2
06
20
fa
e3
ca
fe
26
fb
04
27
07
d5
f2
0b
e7
05
f6
04
09
e1
13
07
f0
1f
f3
ff
eb
f4
f5
16
2d
da
17
31
08
02
f3
08
12
fb
df
e5
13
f4
fc
09
f8
f9
f6
eb
e9
13
d4
ff
1c
01
15
21
22
ee
21
13
05
f7
0c
f0
03
eb
ec
19
09
e6
e4
01
db
fd
0f
0f
06
31
1f
05
14
14
0e
e8
f1
01
10
1a
0a
10
f6
14
f5
be
01
07
15
dd
f0
f7
14
06
f4
ee
e0
0a
0c
0c
2e
f5
13
02
11
16
08
07
05
f7
04
ee
0d
fc
ef
dd
33
39
1c
00
0e
e7
01
ff
f1
fc
04
21
0d
d7
02
2e
fa
f8
15
0d
ec
fe
07
ff
fe
f5
2a
e6
35
f7
07
0c
03
10
ed
03
20
f8
f7
de
fa
18
09
d8
06
f5
00
f2
04
f9
20
14
cb
04
f8
03
08
14
0c
df
06
f5
e4
01
ee
21
ea
00
21
23
fb
f6
e7
09
02
04
13
09
21
f8
1c
0a
41
e0
f4
ff
ea
ee
fa
1e
1e
f4
17
15
04
ee
18
19
04
fb
f0
01
f8
f3
07
fd
e1
0a
dc
ce
15
0a
0a
e3
09
f1
0d
fb
0c
0c
17
0c
13
09
ee
1a
f4
09
26
e4
01
10
03
f0
08
21
05
f5
f9
0c
06
16
f8
05
dc
fe
04
1a
f8
0f
f0
10
09
08
08
e8
37
15
fc
10
18
f3
f5
0d
f9
20
e5
08
ee
ce
2a
cc
f8
1a
2b
16
02
0d
de
0c
2a
0a
fb
1f
f1
ed
1c
13
08
20
fb
13
01
1b
e8
e5
df
16
fa
c7
f8
01
19
0c
ec
f9
fe
35
fb
01
20
19
21
0f
fb
fe
08
0b
db
f4
15
15
f4
e6
0e
14
fc
00
e3
eb
e9
04
12
11
fe
2a
f1
ff
23
ee
f8
13
32
d5
1e
0c
17
23
f0
fe
0e
f7
1a
f1
09
ea
39
11
3d
f6
ec
16
10
09
f9
f0
1e
12
e4
04
0b
27
fd
12
eb
00
16
f2
e9
fb
d2
fa
22
12
09
0d
fc
f1
f0
ce
fe
00
2a
f8
fe
14
f4
d0
f9
fc
0f
f8
fe
0f
fc
ef
0f
02
13
18
06
ea
24
fb
24
fd
ff
02
dc
f5
f7
fa
09
06
fb
03
f4
ef
29
0f
ed
09
03
d8
d9
05
1b
12
f8
03
f3
00
14
fe
06
ec
31
0c
0f
08
f6
f9
15
fa
10
f3
24
e3
ee
ea
23
18
01
e6
dd
0a
2c
eb
01
e8
fc
f1
0d
f5
30
14
ff
eb
e3
e5
1f
11
f6
0a
09
1b
1e
f2
00
22
07
fe
19
ff
fd
e2
06
f6
f4
fb
0c
11
0f
ff
e3
14
da
23
21
eb
08
dc
ec
06
37
02
12
fa
24
e9
09
fd
1a
e0
40
07
ff
ee
01
0b
07
ff
23
21
fb
11
25
11
ff
14
e8
25
fd
09
04
e3
01
10
e9
f9
17
0b
25
28
eb
12
ea
1f
11
00
f3
12
0e
2c
04
09
06
fb
20
f8
09
28
0b
f1
02
04
01
e5
26
fc
24
ef
03
e2
fe
19
17
cf
fc
f8
18
1f
02
22
02
f4
05
fc
03
09
eb
e5
10
f9
de
e3
00
ff
06
0d
ed
07
e1
10
d6
ec
12
f2
fe
ef
45
f5
fe
fd
f1
f4
fe
0e
06
fb
f3
fa
2b
f2
03
01
ed
24
e8
1a
f8
ef
f1
00
18
04
0d
16
1a
24
e7
f3
f7
08
11
f7
1d
09
fc
ff
f1
02
05
11
e4
fe
ee
f0
00
ef
ec
f4
10
fd
13
10
18
e3
29
f8
0d
e9
18
f8
21
ff
06
14
0e
00
e4
f1
15
f7
eb
fd
0c
f2
ff
ff
fd
fd
01
00
14
2e
2c
da
0a
24
16
25
13
da
24
f7
f1
0d
0e
08
02
ec
15
02
00
03
35
07
ef
13
22
f6
06
14
0a
0a
1d
27
f5
0f
df
17
1b
1f
db
09
20
f2
de
0b
05
d1
ef
00
20
11
1a
db
ff
02
ff
fe
12
fc
da
37
27
f0
ff
17
10
11
08
0e
25
06
0e
17
e4
02
f4
1d
29
05
1c
e6
f1
dc
f3
4a
e5
0b
08
03
dd
03
0d
f9
ee
ff
11
2d
f1
1d
19
e2
05
ef
0e
19
26
25
29
08
e8
39
01
13
f7
08
13
21
00
05
05
10
f2
fc
f8
f1
09
fe
d7
f4
fe
17
08
07
e3
fd
16
16
de
06
f1
ee
d6
e7
0a
f1
11
05
14
fd
00
34
14
01
ea
ff
0b
f5
f6
08
fa
0f
fb
da
03
e3
fa
11
17
11
0c
f2
f2
f5
f6
07
d5
ed
23
fb
0a
19
06
11
d1
ed
1b
11
f7
e4
da
f2
05
f4
e6
01
dc
f7
07
eb
e4
e5
ec
11
02
00
f1
fa
1e
fa
03
12
fd
18
f8
04
00
12
e4
ed
f2
1c
04
17
0e
0e
df
03
fa
ed
df
fe
09
fd
11
eb
fd
e5
13
db
f1
03
fc
1e
0a
17
f3
f5
05
e8
04
09
ee
ea
19
e3
f8
0f
eb
04
f7
03
0d
2f
01
02
01
02
f4
fe
12
01
22
ff
dc
07
1b
18
fe
01
35
ff
f9
ed
fc
fe
f5
e8
0b
17
04
03
fb
0a
fb
ff
17
00
e2
12
fb
1f
fd
0b
ff
f0
e3
f6
f2
ee
03
f0
19
fa
ed
f4
dd
fd
d7
01
21
13
fb
f4
10
fa
0d
f4
f7
00
14
18
e4
15
f7
16
17
fd
ea
15
26
fa
fa
0d
0d
10
14
f7
fd
0d
d2
f3
05
0c
ee
fd
ed
19
04
fb
d8
03
18
f7
e0
0a
0f
f4
06
05
06
fd
ec
ea
f5
0c
17
ee
15
e0
ea
e8
02
e6
f6
fb
fb
fa
06
0b
c4
eb
fb
fb
0f
dc
ee
01
01
fc
1c
1e
fb
15
fd
db
e7
e4
e0
fb
15
13
f3
0e
f9
07
fd
f1
ef
ed
e4
f6
18
0b
01
23
f3
0a
0b
00
0a
0f
fb
e6
20
12
f4
e2
1c
09
03
19
f8
da
fc
11
2b
f9
f4
09
ff
05
0d
ed
0f
eb
ff
23
ed
f1
ea
06
1a
13
e3
f3
fc
07
d3
e1
f3
ef
f4
20
f5
ee
16
15
df
11
0b
e0
0e
f0
0f
07
1c
f4
1d
cf
f6
10
f9
08
f9
00
0b
fa
dc
f3
e8
02
0b
fe
1e
f6
1b
0a
02
f0
fe
f8
04
ff
07
0b
e7
eb
29
1c
dd
0d
ed
03
e3
f5
d8
07
0a
14
f8
17
fa
fd
e0
0b
e5
fa
16
0a
fe
e8
dd
07
dc
f0
0c
16
f3
20
0d
e9
13
ff
0f
ef
11
11
e3
ee
05
05
13
08
e6
eb
0c
fb
0f
fd
11
25
2d
01
06
c5
09
0e
ea
0a
0e
e0
1b
fe
f8
0f
1c
06
0c
fb
ed
1c
f2
10
f2
ef
fb
01
0f
f9
07
fa
d8
26
0d
10
0e
ef
03
10
e8
1d
12
1c
fa
e2
22
e9
27
eb
12
eb
cb
e0
05
e2
24
ec
25
09
03
23
22
fb
0f
06
fb
fc
08
16
ef
fa
18
1c
17
16
ff
fd
1f
0c
04
eb
f7
eb
f1
f3
ff
09
12
0f
fe
26
f6
0a
f5
06
d9
0f
09
17
35
0a
0c
fb
0a
03
09
fa
0e
fd
fb
f3
05
e7
fc
1a
01
06
de
f3
2a
08
df
f3
20
ed
05
0c
ff
1d
fa
14
f0
01
17
03
0f
0f
ce
f6
e4
ee
ef
18
0d
00
0f
f7
f6
fc
d9
d9
ce
00
12
15
f4
f7
fb
26
f5
0c
0b
0d
ed
07
0e
ea
ef
14
04
ff
3f
0a
eb
04
02
1f
0e
19
01
26
0b
07
0f
07
09
14
f6
06
d8
14
00
08
11
09
1d
27
01
f4
0a
01
00
1b
e0
d6
28
f2
12
f8
0c
d8
fb
fb
f9
13
0d
09
e2
eb
f8
01
fa
11
f1
04
01
f7
f4
ee
16
ef
f8
f3
13
ee
ff
fb
05
0e
ed
07
09
f4
01
fd
ef
2e
15
fa
12
e2
f9
f0
ed
ec
03
1d
06
0a
f1
09
00
05
eb
09
09
f8
19
0b
18
eb
30
07
f3
0c
0e
1d
f4
d7
e7
1c
08
d7
e0
dd
05
07
2a
04
ef
f5
ef
f3
02
08
0a
35
0a
ef
1a
f6
03
e7
da
ec
02
07
08
0f
02
08
fc
21
1a
ef
1f
22
ed
09
02
f4
23
e0
08
f2
fb
0c
fd
25
22
fd
00
f2
1e
fa
fb
03
10
07
01
f3
0e
f1
27
11
00
f0
0a
37
09
f5
e6
e2
f0
2b
f1
00
1e
0b
f3
f1
13
0a
05
ca
05
ee
fa
05
e0
08
0a
0d
ff
00
08
0c
08
ed
ef
14
f0
13
f6
fe
f8
f3
12
09
fb
09
0e
f0
e9
0d
fa
f8
e1
23
f7
d9
15
04
f3
ec
f8
da
f0
f6
03
f2
fe
fb
fe
0c
01
ff
f1
f5
c5
fc
0e
0d
09
da
f5
21
bd
31
f2
05
da
e0
f1
18
ee
ea
1e
15
fb
fc
ea
10
de
03
14
0f
23
fc
fe
f4
02
12
06
fe
ff
ee
1f
ec
00
1b
17
25
ff
e1
19
f9
15
da
1d
0a
f8
f9
fd
f7
1b
fa
ee
f8
fb
22
0f
1a
21
11
fd
02
14
0b
f9
02
e0
04
06
f1
14
19
09
16
04
fd
db
fa
c8
05
0d
f8
07
0f
08
00
ff
24
0e
33
f3
f8
e5
f1
fc
12
0c
e6
0e
23
0f
06
11
04
01
18
22
0e
0f
09
04
f4
e7
21
f0
17
04
f6
ff
de
22
03
f4
ee
34
0d
0d
ff
fc
1b
ef
0f
d2
f4
ff
03
0b
00
f9
e7
13
00
1a
eb
09
03
ff
07
fd
e7
2a
0f
01
f6
f3
1c
dd
de
01
df
12
f8
ee
e3
eb
3d
0f
fb
fc
09
17
fe
e8
fc
ef
1b
f5
e3
ef
1e
fa
f0
fa
ea
fc
f9
fc
f6
fb
1c
e4
f8
09
00
23
21
25
f6
04
ed
d9
f5
f8
0e
14
e4
00
20
f9
f4
04
12
0b
0f
14
13
ff
06
04
f1
10
ec
2d
0a
fc
eb
f5
08
ee
f5
0f
24
f8
01
1c
0b
e3
1d
df
de
04
1b
0b
04
e1
09
0b
0b
f5
13
ff
fd
e5
ef
db
26
0e
08
ec
eb
ef
0a
fa
18
f5
10
0d
02
0c
f0
06
fb
17
f2
f1
03
0b
06
12
11
ef
0d
0d
ec
e9
ec
ed
01
00
00
e5
12
19
e5
10
01
0b
ea
da
18
dc
f2
06
f8
02
d9
f7
f3
fd
0a
db
de
0d
df
0a
12
05
12
f4
09
1e
18
14
03
f5
fb
e7
0d
f3
fd
0e
0a
04
e2
11
16
15
03
e4
fa
03
0d
19
02
1c
0c
f2
06
04
17
04
f6
0d
10
02
1b
dc
01
12
0a
14
1c
ef
e8
1c
0f
03
fe
00
e2
ff
ef
03
10
f5
24
28
17
f8
e3
fc
35
11
0f
01
0c
e9
cd
02
08
e0
01
0c
eb
d9
fb
fb
fb
ec
c6
11
ed
3a
0f
1e
d4
f8
d5
fe
e2
fc
4a
cf
fb
f1
f6
0d
ef
f5
30
2b
dd
f7
e5
0d
d8
05
24
f7
14
0b
d1
fb
d9
00
e7
ed
07
dc
e7
07
f5
f6
2c
e6
f8
00
12
0d
52
c3
1e
fe
ea
fe
e0
ef
39
f1
ff
3b
eb
da
f8
04
07
fc
e0
3e
e9
0a
2a
0b
fb
e0
ec
c1
fa
1a
1d
01
04
ee
fb
ea
fe
e4
13
f9
e4
f7
fa
fa
e1
02
fa
0c
ce
29
01
29
ee
11
cb
d3
ea
eb
c5
00
0d
f5
1f
fb
01
ef
06
21
e1
1d
f3
11
c3
15
cd
c7
19
c2
19
ed
0d
ee
2e
0e
46
18
e1
28
2c
14
d7
f9
ff
e7
00
0a
d6
06
f9
09
14
20
25
01
e4
e5
cf
3c
f5
e1
d0
f6
fd
ed
11
08
1d
0f
f7
ef
f3
d2
14
08
fd
1e
d7
0a
ee
0e
d7
f9
ec
e3
e4
f7
da
fa
ed
d5
07
e2
04
ee
e1
15
f0
12
d6
2e
df
3f
02
1e
d3
26
d9
f4
0a
2b
f1
1c
f8
34
02
d5
c2
fe
e7
e4
06
01
01
3b
f2
bd
fb
0e
13
eb
0c
ff
e7
2d
d6
26
01
03
de
f1
10
bd
07
20
0b
f9
26
3b
ff
f0
01
04
08
e2
b5
cb
ee
0f
fc
14
fa
dc
1d
ea
36
ed
0f
33
f6
0b
0f
04
1c
02
e0
e8
e4
07
1f
29
d8
fc
02
05
08
d9
f5
06
12
15
d2
e5
f6
f8
f5
ed
f3
16
10
0e
01
25
ef
1d
f9
e3
fe
22
f1
0a
d8
1f
fc
f1
f8
cc
03
ca
0b
f4
f1
a4
d0
e4
fb
f0
01
f2
fd
0e
f1
0b
20
ee
03
db
fe
e6
0b
06
e5
ff
ee
d5
0f
12
fe
e7
45
01
32
4b
da
e4
fd
f3
fc
19
17
eb
0b
ed
f9
f3
17
24
07
df
ed
3c
25
1b
15
19
f9
e8
f8
01
f9
e7
e9
ed
16
0b
dc
f3
02
f7
21
f1
ea
11
06
21
e1
f2
eb
e4
ff
f3
be
15
1b
e7
05
f2
47
ef
e6
0a
e8
be
08
30
de
29
e6
05
5b
c5
e1
2d
f3
2a
21
df
ec
08
f6
fb
f2
fb
0b
20
19
27
1c
fd
0d
e1
02
eb
ca
fd
19
de
eb
e8
1d
cc
2f
e4
de
06
ea
ff
08
14
ec
08
f4
09
ee
ea
db
16
21
3c
d3
ef
c2
ed
e2
10
03
df
0f
fc
eb
14
14
ee
ce
0a
f2
f3
04
c6
f9
b6
ed
37
f8
0d
04
de
ee
e8
0f
f9
e4
e0
1d
2d
fb
ed
f2
eb
03
0c
f6
0b
05
d4
c3
39
ee
ff
0e
03
06
da
0e
ed
f5
ec
16
e8
06
ec
ae
fc
17
0c
21
0e
18
f2
13
f4
03
ec
fa
c5
e0
00
f5
25
37
ed
d9
26
0e
f0
f8
18
00
dd
16
0d
cd
ff
f7
e2
1f
fd
ff
0a
e8
f9
cc
0b
fc
18
dc
27
1b
e1
05
ab
db
e6
02
12
06
f9
ec
c6
0c
38
b7
0b
05
e8
c7
e7
1a
0e
f0
bf
04
00
fc
f0
03
40
fa
00
0a
10
cc
d5
f8
ee
37
0d
25
0c
e8
1a
0a
d4
ed
01
ff
20
0d
03
0b
fe
ca
0c
08
00
da
09
f5
f6
f5
12
fa
f7
08
01
ec
f2
fa
fc
08
f4
23
dc
ef
30
09
d6
ec
1b
0b
e2
f1
30
ea
03
09
fc
de
be
1d
fe
e0
e7
00
fc
0e
06
2b
06
dc
e8
e6
ea
f4
e2
2c
02
ed
23
1e
ee
ea
1a
ed
fa
1e
25
15
b8
12
0e
14
f1
f9
06
d7
d7
04
f0
06
12
12
13
03
e8
fa
28
06
f6
19
ff
12
fd
dd
fa
c6
15
fa
03
e2
1d
eb
14
fe
fe
f9
09
36
be
07
c8
0c
bf
01
03
05
0c
1d
00
f1
0f
0a
03
f0
fa
e3
f9
01
f2
0e
fe
fb
13
f4
0f
e0
12
29
f7
08
ca
03
f0
f3
02
e4
f3
0f
f8
07
fa
e9
f2
d8
ea
cc
db
d0
00
fc
dc
21
3e
0e
0f
07
fb
f0
e4
02
11
17
38
cd
ea
fa
2c
d7
df
36
0f
15
f6
28
e8
d1
1c
03
fc
bc
ca
d8
1e
d2
0a
08
d1
ed
d4
ee
11
ec
d3
10
ef
db
ff
01
d6
ef
29
ef
13
d5
17
d1
d9
f2
ef
f3
f2
10
18
0b
15
1f
f2
f0
0d
05
ec
fe
1d
fc
0e
d2
1a
eb
fa
f9
04
f6
13
1c
bb
11
25
0e
0b
0d
f6
26
10
06
16
2e
d9
07
0d
ff
33
1a
fe
07
04
ec
ec
f1
e5
f5
14
09
00
e9
e5
24
01
19
e0
09
fe
db
25
ee
2e
d5
f9
18
2b
de
f6
f6
e6
06
23
0d
0d
13
14
1d
ec
11
fb
e6
09
e1
39
e7
d5
07
22
c0
ec
0a
d7
14
2f
2a
ce
dc
13
02
09
cc
df
14
0a
e3
e0
fe
2d
f7
04
e9
19
ed
29
ec
e8
e6
e7
f0
da
01
14
f8
ff
06
d4
e0
e8
fd
f9
22
f0
13
1b
2c
fe
11
0d
e8
e7
e7
ef
f5
fc
ec
27
3e
0d
f4
17
e4
e6
04
fe
04
fd
05
f5
f1
e0
05
f3
a7
f5
e1
ed
07
ef
09
1b
33
fd
c9
cd
ee
c6
0d
10
0c
29
04
e1
e2
f0
cb
1b
eb
f5
f4
1b
27
26
03
2a
f2
da
0a
d7
07
f4
b7
e4
e8
01
e9
f7
f8
f6
ee
f6
e5
f5
0b
e2
fe
fd
15
05
17
eb
23
27
4d
db
18
1a
27
da
15
11
cc
06
fb
e3
ef
cf
fa
f7
f3
1e
12
13
d1
f7
ed
fd
f1
0b
e8
e7
fa
f4
10
f9
eb
d0
15
04
12
07
25
2b
e9
f3
cf
f8
0e
f5
eb
e5
06
15
0c
e3
06
db
f7
fb
06
24
fb
0d
f8
23
d3
e5
1e
ba
fb
dc
12
16
50
d5
06
fb
3f
01
f4
34
e5
fc
00
03
f2
f4
f8
15
e8
19
ff
1b
f9
26
09
19
eb
fc
f6
25
e4
00
07
da
06
e6
07
ed
e4
36
15
04
e7
0d
10
41
df
06
f8
e6
2f
e7
bb
03
d3
d5
08
bd
fc
c9
00
c9
ee
d8
f2
32
0f
03
12
0f
ed
0a
1e
2f
0a
f2
1c
0d
04
fd
09
10
c9
27
fb
1b
f9
e9
26
24
20
12
05
06
c3
e3
c0
d5
24
30
fb
09
f7
06
eb
e3
11
1d
05
f8
0a
dd
ff
08
ff
df
e9
f6
0b
16
1d
1a
0d
20
ec
ee
0e
f0
17
ea
2e
f7
ee
da
ec
f7
e2
fa
0a
11
0b
15
12
f3
f2
f7
12
f5
02
0d
f5
f9
0e
15
fb
e6
e8
fe
fc
ef
e3
00
02
1a
09
06
0e
11
ed
f9
2b
ff
00
10
29
00
e5
08
ec
11
ff
01
f5
04
00
04
0b
07
10
e3
04
06
fe
ef
08
19
fc
02
03
df
e2
01
eb
00
01
d9
c8
0e
e6
fb
eb
01
f8
fe
23
0b
11
ff
e3
12
ff
f7
f8
fc
1a
f3
cf
f8
fd
fa
04
16
fd
03
fb
ed
2d
28
e9
df
f3
f1
04
e7
02
ec
14
14
ff
e5
04
01
ff
ef
e8
1c
02
05
18
de
16
2b
04
d9
ef
d8
05
0d
02
1a
d5
0a
04
0e
06
00
18
fa
f7
0c
fb
23
ff
e3
08
00
fb
e9
d7
0d
00
10
10
0b
10
04
05
f3
df
12
09
e6
02
f3
f7
f3
ff
20
ff
eb
f0
11
ea
db
0e
f5
f8
12
f9
1d
11
ec
dc
10
22
06
ff
17
eb
dc
00
f3
1c
f6
27
f4
1c
07
18
fd
f0
ef
fe
c4
00
f7
fb
14
f2
e7
db
0e
07
02
19
0f
01
11
16
0a
f6
ed
08
e5
fe
17
e7
e8
10
eb
fe
f5
f6
fb
f9
20
df
f4
ed
e2
cf
06
25
ea
09
fa
fe
03
ee
fe
02
f1
02
15
04
19
00
f9
f3
ec
0a
fc
f3
d3
df
16
e2
21
e9
e6
fc
f7
20
08
1e
02
e8
0d
ef
ff
0e
17
1a
07
0b
ed
ee
0b
fb
1a
ec
0c
1c
15
fb
15
e7
1e
09
1c
0f
e3
04
04
16
08
ff
ea
f6
f8
15
0a
d8
fe
fb
f1
12
f8
e5
ec
14
12
20
c7
fd
ff
fa
e4
f8
de
f3
f7
e7
19
0c
fb
04
f0
00
08
1c
f9
0f
0a
da
10
de
00
ff
f3
fb
1b
16
f7
0a
18
fe
f1
e6
f7
12
f8
ec
09
e1
ef
f4
18
25
15
0b
ea
de
e3
ed
03
17
16
15
14
06
ee
0d
ee
18
f7
fe
f5
cf
f1
e7
01
1f
fa
16
04
ff
f8
e5
f6
ff
2b
f7
0b
e8
eb
f6
1b
e0
f9
fd
f5
0b
2b
cc
03
d1
00
08
f1
f8
ed
13
ef
1f
21
14
05
f1
dd
09
04
0d
e3
17
f8
f0
0b
ec
0f
f7
eb
f8
e8
04
eb
26
1e
ef
2f
13
09
0f
20
29
02
ef
04
ff
ef
03
e9
ed
01
ed
ec
00
ef
e3
12
fb
ef
fa
ff
2a
0c
fb
f0
01
f6
05
0b
f4
fa
dd
0b
25
f7
f5
f3
e4
1a
ee
e2
24
dc
18
ea
e2
1c
29
0d
c1
e1
08
f5
df
07
16
0f
f2
d4
f4
fe
f4
f8
fb
03
0e
fb
fb
09
e2
17
f9
f8
00
f0
f5
e5
fc
0f
f0
12
16
f8
07
00
f7
0a
fa
f4
d2
fc
16
ff
17
00
1d
0d
1f
eb
08
ea
09
19
fa
03
16
0b
12
dc
f6
dc
0a
11
00
0c
f0
fb
ff
04
16
eb
f5
04
e6
13
e8
20
1a
de
06
17
19
08
2b
f9
f5
03
ea
ea
ed
f6
f7
e9
f2
e5
ea
01
ff
f2
05
16
0e
f4
20
04
0b
f3
ee
03
c4
fa
01
fb
12
ff
f6
05
1f
0d
07
f2
f8
fc
08
f4
16
04
0c
09
e1
e8
07
05
e6
27
08
16
f7
c6
f7
0d
e2
f0
f7
06
0a
0c
dc
f5
2b
d7
1b
07
ff
f1
f0
0a
07
ed
d7
00
e8
14
ef
d3
f6
f7
18
cf
04
10
d8
e5
f5
28
f0
01
f9
05
f4
0c
c9
f1
03
17
ca
08
fb
10
0f
e9
ff
08
19
12
11
fc
d7
d7
08
0c
ec
f7
09
e7
dc
e0
ef
ea
e9
01
17
05
fb
12
fb
13
fe
22
14
05
e1
03
fc
fc
e7
1f
0a
07
d0
ec
e5
16
17
f1
ed
e6
f9
f9
13
17
e4
f7
f2
fe
f1
03
f1
07
16
18
fd
f3
fc
01
40
f1
f5
fd
f0
f5
08
ff
e8
e6
19
01
03
00
09
cc
e4
00
f8
e8
02
f5
da
22
0e
05
dc
f6
f5
f6
01
f9
f9
fd
dd
ed
03
07
fd
06
0e
1b
03
f8
1e
ff
08
0a
26
27
03
fa
de
06
fe
de
d3
1b
fd
ea
f0
fc
08
f9
0d
e7
c0
fc
f3
09
ed
00
f8
d4
17
e7
f1
f9
0c
e4
13
dc
27
0c
06
0f
e6
e7
0d
e0
fc
ff
fd
02
f5
10
1f
08
0d
e6
0e
11
fb
0c
e6
fd
18
fd
02
ef
ff
03
18
00
10
0c
d3
e8
dc
14
e9
fa
d4
2f
1d
e8
08
0d
f6
33
f9
13
ee
00
15
01
09
f3
18
0d
1c
e1
06
0d
fa
e2
01
e0
05
dc
e7
c6
0f
34
1c
e8
f4
18
ea
f1
1d
ed
f1
e5
04
d8
f7
06
05
f5
2c
0b
03
d7
05
18
05
e6
fb
f2
0b
02
ef
f6
03
fa
04
e8
ee
06
dc
fe
dd
f9
12
f8
f7
fd
f0
1a
ee
15
e7
ce
0d
f6
03
fd
0e
d6
f4
d3
04
fe
11
14
0f
0f
12
04
00
ef
f9
0d
0a
db
ee
dc
e1
e8
fc
fa
06
de
16
0e
0f
06
20
09
f7
f3
1e
06
14
06
08
f0
34
05
11
0e
df
1f
1c
13
f0
ed
e8
06
13
fc
0f
f2
f3
e1
14
eb
f1
fa
fe
16
e2
d8
15
1d
0f
1d
04
01
ee
e8
e2
f5
f2
f4
e8
1c
d8
17
f5
f9
ec
07
23
eb
fe
13
0d
03
f0
f7
05
e2
02
d6
05
fc
0b
f8
2a
f3
00
13
f2
08
04
00
ed
f9
f9
d8
10
fd
f7
15
0b
e8
ea
ef
d7
07
11
0a
fa
00
02
06
f4
25
17
e9
e4
ff
ef
e8
fb
02
f9
07
12
e6
0f
fe
22
e1
fb
10
10
01
fe
12
e9
ec
fa
e7
ed
f3
f3
0d
ec
e5
0d
ef
0f
33
e5
0a
02
0e
f3
f4
f4
00
04
04
f8
f7
f4
02
fa
10
f4
e1
10
f1
14
23
fa
29
0d
03
d7
04
33
1f
02
ef
f0
f0
e5
03
1b
23
ed
04
fb
f6
00
1d
18
e9
08
0f
e7
0a
11
d4
05
ff
dc
d0
1d
0c
05
11
f6
ee
0a
03
f4
01
17
ec
ff
09
e6
13
13
13
ee
fb
ff
0e
04
ef
0b
df
d9
e0
15
e4
da
02
06
e0
07
f6
ed
ee
0b
f1
fb
14
fa
f0
15
0d
1a
04
f7
dc
f7
ff
11
02
ef
08
ff
00
e6
03
f0
0b
1c
05
0f
ec
ff
09
0b
0e
10
14
0e
f6
01
fe
ff
f3
0a
15
04
fa
f9
08
f2
e0
fb
e4
f0
f4
0c
fb
fd
ff
19
15
23
0c
00
03
22
07
ef
f0
25
05
0b
1d
ff
e4
e0
fc
fe
07
17
ee
1f
0a
e6
0a
1c
f5
f9
f1
f3
fc
21
0a
24
13
01
ff
ed
f5
f9
f8
47
08
04
fd
10
d8
12
2e
04
0a
24
05
18
ee
1c
e3
fa
eb
e5
14
02
1b
e3
e6
fd
13
e5
0e
e5
00
2f
fd
f4
eb
ec
24
1c
f5
01
ea
01
1e
f4
ff
dd
f1
f8
1b
0f
17
f7
08
41
ed
e7
06
12
07
eb
e5
ef
d6
09
14
f1
35
26
ee
e4
e9
04
e9
fa
0b
02
ff
df
ff
18
27
fa
26
fe
e4
fc
0a
dd
0b
ff
26
14
12
e9
f5
2c
0d
18
ef
00
fd
f7
f8
fe
0b
10
fd
10
f6
f0
1a
f1
07
1d
03
0a
08
05
ff
fc
09
f9
13
0c
fc
f3
ec
02
02
0b
ed
0e
0a
f3
02
f9
0d
f2
1a
1d
f7
f1
15
05
f4
fb
0c
fe
e5
e0
0f
fb
e4
04
fd
e7
fc
26
bc
0a
00
0c
f7
23
06
11
01
12
3a
06
ee
f8
fa
22
dd
17
25
f2
1b
1f
0b
d8
e0
ec
fe
f8
26
eb
17
1d
1f
07
e9
e3
2f
36
15
10
ef
fa
19
09
21
06
17
0c
fe
01
11
30
0f
04
e9
17
08
0c
21
13
02
06
0e
e2
0a
e7
f4
08
06
1d
f1
e5
04
31
fd
ec
00
e8
04
50
f2
08
ed
01
18
f8
eb
e0
06
01
ea
ff
fd
29
cd
16
0d
3e
f3
2e
ea
f2
f8
11
f7
07
0a
02
1f
fa
1b
f8
17
fe
fd
fc
f4
f6
fa
10
f3
04
ff
14
f5
fc
d3
53
e1
19
0c
0f
e5
dc
05
09
f4
1a
06
26
37
1e
21
1e
f2
ff
fd
0a
19
04
ff
f4
ec
18
14
c7
fd
fc
f3
0d
1d
f9
20
0d
06
e1
0c
04
d7
02
01
06
fe
0e
f2
28
16
22
03
03
f4
fb
00
2c
ee
f2
e2
07
ee
f1
f5
dc
03
ee
1d
e1
1b
14
07
0b
32
1b
e1
0a
04
00
f8
fb
05
ef
f5
02
f8
cb
0e
f5
f8
f8
07
09
16
f6
45
e7
fe
1b
0e
0d
f9
ee
0f
f9
1f
fb
24
f3
e9
e3
ee
06
fd
1f
05
25
10
17
1f
00
04
f1
f1
fd
18
14
00
e3
28
10
0d
0f
fb
f8
0d
0a
ff
f6
ec
e5
da
12
ed
17
fd
ec
eb
17
fd
0d
e4
02
f5
20
3c
04
de
0c
06
11
23
e8
09
d0
ef
fd
ec
e1
0e
df
d4
ee
13
fe
0d
f3
ff
f6
16
ec
03
1e
f8
ff
0a
0f
fd
f4
07
df
05
23
f6
20
18
06
f8
15
ee
fb
0c
01
e9
20
ff
d7
ee
01
06
1b
0a
f6
04
ff
d5
28
fe
08
02
0b
12
ff
ea
02
0a
0c
ff
ed
28
fe
0c
06
06
08
fb
28
05
f0
07
06
eb
f7
18
fc
3e
09
21
08
f0
e0
0b
f2
00
e3
18
0b
2d
17
08
13
0f
18
0a
e1
1d
2c
02
fd
05
2f
07
14
2a
da
f4
f8
e7
29
d4
fc
08
e6
fc
03
f1
03
22
ea
f1
f2
e0
f1
1a
fe
15
1c
00
fe
f3
13
ee
f6
e3
f9
fe
0b
01
e2
20
ec
1b
07
16
f2
05
f6
02
ff
f0
08
0d
0b
f9
0a
12
19
28
04
07
07
00
ef
eb
1b
50
f6
0f
ea
1e
f0
fd
ee
f8
00
14
0e
1b
02
e7
0e
17
e2
fe
e6
f5
df
f2
e6
16
14
fa
0b
f0
07
1a
e0
f7
eb
0b
36
11
14
f5
21
ef
d9
20
1e
e1
fa
ed
0f
11
0f
e2
fc
f5
fd
13
f6
ee
04
1a
10
fd
10
1f
f5
f6
00
e0
0e
31
0a
05
e9
06
fd
f2
16
20
26
e1
f0
d4
02
14
2b
fa
fa
1b
18
00
f4
0e
07
0a
f4
11
35
2f
d6
f6
14
f0
29
ff
e8
07
12
35
35
00
f8
f2
0b
21
07
e7
ec
d9
0b
f6
0a
1a
0b
1c
0e
22
1e
00
2c
f7
f3
ea
ee
fa
eb
ee
0b
dd
11
f9
3c
f5
e9
0f
fa
f5
2f
f7
0f
ea
34
fb
e9
11
ef
e4
f6
fc
f8
17
02
03
fa
ee
11
ff
10
1b
d4
1c
ff
0e
06
f8
22
25
07
de
fc
08
ee
d3
05
d5
0b
2c
f3
1c
02
0d
f4
b6
11
1a
18
12
27
db
02
b7
e9
f0
21
06
11
04
fb
11
f2
0a
01
0f
13
f5
1a
0e
10
02
11
17
f5
e7
2e
21
ba
12
f6
03
1c
10
f3
fc
fc
0b
02
f4
fc
06
10
1a
02
e7
18
08
17
18
fc
0b
27
0e
15
2a
fa
f5
f9
f9
d5
e6
05
ed
de
06
d1
07
13
19
f4
03
f8
20
0f
eb
0f
e0
e2
f3
dd
18
17
09
09
0b
0d
03
04
15
01
12
fa
1c
df
ec
e9
12
00
e9
01
f1
fd
f3
eb
08
0b
f4
fc
26
1b
0c
03
fb
f6
f4
f0
dc
ff
f5
eb
09
12
26
f1
22
ff
3c
e2
05
06
09
35
15
0c
02
0a
d1
02
fe
f2
1d
fb
31
10
02
17
05
06
0b
12
fe
f0
df
29
0b
ec
07
08
03
0e
00
18
09
00
cc
f1
1a
1d
0a
0e
22
04
f1
1d
10
1e
1e
19
f4
09
03
19
eb
01
dd
ec
ef
f6
d5
0a
f0
1b
f4
0c
15
d9
f7
20
24
f2
e5
0b
32
de
f0
e8
38
fd
03
f4
ff
04
03
e7
2b
ff
1a
03
01
f6
fb
04
09
1d
04
05
f0
1c
fc
f4
2d
0a
ff
f5
02
e2
f9
d9
f2
0c
ef
02
f3
2c
fe
f5
2c
fa
0e
fe
d8
02
06
0d
23
0f
e9
fd
04
ef
11
f5
f2
23
29
05
11
ed
06
19
f3
f3
17
09
f8
0a
21
3b
06
f3
df
fc
21
ee
f9
f9
f3
0c
ff
fc
f9
ea
1c
fc
09
0f
2c
12
e0
d4
e1
26
02
0c
0a
e7
10
da
f4
10
1e
19
00
06
f6
e4
1e
e6
00
fc
3b
04
e8
e9
e0
1b
fc
f9
fc
0c
09
00
ff
14
fe
09
da
ee
34
09
06
05
e3
f4
0c
1c
18
09
1c
ec
f7
eb
fd
f3
f9
08
fc
1e
0a
df
ff
f5
de
f4
2c
e1
f5
08
03
1c
1a
0c
f2
0e
0b
15
12
ef
d6
ee
0e
11
0d
1b
01
09
22
de
17
08
07
08
15
0e
0c
06
f3
0f
0c
24
03
15
f2
ed
fd
fa
ff
2d
22
0e
f7
2b
21
07
0a
ee
1a
0d
eb
ec
02
fb
f5
2a
0b
00
f0
10
0e
20
12
fb
e0
ec
e7
f9
02
18
ed
19
25
09
05
f5
2d
11
fa
09
1d
fb
0c
3a
0c
fd
03
dd
0e
15
fe
fa
25
00
19
f9
fc
f3
f9
13
03
29
08
fb
11
fe
16
16
eb
df
0f
fe
3e
0c
05
13
10
13
f4
ff
30
03
15
1b
10
e7
ea
f0
19
f0
20
05
26
21
04
1c
ec
e5
03
f0
d5
2e
14
07
17
16
f4
26
33
15
21
04
13
fd
0e
28
19
ca
fb
0f
05
02
f8
fa
2e
0c
17
11
07
24
11
2d
d2
0c
08
0c
ee
e9
fd
24
04
11
f7
e7
ef
fc
f1
3e
0b
e6
00
fd
f7
06
2a
0f
1e
1f
fb
03
ff
0d
ff
12
ed
0c
ef
04
1c
eb
0e
1a
e9
f7
e7
0c
ff
fc
e0
fd
24
06
fd
f5
02
fa
13
1a
0d
30
39
fe
d4
fa
f4
e8
fc
f9
03
06
dc
ff
f0
08
0f
19
f6
f7
06
f1
df
07
f2
ff
33
1e
fb
1d
08
fc
f5
09
e6
fd
00
1b
0f
fb
f8
10
01
21
fa
18
05
04
fd
e7
10
fb
02
14
12
1e
0d
0b
f5
19
1b
3e
ee
fc
d8
03
14
e0
16
09
f6
ec
14
0f
cf
09
f6
de
0f
0a
d3
08
32
f9
3f
0f
17
ef
04
28
09
34
05
17
08
22
06
10
10
02
f2
24
29
26
d8
11
15
00
e9
06
ea
f0
2e
09
1c
0c
e1
08
e3
fb
fb
25
fe
fc
0e
2f
18
0a
25
f2
1f
31
f1
13
02
ed
01
12
06
05
1b
14
06
1a
1a
0f
03
f7
f3
0f
0e
03
20
ed
02
0d
07
14
06
f7
21
d3
24
fb
22
ff
e3
0f
05
e6
ee
cb
24
0e
0b
eb
fc
fa
38
19
ef
ea
07
e6
09
09
e1
db
ff
02
ff
0e
0f
0c
12
d7
ef
f2
15
0a
f5
1e
f4
0f
d8
0b
04
21
dc
15
03
10
0f
ec
fe
f4
2d
2e
d2
01
09
2d
ce
e9
ee
17
0a
e8
16
1e
0f
09
13
0f
f9
2d
fa
13
2d
ec
04
1a
fb
f3
0b
27
20
d0
ef
f8
0e
21
07
e0
06
09
e8
ff
db
22
33
ea
da
17
ef
f4
10
02
05
0c
f5
f7
fa
fe
eb
fa
17
04
f4
06
df
f7
0f
0e
17
f1
df
f7
d9
e9
0f
d3
04
ee
15
e1
fa
fa
f5
ed
0e
06
20
17
3b
06
0d
2f
41
1d
f2
e9
02
0d
f2
f6
13
e9
03
cf
42
02
01
08
f2
12
37
03
25
2b
02
f9
0d
e8
0a
00
f3
e5
15
39
21
e4
13
05
12
f3
15
0d
ee
0c
f1
0a
2b
1c
fa
12
09
03
f8
ec
df
07
20
fb
fc
00
3d
f4
de
08
08
0e
06
26
07
fc
f1
fb
f2
1b
14
02
02
08
1b
1c
da
26
09
0c
00
13
06
1f
04
25
07
d4
fc
1c
01
07
ec
f7
18
e2
16
e8
12
09
08
e2
f7
ea
1b
ff
ff
29
f9
fe
37
12
26
11
fc
06
ea
f4
21
0a
09
f7
00
eb
1e
13
03
06
e4
fe
0c
0c
e0
03
08
e5
41
f1
22
0b
d8
0d
ee
33
19
e6
ec
16
04
ea
24
14
dc
1b
f1
0f
19
2b
fa
2a
27
06
1a
fe
21
d6
1e
19
13
d6
0e
0c
f4
13
eb
21
20
0c
05
15
37
1e
f5
02
1f
0d
02
ca
09
f9
e0
13
fb
fd
0e
11
13
14
e2
1d
f5
f8
1b
14
e8
f4
e8
eb
f5
08
fd
08
ff
ef
17
09
08
02
fd
03
3e
25
fb
02
18
18
14
1e
f3
02
0a
f7
17
06
e7
0f
f5
12
12
1f
0c
f7
06
1f
f8
19
1d
fd
12
08
ef
12
f1
f7
32
01
21
f6
e1
0e
1e
0c
ed
fe
04
09
dc
28
f3
12
06
f5
00
09
d8
fe
19
f6
05
f5
fa
bf
04
00
04
32
fb
07
fc
fe
0e
02
2c
dc
02
06
db
06
13
c4
f8
f9
27
02
1c
0c
f9
ef
0a
f6
0d
24
0e
fd
10
fc
21
f2
f0
e0
14
13
dc
0b
f2
1c
13
fc
28
d2
05
f7
07
00
21
13
0d
30
de
e0
02
3d
dc
f5
07
12
05
1a
01
18
05
f5
d1
1a
f5
fc
20
fc
23
f1
12
20
13
f5
e0
d1
13
02
df
1b
ff
e3
00
26
19
13
0b
f2
18
0a
ee
ed
0d
19
18
11
04
f8
00
ec
2e
10
11
39
38
1a
13
21
f5
f0
22
0e
f8
f2
fb
10
f0
12
f0
0a
15
f5
f8
0c
f5
39
ff
13
02
2d
fc
2f
1a
0b
f5
19
18
0d
10
29
24
04
1a
19
25
22
f0
0c
e5
11
13
08
e5
2b
0e
ef
02
1c
26
d6
ea
1a
32
ee
f1
f6
1d
19
f1
e9
f5
0e
09
15
07
f2
18
f8
18
03
04
12
23
ff
2b
1b
ea
1f
eb
08
e7
03
dd
0c
ec
e5
0e
0e
e5
1a
16
14
27
f3
12
08
13
ec
ee
02
ff
22
04
01
f8
e4
0e
fc
e7
29
28
09
02
fe
ee
0b
0d
e4
13
d6
1b
09
21
e7
32
1b
04
23
14
1f
15
03
18
52
2b
de
47
04
1e
12
f1
0d
2c
0d
fd
29
0b
4b
fb
01
00
db
1a
04
07
19
e8
e8
0d
e5
fd
02
25
1c
05
30
0d
e0
e7
e9
21
dd
f4
ec
b3
ef
01
0a
ee
e7
08
fe
0c
0c
22
0c
18
ed
03
f4
0d
2a
2a
f0
02
f2
03
09
04
f3
02
d4
16
0e
e9
fb
24
f1
fb
fb
1e
dd
26
f5
f1
1f
df
37
22
20
11
db
dc
12
02
0e
0b
3a
eb
ee
03
01
04
28
05
09
f9
16
08
0a
16
05
15
0d
f7
11
09
f1
0c
06
fe
f5
2f
15
bc
f3
f7
2f
0e
ff
0b
01
fb
f0
10
fa
12
0d
fe
0a
fe
07
f3
15
1e
12
0a
16
33
1a
13
da
09
10
f2
19
12
f9
ca
fc
16
1e
fb
e6
13
04
0f
05
ee
13
18
1c
fe
17
ed
38
13
ff
fa
10
e9
1a
1a
f8
09
09
fc
13
e9
d9
06
05
01
12
f2
08
1e
0e
06
1a
f2
f1
f7
05
ec
06
1f
fb
e8
f8
25
e5
06
0f
fa
ee
0b
03
06
1c
1b
f7
14
fe
29
ff
e3
00
13
07
f9
f3
f7
18
1c
e1
ed
08
14
f9
0b
e3
13
dd
0d
dc
f4
fd
14
f6
eb
05
1a
ef
0f
13
0b
f6
10
ef
fb
d8
0e
e9
d8
fe
f3
f1
0f
f8
dd
ea
18
fb
01
01
f7
fa
d6
00
f1
fe
00
09
05
0d
f4
04
13
03
05
db
12
cf
1a
05
fd
eb
f4
f1
17
f9
f6
15
ed
02
f2
e8
d8
f9
de
e0
f7
f3
fc
02
1b
f4
15
f3
fd
01
d8
03
13
e8
f8
0a
f4
f2
fd
f9
e5
f8
e0
e6
fa
04
09
00
13
ee
07
f1
11
1c
0e
eb
fe
0b
ee
0e
ee
15
eb
fc
f8
f8
fd
f3
05
f2
d3
0f
10
f3
fe
03
e8
f2
1a
03
da
07
f5
fb
01
f9
06
2a
fa
e8
ec
dc
f4
00
fa
fc
03
03
e6
01
05
e6
1a
fb
1e
ff
e4
ee
fc
da
03
0e
04
28
f0
07
1d
02
1d
06
e9
f6
e2
e0
ed
de
fa
12
ff
f1
03
0b
29
f6
07
04
f6
0d
e7
ed
f1
d7
ea
04
f8
f9
03
c9
f6
18
ee
03
df
ed
16
e7
05
12
17
14
f0
f1
f2
02
f8
1b
f3
f3
00
eb
f6
fc
30
1a
db
ec
0e
0e
f8
0f
e6
e1
0c
07
ec
fd
dc
04
d2
ed
f8
e1
0a
f3
d6
21
ea
e9
02
00
db
d5
17
07
25
fa
e5
ea
f2
eb
f4
fc
f3
f0
f7
00
fc
e7
ce
06
f5
0d
f6
e9
e7
fd
da
eb
06
ef
ff
f8
e9
00
13
21
f1
f9
f5
e1
0f
0c
e3
35
f3
1e
07
0b
04
f8
f7
0d
15
fc
0e
07
13
20
1e
0c
13
f1
18
d0
e9
01
d8
ec
f9
e2
16
ea
26
fb
1e
0f
e1
0b
f7
fa
db
00
f5
fe
f6
02
14
e4
0c
00
ee
fd
fd
22
db
05
05
fb
f7
ee
19
12
fe
f1
e0
f7
fe
f0
db
05
d5
cb
00
0b
f6
de
06
03
f2
0b
03
08
0b
ee
1c
04
0e
f9
de
df
17
0e
0d
fc
10
e9
ff
00
34
f7
23
f1
f6
e5
0d
f1
f4
04
dd
e9
1c
ef
fe
e8
14
10
f8
07
1c
11
e0
f0
fb
fe
01
08
e4
f9
30
06
eb
ff
e9
fd
e5
25
f5
0b
01
06
ef
ce
ed
17
0f
e8
c7
f2
01
37
d6
f8
e0
f3
0d
15
f6
06
01
eb
15
e8
f7
db
0a
01
0a
12
01
eb
0d
07
00
f6
fc
fc
d7
fe
e4
0d
19
f3
f6
fd
da
c4
da
f5
e7
13
15
f7
10
07
02
0d
ec
17
08
19
21
e9
1e
12
0d
fd
d7
fe
f7
00
1c
ff
ec
ec
e6
15
e2
01
ed
0a
12
fe
f6
d9
0e
f2
fa
10
15
fa
0b
e9
0c
fd
ff
e1
f5
f8
00
01
00
f7
08
0a
e6
fe
e6
f5
fc
fa
00
10
18
0e
e9
17
07
e1
ea
08
f1
fa
e5
1a
eb
f8
fe
01
f4
f5
07
0c
01
0f
e2
03
e0
fc
eb
fd
02
e6
f8
e8
05
d3
ec
0d
02
ff
fd
fe
ee
02
e3
00
f9
08
10
06
0d
f8
ed
23
06
14
ee
fa
0e
0f
fe
02
f8
2b
f7
d7
1a
fe
06
02
f2
f0
0a
f3
10
fa
dc
10
fc
10
fd
14
f5
1b
07
fc
09
f8
f9
d3
d1
f9
04
0c
14
10
e4
ea
f9
f7
03
0b
0c
00
f0
ed
19
d4
0a
0f
ec
ee
02
ed
f4
ef
f9
f8
db
fc
fb
e3
07
0c
e2
e4
13
de
1b
e9
06
fa
f8
08
e5
e9
05
ef
fa
0a
00
04
00
12
01
19
08
13
09
f7
fd
17
e6
cf
01
d3
fe
09
f4
fd
fc
f0
0e
0b
e6
fd
14
0b
03
ff
f0
04
e6
22
ed
e6
eb
10
f8
ef
11
08
c8
0e
ff
24
ff
ef
24
10
04
f2
e3
04
07
fc
ef
34
0a
e8
f5
fc
0f
eb
10
00
16
fa
08
11
e1
f5
02
fb
d9
ee
fb
21
0d
fa
f4
fd
13
ef
0d
1b
e9
e3
ea
25
e2
ee
df
03
f6
e5
12
e7
10
07
14
e9
fc
f4
2d
e6
f1
cd
00
fe
0b
ff
e3
00
fe
f6
06
11
03
03
f5
1a
24
ff
f7
1e
fc
ea
00
f2
00
09
05
e9
e8
0c
ea
f8
09
e0
0a
10
e6
2a
fc
e0
10
f8
12
f2
db
fc
09
fa
03
22
0e
1d
e9
ff
ee
f7
15
ec
06
14
f9
01
eb
ed
f9
f9
16
0f
f3
06
de
f1
19
f6
ed
e1
07
08
22
fa
17
0b
d8
ee
f9
09
01
f7
00
1a
0b
e3
e9
15
d7
dd
01
00
19
f8
03
ea
07
11
ec
ea
0d
fe
16
fc
e1
11
ee
1d
ea
ed
08
1a
f2
08
e8
fe
09
e6
08
e7
11
11
11
f8
ef
fa
e8
fd
03
0c
07
eb
10
18
ea
16
fc
ee
16
f7
e5
16
fe
18
e2
04
13
04
dc
2c
e6
19
e6
d4
ee
21
16
fe
ed
dd
10
ea
e5
08
fc
f1
20
e6
f9
03
f8
f9
ec
ee
f6
df
01
ef
0e
ff
fd
1d
e5
e9
fd
0e
da
20
1c
e4
f5
f4
05
ef
fc
00
15
0f
c8
f3
04
f6
e4
fb
18
04
fc
fb
1a
09
ea
0b
fa
fe
11
e6
ed
05
09
05
e6
05
f6
0c
11
e2
f5
0d
ee
e6
00
29
f3
e7
e8
eb
f8
03
f5
fe
f5
04
ef
08
20
12
f8
24
dc
f3
e7
e5
ed
02
e6
16
ff
ea
ff
de
06
ef
e3
e3
10
e6
04
02
01
e5
03
0b
e0
0d
f2
11
0a
fe
09
ee
04
03
f3
f8
df
00
0c
e6
f3
f4
05
db
e1
e7
0d
fe
05
e8
0c
ea
fb
f3
03
f7
0a
fc
0c
0c
06
fb
f7
07
ee
e4
1e
0d
11
11
f7
e5
f6
ed
06
21
f9
f4
fd
e4
1f
fe
e9
02
f6
fb
06
0e
e4
f6
08
ea
f4
08
f5
eb
42
e1
da
f7
f3
11
f4
fc
2f
08
0b
f3
18
03
19
20
16
10
ea
f4
d3
e6
17
ed
f0
fe
fa
0c
c5
12
ed
15
ef
0c
0d
0a
fe
dc
dc
21
05
fb
00
01
0d
cc
f6
16
fa
fa
fe
09
07
e9
ec
09
ed
fb
16
03
12
f2
f9
15
0b
1d
01
f4
fb
dd
03
1b
fe
0c
21
04
ed
f7
f6
d9
08
02
e4
16
1a
dc
e1
e5
10
fd
01
09
28
e9
de
0c
f8
f1
11
ee
f4
f6
e4
ff
dc
f0
09
ff
15
f4
f6
de
ed
f7
00
06
02
e8
f4
fb
03
fd
09
fc
07
e4
db
13
0f
f9
13
fb
fa
06
13
ea
f6
f3
fa
11
0c
0a
03
e9
fc
f2
f3
0c
00
09
f5
21
05
e8
fb
0d
0c
24
0c
e2
0e
fe
fc
21
fa
ff
0d
ff
ef
e7
0f
f8
f1
e8
f0
e9
d8
10
0c
10
ff
ea
ff
1b
1c
fb
dc
ec
0e
00
01
fc
08
f1
0f
f9
f5
eb
ea
00
12
d9
09
fa
e7
04
06
fe
06
0a
dc
17
1c
ec
19
ce
0d
cd
02
17
10
07
dc
c1
f9
1f
f6
e6
f7
e2
ed
04
ef
0b
f7
04
ee
f9
e4
09
00
0e
e8
da
e9
d6
06
01
0c
04
f6
30
21
18
20
fc
f7
ec
fe
e8
f5
eb
ef
fb
fc
ee
f0
f5
fb
01
ef
10
fb
08
f3
dd
f3
e1
1a
d7
00
1c
03
0f
0b
e4
03
ee
f4
ea
0c
13
20
03
fd
f4
f1
ea
ec
ec
ef
e7
e8
26
09
f0
f2
ff
09
ed
e9
11
fe
0f
f7
28
f5
0a
01
f5
da
15
1c
f7
0d
1d
1e
ed
25
ee
f7
e8
c9
f1
f1
e2
eb
0e
0a
fe
f7
f1
d6
f7
fa
22
1a
17
f4
18
1b
fe
ff
f4
fe
f5
02
2d
f6
d0
13
18
0e
dd
11
e5
da
eb
04
e2
fa
fb
10
fb
f6
05
fc
10
f9
ed
0d
0b
04
0a
ff
14
19
df
f7
12
eb
0c
16
e5
fa
13
1f
19
0c
07
fb
d4
f2
f7
14
04
f5
ec
f7
02
0a
e5
e2
02
06
df
12
f7
d9
de
ed
ff
f3
f3
1e
f9
05
0c
f1
04
03
06
fd
d7
ff
f6
12
f4
03
fc
ea
26
f3
e8
06
f0
06
15
12
e0
f9
0e
10
d7
0c
13
13
f8
e1
e4
fe
d8
e9
f2
22
d2
f0
e1
f7
ec
0b
1e
e8
f0
ed
1d
10
1f
ec
da
ec
df
ec
01
00
09
0c
2b
e2
0d
02
24
f7
13
03
f1
f3
e8
de
f1
de
08
e8
ed
c1
10
16
0c
fb
e1
fe
db
de
12
04
d9
dd
09
dd
ff
e9
ff
1d
d3
ff
ee
d9
d0
09
38
f8
08
dc
f0
f6
f2
e7
f3
fd
fc
0c
00
e0
21
09
f5
dc
e5
0a
03
1d
eb
e8
09
09
02
1f
f4
05
0a
f9
10
04
ea
f3
fc
06
1e
d8
ed
02
f8
f5
fb
ed
e1
12
e6
d9
e7
0b
06
fe
17
1b
da
e8
fd
e7
3c
0d
da
df
fd
fa
01
0f
0f
03
f1
f2
12
f9
dc
ee
d7
0a
15
ed
fa
03
d9
e8
18
dc
e3
02
19
08
eb
ff
0a
f1
e2
db
cb
eb
f9
04
20
0e
0b
15
d1
1d
f6
e8
ed
fd
ff
0b
eb
eb
fe
0a
00
00
ff
18
ed
f1
ea
07
0c
f1
23
d3
03
f3
eb
1f
db
d9
dc
09
fb
23
dc
f5
13
f4
ea
eb
f2
0b
13
f3
01
ed
e5
fb
10
e9
db
f8
1d
f9
f8
0f
1a
fa
24
02
ec
2b
0f
03
08
10
d9
15
06
ef
fd
0c
eb
ea
05
fb
17
01
f9
19
f0
ff
ef
fa
c8
fa
0a
06
f3
35
d7
d5
ef
10
fc
19
03
fa
08
02
0e
ff
d2
fd
fb
10
1c
12
05
f5
fc
fd
2c
05
f7
d1
f8
e8
10
17
f9
f5
ea
f4
fc
ee
f8
ec
e3
f3
02
19
08
fa
c9
fc
0b
1a
e1
e8
d6
1a
f7
f9
da
d8
e0
da
ed
1c
14
e4
eb
f7
17
0c
09
1d
de
08
d7
22
09
02
f4
e8
d0
e9
e1
17
d6
06
02
05
f3
dd
09
e7
dc
f8
06
e7
f1
fb
19
fd
de
fa
e8
00
f8
f2
f9
09
cc
0c
09
da
ee
cc
fb
eb
f8
06
e3
fd
fc
04
e3
f2
fb
f2
04
f6
12
c8
e8
01
16
fe
f0
ce
0a
04
f0
05
e4
1d
15
06
ea
14
f7
16
fe
11
03
1f
ec
03
f2
13
e6
e1
f4
fc
fb
2e
00
fe
07
ee
e6
ee
05
09
04
da
db
e7
1f
1b
fb
f6
f8
f4
f6
08
f8
de
ef
e9
00
16
e4
e9
0d
fb
f2
e2
08
0a
eb
fa
ee
19
e7
01
09
e6
d5
d9
ee
f5
eb
f7
0b
d4
04
f8
0b
35
06
13
ec
1f
ef
f8
14
09
f3
c7
e8
1a
e5
d9
fb
1a
16
ea
eb
f1
20
1f
f8
f8
1e
ca
fd
d8
fd
04
1c
10
f4
f8
09
e7
05
f3
f0
e5
fd
f3
03
19
08
f2
f0
d2
04
f2
1c
f6
f7
fe
10
e9
07
e6
f5
10
ee
e9
f8
e7
ed
f2
fb
27
2e
17
ef
e9
f3
04
e6
ee
e1
21
11
15
ef
20
ff
f5
2f
f2
0f
d5
15
d1
ff
fc
da
2a
f0
17
21
da
e9
d0
12
fc
f4
f6
dd
14
f1
18
f1
0a
e2
eb
fc
ea
fb
09
25
f6
0f
eb
e0
04
05
eb
02
fc
05
fc
dd
15
e7
f3
04
0d
e0
dc
e9
eb
ec
ee
24
f8
e5
00
f3
f6
f4
0d
f9
33
dd
1a
dd
1e
f6
ef
f8
f9
05
1d
36
ea
f3
23
f2
0b
e4
de
0e
00
f1
e6
f3
02
f7
03
e9
0d
f2
0c
07
df
e5
08
e7
dd
09
24
ee
02
03
fa
eb
fd
e7
f1
08
04
e7
d5
0b
e6
f4
0b
fb
e4
d7
1a
11
0e
0a
e0
fc
1e
f3
f1
13
05
15
0d
19
05
f1
ef
02
f7
f0
0b
f6
14
f8
01
08
e3
ff
f0
0c
04
f6
fc
18
f8
0c
f2
f8
f6
37
14
03
f0
fd
f0
10
fc
fb
eb
0c
1a
f2
ee
03
04
00
eb
e6
22
1a
e2
ff
ff
eb
f0
0d
0f
e3
ed
17
fc
ff
f3
1a
10
e9
fd
de
11
f0
f9
f8
08
01
ca
0b
d0
e0
02
d7
02
1d
f6
d3
fe
ff
0f
12
fd
0a
ed
03
e4
f7
14
02
e2
0a
de
de
eb
07
fc
ed
f8
03
05
e8
01
f4
f5
f6
02
04
d9
05
ff
dd
e9
09
0d
21
ed
fd
18
e5
e8
06
fd
0c
f1
f5
ee
2f
dc
f4
dd
0f
fd
eb
19
e3
02
d5
01
02
24
dd
05
07
12
f4
14
0c
0e
ef
ed
fb
f4
ff
f1
dd
e3
0e
f5
03
e0
da
d3
f2
fe
1a
1c
e5
f8
f2
06
f0
2f
f6
eb
0a
e2
fb
f7
11
ef
ec
ce
11
23
e8
10
f7
2a
25
f1
fc
dd
fa
fd
0b
e0
ef
ee
e8
f4
04
04
22
ec
0a
09
06
00
d4
00
e4
1d
f4
f7
f3
08
40
ef
01
26
06
0c
e7
08
03
ff
07
da
26
10
d9
e0
d8
0e
01
e5
06
02
dd
1c
ff
14
f0
0c
e9
ec
1a
09
ec
c7
0d
e4
f7
0e
ce
0c
f3
f2
f8
e3
ed
e3
fc
f5
f8
09
eb
f5
e7
0c
df
eb
d5
07
fa
00
f2
15
d7
0e
e8
e7
f1
e9
f9
f7
06
14
f4
f1
09
03
11
10
07
f8
0d
ec
fa
08
06
21
f7
08
ec
01
0e
01
df
ee
fe
fb
0f
f7
e6
f5
e1
bc
d4
15
e6
f6
fa
1e
12
e4
ec
1d
02
16
fc
0d
09
1e
15
f0
01
17
06
0a
0a
1d
f8
01
f3
0c
0d
f8
fd
07
da
fd
1a
28
0c
04
fe
0e
e6
f5
f0
16
1f
23
f8
ee
13
02
ff
f3
02
f6
10
08
1b
f3
fd
0f
fd
ff
e1
f1
11
07
16
19
ef
e5
19
29
02
e4
de
07
04
f1
13
00
17
03
de
e5
13
06
16
17
14
01
eb
e4
ff
22
0d
0d
fc
02
fa
e3
c9
de
0f
ea
12
da
10
0b
20
f8
03
e5
e5
f6
fb
25
07
2c
f4
07
fe
eb
fc
df
16
15
03
0b
0b
ec
35
e4
e0
3b
1d
05
fb
d0
fe
01
f6
15
f0
f3
fe
11
0d
f0
1f
d9
f3
f6
11
0c
e3
0d
09
06
f2
ee
fe
f2
19
e6
e8
fc
ed
16
e9
14
19
f5
1c
18
13
05
f7
21
19
e9
f2
fd
06
fb
f5
1f
04
12
1d
15
e5
f8
0f
fc
fd
1d
e4
f3
04
11
e5
e1
08
f9
03
17
f2
ff
e5
1d
e1
08
23
03
0b
1a
0e
0d
00
12
04
05
e0
35
24
09
fd
19
1e
2b
e2
05
e4
01
ea
ed
fb
f5
eb
05
10
ee
06
08
16
f8
01
fa
fa
07
1c
08
1f
db
13
f3
1a
ee
10
09
e9
df
0f
01
f1
10
d7
e2
13
14
fe
f2
02
e8
d7
02
f7
fb
fa
10
e6
09
24
22
1f
cc
27
d7
f6
24
23
d8
0f
19
e5
ed
e7
0d
04
fe
eb
e6
ee
f1
09
d3
f0
f7
e6
02
d3
fe
fd
da
e6
08
0f
13
e7
0a
22
f1
2e
fd
07
fa
2a
e6
1d
db
0c
ff
0b
21
06
2d
1e
0f
28
15
38
0f
10
13
03
f6
10
f7
f1
17
06
07
02
f6
e3
fe
02
f3
fc
f2
02
12
f0
16
09
2f
19
01
eb
09
13
fc
1b
19
dc
0b
1b
f8
06
1b
26
1c
dd
fa
10
e7
da
fa
d9
0b
e2
d2
0e
f4
db
de
fe
e2
03
2b
f0
ff
05
0e
16
03
ff
f7
f1
08
e3
f7
20
eb
1c
08
09
0a
16
10
ff
1e
ff
12
fd
f6
32
dd
e7
00
fb
08
e7
24
1e
07
ea
f5
d5
dd
04
e5
f8
2a
eb
1a
2a
18
03
08
19
e9
e6
f8
20
ff
e4
fa
f7
06
e9
0f
e5
ec
0a
1d
02
15
08
15
f8
02
ea
13
fc
14
16
03
fa
24
f5
f7
f6
ef
e3
05
16
f6
07
f8
df
f4
16
eb
ec
e7
0a
22
0a
1b
1b
0d
f7
02
f0
1f
16
1f
f5
f8
fe
28
eb
06
01
d3
e9
f0
fb
ea
07
fb
1e
04
da
0f
e6
0b
14
20
f6
0a
1b
f8
0e
dc
fd
2d
fc
06
06
fb
04
27
f5
dd
e9
08
dd
dd
23
02
f9
ee
f0
fa
ef
eb
de
e7
1d
f8
21
dc
28
fe
01
fb
fd
17
14
f4
1c
f5
24
f9
e2
10
05
13
f5
0c
22
1c
02
08
22
05
29
28
f2
d0
22
1b
17
10
25
05
0c
13
08
ef
e9
df
2e
ea
e6
f3
e9
e6
13
fd
0c
f0
f4
f3
08
11
de
10
fb
f9
e5
02
08
02
0b
00
ea
02
f0
01
0f
12
1c
0f
08
fd
f5
23
2d
08
14
0f
f5
1c
1d
0c
1f
09
f5
ed
fd
ee
02
f5
f4
fb
0c
de
22
1c
07
17
0b
e9
ed
fc
08
01
ef
02
04
fd
0d
e3
e0
e3
04
f8
ff
d2
f1
0c
0d
1e
30
0d
0f
07
c7
1f
01
ec
fd
e6
1a
ed
f9
0c
fe
18
dd
1a
06
ec
f0
f5
02
1b
18
e9
ea
13
cf
ff
f6
1f
ff
f2
13
03
f5
19
fa
12
23
f9
18
11
02
fb
04
10
13
f7
0f
01
e6
10
03
f8
e4
de
e4
e6
20
01
1d
0b
12
19
0d
d7
04
df
1a
02
eb
00
00
ed
fe
fe
00
e5
fe
03
0a
ec
19
08
fa
07
03
f1
01
e6
2d
f5
e4
f4
01
ce
ec
0e
ea
d7
02
e5
f2
0f
f2
f9
d8
17
09
11
e5
0f
ee
d3
fd
14
13
25
e5
0c
1b
fa
e7
f7
13
fe
da
db
ee
13
e9
f0
01
07
f4
15
1d
1f
e3
05
02
d1
02
ff
de
eb
17
0f
01
ff
21
f9
fd
25
21
05
f6
0f
fb
e5
f9
0f
e7
f1
de
ea
09
f7
f0
1a
04
06
fe
0a
f6
14
18
f6
f9
e5
0c
f1
e7
f2
f9
f9
04
09
bd
11
01
0a
fc
e6
df
0f
f4
eb
f1
05
e8
23
fb
14
0a
fc
ea
19
1c
11
0f
eb
f1
26
14
f9
f9
e4
e9
10
f6
10
29
04
13
fc
00
f4
f4
f7
07
03
13
fc
f2
07
09
2b
e9
0e
d5
ff
0d
26
fc
0b
10
e8
f0
de
0d
03
ff
05
16
3b
03
17
1c
0a
13
d7
0d
c0
f1
20
f7
01
fe
0e
02
00
02
fc
24
d9
19
f6
ef
0a
f2
ec
e5
13
08
fa
19
16
cd
e1
21
07
0a
05
07
0f
f6
fe
e9
1c
08
23
f7
14
0c
1e
cf
fd
1b
ff
fa
0a
1d
f2
0a
0f
01
e5
ea
f6
10
d4
14
0a
0f
25
fb
0d
10
df
06
ec
09
cf
f3
f1
f1
f5
ff
ed
07
19
fb
f1
fc
0e
01
19
25
d3
ed
f7
f5
e5
f9
1b
08
1e
33
01
fb
f5
fd
f6
23
e0
06
0a
c0
00
fc
02
21
e7
09
00
00
ea
18
fc
31
1f
00
14
f5
26
10
13
fa
fb
24
07
fb
e7
dc
fb
10
02
11
17
f6
00
f6
f2
0c
13
f4
09
17
15
0b
02
f3
f9
1c
17
1d
12
f7
0a
04
0c
0d
0c
00
17
ff
1a
fd
d6
f2
15
01
fb
10
07
f7
e3
e2
13
01
fb
f5
eb
f7
28
f5
f5
de
05
03
e2
ee
02
e1
31
ea
ed
09
1d
03
28
10
17
d3
01
00
f6
ec
f2
f7
03
fb
0c
eb
0f
eb
0e
f9
1a
0d
04
0f
0d
09
fb
e1
fc
fd
1b
eb
eb
07
f5
05
29
e8
ed
05
ee
f5
1e
1a
ff
1e
e5
e5
1d
ea
f6
fb
14
d9
16
02
fd
f0
fa
0c
09
11
f1
09
f6
03
ee
03
0e
02
fa
09
fe
0d
22
11
f0
fe
f4
2a
09
0f
db
2f
12
0d
2d
03
fa
f7
f5
fc
eb
ff
09
1f
db
e4
13
e7
18
f9
0d
03
1a
e9
26
14
f0
e2
ea
0d
e8
06
04
10
f5
0d
15
10
e2
f9
05
09
09
00
ed
1c
fb
14
fa
f0
12
fd
05
0c
01
ff
24
ec
00
0c
de
08
01
07
02
e5
05
1e
f0
f3
08
0a
f0
f1
25
f2
e4
e5
d3
14
fd
ed
0f
e1
1f
dd
13
04
f2
06
0a
ee
ef
fb
fc
ee
06
17
e6
f2
f6
2b
dd
f6
ff
f2
fb
11
00
0c
ed
fd
0e
ec
0a
02
fc
16
06
e7
f0
07
fa
f5
09
f4
fa
f4
14
e5
e6
10
0d
fd
1d
f6
df
02
fa
0c
ee
11
fd
0b
e4
26
fb
f3
2a
01
13
0a
e0
15
04
e5
0d
03
13
00
0d
0a
09
10
e8
ed
ef
10
10
fc
e9
0b
f6
03
ee
00
fd
ee
12
0a
03
20
06
ee
24
e6
ea
22
14
fd
eb
11
0c
06
2c
17
03
d0
e8
11
16
0e
fe
e0
fb
1a
f7
e6
12
0a
33
12
06
07
08
0d
c3
01
e9
0d
fe
23
fa
17
08
04
e6
09
0f
dc
03
0a
00
e5
12
fa
04
ff
0f
f7
fc
f4
0c
04
05
e5
22
f2
10
f6
ff
e0
17
0b
01
e6
08
f3
1c
e6
18
fb
14
df
ec
0c
0b
04
08
f9
f8
f0
05
f8
0d
e9
f7
0d
ff
22
d8
f8
ff
02
19
16
ff
20
01
12
22
07
03
f7
fd
ee
07
f9
07
fd
0a
09
1e
e6
11
08
1b
e3
ef
fc
06
19
13
e6
f5
ed
04
0d
e3
ee
16
1a
e4
06
12
fd
03
f4
d5
fb
25
02
22
f4
0a
f2
16
17
11
fc
18
03
fe
15
0b
ee
19
ff
f7
02
f1
0e
e6
14
03
e8
0a
ec
0c
29
15
06
09
ee
0e
dd
01
e2
15
ff
f3
21
04
05
c7
e8
dd
27
0c
12
fe
1a
00
f1
ec
f3
f5
03
ee
0d
ff
f6
ec
ff
21
16
f6
0a
03
0c
06
dc
08
05
21
e0
fb
ee
f6
0e
f6
02
15
fb
ca
e9
f5
f5
fa
0b
fd
f5
e7
02
ef
0d
e9
19
05
f8
fa
2c
cf
0f
01
05
12
fc
e1
f5
f8
f2
e0
05
e1
da
ff
0a
09
0c
fc
16
fc
26
19
23
f0
0c
fb
14
f4
e6
05
07
e7
fa
0d
11
15
e9
f1
07
dc
f3
f1
f0
e8
10
11
f3
14
f5
f7
0e
fd
04
03
01
04
f9
d1
10
01
07
00
fb
11
11
e6
0f
01
f0
fa
0a
fe
fe
d1
fb
1a
0a
d9
f5
ed
d6
e8
fe
fe
f6
f8
e4
ea
07
03
f5
cf
fd
02
fb
14
2a
fe
06
ee
01
f7
ee
fc
fe
12
e7
1d
1f
05
e2
f5
19
f6
fc
08
f7
14
e8
fc
fe
ff
e0
07
f0
14
08
07
f8
f3
15
2d
ec
00
0f
ef
16
e2
fa
0b
d8
f9
0e
02
fd
1c
18
22
1b
e5
e8
fa
24
03
e6
e4
fc
08
0a
fb
05
fc
04
28
0b
16
21
fc
0a
f7
f2
ce
15
f8
1f
11
0d
f6
d9
23
f1
15
07
fe
0a
f2
04
d8
f8
f5
03
e0
00
00
ec
fe
f0
f1
0f
17
f4
eb
12
fc
ff
01
02
0d
00
00
f3
ea
f5
fe
13
0c
0b
2a
ff
ef
01
0d
37
e4
f3
0c
f4
0d
18
fd
07
f4
08
e7
08
d9
f5
0c
f5
e2
f3
ca
0c
fa
fc
dd
ea
0b
dc
f6
f9
f4
ef
17
e6
f3
0c
13
23
f7
e1
0c
05
e4
f8
20
e8
f5
ff
02
01
12
ec
e6
12
f2
12
0e
07
02
02
13
f3
f5
f2
de
fb
00
08
08
fa
1b
eb
f8
28
27
0e
01
20
12
0e
23
17
15
13
16
2b
de
03
06
04
f3
14
f7
f8
d8
f4
07
26
0b
e9
dc
f1
de
08
13
e2
fc
0b
13
ff
fd
13
0f
1a
f0
25
f5
e0
00
fc
f2
08
e3
d2
f5
29
1d
e8
e5
19
00
ee
e6
03
0f
03
e7
f5
0d
ed
0f
0b
ef
f0
fc
0a
04
d9
02
23
fd
0e
0a
f6
e7
10
f6
18
f4
f1
2b
e3
34
d4
03
1a
1a
03
f7
fa
00
f1
fb
07
fb
1d
ed
04
fc
c6
04
fc
22
fc
fa
09
fc
1d
25
14
f4
f7
e9
fe
0d
0a
07
f5
f3
06
ce
10
e7
07
16
23
f1
12
05
f7
e1
0f
ec
f3
07
06
13
2f
f1
f5
0c
16
ec
30
21
03
18
fa
f8
f5
fc
f9
f5
c9
f8
0e
05
e5
fd
e9
e3
fa
f8
ba
e8
f6
c1
f0
0e
f4
18
f9
ed
e5
fd
f8
f0
ec
db
11
f9
0e
fb
21
14
f1
fd
06
ec
02
f1
00
f1
03
04
d7
fc
fb
f9
12
0d
21
15
e1
0a
e5
d3
06
db
f1
1b
ea
06
12
f8
d8
f6
0b
f7
ff
03
e7
f9
eb
fd
f4
04
0f
0a
f8
23
f6
f1
f0
04
00
ee
04
05
ee
00
fb
f8
0c
f4
d9
d8
0a
ed
08
01
0b
31
1d
12
fa
e4
e5
e7
00
06
f5
f0
fa
fa
02
05
ec
04
da
fe
03
0b
0f
f6
1a
e1
03
f1
02
20
e2
ea
0c
f1
ff
00
0f
eb
29
fd
02
fa
e5
fe
ea
f7
fd
f5
10
f4
fa
dc
0f
fd
f7
10
ec
de
ee
11
0d
f4
e4
1e
ea
f0
ed
e5
04
26
0a
fb
05
0b
fe
0b
e3
f3
fe
f6
0a
3e
0b
09
f6
11
10
04
ee
16
0a
07
21
f7
0f
ff
04
dd
fb
02
02
f9
f6
f4
fe
f1
1d
18
0a
f7
09
19
12
25
ef
ef
21
10
fb
ce
0e
fc
e1
0c
f0
09
ee
02
e9
01
04
fa
ef
09
fd
e1
ff
e3
1b
14
15
04
ee
0c
04
18
f2
fa
f6
07
04
03
13
f6
e4
f2
e7
08
db
0a
16
ef
f9
13
17
0e
10
ec
05
1f
0b
e8
09
f9
22
1b
0d
05
00
00
f9
fc
f9
10
0d
eb
2a
fd
fb
d4
f4
02
fe
f3
ee
f1
fc
08
01
19
ff
07
00
0c
10
f2
f4
f8
fb
fc
0f
1b
06
01
0b
e2
fb
0c
fc
10
20
f3
0d
ea
ea
18
fa
f8
04
04
f7
0f
12
eb
08
08
f2
cf
db
ea
23
26
c4
ef
f1
f6
09
f6
fc
08
f4
ed
ed
f0
13
d7
08
fd
f4
d9
02
19
0a
1d
f5
fc
24
f3
1a
f9
f1
f6
fa
0e
16
ec
19
f1
10
d7
05
01
d3
06
0b
01
ea
04
0c
fc
ec
e1
e7
02
f0
00
3d
d1
f0
fe
cf
23
ea
33
e6
15
ed
1e
fe
cd
07
15
e6
12
00
1d
f7
ee
ff
e7
10
18
fc
2d
ee
e5
27
26
f7
db
fc
fc
0c
f8
0c
e8
f9
e6
f0
fe
2b
ee
fc
ee
10
ca
e9
18
f5
f5
08
e6
ef
0f
fe
21
03
f5
f6
ff
0e
fd
07
f7
e9
05
0f
e2
f0
f0
f8
02
fd
db
19
01
09
f3
fb
e5
ce
0f
09
39
eb
f7
ea
f2
ef
1f
09
1f
ef
ef
06
15
f0
f2
08
f7
10
ff
d8
00
e9
23
e5
1b
f4
e0
03
0a
fd
eb
fe
ee
11
fe
1c
03
01
e1
0a
ff
0b
eb
f7
1e
fe
01
0b
f5
fa
f1
f8
02
06
f3
e5
f6
d7
e7
fc
eb
fc
e9
df
e1
13
0b
ef
04
e6
fc
fb
d5
f2
fc
ee
0d
cd
06
ea
e7
fa
f4
17
f1
e5
00
e2
01
fd
f2
02
cf
f3
0b
e9
ef
ee
1d
00
de
0c
e9
03
04
fc
e8
ff
f7
03
05
ff
fa
ff
fc
01
dd
21
01
e5
04
fa
20
05
0a
06
07
00
f0
df
0f
e3
10
f6
ec
e2
f5
1c
fb
f2
01
09
d5
fb
fa
20
ff
1e
f8
13
fa
f8
06
0c
04
de
e8
f5
06
09
e7
f8
18
1f
ee
f3
04
e7
02
e5
fc
fb
fc
e2
f4
f3
d2
dc
ea
0a
14
05
e6
f3
fe
1d
ff
f6
17
fc
f8
1a
0a
f5
e7
fd
06
f1
1e
03
fe
0a
fa
ed
f5
00
0a
e3
0e
1a
0c
1f
04
fa
f5
01
fb
fd
f6
f1
e3
e7
f9
0b
ea
fc
15
f8
ff
f7
cd
19
ed
08
1a
f1
db
f7
0c
05
e7
06
f0
01
e7
ff
03
02
0b
10
fc
db
0d
13
fe
0d
fd
f0
04
df
ff
df
f4
1a
f3
fa
12
fc
e6
f2
e2
02
2b
e9
e8
00
03
22
13
02
02
ec
f1
ed
0a
07
dc
07
f3
e7
e8
e8
0a
12
16
f5
27
00
f4
15
db
f7
1f
0e
e4
07
f1
e7
00
12
10
00
10
01
12
12
e5
eb
fb
01
f4
08
ec
0e
c8
f2
e0
e1
e8
ed
0b
05
0b
08
fc
2a
05
00
e6
fb
16
fd
ef
f0
0d
08
e9
12
fc
ff
e0
f7
1e
1a
08
fb
e6
f5
ef
f1
04
05
df
f3
13
14
0f
19
0f
f9
f1
da
05
ec
ff
03
f1
27
02
20
e5
01
0a
d7
08
03
0f
f3
e6
1d
ef
0e
06
e4
06
f7
02
08
05
06
fc
f6
f9
e3
da
e5
fa
13
fe
c5
e4
e4
0a
f1
fa
f9
15
07
f0
09
fb
02
f8
15
13
02
ff
05
e2
07
f3
f7
01
fc
21
04
05
04
f6
21
d8
05
0e
11
12
d8
ee
f1
05
ed
12
f8
f5
04
0e
d8
14
e6
ea
13
0c
de
ec
cf
20
e5
fa
05
ec
ef
cc
fb
0b
10
f0
fc
07
e9
04
e2
08
06
10
dc
16
d3
0f
f1
12
f4
ed
0b
fd
01
17
ff
13
ef
d9
1d
02
06
0d
f4
05
da
de
0c
ef
f6
3a
12
08
0c
ef
05
13
07
fa
f8
06
f5
09
10
13
f1
29
eb
0c
0b
3c
f6
00
f7
f3
0d
09
fc
02
12
e4
19
e0
f3
e2
f5
0d
e9
0b
e6
f0
ff
07
03
05
d6
ff
fc
07
e8
ed
d4
fc
f2
f7
fb
fc
15
01
2c
08
0b
e6
ec
fa
08
ea
f7
fc
01
bf
11
f9
0e
d8
fe
07
f4
f6
f3
10
f0
f5
01
e7
f7
04
04
fa
c5
15
ed
ef
1a
05
06
e3
dc
0b
05
04
f0
ea
15
e0
12
f7
f4
16
f3
0f
e6
f6
1d
f6
f1
dc
08
0d
ff
f6
07
f6
fa
f7
27
0b
f0
e1
19
0f
dd
ff
16
0b
fb
06
05
ee
04
f7
f0
05
0a
23
fd
ef
ee
1b
07
f1
25
f3
fd
f5
f6
f7
09
03
07
05
dc
ee
03
f9
08
ef
01
fa
1a
fc
0b
f8
fc
01
f4
1d
fe
07
22
09
f5
f1
fc
fe
f7
07
b3
09
fe
0b
14
df
05
fd
0d
ee
16
e7
fa
15
fd
f4
db
ec
19
fc
29
f1
03
07
1b
fb
f0
f2
f1
0a
12
21
06
f5
e0
f9
e7
fb
eb
fe
f0
fb
04
0d
e9
ee
01
ff
0a
f4
0b
e9
00
24
01
fb
eb
fc
0d
09
f8
0d
ea
15
ec
08
1c
00
01
06
04
f9
fd
0d
ee
fd
ff
f7
ec
fa
f4
03
e2
26
1b
02
fc
f7
e6
16
e6
12
ed
0b
01
dc
11
eb
03
14
fb
02
05
17
09
06
f4
ea
03
e5
01
dc
d0
e4
e6
ee
09
ee
fe
d9
ea
f6
f3
d6
03
ff
fa
18
f9
e5
02
0e
da
0d
27
ee
ff
ef
f1
0d
e9
10
eb
f8
ef
19
00
0d
f0
1d
fb
de
25
20
07
e3
ff
11
0c
14
da
0d
10
00
c7
06
e7
f1
26
f7
02
f1
f2
05
11
26
e5
df
08
e7
fb
02
eb
f7
0d
17
f7
e4
f7
04
f7
0a
eb
08
08
ea
f7
28
db
22
ee
02
f2
ec
2f
fc
0c
f4
ed
e7
d1
00
06
e6
15
ff
0d
f7
14
16
08
1f
dd
03
18
f2
ef
0d
0e
0d
e6
fe
0d
24
e5
f8
d1
fd
ea
11
f9
f4
e6
f7
10
27
0e
cf
0a
f7
10
0b
ec
e9
f1
01
ee
18
ff
08
0d
f9
f5
f9
36
f5
0b
2a
e9
09
f8
0c
f3
fa
e5
0c
f4
09
ee
05
e2
19
1a
dc
17
02
e3
ee
f6
fc
f8
0e
ec
f1
d7
25
f5
f7
0d
e6
f4
f1
04
0b
e5
24
01
15
0e
ef
f2
06
f6
fc
e9
10
fd
ef
ed
c6
f9
06
09
ef
fd
03
03
17
fb
fa
e3
f5
04
fe
d6
ef
e8
16
09
05
19
1b
ef
00
11
cf
20
ff
01
14
fc
e2
f0
ed
e3
e4
f2
22
01
e8
e4
09
2a
0f
00
f0
0f
f8
eb
e6
f7
0c
e7
13
0c
ff
fc
f7
f4
ff
dc
05
fa
10
e7
fb
fa
e4
06
d4
00
f3
ff
ee
fb
fc
f4
f2
08
27
01
0b
ed
f5
f4
f9
ea
08
09
00
07
05
01
18
d8
ec
24
f5
fd
fa
0a
11
0e
1f
0b
fc
fe
1a
00
2b
f8
fe
fc
02
27
0d
d5
14
01
fa
0e
27
10
0f
fb
17
fa
e5
04
13
17
03
07
ea
fa
fd
ce
fc
fc
f7
f1
e6
f6
09
f7
ef
11
0d
f3
07
0f
e8
f3
1d
1a
f9
f6
11
e8
fb
32
03
04
e2
0a
02
1a
fe
1e
13
fc
f2
ea
04
fc
e0
00
f3
fa
0b
e4
f4
11
17
df
01
ec
fc
f2
05
06
07
f7
17
00
fb
04
e5
ec
e9
e9
10
0a
eb
ce
fd
05
00
fa
21
ef
f3
d9
0e
0a
f9
f5
ff
e9
ec
29
fd
f5
15
d9
13
f9
ec
e4
0c
f7
0d
ff
e0
0b
0d
e9
f2
e9
f4
ed
fe
fd
01
1b
fc
07
f5
eb
01
13
f9
e1
10
01
03
01
ff
f6
f1
0e
f0
12
fe
10
fb
0d
f9
0c
f5
ee
f2
db
ed
fb
fd
eb
02
dd
01
f7
04
ff
15
fc
18
29
e5
04
00
0e
f4
e7
f2
03
fb
f9
1a
e7
ea
e8
e8
fa
13
e6
fd
f8
e3
fc
14
cb
08
f8
05
f2
01
fa
e7
00
01
08
e7
01
f8
d6
fb
15
0e
ec
f6
e8
fe
27
18
f7
0f
ef
09
f9
dc
f1
ff
d7
ed
04
04
ee
01
fe
c8
15
dd
ff
f4
07
0d
f0
ff
1b
eb
fa
ce
0c
05
fe
f6
00
f2
18
f8
02
00
f4
ff
ea
f7
eb
f4
0e
f3
16
f3
e3
e6
fd
e2
00
12
f2
ef
f0
00
01
cc
ee
cc
eb
ee
0e
f9
e0
ef
ff
e3
29
f0
0f
de
f9
e2
eb
fb
f9
02
13
e0
e9
10
ea
d9
fb
fa
02
f5
06
fd
fa
eb
d9
f0
f5
dc
f2
cb
e4
ea
0d
e1
f2
e2
e8
16
f9
fa
06
13
13
d3
f0
e0
f8
e5
00
ca
fa
c1
02
eb
05
07
f2
0f
01
22
fc
ee
f2
03
19
f8
da
e0
ff
1c
09
e8
f2
ff
ff
fa
00
fc
21
e2
ee
f8
ff
fd
e7
f4
dc
ed
13
02
e5
03
ed
d2
d9
ef
f8
04
1c
f2
0a
f2
29
00
0f
16
dd
f8
12
ff
de
f6
f7
ec
ed
ff
f5
09
1c
f2
f0
f5
f9
1f
ec
17
e8
01
04
f6
08
f5
fe
fc
e6
09
ff
04
04
02
fd
08
e8
fd
09
ff
00
e2
e9
ce
ed
0c
20
f0
0d
05
1a
f3
fe
ee
0a
0f
d9
f3
08
f3
08
0a
05
0d
f0
f4
1e
0b
e3
e6
fa
e8
f6
f0
ec
e7
cf
0d
14
0d
f8
f0
d9
ff
e9
f9
12
f8
f5
eb
ff
ea
f4
ed
03
13
09
10
01
f5
f4
e2
ee
01
0d
f8
0c
fa
10
04
02
0e
04
26
f3
e2
01
0c
da
fd
d7
d6
1a
e0
0a
f2
e8
f8
ce
f7
1c
07
0b
ec
1f
ee
12
05
d5
03
16
ea
fa
01
e2
eb
fc
e7
e3
19
f0
fe
06
df
24
f3
f1
e7
d6
ff
f4
00
1f
14
db
c3
e0
e2
0c
fe
04
fa
04
f0
04
d9
11
db
f1
ef
03
cf
e0
d8
fa
29
f6
f9
f3
1c
f2
10
f8
df
02
03
ea
ea
05
1e
f9
e5
00
22
08
f4
b5
13
02
04
0d
f2
00
f2
10
fd
d8
10
0a
ea
e0
0f
f1
ed
fd
e8
f7
23
0b
02
0f
17
02
14
ed
01
ee
47
f7
ec
e1
fc
06
1f
e0
12
f7
0a
d6
0a
05
e7
15
fa
f0
05
00
f4
f9
e0
ee
f8
fe
00
0c
04
e5
13
f5
ea
f6
04
07
18
dc
f3
fe
fc
ea
ce
f9
e1
12
20
ff
07
f2
01
fb
fe
f8
e4
0a
03
f0
0b
07
f2
06
20
f3
08
02
eb
f3
ca
e6
09
f2
f9
e3
fc
f2
06
0c
18
d9
30
f8
1c
03
05
05
17
f1
06
00
14
da
f4
c3
f6
07
d6
fe
08
ec
ef
07
f4
d5
fa
e1
00
fa
04
03
ed
cc
f0
03
ec
f8
f1
e7
d9
f6
ed
11
0a
03
ee
fe
fa
14
0a
1a
f4
fc
f7
f4
00
fd
21
fe
ff
06
22
f5
ea
00
f4
19
12
f3
d8
e4
f9
fc
f8
f2
05
fc
19
d6
22
07
05
ff
ec
f5
e7
f3
06
03
0f
0d
f6
08
e6
06
ea
f2
a4
13
26
02
0a
22
07
fc
fa
1a
e5
e0
ef
f2
eb
f3
f7
f7
0f
06
01
01
f5
de
fe
1a
20
fe
e9
de
f5
1b
11
fd
0f
ea
e6
d8
cf
02
f0
05
f5
1c
fb
16
f1
ef
0c
e2
e9
f7
e2
03
1d
db
fd
e2
ee
fd
12
e6
fc
eb
16
f5
05
fa
e4
fe
f3
e6
11
ec
f6
e6
fd
06
0d
e5
04
cb
f5
ee
e7
02
13
f8
ef
ec
09
e0
de
fc
e7
00
ee
19
e8
cc
04
ff
15
fa
e8
ff
dd
ee
0b
d6
05
c3
05
08
f4
ec
ef
18
e5
f2
d8
d4
eb
07
dc
f7
f8
01
29
07
ee
f3
11
07
e1
11
f8
fe
f1
1a
04
eb
f3
f6
ed
0a
11
dc
f4
fe
f4
05
f4
fd
fd
e3
f8
22
1a
e7
f0
e5
d2
07
eb
f0
ed
0e
ec
01
08
f2
00
fb
f8
de
fa
dc
0d
e6
d6
d1
f6
f0
ea
fd
00
ea
f0
0b
da
ed
03
e7
e1
09
f6
22
ee
e5
0a
e6
e9
f7
f7
06
01
fa
f0
e1
0a
e0
ea
fe
07
04
f5
e8
09
f8
f4
e7
e6
f7
ec
12
e0
1e
f2
f5
08
f9
f6
0d
de
e7
04
03
cf
00
e7
f7
ed
1b
03
de
da
0d
f3
fe
e5
e5
00
f9
01
02
06
0c
ff
e4
e5
0e
07
0c
0a
f4
cd
fd
fb
e4
fa
01
c1
fe
ef
e3
ea
de
fd
02
0b
d9
fd
13
ea
f0
0c
f3
e9
15
32
ef
f5
08
f8
f1
f6
f8
e2
18
10
fb
f0
15
18
f3
f6
09
0e
0c
e8
e9
00
11
0a
0a
ef
19
d9
01
e8
fc
c8
05
0b
e9
e6
e8
e7
ea
f7
f2
ff
20
f3
ff
0d
f1
fd
f5
09
06
f4
04
df
ea
01
c9
f8
f0
01
e9
ef
16
33
f9
fc
04
08
f0
ea
e6
03
d6
f1
08
f5
f4
1a
ea
f1
16
e2
ee
fa
08
1c
e3
dd
fb
ff
fd
2f
e8
0e
e4
e9
df
2a
f1
02
e7
f6
06
ed
ed
ef
2a
e4
08
0a
fe
f5
e5
26
e3
f2
ed
10
dd
eb
ee
09
19
f9
d6
fc
10
f4
f3
f9
19
1c
04
ed
fc
05
01
2e
ea
19
01
dd
f5
d1
d0
fc
06
de
e7
0d
e0
12
13
f3
df
13
f9
f4
08
12
0a
09
db
fb
f5
f9
07
f9
0e
08
03
20
f5
08
00
fb
e1
1c
fe
ee
f1
fa
fb
15
02
04
06
fe
eb
d8
f0
03
e9
09
fd
fc
fe
fd
12
ed
14
f4
09
f4
06
fe
05
28
0b
ed
0f
f5
0f
1d
e2
01
22
ef
f9
14
12
ee
01
d9
fc
f6
0c
0b
f8
f8
fa
e3
05
14
fd
e9
f4
04
f3
f6
12
0c
f9
05
e5
04
fa
fe
1a
01
e8
fd
01
ec
1d
dc
1b
05
f9
e2
18
05
e5
24
13
fe
dc
12
e3
08
0a
05
1d
dd
06
06
1a
1a
07
ea
ef
f2
1a
15
ce
dd
26
1d
04
f6
fd
14
eb
cc
e7
fd
1d
f8
21
13
df
e7
07
ef
f8
e1
06
07
f4
cb
00
26
06
04
1a
ef
d9
09
00
f5
00
f4
00
16
01
06
e3
f8
ce
1d
07
05
2a
e5
12
db
13
f6
1b
02
09
fe
0b
11
15
d9
2a
00
11
e3
04
2d
09
14
0f
01
f6
08
0a
ec
23
fc
fd
03
c4
f9
0b
fc
fe
14
fd
ea
f7
fb
f0
f1
e1
ed
16
22
e0
03
ec
e6
09
f2
f5
fb
fc
1a
f1
f0
05
ed
ec
fe
ee
df
fa
fd
ea
0b
fb
ec
e9
0d
f3
0c
0a
0a
0a
18
e1
02
1d
f7
15
11
fd
e4
04
fc
03
db
17
00
03
e7
e3
06
1e
06
1b
f3
1f
f8
1b
20
ef
05
ee
27
37
db
28
26
14
fd
ff
15
17
0d
fd
04
0a
f5
e4
13
1e
01
f8
ec
f7
e6
0b
13
f0
0c
03
0e
fd
10
1b
f7
fb
0d
0b
da
04
0a
00
fb
f1
fd
08
0e
0d
1a
f9
27
02
12
0c
0e
0c
fd
05
fb
da
27
1d
ef
f9
fa
11
ff
00
10
ef
fb
ed
f3
ee
07
19
fd
fe
10
09
fb
07
05
08
f7
f2
fc
0d
06
01
08
1d
fe
ec
dc
14
ec
12
0f
22
03
12
07
05
0b
f9
17
1e
11
d8
18
f4
f6
03
00
db
e4
00
0d
ed
fa
d9
f1
02
ff
18
f4
0d
fd
1f
fd
f2
1a
12
0c
21
17
0e
21
1b
21
07
f5
1b
0a
04
f1
11
04
1d
ef
fa
14
f7
27
15
f9
0c
df
13
fa
f0
07
14
e3
17
f3
1f
19
f6
e4
ee
eb
ec
05
f9
05
ed
1f
f6
0f
fe
13
f6
ee
ef
1b
0d
10
11
dd
10
f0
db
0c
ee
21
f5
00
0c
f2
1f
0f
f6
0e
22
07
ec
12
17
fb
24
15
23
0a
c9
03
18
f5
0e
d1
f5
11
0b
22
05
f0
e2
06
fc
2e
ed
f1
18
da
11
ea
16
eb
05
e5
15
12
ff
ff
04
fd
c5
ff
01
17
10
00
ef
f3
08
11
df
f8
f4
12
db
00
17
06
f1
13
f0
0f
25
f8
e8
01
02
e0
17
0a
f6
07
f4
19
14
ed
f6
f6
06
e1
1a
f9
fb
ee
03
fa
fa
e4
e2
e4
1f
ed
25
1e
10
f6
16
fc
14
ef
1d
06
fa
10
27
0a
2f
f4
fd
fe
e5
f9
09
0f
fb
d2
e3
28
0e
1c
f9
e7
02
e7
22
ea
0b
07
f3
0c
fe
f1
09
f3
e6
fa
df
f8
13
0e
06
21
f0
03
e7
0a
f9
f8
e6
07
d5
e8
06
eb
15
fc
f5
04
0a
08
fa
eb
ef
0b
0e
1f
f3
1a
ee
f6
fa
03
ec
e9
e9
fa
fb
f9
04
db
18
f0
e8
01
e1
21
e8
1c
e9
e2
02
fd
c7
f7
0a
fd
d7
07
f8
18
fc
f8
fe
09
f1
00
10
fb
f7
f8
03
0a
0c
fb
db
20
fb
fc
1f
35
05
f0
f8
ff
ff
19
f3
18
33
ef
04
08
02
ec
fa
ec
fb
02
f8
f4
01
06
f0
03
ed
03
0a
e3
02
fb
e9
08
db
e4
06
f8
1b
0b
ee
0c
29
05
1d
e5
1a
07
0b
0b
f9
17
f8
f0
15
f9
0d
f3
1f
f0
15
fd
fe
01
0b
10
0f
fe
08
27
de
1f
dd
07
fe
fd
ee
08
07
f5
f6
fb
19
0f
f1
05
03
f4
f8
0f
19
12
f1
10
18
fe
0a
09
fb
ed
11
fe
ee
1c
dd
eb
fa
f8
ec
f9
e7
f8
e0
17
ef
27
f0
01
27
16
f9
ec
e3
e5
ee
f0
0f
02
ca
ee
dc
1d
0c
02
0d
eb
f4
e3
06
29
00
ca
d2
e9
04
c6
02
08
32
00
00
03
15
e0
0a
11
eb
1b
f3
e1
f2
f2
f5
21
17
f9
12
dc
15
03
f2
00
09
ee
12
f8
0a
d5
e1
df
10
fb
f5
07
27
27
f9
0c
2f
0d
05
0c
0f
08
05
20
ee
07
2e
01
13
19
d3
0d
0a
d2
f6
f9
f8
f0
f8
f6
ef
ed
01
03
11
01
ff
e7
d7
0a
da
06
fa
23
c9
e9
03
fa
de
f7
0b
2d
0b
de
1b
00
e4
13
03
13
f8
ec
12
f4
fa
f1
f6
1a
06
f6
f4
00
0e
2c
0d
d4
05
fe
06
fb
04
0a
f9
11
1a
0c
14
db
08
08
ef
0f
13
e6
03
0d
05
de
f6
fc
ff
fe
f4
29
05
f9
03
06
fe
07
ee
e7
07
f0
24
fb
d3
f7
0a
1d
1c
0c
f5
ff
ec
02
09
fb
da
e4
e6
f2
1d
07
25
0e
de
06
14
e3
12
fd
eb
e6
ff
f8
06
00
0e
07
00
fa
fa
fc
df
06
0a
05
36
13
1a
ed
e3
ff
0a
f4
ec
ed
19
e8
e0
15
0e
0b
2e
12
20
0d
fb
f7
06
17
ed
d7
17
1b
0f
07
06
1b
09
f4
27
eb
07
f5
f0
e8
17
ed
fc
1e
fd
fd
09
fe
0d
fe
f2
ed
cc
f4
20
12
fd
19
1a
ec
09
0b
eb
03
04
19
1d
f2
f3
fa
09
ee
e4
0b
04
fa
11
0c
14
19
1f
2c
03
1e
e6
11
09
02
f9
eb
04
03
fa
00
fe
f8
0b
fc
fd
ea
0f
0e
de
0b
02
0a
17
00
0e
07
05
00
02
e6
e8
f8
08
ef
21
f7
0f
0c
fa
11
f9
f5
0d
eb
14
08
f5
04
f9
23
f0
f5
1c
0d
07
db
10
04
00
13
1c
d3
f7
f4
f7
f3
01
f8
09
f7
03
03
f5
16
02
d7
19
15
ee
fe
09
23
18
10
0d
e5
f7
0c
f6
ea
ea
e4
0b
0e
db
e9
13
e6
0a
f9
2a
eb
f4
ef
04
2f
0d
01
ea
f6
08
08
e5
fc
25
0b
df
f8
fd
00
13
0a
08
e6
02
15
1a
ff
10
0e
1d
f9
f2
05
f0
f9
ef
06
d0
03
14
24
0e
e9
f5
10
18
df
ff
ea
ea
38
f7
0c
0f
fa
12
03
09
fa
13
f0
1d
eb
fa
ff
16
ef
08
f6
fa
0d
0c
1f
1b
10
ed
05
f0
24
fc
14
02
26
eb
26
e2
f4
15
e4
fb
07
28
17
0c
e8
ea
ce
0e
26
e6
2b
18
fe
07
17
11
02
dc
22
25
02
15
f9
18
f4
0c
f5
02
04
05
0f
15
07
1a
e7
02
09
09
f3
fa
1d
f4
ef
1b
04
f4
ff
11
01
15
06
10
0d
05
e9
f2
19
fe
00
13
00
eb
ef
fe
0a
fa
03
07
e1
f2
df
f6
fa
19
03
13
04
f5
0d
15
2d
f3
00
f9
0b
ef
27
06
f0
28
21
16
21
fb
f2
0b
fa
f0
0b
ea
f4
05
f5
0f
e0
03
e7
11
dc
fc
1d
07
f6
e0
10
0b
0e
e3
0a
0f
ee
fd
f1
f5
07
ff
06
fb
e9
00
15
ea
28
f7
01
fa
0b
de
17
1f
c8
06
e1
ff
02
04
f2
f6
d5
04
f7
0e
0b
cf
06
14
07
fc
f1
f6
0c
ed
1d
fc
f5
14
0e
07
04
1d
10
fb
04
12
fd
22
ef
f3
fa
f8
11
f4
dd
08
d4
ec
03
fe
f9
f4
f1
f1
07
f8
e0
05
2d
f7
1b
fc
f2
e4
fc
fd
f1
f4
ec
10
17
1b
f8
18
1e
eb
de
04
d9
f7
fd
0e
06
dd
ff
f6
06
17
0e
0c
0c
33
1c
ff
e7
0d
15
16
25
05
12
f8
fb
24
0d
0c
04
e7
24
03
fa
05
ff
1b
f5
05
24
f0
04
08
fd
d7
f5
e2
06
e7
f5
f5
16
f8
ef
f9
2c
e4
fc
ed
f7
03
e9
fb
df
e5
02
ff
e2
fd
f7
04
e5
f7
0a
0e
20
0b
e9
03
1a
0c
ff
1e
0b
12
39
05
26
f2
06
de
ff
e8
f7
12
03
00
fe
fb
00
e8
06
20
11
e0
1a
16
f2
f9
2e
f5
04
f4
05
13
04
01
1c
04
f8
09
f1
13
ef
1d
0b
f8
f0
07
0f
fe
01
0a
f5
09
06
f7
f4
23
1f
0e
07
f1
e9
14
0d
2a
04
23
0b
fb
15
18
f5
07
04
24
11
e1
1f
22
f9
ef
fe
e5
f1
0b
05
01
e4
03
ed
07
de
07
14
e9
e4
16
0e
14
e9
08
dc
13
e6
e7
04
e6
f1
17
01
fd
de
15
30
f3
eb
25
07
e0
fb
22
0b
29
ef
01
f4
ef
ef
d3
24
1c
fa
dd
fd
eb
eb
e5
0e
f6
f1
14
00
ee
07
f7
db
ef
f5
05
22
0d
ec
35
1b
f7
3b
03
1b
31
ec
fa
0b
1c
ee
d1
fb
03
e5
ef
01
16
f6
10
fd
02
0a
07
f3
10
ca
f0
0d
0e
04
f4
e0
0c
d7
f4
12
18
ef
f1
0a
18
17
01
d5
f9
e9
09
fc
fc
08
1f
f0
10
16
11
fd
0e
ef
00
e5
10
15
e8
12
16
02
f7
e9
f2
e4
f0
d6
0d
02
f6
f2
f6
28
10
07
0c
36
0f
33
0a
22
0d
01
fe
ef
f9
25
f5
f5
0b
fe
0f
f4
ec
09
15
e8
ff
15
e3
f0
1d
05
e0
21
14
08
fe
fa
e8
11
fb
e7
1f
e2
f9
2e
12
eb
0d
24
0d
ea
15
fd
fb
d8
1f
43
e5
ee
08
09
d3
0d
0e
ec
09
17
f8
06
27
db
04
08
f7
f4
0a
f3
13
d7
21
e0
f1
2a
fb
f7
23
05
ed
08
e8
f0
ce
02
dc
00
15
e0
fc
20
20
db
dc
e3
3e
0e
fd
01
ef
f3
09
08
07
01
00
18
ef
0f
f7
00
06
0a
f3
19
10
12
0c
fa
07
2f
01
01
04
0a
10
fe
12
26
f9
0b
e1
f1
ef
02
14
fe
d6
06
1d
01
1d
ee
1e
f3
e8
08
eb
f3
10
f1
04
14
09
0a
25
05
01
06
fc
d5
15
ef
ff
07
0d
10
16
03
bb
2b
3e
e9
1b
e4
ee
0d
ea
e1
fc
f8
ff
f4
fb
f5
ff
3b
fc
f9
17
06
f8
ef
15
06
fc
08
e1
0b
0b
19
04
fc
01
f5
e3
e7
1c
e0
fe
08
f9
f3
19
37
f5
00
07
18
ee
15
1b
19
f6
e3
ff
0c
e8
d6
07
eb
f4
f8
cd
f6
27
0d
e8
02
0c
fd
eb
ec
22
e4
14
dd
ea
0a
f3
f7
ec
c7
0c
d8
00
0e
02
1b
e9
eb
0d
0e
03
0d
ec
f8
eb
25
ef
de
eb
f2
12
10
45
0d
07
08
03
f8
14
0a
15
f6
07
0b
04
06
0d
16
02
eb
da
f6
1f
25
e0
06
17
03
f4
f1
2b
0f
e2
06
0d
ff
1c
06
ef
e0
f4
f0
2a
ff
0e
0c
0a
fc
f0
f0
00
ea
0b
04
03
f2
0a
ef
ad
0c
0e
21
ff
f3
0e
03
0a
03
ee
0c
14
12
fd
ff
d9
e5
14
d0
fb
05
1d
32
13
1a
26
fe
28
e1
00
dd
0b
1b
11
05
f7
24
22
d9
1b
f4
e8
2d
19
1b
f9
0b
0b
ff
fd
08
e1
03
ed
c3
05
f8
fe
27
fe
ee
06
00
e5
eb
f1
e7
e7
ef
1f
0d
10
1d
e2
fc
ed
19
e6
fd
f4
14
0b
ff
ed
17
ec
02
08
01
10
10
f6
f9
ff
fd
1f
de
09
02
fb
ec
ee
09
fc
f7
04
0c
07
fd
eb
0b
fb
f0
f5
ea
f9
f3
17
e6
fd
ef
ed
00
ee
12
1b
ed
06
f1
18
f6
ff
e7
dd
1e
e4
e2
04
09
e0
eb
00
16
f4
00
1a
f9
03
0a
0c
15
f4
1e
21
20
0c
1c
e2
0f
05
e4
0f
f7
f6
0e
f6
0d
17
db
17
ec
fa
3c
e5
1f
01
fb
ef
fb
da
0c
19
f1
08
0b
fd
f4
e5
0e
10
e8
e3
f4
ed
fd
0e
02
dc
11
0d
1b
23
0c
14
fb
f5
10
11
fd
15
00
04
f8
01
e7
03
d1
f6
01
19
07
ec
0a
0e
0e
df
f2
e5
ed
00
0d
1d
eb
0b
05
07
ff
0d
fe
0e
11
ff
05
08
de
06
df
f5
f9
f5
e5
ec
f0
0f
f0
03
06
fa
f8
f5
02
d3
15
28
11
0a
0d
1a
e4
27
33
02
1b
ff
e5
16
f6
27
1e
f9
e6
ee
f4
f7
02
db
17
00
11
e1
e2
fb
0d
0d
e7
0d
14
fc
1c
1f
f5
fe
f3
14
18
f5
20
fc
e8
ec
02
fc
d9
f5
e0
fc
e8
05
f2
0d
fe
0f
10
ff
d5
db
08
1d
f7
11
0a
c6
28
1f
fa
03
fa
f7
f9
11
07
23
fa
0c
f8
0f
fb
03
d1
2a
1e
03
db
02
22
f7
0b
2e
18
04
f2
fc
e0
16
ff
2b
0d
09
17
fa
04
36
ff
fd
f9
0d
df
e5
07
08
0a
0f
f8
0f
00
07
ea
1d
eb
fa
fd
02
f3
e0
06
16
00
f7
e7
05
06
f1
13
00
06
23
07
0e
f2
e1
e9
f8
16
0b
07
d5
1e
19
1b
0e
0e
0e
06
05
0a
e6
ff
18
eb
de
21
fe
33
f2
02
07
2c
0a
1e
12
ea
fc
0b
fc
fd
d2
07
f5
01
fe
14
03
10
27
04
f2
08
03
12
10
e9
f1
0d
16
fd
d4
08
0a
2b
f6
0b
13
ff
0b
fa
f9
f4
0f
fe
15
df
03
06
0d
37
df
0d
11
f7
01
f4
02
08
fe
ed
f9
0a
14
fd
0c
03
0f
07
02
0c
08
f0
05
15
07
dd
03
17
fa
0e
22
11
12
06
08
fd
07
04
ff
01
f0
16
00
0f
05
f4
f2
fd
0e
22
f1
fe
b8
fa
f5
0f
ef
f3
03
e9
0f
ef
0f
1f
10
f9
02
fd
db
ef
f6
e1
e1
fe
3e
fa
ef
f5
d6
03
ff
05
12
05
00
1d
fa
ef
fe
07
11
fe
2d
d8
f0
0f
e3
13
e9
10
1f
fb
14
06
ee
f9
06
13
00
03
f0
12
fd
12
fd
09
f5
04
17
09
1c
08
01
fb
14
03
07
03
09
fa
05
12
0a
19
00
09
fd
1c
0e
28
17
14
ed
17
fd
1b
0a
01
0d
3b
fb
1e
05
f2
f8
2a
07
1c
0d
f2
0b
08
02
05
de
10
07
ef
f0
01
fd
27
1d
2c
09
fc
f5
04
f8
1e
de
10
ed
f8
fc
00
16
20
04
e2
05
fb
f3
18
1b
02
e7
fc
09
07
10
fc
e3
13
04
14
33
f1
06
fc
13
e5
22
e9
f1
ef
01
14
fe
0f
1d
18
e9
e8
28
03
ff
13
f8
1e
ee
07
f3
1d
1d
fe
15
17
cf
19
ee
e7
e7
19
f6
fa
02
1b
2a
0f
08
fc
1b
06
f1
fa
ef
29
17
fa
d8
f1
06
1c
0c
11
25
d1
0c
24
17
fa
1d
35
0c
12
1e
f9
e1
ef
fb
fd
e5
fc
1e
fc
05
28
03
0f
f1
27
e1
f8
de
03
11
0b
f8
fa
e6
f7
07
11
01
11
00
29
16
ff
fd
f6
1c
00
f5
08
0c
2d
f7
08
09
fd
f4
08
03
25
ea
04
e4
0f
05
10
ec
10
ff
f7
e4
30
00
15
11
ea
06
0c
dd
10
14
07
f4
07
18
e6
01
03
06
e3
fe
ea
08
fe
11
0d
14
0d
f2
0b
0a
0a
23
06
01
0d
06
f8
12
fd
32
f8
1f
0b
ef
1f
13
00
2c
19
ef
eb
17
01
fa
1b
09
21
0f
09
f6
ea
22
f4
f6
06
12
25
f9
00
10
35
d0
0f
1f
f2
09
f0
00
24
f6
f1
11
fa
2d
eb
00
04
0b
fe
e4
f4
17
e8
2b
09
08
f9
0c
f0
11
f9
fd
f9
03
1a
11
02
e5
3f
19
00
f4
ee
08
f3
13
fc
0e
f2
f9
08
f5
10
05
0a
f2
07
07
04
01
03
04
24
0b
ff
e5
2a
08
10
f8
f1
ea
f3
06
f5
14
fc
f6
0c
05
0c
1e
03
02
fa
07
1d
02
08
fe
f9
f2
0f
0f
24
ff
22
ec
ff
0a
03
0e
ec
0c
01
0b
1a
0d
fe
04
ec
16
fe
ed
0a
09
08
1d
e8
ff
fa
0b
06
19
0d
27
0c
ff
0e
0d
e1
1f
f7
01
0d
12
20
e2
ee
fd
13
0f
15
11
07
04
f7
04
f0
19
e2
23
16
0d
21
fc
05
1b
0d
1a
19
07
f9
05
eb
22
fd
14
ef
14
05
e6
0c
f6
13
ff
12
f7
04
00
14
06
02
e9
f8
19
f7
10
f5
14
f4
11
04
fd
fe
18
14
f7
1d
23
04
08
fb
05
f6
f4
fe
0c
06
fa
1c
ed
f6
e9
05
fe
18
0e
ff
0d
f8
09
1b
0f
0d
f5
03
27
0f
15
fb
e4
0f
14
fc
08
1f
fd
f7
12
1c
e0
fd
02
ef
08
ff
e5
0f
fc
de
00
01
f0
14
e6
ef
fa
fc
20
09
02
26
07
ea
06
fa
ee
1b
d8
ef
20
e3
18
16
0a
fd
e9
05
f1
1c
10
03
e1
0d
1e
04
e8
00
ed
13
15
04
ee
0d
ed
0b
08
e9
04
14
e0
0d
2b
11
f8
2b
e8
03
13
29
fa
0b
05
f0
fd
17
21
fb
03
0d
0f
16
d8
17
d2
f9
2f
f6
16
ff
f0
29
0e
01
0e
00
0a
16
17
00
ed
0a
08
23
f1
f3
26
02
f4
e9
18
06
22
ed
10
0f
05
f1
13
f9
fa
f2
08
10
07
17
d6
fd
0d
27
06
01
1a
00
fa
05
23
07
db
03
05
f3
1c
11
02
10
fd
35
ee
00
0a
35
14
1c
19
e6
16
f1
07
f7
24
1a
ed
0e
18
ef
ff
da
23
cd
e7
fa
ed
fd
ff
f8
fa
1b
02
1c
04
30
18
22
04
f9
f8
04
fe
04
ff
f6
ff
04
f0
05
fc
1c
0d
f5
0b
06
00
03
0a
fd
05
05
25
1f
f7
01
fa
ff
de
29
0b
fc
09
02
0c
e1
db
f1
f5
11
e5
f4
f5
eb
ef
06
11
03
1b
f6
0f
f3
37
f0
f9
13
0d
00
05
1e
17
f4
0e
16
0c
e0
fb
09
0d
0a
13
13
2d
cc
0b
f5
ed
ef
02
ff
f2
22
15
fc
1a
ec
03
eb
fc
02
07
c7
0a
01
2d
0b
d7
fd
0c
07
01
f1
fa
1e
e9
fc
0c
fc
06
2a
fe
06
f7
1a
d8
fc
f3
15
ca
26
f9
02
15
1a
08
0b
32
fd
e1
0c
0c
ee
31
04
0a
1e
f7
fe
fc
fc
04
f9
e2
fe
18
fc
0f
12
45
07
1e
0f
06
f7
02
fa
16
22
fe
fe
f3
21
f8
0f
e5
fd
05
f1
00
35
fd
fb
00
07
f4
e0
f3
29
05
01
07
0f
12
f1
0f
09
09
fa
08
2e
00
10
eb
11
fd
15
f1
36
16
09
e5
f5
19
0d
f7
28
18
11
f3
2c
f5
07
e3
d8
06
04
25
13
1d
f4
22
07
17
fc
09
0a
fd
e7
e9
fe
36
fb
ed
01
09
18
03
10
e9
1a
09
f3
f3
0b
f9
f1
22
12
1c
0a
f8
18
fd
24
fc
f4
06
0e
f5
e3
ff
fa
ff
19
e9
eb
11
fc
fd
0f
d0
10
0e
f8
f4
fe
0e
1f
05
f3
d5
fe
0e
04
28
fc
ec
01
1d
14
ea
21
fd
0c
ee
01
f5
0e
08
0a
fa
04
21
f4
03
0f
fb
1a
f8
00
16
1f
fe
00
f8
00
f8
0a
0a
15
14
f7
00
fa
06
05
16
d7
13
fa
03
f5
f7
10
0f
e6
f2
fa
fa
f9
1d
19
ff
05
e1
0e
e5
eb
fb
18
fc
f2
f2
db
e4
23
20
ed
03
18
fd
0e
f2
ef
03
ef
f6
e4
18
eb
19
15
f7
0a
15
08
f7
0c
11
0e
fe
17
f8
0d
f6
e1
f7
30
fd
1a
fb
22
01
17
08
0a
0b
f8
e6
ff
ee
f9
fa
f4
30
12
08
0f
f4
fd
0f
1d
05
f3
cc
10
f2
e7
ff
0e
f7
eb
bb
06
0f
f4
fe
15
11
11
20
05
47
10
eb
f0
2e
f9
e8
e8
03
07
18
f4
c5
fe
13
eb
c2
f5
1a
f4
fe
ea
f3
30
d7
3b
1c
e4
f6
cc
e7
02
02
0a
e2
12
55
dd
bd
0c
30
c7
11
29
0d
3a
2e
fd
bb
0c
f7
c9
fd
0c
f0
b7
10
ff
f2
fa
b2
ac
fb
fa
db
0a
05
cb
03
16
02
e0
02
f0
f5
19
14
e6
09
ef
ee
d7
ca
17
05
36
ef
d5
1c
0c
0d
e1
ef
e7
be
f2
f3
10
e9
f8
f6
1c
28
f8
e8
18
0a
ed
04
3b
25
14
ab
e0
d3
1a
c1
d4
38
29
09
0b
e9
02
e9
cf
fc
ee
a7
fc
36
12
bc
1d
19
08
ef
e5
e7
f8
06
e9
d9
c4
25
26
10
e4
d8
d2
e5
04
f9
e8
1c
08
05
18
bc
0f
e5
0e
db
08
ed
1e
13
fc
0d
2c
32
f6
07
08
03
f5
12
01
d6
cf
13
06
01
07
2d
0f
10
f6
0d
43
f4
00
f5
ed
fe
0b
0d
06
ed
f7
60
fb
bb
05
ea
25
17
05
d6
07
11
fc
06
f0
09
43
36
f4
09
fa
fa
34
05
f1
eb
1e
e5
26
40
ed
03
39
0f
08
fc
f9
fb
26
08
de
0c
09
ca
ec
1d
d9
ca
ab
35
1c
cc
05
d7
eb
fb
17
fe
06
e4
26
13
2e
01
f2
16
e5
ed
17
2d
13
fa
f6
ed
0b
00
f5
c6
25
25
d7
67
39
2b
0b
a8
11
de
e3
0e
35
f8
13
fb
2b
d6
fa
22
1f
5f
1a
27
1b
d1
07
15
05
10
32
0f
fc
2d
09
24
f5
f1
1e
01
c5
ed
dd
13
09
f5
fd
0f
13
14
1d
f3
01
01
26
06
31
f8
0c
0f
0f
ec
eb
48
ef
f9
f7
f2
16
17
dd
d0
00
f4
f9
0f
bb
ee
fd
ef
fa
14
de
03
e6
07
07
d7
db
f6
e7
f5
14
1f
f5
2e
0f
03
1a
0f
f6
bf
0d
eb
0b
d5
17
23
f4
20
09
16
f0
44
0d
4c
fd
da
f3
df
0f
63
f4
f8
f3
c9
07
37
f4
24
34
1b
23
07
13
f7
f3
d9
e7
2c
47
0c
ce
a6
2d
00
01
2b
18
08
0a
10
10
ee
fa
d7
f5
21
24
31
36
0d
04
e4
3d
1f
cc
d7
04
19
f7
08
f5
30
04
25
07
03
ef
fa
03
de
14
28
0c
e0
0b
f3
c8
03
b8
e4
f7
0c
07
16
0d
f4
ec
bd
11
05
e3
13
dc
05
d3
9e
35
24
18
fb
e2
a1
f3
b2
e1
08
f6
3c
fe
fc
fd
0e
ed
cc
2a
ff
02
e2
ca
18
21
0b
f7
f9
2e
c2
2c
bf
0b
ef
1f
b9
12
52
18
d9
e5
cd
f4
17
d3
fd
ce
12
0b
ff
10
e9
4f
17
0c
f7
1c
0d
02
13
cd
fa
03
ee
f3
08
f4
01
28
04
2e
ee
f9
f9
fc
db
12
f2
16
e8
de
fd
0f
fb
07
48
03
c8
1a
0e
bb
e8
d6
0d
1e
01
c4
de
ac
1e
1a
29
f5
11
16
05
df
41
27
ec
f0
06
d3
f8
26
1d
00
1a
1a
25
c6
12
b1
fa
2f
10
e4
b6
29
35
06
e6
3e
1f
fc
e6
da
07
f9
07
bd
d8
5f
a2
45
22
e6
1c
03
2d
e1
18
0a
f2
0b
f5
0f
c6
c8
11
e9
30
e5
fc
05
12
2a
08
0a
10
43
29
dd
fc
29
2d
e2
ef
df
f3
e4
e2
fb
0e
e6
ed
30
35
30
c3
05
17
01
ca
f3
04
32
f7
10
e5
d9
2d
f2
0f
03
0f
0c
d4
1f
d1
0f
0c
f6
27
e0
fb
26
22
df
d2
01
47
d4
f8
e9
09
fb
1a
b5
f8
c3
fd
01
1a
00
00
df
09
13
e0
46
fa
0c
f7
05
ca
3a
d5
f5
23
c2
e7
3f
02
04
ec
0d
dd
fe
c5
f8
34
42
f2
b6
49
e3
dd
40
0b
d0
f0
05
04
f1
26
ec
ed
f5
14
04
e9
06
12
eb
e8
12
d5
d9
dc
35
d9
1c
d8
d8
15
05
e6
1a
00
fc
59
e5
b5
f3
1e
fc
19
e3
fd
2a
02
d0
09
d8
23
08
d2
1f
f5
c5
f8
db
c9
fb
e0
f5
d7
fd
d7
e2
03
fc
31
d9
12
d7
28
1c
11
17
32
dd
ff
29
fe
f8
e6
fa
03
06
c7
07
07
dd
00
1c
e4
f3
f0
00
3b
f9
39
dc
bb
2f
f7
09
03
ec
ef
2f
d3
e8
37
17
ed
e7
f3
06
f5
f6
fa
d5
e7
01
02
f9
f5
10
f6
0f
dd
f1
06
26
1a
1a
ad
25
e2
de
16
f8
0c
f3
29
1d
d8
c9
f4
f4
f8
e8
f1
f3
29
08
51
f2
0c
c5
27
09
12
d4
05
b4
ee
fc
ba
1c
03
f0
de
b7
01
db
1d
02
10
04
15
0c
06
18
e3
ce
3b
f1
e2
d2
f5
1c
f2
e1
1d
03
06
2f
ed
16
25
0b
ea
b6
04
ba
d8
c2
f7
fc
02
1a
dd
18
20
39
08
ea
d1
e7
f3
f8
fa
2f
21
d4
ff
17
02
0d
02
d5
26
dc
f3
dd
f9
f7
25
f3
f1
fd
09
1a
05
b8
0c
25
d9
f1
08
d6
13
29
e0
19
f1
f3
ed
01
fc
ca
0d
f3
ed
09
ea
e9
2f
ec
07
e0
22
23
ed
1f
05
d9
e5
f6
ed
05
02
0a
d9
ef
ec
3b
cc
0c
ed
05
38
24
31
b6
d0
ff
fb
3a
22
fe
01
c6
e0
2a
19
4b
07
ed
0a
f4
f4
1d
0b
05
bd
c8
ed
ca
f9
39
17
e8
e1
c2
fd
2d
01
d5
1e
fa
9c
df
05
13
fe
0f
f3
ec
bf
c7
2e
fa
e2
e8
24
43
3d
1a
fe
12
e7
d9
31
fb
0b
b2
14
07
51
12
2b
0c
1a
f3
f0
e2
12
c5
15
2a
bd
0a
f4
05
0c
ce
f0
0c
1e
16
00
e5
f6
24
0f
12
24
27
4d
ce
31
fc
f4
05
e5
c1
f9
e9
03
f8
0f
17
10
f2
01
5f
f9
11
20
1b
01
24
f1
f9
ff
ee
fb
51
37
5e
df
14
fb
ea
28
0b
f7
1c
04
d5
18
05
02
cb
3a
e5
f4
11
01
04
fe
14
05
16
3e
24
0c
f8
d8
19
10
d1
12
32
fc
f9
01
eb
ff
c7
01
08
5c
fc
0c
84
2d
24
d9
f9
0a
f6
30
ed
ff
25
f6
17
fd
f8
31
ce
e4
e9
e2
e6
c8
f3
ec
15
17
d7
f8
18
f9
0a
dc
f9
1e
16
07
dc
00
0a
22
13
0b
fa
5e
00
fd
ec
3b
c4
26
03
ef
e6
d8
f2
2b
cf
df
23
0d
ce
16
ec
f3
f6
f8
f4
0e
e8
fd
0c
09
f1
fa
ff
00
ee
cb
f4
0f
e5
fd
ef
fa
f7
ed
25
05
11
12
de
fe
fa
f7
ee
0e
07
f6
f3
db
f2
1a
09
f9
f9
f5
e9
17
f0
10
0c
13
f5
fa
00
e1
ea
10
27
fc
20
1b
00
f6
f0
da
f3
e5
20
f9
f4
ec
16
17
0d
ec
fc
f4
02
d1
17
02
00
16
f6
07
fa
1a
0c
0f
0b
06
ef
0d
f4
0f
f9
03
e8
0c
1e
f5
08
ff
ef
04
0c
14
ef
00
f2
f6
11
e7
fa
de
f2
d9
e8
05
f8
f9
03
f6
00
eb
05
00
e3
16
0d
f5
de
f3
ff
f2
d9
e1
04
ff
01
02
f7
ff
fb
dd
fa
ce
da
22
f7
f1
19
ec
0c
f0
13
ff
01
0f
06
fb
e6
f3
ed
00
1d
ff
14
13
f0
0a
e0
e0
0b
06
f9
d7
e6
15
f0
0e
e4
04
f0
09
0e
f1
21
f4
01
05
02
1d
06
05
f7
17
0e
f6
06
db
e4
e9
08
03
0a
0e
d6
1e
01
e4
0c
13
f6
ff
f8
03
0d
df
02
e9
02
d3
00
19
ff
fb
0b
eb
fa
f3
02
ed
27
0d
e6
08
02
01
f1
19
0b
d7
10
14
f3
f8
de
0a
f3
0b
02
f2
0c
0b
08
e8
00
0c
14
e6
0f
e7
e8
ec
00
f9
f8
05
06
fb
fe
ff
f7
14
11
04
e1
da
06
11
03
ec
1e
0b
04
0f
09
f5
e4
10
c8
16
04
f1
fa
e2
ec
e8
17
e5
f4
ce
fe
0f
f9
f1
0c
08
13
ec
e7
f0
0a
f9
03
2b
c8
f4
fd
ef
fa
f9
dd
14
40
f5
0b
ff
06
0a
1a
fb
f7
f3
0d
23
e6
fd
03
f9
11
e6
0d
fa
17
ee
e3
c4
16
0c
05
fa
0d
03
ee
12
03
f5
03
03
fd
ee
12
0a
f9
f2
0d
1c
04
e8
f1
f3
03
f1
e6
df
0d
f8
f3
ed
e3
e2
1e
22
e0
f9
10
15
f8
ea
f5
0e
02
11
e4
07
fc
14
f4
05
0d
f3
00
07
bf
ee
de
14
11
f5
ef
07
04
f0
de
da
f2
e7
fe
f4
fd
11
fb
ea
23
19
0a
09
f5
e6
0e
13
e7
0d
cc
ef
fe
1a
0e
fa
d3
07
14
14
fb
14
f9
ea
f7
f1
f7
0b
eb
09
30
04
10
11
01
08
e7
f9
fd
dc
f6
0e
f1
f0
07
fe
1f
0f
f6
fd
fe
09
ea
02
1c
20
dc
14
da
f2
03
1e
ef
02
11
0e
00
09
ec
ff
f8
12
1e
ea
e2
f0
fd
f5
df
e7
17
12
e8
ff
07
0e
00
0c
12
0c
06
eb
06
0a
f3
ff
f0
18
06
fc
fd
fe
e7
f9
dd
fe
13
07
d8
ee
e6
ec
0a
02
15
0e
13
fb
08
13
ea
17
f1
fe
f2
15
fe
fc
22
de
19
12
f9
0e
16
06
f1
f2
03
0f
e4
ff
f3
28
0f
f9
f5
0a
f5
0c
f8
e0
19
dd
1a
da
cd
e3
d4
fc
f5
07
33
ff
06
08
f7
0e
ed
e1
ee
cd
f7
18
f5
05
e8
ff
fa
fd
de
06
cf
f6
d9
0b
fc
f4
24
f9
09
0f
12
f9
dd
e5
07
e4
fe
fa
fa
0d
01
05
f0
ff
dc
f3
03
e1
1e
f1
04
fc
fd
f5
e8
0f
0a
04
ec
1b
09
09
fe
0f
e8
ff
0f
de
01
f4
ee
f6
f0
06
e3
ff
ec
e1
f8
1d
03
e9
f4
f7
00
dc
21
e8
08
fd
0f
f0
15
fe
f3
1a
09
f2
06
19
f8
e7
e4
0f
e7
f5
0b
f8
f2
0d
00
e5
ff
f7
f7
cd
fd
01
f5
09
01
02
fd
cf
fd
ce
e9
fa
eb
01
e3
09
e3
15
02
f6
0e
fb
f0
ec
0d
d3
fd
ff
f2
12
e1
f3
f0
0d
ea
0f
e0
09
f0
ed
0d
05
fe
ff
09
ef
14
18
1e
05
02
f5
f5
e8
cf
f0
0d
f1
ff
f7
1d
1b
f2
0c
0b
e5
f5
f3
02
fd
ef
15
03
15
e8
f1
24
ee
fc
01
16
e1
fd
16
ea
0f
f6
09
11
16
ea
14
ee
06
0a
f9
e7
10
e0
f7
f8
ed
db
00
f2
ed
18
fc
07
f6
e3
ef
05
21
fc
08
00
fb
13
0c
e0
fc
30
18
11
26
18
f9
18
de
f5
14
16
1a
f9
e0
f6
2a
e1
01
00
e0
f7
06
0e
ee
f7
06
cf
da
e7
09
07
f1
04
de
ee
f2
27
f8
e4
09
0b
e0
f3
f6
e1
f2
1f
12
f7
ea
f5
d8
13
01
e7
08
0c
03
25
00
12
f8
10
f3
08
15
fe
24
1b
0e
ef
01
09
07
ee
02
05
0d
04
f0
f1
f4
27
f0
ed
08
01
1b
f9
f1
fe
12
f1
03
f8
e1
ef
01
0c
07
fc
f3
0b
ed
08
0f
d1
fa
1b
20
04
0c
d0
f5
12
30
fe
fb
0a
08
fb
e6
10
f3
04
01
d0
09
fb
e6
f6
02
fd
0e
f7
ed
05
ef
fa
1f
ff
0c
e8
f6
ee
f3
14
e4
f1
fb
11
ed
fd
d3
09
14
fb
e8
06
fe
f6
19
e0
04
e2
e7
09
0b
15
fa
f8
0b
17
17
ff
2a
1f
fa
dd
dc
fe
ed
fd
14
fe
f6
06
ec
04
e4
fc
f5
ed
f5
0a
fc
0b
05
14
09
d3
e0
0b
0c
fb
e8
04
eb
0b
f7
e9
06
01
07
24
f9
15
fa
fb
1e
ed
f7
22
e3
fe
02
e9
ff
10
f3
fa
f5
ff
2c
19
0f
e4
f7
f4
dd
04
e2
ee
13
13
01
09
f0
28
d8
e1
12
f4
f1
00
10
e6
e0
e6
ed
14
18
fd
0d
1f
fe
ec
fe
ff
07
ea
12
e1
f9
08
00
fe
e4
ef
f1
0c
f4
1b
10
d6
f0
ff
ff
0c
00
03
15
f8
f7
10
0c
fb
16
1f
e7
00
16
fc
f0
35
17
fa
e1
19
0d
f8
f3
18
09
0f
d7
ca
f0
06
16
07
1d
15
ea
e4
f9
ef
e0
dc
f9
f5
0a
fd
14
f9
11
05
fc
2c
ec
10
f9
ff
e6
09
f8
e1
00
00
1f
09
f7
1c
f1
06
e8
0d
08
f6
f5
e6
ff
ed
f8
00
f6
22
ea
00
f7
f8
1e
0f
01
0e
24
20
fe
12
0e
05
f8
ec
00
e0
fe
f8
fd
16
23
ef
ff
de
ff
0d
0d
f9
17
fc
0c
e4
09
09
04
e5
05
f1
23
ea
fc
0d
df
06
09
0c
f1
18
f7
18
1b
ef
f6
fb
fa
f6
14
fb
ff
fe
20
dd
e8
f9
14
fb
15
12
fb
f8
f7
0b
04
08
fe
14
fc
03
ee
16
05
0e
16
f1
28
f0
fc
1c
0d
da
f9
0f
16
fd
16
05
f3
14
f4
f4
f5
f8
09
e2
f4
e8
f5
f2
12
fb
09
20
0e
0e
08
ff
28
08
f6
14
f0
f2
f4
f0
f8
fd
0f
f7
17
f8
e9
14
f5
01
0d
f1
01
fd
ef
17
e2
fa
ec
fb
00
fb
05
e0
10
11
f6
f8
fa
08
0d
ea
13
fa
13
ee
0a
05
f0
24
ff
0c
08
04
fe
f7
f8
1d
f2
f6
01
18
f8
0e
e3
f1
f6
f0
15
01
0a
fb
01
fa
fa
14
20
04
f1
ee
fd
0c
04
fd
07
01
0e
f8
24
0a
04
e1
0b
09
31
e8
f9
da
fb
02
0f
10
fb
d5
14
1f
2a
08
00
f8
21
eb
f9
01
e4
f1
f3
f3
0b
fe
21
fd
02
23
05
00
1b
e5
06
09
15
02
09
f3
0d
f7
fd
fc
0a
13
1f
23
08
12
f1
fd
00
dd
07
04
fc
23
f8
0d
0b
f7
09
2d
f7
fb
e5
f7
f2
00
fb
fb
df
10
d9
f5
ee
10
05
fc
ea
ee
02
07
fd
f1
f8
07
fd
0a
1f
ec
14
04
04
f3
11
10
fc
09
13
14
f5
0f
07
ef
0b
10
f4
f9
f8
fb
e9
f5
12
15
01
1f
f0
f8
eb
0a
ff
16
07
1a
e3
f7
07
18
f2
00
c1
ee
0b
e2
f6
27
d2
1b
02
09
e8
15
f1
02
11
1e
f0
22
17
07
d9
e6
ed
32
ea
19
11
f0
f0
03
f0
f4
d0
f4
0f
f9
f6
0f
dc
fe
16
ec
e9
f4
0d
fd
09
f3
0c
13
f3
ee
19
06
fd
f0
00
09
f9
c8
f4
ec
04
07
0e
06
09
18
06
f8
e8
e6
0f
16
f4
e1
17
27
ea
00
05
08
0c
f2
ef
fe
19
13
f7
02
12
e9
f2
ed
15
09
df
f8
f3
01
ff
fd
0f
d6
22
10
eb
0d
01
0e
fa
17
f0
03
1f
10
00
f9
01
01
16
15
e6
e4
0c
0a
09
dc
02
08
03
04
f1
d8
0a
05
09
f2
1c
f8
ea
e2
f2
e5
0c
1e
10
ee
28
f3
05
e6
fb
f4
e6
eb
10
08
10
19
e7
00
f8
ff
0c
0e
fb
01
04
e1
0b
04
fe
f2
fd
f4
e7
e7
24
03
09
15
e7
1e
f0
0a
f9
f2
ed
f2
14
eb
1c
07
f4
fd
ff
ec
1d
13
0e
12
eb
f6
f8
05
f4
1c
20
dd
fe
0a
f1
0f
ec
0b
0f
f7
f7
ff
14
0d
ef
f0
01
f5
1a
10
0a
f7
0a
e6
11
e3
06
2b
ff
1d
0b
f8
fb
f9
d8
20
d6
fe
14
ef
01
fc
0d
f1
29
29
f3
03
08
0c
cd
fd
07
f2
f1
03
12
15
df
07
ff
f3
05
21
f5
ea
0a
07
f9
e4
09
1b
dd
16
12
28
f2
13
fc
3d
e6
e7
03
f3
fd
f8
24
ea
fd
f4
0c
f4
14
04
2c
14
fa
ef
05
e8
11
ff
ef
da
ef
e7
fd
fe
08
e4
12
fb
fc
fb
e3
05
dd
0e
fd
15
00
f8
0c
16
35
e7
17
10
ea
f8
fa
25
f8
d7
fa
ea
0d
eb
e8
e6
09
08
09
18
0a
e7
fe
1d
2e
0a
e2
e7
fa
f3
e5
05
fb
e2
fd
ea
ed
04
ef
fa
02
11
f1
df
ff
07
f8
07
07
0d
f3
f8
15
ec
04
0b
09
fd
00
eb
f1
04
04
fa
d9
13
d5
08
ed
fb
fb
00
0e
e2
f1
00
d7
f9
07
13
f3
e8
12
08
15
fc
f1
e6
01
ee
f9
0c
e7
f9
0d
fa
02
ff
0e
f2
fa
f7
f7
fe
05
08
09
1b
21
11
04
1e
12
1a
f1
1a
fb
15
06
04
08
05
ee
ea
fe
10
09
0b
06
16
e9
05
11
21
04
0c
ff
00
0e
db
1f
fd
19
fe
f7
f5
0e
f2
fb
14
0b
0f
e3
fc
fe
f9
07
09
06
0a
0a
fe
fe
d2
07
eb
f4
18
11
f9
07
0e
e6
09
00
16
11
c1
06
04
d5
f1
ef
03
0c
ff
e5
f9
1c
df
2e
07
0f
10
e6
e2
09
ff
03
18
02
fd
d6
ef
e9
ef
d7
ef
2a
12
ee
fb
0e
06
07
e7
06
01
01
1b
e5
c2
fc
02
1d
fb
f9
0b
fd
0b
02
04
0a
04
04
20
11
e3
13
fa
ff
0d
0e
13
e0
0a
f0
1c
d7
19
02
f7
12
0a
f9
20
f8
dd
09
e2
0e
f7
f3
f6
0a
f7
1c
00
16
e2
ea
ee
f1
f0
eb
06
f1
00
e4
fb
1b
df
08
0a
f7
f5
25
18
de
04
eb
08
e9
04
24
03
0f
05
fa
ed
0c
ef
09
11
0e
e0
ec
16
ed
f4
0b
e9
15
06
f8
e0
0b
fc
07
14
f7
01
00
1a
f3
e8
0a
04
ea
11
06
fe
e2
eb
f4
df
0f
2a
11
1c
16
0a
0b
f2
e5
f0
fa
12
dd
0a
07
dc
00
f3
03
16
12
1f
fa
08
f9
e3
19
06
14
f4
ec
e8
d7
0d
0d
01
1b
15
ed
1c
f5
13
00
1f
e2
0d
fc
0e
10
f8
12
03
ff
19
e8
08
f9
08
fa
0f
14
e2
e5
f9
1d
0d
00
f7
f1
0e
02
f3
08
07
28
f0
13
f6
05
ff
ff
fa
05
eb
f6
03
0b
01
03
14
ff
10
f1
06
f5
0a
f2
0f
06
e7
22
f4
de
ef
10
e6
1e
31
12
fc
fa
23
05
fb
0d
f1
05
f7
26
0c
03
14
f9
f4
f2
25
09
f3
16
28
07
fa
05
23
20
ea
f6
22
f3
02
ea
18
d6
fe
f9
15
18
03
ff
04
f4
d4
12
08
10
ff
fa
cd
0a
02
1a
df
04
db
10
20
23
fc
26
0b
05
f5
0d
0e
f2
ce
15
12
e1
0c
e2
18
30
17
f3
27
fe
08
f7
09
e5
18
f7
fe
df
fb
fb
da
ee
f4
03
fe
04
de
08
ee
18
e8
0e
11
02
fa
15
19
fe
07
00
26
08
ea
01
f2
f9
01
12
01
11
0b
fc
ec
f3
fc
f1
f5
04
f7
0d
22
14
ed
20
f1
ed
11
dd
0b
01
09
01
fa
f1
d7
e4
0c
fd
f4
b6
f5
ec
f8
19
fa
fc
00
f9
19
f4
10
fe
08
ff
07
0a
ee
0d
1f
0a
1f
0a
0b
f6
0d
10
24
19
07
07
1d
f8
16
f9
04
e6
04
ec
0f
f7
04
14
fa
e8
fc
26
f9
02
d1
2b
11
0a
e9
fe
f6
e7
ec
ef
1b
db
1b
0f
d8
d1
f8
12
05
fd
00
06
17
fe
0b
1a
f5
f0
e8
ec
00
ee
0f
11
fd
06
08
f6
fd
da
e8
01
0d
d8
22
14
0b
0b
12
fa
08
e0
f6
14
05
0d
d6
28
01
f5
f4
17
18
c4
fc
f0
09
d6
ca
b3
07
19
dd
0f
e0
01
e9
fd
23
d8
05
01
23
23
e7
14
02
f4
f2
f4
fc
d3
1f
f6
33
d8
cd
f2
fb
fd
fd
1e
49
dd
c9
11
c9
e0
ee
31
be
08
13
63
fe
1e
f1
d5
2e
d5
1d
3f
02
f2
fe
e5
45
eb
13
0b
05
31
18
ea
c3
df
e8
dd
03
d8
ed
fb
fa
30
04
fd
f4
ef
22
db
f9
07
dc
02
fc
b7
12
f5
18
10
f1
fc
0c
e7
e4
f0
12
0c
f6
18
1c
b8
d6
f0
5b
e0
02
1c
f3
1f
d8
19
ac
fc
dc
3b
f6
f7
1a
ec
03
d9
0d
da
0a
19
13
14
f8
cf
d3
ea
f7
02
f8
08
11
e4
fa
ed
02
eb
f1
de
3c
1e
ef
3c
e7
1a
cd
0b
de
32
ee
06
f7
08
da
e0
ec
fa
ec
e1
f1
1e
05
d2
12
f0
fa
e6
ed
31
f9
d7
e8
df
d6
1f
27
0d
c2
e5
00
f6
db
05
fa
d1
f1
fc
1a
ed
e3
0d
22
ef
ca
e8
0b
d4
e7
03
ea
e6
d4
e4
36
02
de
ef
eb
f4
ea
1d
bf
ee
34
07
ee
f7
f7
c7
03
fc
0a
02
df
f4
ef
2d
20
bd
d5
e8
e4
dc
f0
06
fa
39
16
09
d5
1b
f5
3f
d2
ff
fd
02
57
ca
f5
cc
05
0c
f7
f5
16
01
28
dd
05
ef
33
04
2e
e5
f8
fc
03
cd
e0
1c
05
23
d3
16
09
0c
f9
f4
ee
d9
fc
15
16
f1
00
f1
ea
f3
21
f2
ef
f2
f3
e3
e2
10
d6
08
00
05
f4
1f
e8
08
03
03
19
00
1a
10
d9
db
fc
bb
10
f6
fa
38
e5
07
1f
16
c9
f7
06
08
21
de
c7
19
0a
cd
34
25
fb
b2
06
1a
13
2e
ee
ce
f8
e5
f7
23
e3
d8
f7
0a
f9
f5
09
d7
ef
01
00
ed
ff
19
e5
d7
ec
ff
16
09
21
fa
26
04
bd
16
07
1a
ed
37
e4
1b
04
e6
f6
2e
19
e9
09
43
e6
1b
13
0f
f0
eb
f1
1e
d5
c5
0c
05
c7
1c
ed
fe
1e
15
10
40
f1
e9
ef
c8
e0
12
f7
ee
09
0d
0d
20
ef
df
d3
ee
9c
0c
03
de
ff
ea
e7
f1
ed
ee
3e
f3
02
ed
d4
ec
06
01
12
d3
fe
fb
04
ee
18
10
14
14
f7
f8
e3
d2
d1
fd
ec
e2
00
fb
d2
1f
c6
ce
dd
11
12
d8
ed
0a
ff
f1
fd
24
f9
06
04
08
f2
eb
ce
11
f8
e4
0f
f0
d6
08
05
f7
e7
e9
ee
f6
1a
13
e1
36
cb
1b
f9
e5
fa
f2
0e
f0
01
cd
08
fe
30
0c
25
cd
23
09
16
f1
08
b6
ec
0b
e7
f5
e2
0b
02
fa
25
00
f3
04
0a
17
f4
2c
0e
b3
0f
bb
c5
05
ea
0a
e0
04
10
e0
f8
1b
02
12
25
d1
fc
22
e0
0b
23
0e
1c
1e
1f
09
36
01
f3
11
0a
05
13
a4
b1
f3
00
fe
11
1e
1a
fd
fd
f7
11
03
06
0d
e2
e9
f9
de
e8
0a
fc
07
ea
cd
fc
db
00
e0
fa
ed
fe
0c
e1
11
ea
10
10
e6
03
01
ff
f8
ec
12
f7
d3
1f
f8
d7
25
f9
20
11
dd
f1
3c
20
f5
af
f6
2a
22
02
e3
0b
21
4c
f4
ef
06
f7
21
11
0c
16
06
04
0f
10
1a
f9
17
c6
05
ff
21
05
f9
0c
d1
00
b7
08
17
ff
f8
22
0d
07
fd
0c
0c
0d
de
f7
f9
05
f2
fb
e7
e1
16
ff
f2
e4
31
f3
e4
dd
13
06
f7
cd
ef
c5
db
f8
0b
0c
22
fa
fd
f1
df
31
1b
06
e7
e1
00
22
f8
12
06
0e
05
4e
d5
f9
fc
02
eb
e8
06
fe
c5
d6
ff
1c
23
13
f1
0e
f1
0d
04
f2
04
0a
05
0c
21
e4
36
0f
e2
f1
fe
00
f3
08
0a
ff
f6
f3
f2
09
df
1a
26
dc
db
01
f8
e8
3e
ec
30
0d
05
c8
ed
18
18
0f
f5
fb
98
14
f2
01
f6
dd
0e
07
e2
1e
cb
e3
08
e5
03
ee
ae
23
30
19
1f
03
fa
dc
16
1d
c0
13
1f
f9
d6
0f
05
15
0d
bf
f4
fa
f8
f6
fa
e7
13
15
fe
06
23
17
e7
1b
ce
da
00
55
03
03
da
ed
bf
fb
e7
e1
fe
08
ee
ea
f0
9f
e3
f2
f3
18
f4
f0
e4
fa
21
e4
ef
18
00
0c
e5
f5
07
11
30
14
f2
05
dc
b7
ef
11
fa
03
06
05
23
10
f9
e0
18
f1
dd
00
08
26
0e
1f
0b
25
e9
cd
e4
03
47
26
0f
e3
f0
fc
d3
cb
e3
f3
e6
e2
ea
e3
ef
ea
e8
cf
fc
1c
d9
f7
df
f1
ff
db
21
24
e9
f2
08
31
0f
f0
15
d1
da
25
14
02
f7
16
f8
31
5c
f2
08
00
10
1f
17
19
f2
02
b2
b9
14
23
e7
19
f8
13
16
d8
0e
cb
24
e2
dd
f2
0a
f2
f4
e2
d3
13
15
d6
b4
d1
07
f1
19
e3
0c
07
29
05
e1
d7
f4
11
d5
07
f8
e3
ef
06
24
f2
03
e9
16
07
c8
0c
fc
f9
00
ec
c8
09
e7
21
24
f7
04
d2
e8
e0
db
0f
cd
38
17
fb
01
02
1b
16
12
ff
10
f4
e3
14
e8
d6
8b
f5
06
28
13
f8
e1
f4
d3
c4
04
25
c3
da
f5
09
01
1f
ef
1b
25
0a
25
eb
d6
fa
e8
12
d3
de
fb
08
ee
f3
d8
ea
eb
e7
17
f9
f2
ec
5e
09
ef
1c
17
18
e6
e1
07
10
f4
cd
3b
ed
31
08
2f
a9
04
17
f6
02
db
0f
f2
0f
fd
c7
d7
cc
2a
0d
0e
f0
f0
eb
e8
21
fa
db
fb
de
fb
c1
0d
19
02
e9
0c
06
df
df
06
34
0e
eb
f4
c3
07
f4
13
e3
e3
06
05
d4
12
f4
f1
fc
34
08
e1
3f
09
2a
02
f8
f3
d6
ee
13
ff
ed
09
de
e0
f5
f1
02
07
fb
f8
f3
f7
e5
0c
e1
e1
f8
21
3b
fa
00
23
25
f0
34
01
11
f7
1a
2a
1b
f7
fe
22
e9
16
09
1c
f3
00
df
e8
e8
26
f6
00
0d
fc
eb
c7
0e
07
3e
c2
03
ee
22
0f
26
da
f4
ec
0f
34
f4
3c
05
0b
f3
ef
fc
01
11
e1
04
06
f5
0b
17
fd
26
d1
e3
d6
0b
e1
cf
37
13
00
e3
e8
2b
bb
2f
f9
db
fe
bd
00
f3
e0
f2
e5
ee
02
d8
e8
e5
fd
01
ec
16
0c
ef
0a
fd
0f
14
dc
fc
f2
0f
13
fd
e1
ef
f8
12
fb
03
10
1f
1b
f5
08
fa
11
0b
0d
06
f7
c7
f3
02
fa
12
fe
10
0b
05
ef
0a
f8
f3
