0a
0b
e2
09
fe
0b
03
fb
00
04
04
f6
fe
1d
f8
f9
0b
fe
03
f8
f9
03
08
01
f0
08
00
fa
0b
09
f6
fd
ee
eb
07
eb
f9
f2
fb
03
fd
ff
01
10
0a
05
00
08
07
01
fb
fa
05
02
08
fb
01
ee
fe
ff
ff
f7
02
0f
03
0f
fa
03
04
f6
f8
fe
f7
02
f1
03
fa
ed
00
03
f3
13
fe
ed
15
f7
11
fc
00
fa
0a
e6
04
fa
f1
ff
18
f9
0a
08
05
e0
05
26
fe
06
f8
0b
12
04
f9
0e
fb
08
0d
00
fb
ff
19
f3
f8
f9
02
0c
0a
14
f6
06
ff
dd
10
09
0a
fe
02
03
ef
0e
04
05
01
06
fe
0e
f9
02
fb
00
f6
0a
03
f3
fd
0c
ed
f2
ff
f5
e9
e4
06
05
05
fe
f8
fa
fc
01
0e
08
02
12
ef
00
fb
09
fb
f1
0b
08
f3
eb
0b
fd
02
04
08
09
0f
0c
fc
05
04
fc
0b
0d
07
08
04
03
ff
0d
0a
fc
08
04
f8
04
02
fa
06
0f
06
f2
08
0f
08
00
ef
f7
09
0e
01
08
10
0d
fc
07
ed
03
09
ff
0c
fb
fc
fe
16
ff
11
06
fe
01
1b
09
05
06
07
02
0b
fc
ff
02
07
f3
f2
0f
e1
0d
01
f9
fc
f9
01
fa
05
08
10
07
0c
0d
ff
0d
fb
f9
13
09
f3
11
fb
0a
0c
f8
04
f5
03
f5
fc
ff
0d
02
13
02
05
f9
f9
03
09
14
05
ff
ff
fb
18
f4
f7
1a
f9
00
f7
11
ff
07
fc
fc
fb
f2
f2
f6
ef
f7
00
df
fa
f5
13
f4
f0
0d
ed
07
14
03
f6
f3
00
06
13
fb
01
0a
f3
09
13
ea
f8
03
0c
0d
05
f8
ec
ff
08
01
0a
15
09
06
01
fd
06
f2
07
0e
07
04
02
06
fe
04
f4
ee
e7
0a
09
02
05
0d
ff
fa
e5
04
01
fc
f8
fd
ee
0c
0f
fa
eb
06
0a
05
09
0c
ff
04
f9
fd
07
06
08
ff
e6
15
09
e4
00
0e
ff
02
0a
0b
ff
fb
05
f8
f6
09
0b
13
11
fc
f9
0c
f9
09
08
00
f4
fe
0b
04
fa
03
f4
f9
07
f8
fc
ef
22
06
05
17
f8
ed
fb
0d
ff
09
f5
0d
03
07
0d
ff
fd
ff
fa
f2
00
02
fc
10
f3
09
fa
05
fa
0a
0a
0a
09
04
02
f7
fe
0a
fe
02
07
08
ff
15
fe
f9
07
f4
f5
03
02
04
fb
f8
07
05
fc
fc
0c
06
e7
fd
f9
13
0d
f2
f8
fa
f2
05
0a
02
06
e7
f6
06
03
ff
02
ec
f6
0b
02
09
0d
0b
06
00
08
f9
07
08
f6
11
f6
15
04
08
00
05
06
e6
05
06
fa
0a
14
ff
17
05
09
fc
07
fe
ec
fb
36
fc
03
fb
fa
fb
fc
0e
f3
16
12
0d
08
01
09
f9
fc
06
03
01
fd
f9
0f
06
f8
fd
fd
04
09
fc
f9
02
08
08
12
f9
f9
0a
01
fe
06
01
fa
09
07
07
f7
fe
05
01
f2
03
f7
e8
01
01
ee
06
04
ff
05
e6
05
0b
07
fe
fd
08
ff
f2
f2
f6
0c
03
f5
01
04
06
fd
f9
00
0b
fd
12
f7
10
f6
f6
06
02
03
f6
11
fa
05
0e
fe
e0
05
02
00
09
02
fd
0e
fd
f9
01
fd
f8
11
fc
fc
06
fb
fe
0a
0f
f0
f4
05
f8
05
05
fc
fa
fc
f7
01
0e
ed
04
f0
ed
05
06
0a
03
f6
fc
f7
07
fe
f0
f2
fb
e5
15
f7
09
fb
fe
16
fc
fa
f7
e9
e5
f2
01
08
fd
ef
fd
f2
fd
00
fb
f9
00
00
f8
06
0b
03
07
f9
01
fc
f6
ef
fc
f3
f1
ea
f9
00
ee
e3
0c
fe
f0
00
04
ea
f3
fd
ec
e5
ff
f4
ff
ff
fa
01
f6
fb
0e
f1
00
08
fc
00
fe
fd
0b
fd
f8
fb
ef
0e
ec
f7
ec
0a
fd
06
f7
ff
ec
01
03
fe
fe
09
02
fa
05
06
ea
f4
04
00
fd
f6
f8
fb
03
0d
fd
f8
f8
00
f6
f0
18
0a
0a
08
05
ef
01
0e
f1
fe
02
02
fa
0a
03
fc
00
f2
f1
04
06
e7
0e
00
10
fa
f3
f3
fe
02
f4
ff
f8
f0
04
fb
fb
f8
f9
f7
fe
05
f8
09
04
ee
eb
02
0a
f7
f5
00
ff
01
fc
f8
f5
fa
f5
f4
fd
fd
fe
ec
f9
02
f4
fd
f8
04
ed
f4
07
06
02
02
f6
fe
06
f6
06
f4
fe
10
01
fd
fd
04
fa
ff
ec
1b
e9
02
f6
06
f7
f6
00
fd
0b
34
f8
0d
06
f9
f1
09
0b
f9
f7
07
03
fb
f3
fe
07
02
06
08
f5
04
05
f3
fc
0a
e9
f8
f8
f4
0c
06
16
08
fc
01
fa
f7
f8
fb
fa
05
ef
f4
12
fd
f8
f3
fe
ed
02
f0
05
14
f9
12
00
ef
ef
fb
f9
03
f5
09
17
03
01
f6
f2
00
01
e8
02
ff
01
0b
fb
f1
f9
ff
02
fc
ef
02
0a
fc
f9
ea
fd
01
f8
f2
01
03
0a
f2
fb
fd
17
ef
e8
f6
fd
02
fc
f9
02
08
0e
05
fc
fa
f6
f0
f3
ee
0d
f9
06
09
f9
00
05
f6
e9
fe
09
04
fb
f8
f8
07
1c
fb
fb
05
05
f4
02
f2
f8
04
fa
06
f5
f3
f2
fe
02
03
f4
16
f9
f3
fa
06
08
09
03
f1
f4
f8
05
fd
fe
05
12
f8
05
f6
fa
fe
f4
08
0a
07
01
0c
ff
fe
f2
07
06
f4
02
fb
f8
fd
fc
ff
03
ff
07
fa
f6
02
04
05
ff
f7
fa
17
00
f4
05
05
f1
02
f9
f3
f5
03
03
f0
05
fc
fb
ff
fd
08
07
f2
02
eb
eb
0c
ff
06
fc
f4
05
05
fe
fd
03
01
00
01
03
fe
ef
f6
03
f7
f5
f2
e5
f5
fb
0a
01
02
f5
03
ed
04
12
00
03
0d
08
05
ff
f0
f3
f5
01
f9
04
f0
fe
fb
0b
f8
0b
09
f7
02
00
01
04
f9
ff
ff
fd
ed
fb
0a
01
f9
00
f5
fc
fa
03
0d
df
04
00
f6
fa
ed
08
03
0c
06
f4
f6
fd
f6
03
10
03
00
f8
06
f6
04
fb
ff
ff
fa
02
0a
14
05
e6
07
fc
f3
f8
f9
f3
02
08
f5
f8
0b
08
f7
f6
fe
dc
f7
fd
ee
f6
01
f3
01
0d
fc
01
f7
0d
fb
08
ff
fd
f7
fc
02
f2
fd
f4
ee
00
f6
e6
fc
e9
fd
fd
f9
10
fc
06
fd
0d
16
f5
fb
ef
04
fa
f9
fc
fc
f8
f6
03
0d
fe
fd
f7
fe
f8
fd
fb
f9
fb
07
f3
fe
fe
fa
f7
f5
07
f0
0d
0b
e0
09
f6
00
03
02
0e
0b
f3
f6
ff
04
e4
fd
07
ff
f6
ec
04
f0
ee
03
02
fe
f3
06
f7
f5
04
fb
de
fd
07
fe
f8
01
fd
0d
ef
f1
0a
01
fb
f5
fa
0c
fc
ef
0a
ff
12
fe
ff
0f
f8
fa
eb
fd
f9
e7
fb
07
09
01
f9
ea
f7
f6
fe
f9
fb
00
fb
06
03
00
fd
f0
f5
f5
f6
19
f6
ff
fa
fe
f9
02
04
0b
00
f7
05
03
04
fa
fb
f8
ed
f5
f5
f0
ea
0d
fc
f5
fe
f8
f9
00
e9
f6
fd
09
f4
fe
06
fb
fb
fe
02
fd
fe
01
ff
f8
f3
fa
e7
f2
0a
eb
ef
f5
f3
00
00
09
13
ff
ea
fd
f7
f3
f0
fa
07
00
fa
01
fd
01
05
ec
07
05
f1
00
f1
f9
f3
fb
f0
f8
04
fd
fc
ff
08
e0
17
ea
00
fa
0a
02
fa
fb
f3
ff
16
f6
f8
fc
f8
e5
ff
fb
f5
04
f3
fa
02
f9
02
03
06
ef
fd
07
fe
f2
10
fe
07
fb
f1
07
f6
14
08
ff
f8
fc
f4
07
fe
f9
0a
f9
fa
f0
07
eb
fb
f6
f9
f2
ff
e2
e2
fe
ed
0a
f7
f0
07
f8
fc
f5
00
0b
00
03
f9
15
f5
09
04
08
01
fb
0b
ec
fe
08
00
ff
f6
f4
fd
07
f5
00
f6
1c
02
f5
02
fd
ef
fc
fc
fb
08
f8
08
03
03
03
09
0c
09
f8
00
fe
0b
fe
07
fd
ec
03
f4
0c
09
01
e7
f4
fe
07
00
0b
11
fb
fb
f9
fd
f9
05
ec
f6
f3
fc
04
fb
06
f7
fb
ee
ff
05
04
f8
ef
f3
ff
fd
06
ee
eb
f5
f9
f4
fa
ee
fe
e9
e8
fe
f7
f7
ee
16
fc
04
18
f3
f8
f4
f8
f8
05
0c
f5
ee
fd
03
fd
fe
0f
f0
ff
0c
f5
ff
fd
f9
ec
01
ff
04
fe
03
f0
ef
ea
fc
01
06
eb
0b
cb
ff
f4
ef
fd
e5
fd
02
0f
eb
f5
e4
fb
09
07
0a
fd
fc
eb
f1
f4
10
f6
f4
ff
02
02
01
00
fa
fe
f9
fc
02
08
08
11
fc
f8
fb
ff
02
f3
03
08
fa
f3
f4
fc
00
0b
ff
09
fb
08
fc
00
06
05
f7
fd
03
fc
0f
fe
fd
f9
f7
fc
f2
fd
fd
06
f1
01
ff
01
fe
f9
ff
e6
f8
06
de
ff
f6
f8
fc
0a
fe
04
ef
ff
02
ed
06
fc
07
0b
08
f9
04
01
f2
07
02
f5
ea
fb
01
0c
07
f1
05
ef
fa
11
03
f9
f8
ff
02
f9
f0
ff
f6
f2
03
db
f5
07
ec
0b
fc
0c
f8
fe
03
f6
09
04
fc
00
01
0c
07
00
fc
ea
fa
e9
fa
f3
f4
00
f4
fd
01
04
fd
f5
15
ff
06
0e
e7
00
0b
f8
ed
f4
05
07
ef
07
01
f7
fd
fc
07
fe
f1
03
f1
f3
ff
fc
0d
02
fd
dd
06
02
fa
07
02
ed
fb
01
fa
f5
03
d7
f0
fa
fb
f8
f9
fc
fb
05
f1
f7
ee
ff
02
f5
f8
0c
fe
01
04
0e
f7
05
f4
0a
ff
03
d7
fa
f1
0a
0a
ef
ef
fe
f6
15
df
ed
ff
f5
f8
07
07
fd
f8
0d
f6
f9
fa
ec
f1
fc
0c
f1
d9
f1
f3
fa
02
fe
f2
ff
ff
f9
fc
16
01
0c
fa
eb
08
f6
f5
fc
f7
f8
e9
0e
f5
f6
03
f8
eb
e8
f4
f7
03
ff
f5
f4
07
ec
fb
f2
02
15
1d
06
03
08
23
f5
fb
fe
e3
06
f4
02
02
f3
00
f4
0b
ff
ff
fd
ff
ff
e4
fd
fd
02
01
ef
f9
fb
ff
0f
fe
f9
fd
01
f1
02
f9
f8
ff
f9
f9
0f
df
ff
fd
01
fe
fd
fb
02
03
01
00
01
f5
05
f9
09
fc
f8
fe
fb
fe
08
08
fb
01
01
02
fb
f8
09
01
eb
02
ff
03
00
fe
00
f7
fb
03
f5
f8
ff
08
05
09
06
05
00
12
07
fd
04
ff
fb
fe
fc
ff
00
02
f1
02
fc
f2
04
06
fe
05
f4
eb
ff
f8
08
00
02
f6
03
ff
01
fe
f5
01
fb
05
02
fd
ff
05
f9
01
02
1b
f3
06
fb
f2
f4
01
01
ff
fd
fc
ff
08
fd
02
06
00
ff
f8
ea
04
03
04
08
e5
f7
f6
01
00
18
01
01
f6
ec
f5
fa
fe
03
03
02
f9
fb
03
fd
02
ff
fe
f0
01
fa
f1
fd
f9
eb
02
f5
fa
ff
06
06
06
0c
0c
fb
fd
f9
01
01
05
07
fb
04
07
f8
f9
fc
fb
06
f0
f9
03
fd
07
fa
fb
07
02
03
ff
04
05
0c
fc
ff
fa
f6
ff
fc
fa
01
fd
03
f1
6a
f6
fd
03
ef
fe
fe
f3
f6
fa
02
01
02
04
16
10
01
fe
f6
f9
0c
07
01
f8
fd
04
f8
01
08
07
01
01
03
fc
03
f6
00
0d
01
07
00
00
fc
0f
00
00
fd
fc
f6
19
fa
fb
01
f9
fa
02
00
ff
fb
f7
04
fd
19
02
fd
02
ff
06
00
02
09
f8
fd
f9
e7
fe
ff
06
09
fc
f7
f1
fb
fe
f4
03
fb
fa
00
fd
00
f5
06
f7
fd
03
0f
05
f9
11
02
fa
04
ff
f7
02
fd
02
fb
ff
01
00
f8
0a
f1
f2
1b
01
01
0d
06
fd
fe
00
f4
04
09
ff
06
fa
fe
05
ee
0a
ed
fb
fc
16
04
00
f9
ff
fd
0a
f8
f7
06
ff
04
03
01
07
15
fd
f9
04
02
ef
fe
f7
05
06
08
f7
d5
fd
04
03
06
fe
fc
ff
19
01
fa
ed
01
12
f8
01
ff
09
fe
01
00
eb
05
f6
fe
fd
f7
f6
05
f4
05
fe
ff
02
fd
01
08
ff
fa
04
fd
0e
f7
fc
f9
ff
fc
04
fb
00
13
07
03
05
0a
f6
04
fa
51
fe
fc
02
fd
fc
fb
fd
01
01
fb
04
0d
0e
02
03
fd
fc
f8
08
f9
02
ff
ef
fb
ff
0c
01
fe
01
00
08
ff
fe
07
fa
ff
00
fa
01
08
fb
ff
0a
fb
f8
04
99
02
07
f8
08
f5
06
f2
00
01
01
f6
0a
05
f8
ff
f8
06
21
fc
02
f4
04
fb
fe
04
fc
04
04
fc
0b
fe
08
fe
0a
fb
ee
fb
fc
fb
11
00
fd
00
02
fe
ff
fc
00
06
f9
f3
e9
ff
05
f9
f8
f7
f0
fe
09
f8
01
00
08
fa
07
f8
05
fb
f7
06
03
03
05
fe
fc
00
f3
fd
ff
0d
01
02
00
f5
05
ff
ff
06
07
fe
01
04
08
07
fd
f6
dd
01
03
02
04
fe
05
06
f4
f9
11
00
01
03
fd
f7
f8
07
fe
01
06
00
fd
05
0e
f0
01
00
03
fe
05
f7
fa
05
fb
f6
fe
04
ff
03
03
f6
02
0a
06
f4
16
fd
04
ff
08
06
fc
fa
f4
03
09
01
fe
fd
ee
fd
fa
f7
04
fc
00
11
fd
f3
07
fd
f9
ee
fb
f4
f1
08
0a
0d
e9
02
f5
fd
ff
03
04
08
1d
f9
12
01
f5
d8
fd
0a
fc
f2
03
07
06
07
ff
03
fe
f7
0b
06
ff
ed
da
09
08
fd
f7
ed
fc
ee
01
04
0a
0e
03
0a
01
02
fe
04
f1
f2
00
e9
f6
fc
fb
f8
05
ff
0a
0f
f5
fd
fd
02
ff
03
ff
10
02
06
00
e6
e8
ff
fa
00
ff
08
02
07
f3
ff
ff
f4
fa
0a
ff
0d
10
fe
fe
fd
08
f5
da
f3
f9
f5
05
f8
02
02
fe
08
03
fb
05
fe
01
06
fe
f4
04
03
fa
00
02
fc
02
fd
fc
09
f1
f4
01
fd
02
13
04
f6
02
ff
f1
f8
03
01
fc
0c
17
fd
ef
f6
08
0d
00
ff
d8
04
07
ff
05
08
04
06
01
0c
f5
f8
f2
fa
05
01
1c
fc
00
fa
ee
ff
ed
0e
06
02
07
fc
f0
f4
f3
04
1c
0c
06
f8
00
ff
fa
f9
04
04
06
fe
fd
fe
03
ff
f8
f3
0f
08
02
ee
f4
00
fc
04
02
f6
fe
fb
03
fd
f7
fb
01
04
11
f8
09
fc
fd
f6
fe
0a
04
f8
07
fe
06
04
f6
fc
fd
11
f7
01
fb
01
ff
fc
fb
e0
00
02
04
f8
ff
02
ff
06
fe
fe
08
f6
00
03
f9
02
fe
04
f5
06
04
fe
00
07
e7
fc
f1
00
fd
02
f9
f7
e7
00
fb
fe
f5
f8
ff
04
e7
03
00
05
fa
fe
01
06
ee
f2
ff
0c
f8
09
fa
03
02
04
0a
02
f5
f1
f2
fb
fa
08
f5
f3
fb
f8
f7
ff
03
12
07
f8
03
03
0e
03
03
fc
07
f2
e6
f7
04
01
fd
fe
ef
fa
ed
0c
01
07
10
03
ff
f4
0c
02
00
fe
f0
00
00
06
09
fd
01
fa
f4
2a
f9
f9
06
ed
f8
0a
f8
03
ed
01
02
f9
04
09
fb
12
f6
03
02
00
ff
0f
08
10
04
f6
fe
fd
f8
f7
ff
05
f8
0a
01
01
f7
05
e5
06
00
05
04
e6
fa
ff
01
0d
f6
f2
06
ff
02
fc
05
12
e8
07
08
f5
01
f9
00
02
ed
fc
02
f4
05
0a
00
fe
fc
01
f7
08
f1
01
f5
08
fc
02
fd
fa
f6
f7
03
fc
f2
06
10
f5
fa
09
fe
08
0e
f5
fb
fa
02
04
fc
00
08
12
c9
00
fe
28
ff
fc
06
03
01
01
ef
f4
f8
fb
00
f8
f9
09
01
fb
f2
fa
01
fa
fd
03
02
01
09
07
f8
f7
f8
f8
f6
03
fd
ec
02
f0
04
fd
f7
02
fc
02
03
23
03
0d
06
01
f8
07
fb
01
fa
03
17
05
fb
0e
fd
08
f8
05
0a
03
03
f6
00
f9
fd
04
ff
06
02
fb
ee
0a
f6
fc
f7
f7
00
ec
b6
12
0b
04
fd
07
f8
ff
07
e6
fd
06
0d
00
f8
fb
02
fc
e2
09
0f
08
fb
07
12
06
1f
06
04
05
fb
01
00
05
e4
f6
19
11
ff
0a
fd
f0
02
04
00
f0
ee
f4
ff
fd
05
04
01
f6
f2
0c
ee
05
0c
f5
fa
0d
14
07
fd
01
fe
fd
fd
fc
46
fb
f7
ff
0b
00
f6
f5
ff
06
fa
0b
f9
0e
fa
06
03
fb
fd
fc
f8
fc
f4
f8
ff
0a
fd
f7
fd
06
fe
02
0b
08
fd
f8
ed
ee
f8
0a
02
01
f3
f6
fc
05
1d
fd
ef
ea
28
ee
02
00
fe
f6
21
04
f7
05
fa
fc
eb
fc
fe
f6
fb
ff
0d
05
f4
fd
fc
10
fe
fa
ff
00
fd
0b
f9
f9
ff
e5
17
06
0d
fa
e9
fa
04
ff
07
f9
fe
0c
fe
08
09
ea
f2
01
fb
13
03
f0
fa
ff
11
fc
ea
35
ea
09
f1
fc
f6
ea
fd
fa
07
00
0f
03
f4
f5
04
ff
fc
0c
f5
f8
e9
ff
0e
13
f4
f8
fe
ff
03
01
05
09
ea
0c
01
1d
05
f8
0a
fb
f5
0b
17
ee
02
1e
0d
fa
fa
ee
0b
f9
04
5d
f7
fa
ef
05
fa
f2
f4
03
fb
f9
39
10
f7
ed
fb
fc
0b
00
01
07
f9
e6
0d
17
fe
02
0e
ff
fd
ff
e3
03
05
ff
f8
fc
f9
f3
05
0c
f9
f8
ef
10
ff
ec
fc
fa
01
04
f6
07
f9
03
fb
05
09
10
f2
f8
1f
f1
0b
04
fa
fe
f9
03
f1
f4
f4
00
fe
e6
f4
01
4c
fb
19
00
fe
fe
04
fa
f8
0c
fd
0a
0f
06
0c
f1
00
fd
04
09
f5
f5
e2
fa
fa
fb
f5
f8
08
fb
fd
18
f8
f1
06
02
01
08
1d
06
f6
fb
f6
f4
fc
f5
f4
ee
13
ff
f8
04
05
ff
f2
07
fb
10
f4
fa
f0
f7
fe
fd
fe
0b
04
f8
02
08
f8
ff
0f
fe
f8
f3
18
03
fe
05
01
00
f8
ef
02
fc
1a
13
f9
06
dd
0e
fa
01
dc
fe
0a
03
0b
10
fc
f8
18
03
fa
00
05
1d
10
f9
05
fb
07
06
fa
f2
f3
06
f8
fa
f6
eb
f8
f3
09
fe
f6
ff
0a
09
f6
0b
ff
ef
12
00
fd
13
09
fb
11
03
f0
02
13
04
f2
ff
ef
0d
ff
12
e5
ec
f2
fa
01
fc
f0
f4
09
e9
fb
f0
01
09
f0
ef
0c
07
00
0a
1a
f8
ec
fb
ee
fb
f4
00
00
08
f0
f3
02
ff
02
fe
e8
08
06
fe
14
f1
0c
eb
06
02
36
0a
f1
f1
02
06
f5
1e
fa
f5
f9
12
fd
f6
f1
04
0a
f6
f6
00
f8
01
27
f7
f7
08
ed
01
f3
14
fc
f9
fa
ff
eb
fc
07
f2
ff
e8
00
ff
fb
f6
04
08
ff
fa
fa
fe
f5
05
f5
00
e9
e8
0f
f8
f4
f6
1e
00
03
f4
fe
fb
ff
fd
08
fa
f5
04
09
01
0b
06
02
f5
f1
f4
11
f1
07
e5
f5
13
0c
ed
fb
0c
f0
0a
0c
f4
fe
ff
f2
00
f0
fe
fc
ec
03
00
f6
fb
fd
fb
19
fe
00
fb
06
0c
fb
da
ff
f2
04
0a
02
f4
03
0e
fe
fd
14
f6
f8
f3
f0
ee
02
05
f2
f2
0f
06
04
fb
0a
fa
f9
d3
09
fb
f3
fc
fd
e9
ef
11
fc
03
03
0b
06
fb
f3
04
07
09
ff
fb
fd
fb
fe
fa
10
fa
20
e9
04
fe
fd
f7
fe
15
f4
fe
ef
fc
21
fc
f7
11
fe
fc
04
03
fa
fb
ff
ff
04
ff
06
14
0a
02
fc
fc
ff
fc
ef
ff
fb
e6
00
fa
f9
04
02
17
e2
f5
fd
09
ee
f9
f7
fc
0c
fb
f1
0a
f9
ec
e4
f3
04
15
fd
f4
f0
14
ef
02
1f
ff
ff
ea
01
fa
fa
10
03
16
fe
fe
01
ff
08
fa
01
f3
ef
fc
fd
01
fa
f9
0b
11
00
fe
61
04
f7
e6
f7
ed
f7
1b
0c
05
fb
f0
ff
f9
eb
18
08
f1
e8
f3
f9
e9
0d
fc
f2
09
01
fb
04
f9
02
f2
f5
02
fc
04
fa
ff
fc
0e
00
e6
fd
01
ef
f7
f0
ee
06
00
16
09
05
06
fd
ed
f2
0a
f6
fc
fb
04
09
fc
01
fa
00
09
04
02
f1
fe
fa
f4
fc
05
fc
0a
f8
f7
f6
04
f9
f3
f9
00
fe
02
02
fb
f5
e7
f7
0e
06
f5
00
fd
f6
0b
f8
fc
07
fc
f2
f9
06
f4
0b
fb
f6
0d
02
08
00
f8
0f
fe
01
09
f4
14
fe
f6
f5
f0
fc
f7
0b
f5
01
ff
01
fa
0e
ff
0b
f8
ff
01
05
f5
f0
fd
f0
fa
05
00
0b
ed
00
f7
11
f8
fc
fa
f4
09
01
f2
fe
f4
f2
03
03
fb
03
fe
f3
fe
ed
f8
fd
f7
fe
ed
fe
01
e9
02
ee
fb
fb
fd
01
01
04
f9
16
f4
fc
0b
06
04
f9
05
f9
17
02
02
f5
fa
05
01
01
fa
f8
13
fb
fd
e9
fd
06
fe
fa
03
f4
07
02
08
f3
02
07
ff
0a
04
05
f5
f1
fa
03
f6
f3
fd
fd
02
f4
03
f9
07
05
fe
ff
ee
f7
ee
fb
e7
f0
f2
f7
f4
eb
e8
fb
fc
f6
f8
00
fd
fc
21
f9
f7
04
01
05
fe
03
01
f7
07
fb
ee
fd
04
f1
03
fc
05
03
fa
fa
ee
f9
f7
f5
fc
f6
f8
0f
01
f2
0f
f0
00
0f
03
f6
05
fc
ef
00
fb
fa
01
10
03
02
f1
12
f8
02
f5
01
fa
02
01
ed
ef
fa
f0
fa
f5
f8
0d
f4
02
fe
f6
fe
0b
ff
03
fa
03
02
12
f7
fb
f4
01
ff
f2
f3
f9
eb
f5
ed
f4
f5
fa
0b
06
f1
ec
f2
fc
06
fd
ed
12
fc
f2
f7
fb
11
f3
06
eb
06
fc
f5
07
f6
eb
f5
07
f7
ea
f2
ee
f7
01
09
00
f9
f8
fd
0a
f8
fd
ce
06
f3
f6
f8
f9
f3
f7
03
f3
ef
01
06
fb
f9
fc
03
03
f7
f6
06
02
ef
ff
fc
f8
fa
13
f8
00
00
f0
f4
ef
0a
0a
01
fb
f8
01
05
fb
05
f6
0a
f1
08
03
01
f6
fe
02
f3
f8
ed
05
fb
f2
f8
fb
f9
f6
02
ef
01
06
0a
fb
00
03
03
06
f9
f9
0b
fc
0b
03
02
f9
fb
02
09
fd
f8
00
f8
fc
01
01
09
f3
fa
16
fd
ef
0b
01
f8
fa
ec
02
04
09
0e
fd
fb
fd
fc
12
fd
fc
f7
07
f5
fb
f8
fd
fc
ef
f8
fd
06
00
14
f5
04
0b
03
f7
04
f5
01
03
ff
f0
03
f8
ec
04
f8
f8
fd
f4
f7
fa
fc
02
05
00
fe
fa
fb
0a
09
04
f8
f3
fe
08
02
eb
f3
03
fe
fd
02
ec
f2
f1
01
fb
f2
f1
09
04
ec
ff
fd
f2
fe
e7
fe
fd
fa
f0
ff
01
ff
03
0d
11
ef
f9
08
f1
f0
07
02
04
fd
f6
f6
00
fe
ff
02
03
f5
07
e5
f8
11
ec
04
f7
02
f7
fd
04
f5
f7
fb
f4
05
03
ff
ee
f5
fb
ef
fa
f7
eb
ec
01
f7
f5
e8
f7
00
ec
f7
fa
fe
0b
06
0e
f3
f2
eb
fa
fd
00
ff
fc
18
fe
f5
07
f8
ff
04
0c
f9
ff
02
fc
07
01
eb
00
f3
10
fa
ff
07
06
fa
03
01
15
0f
f9
0b
fa
f8
fa
01
fe
04
f1
1e
0d
f5
ef
04
f6
f4
00
06
1d
fe
11
fb
04
fb
f7
01
09
e0
f6
fb
03
f9
fd
fa
fe
02
fd
ff
ff
03
fa
00
fa
fb
ff
0b
06
fb
06
06
01
01
fd
fd
fd
fd
03
01
f4
fa
02
ff
ff
ff
04
fd
ff
03
01
01
05
f6
fe
ff
f7
01
09
fb
f7
01
07
04
00
fa
08
fd
01
05
0a
fc
02
ff
f0
07
01
f6
03
02
00
06
fe
fd
02
fb
02
fd
f6
0b
05
fd
00
09
00
dd
05
02
00
09
00
f2
ff
0b
06
f6
f6
fe
fb
fc
fd
ff
01
fd
01
fe
fb
01
11
e4
ff
02
fa
3d
01
00
00
fb
04
01
03
fe
fb
fd
0e
ff
01
0e
fc
f7
03
08
07
fd
05
02
08
03
f8
06
fa
00
47
00
fc
04
f3
f7
06
13
03
fc
fe
f8
14
fd
fa
f3
fa
02
de
00
f9
c6
01
01
e2
02
fe
fd
02
ff
03
f5
05
f8
01
02
08
06
05
03
03
fc
00
07
fc
00
02
fd
fa
ff
f8
00
fe
02
00
ec
07
01
f9
fc
0c
fc
fc
f7
fc
04
fa
f7
01
02
f9
fd
fe
03
d6
06
01
fe
e1
05
06
06
fa
06
05
01
f3
fc
0c
f6
06
ff
00
fc
05
fc
03
01
00
fd
02
0a
06
fe
02
f9
ff
fd
06
07
ff
09
fa
02
ff
01
fa
f8
f8
04
04
08
02
ff
05
ff
00
f8
02
04
fd
0d
fe
fd
04
01
38
0d
fd
01
00
06
fc
07
fb
fb
f8
00
e9
fd
fa
04
fb
01
f8
fc
fc
f0
ff
ff
ed
06
04
05
ff
fd
01
ff
00
03
00
fd
02
1f
ff
02
fc
08
00
07
02
01
07
f7
ff
f8
02
ff
02
f4
64
f9
fd
f7
f7
04
f8
02
f1
05
07
ff
1f
00
ff
05
00
12
ff
fd
03
eb
06
f8
01
07
04
f9
fb
03
01
06
03
ff
03
02
f4
09
03
01
ea
f8
fa
ff
ff
fa
03
06
e4
04
07
02
02
fb
fc
02
f7
03
ff
ea
fe
f8
f5
f6
fe
fe
fd
08
01
f9
f9
01
00
fd
02
f9
f8
02
06
03
ff
03
00
00
fa
fb
08
fc
08
ea
fb
fd
04
fa
08
01
f6
f8
0b
00
fe
f6
04
01
fe
ff
ed
02
fe
fc
0d
fd
05
02
fd
fe
02
fd
08
f4
fd
00
e5
ff
fc
f3
03
fe
06
0d
fe
fd
01
ff
fd
08
01
fe
f9
ff
00
f6
05
fb
f8
02
f8
05
ff
06
ff
07
fc
24
01
fc
08
0a
03
05
f6
04
04
fa
fd
fe
ef
01
fd
06
f5
1c
ff
fe
df
10
05
0c
fe
f6
0d
ff
f9
06
fd
04
fb
03
f8
d7
06
0a
00
ed
0c
01
ff
08
02
03
fd
07
fd
fb
00
04
03
01
fe
02
04
e6
ff
08
f3
fd
05
02
00
01
fa
04
fb
02
fb
06
fe
03
01
f3
04
ff
05
03
f9
fe
fa
fa
fa
f9
08
07
02
04
ff
fa
0a
f2
fd
f8
fd
fb
1d
f2
03
ff
fc
f8
02
02
ee
23
ff
02
ef
f6
fe
ff
12
fd
f9
04
fa
fd
09
f2
fa
fa
07
fe
ff
ff
fe
05
f9
fa
fd
fe
03
fa
05
06
fa
f9
ff
f5
07
05
fb
fd
04
f8
ff
fa
ff
03
05
fe
fd
f5
02
fd
f5
00
fa
ff
ff
fe
00
01
fe
f9
fc
f6
06
f6
f9
ee
fa
05
12
08
ef
05
05
fa
fb
fe
02
fb
f5
0c
02
03
eb
ff
0d
fa
fc
ff
01
ff
03
00
00
fe
f5
10
f6
f8
f7
ee
11
06
fd
07
00
00
16
f6
04
05
03
fa
00
09
08
ff
04
00
ff
fc
03
ef
f9
02
03
fc
fa
fe
fd
ec
04
07
fa
04
08
01
fd
01
fc
ff
fd
00
04
f2
01
0f
fd
0a
00
fb
0e
05
04
fc
01
fb
02
04
f4
fc
fa
f5
05
09
fb
07
fc
01
f8
f6
03
fc
08
fa
09
f8
fb
03
f7
fa
20
ed
03
fa
e9
f3
f8
07
02
0b
0c
0e
f9
06
01
f9
08
02
fe
08
fb
01
fb
06
fc
ed
06
05
f9
05
f6
00
01
ff
ff
01
02
f7
f8
fd
09
00
02
fe
e6
ee
00
1d
00
06
f9
04
27
02
06
fa
0a
03
09
00
fb
0b
f7
fc
ee
03
02
f1
00
08
04
f4
16
f9
03
f5
f2
05
fb
ff
03
f9
06
0a
ff
07
01
02
04
fd
fc
fa
02
04
f1
01
f6
03
fd
fc
01
02
02
f9
f4
08
06
06
f3
fa
f4
ed
f5
e3
fb
02
09
f7
13
fb
02
04
ff
10
03
ff
03
0a
0c
d7
02
08
fd
fc
fb
01
02
fe
fc
fa
07
08
fa
f8
f6
fd
f5
fd
00
f7
02
0b
01
fc
fb
fa
00
fb
07
f0
fe
09
fd
03
fc
0d
fb
01
07
ea
f5
f9
05
f4
00
09
eb
f4
01
fe
fc
fb
0f
06
04
06
10
f9
fa
fc
f3
d5
fb
ef
04
03
ff
fe
f9
f2
04
02
f5
fb
f7
ff
fc
eb
08
fc
04
fb
fb
f2
f3
0f
01
05
04
04
ff
05
d8
f7
02
02
03
07
fe
0c
fd
fe
05
0f
06
ec
0b
05
00
fa
00
fe
de
f7
ff
00
08
e5
26
05
ff
04
fe
f6
00
05
01
fd
f8
03
03
fd
00
05
fc
00
f6
01
05
fc
fb
fe
ef
04
06
f8
fd
fd
f9
fe
fb
eb
03
01
f8
04
14
06
fa
09
08
ff
ee
eb
05
07
05
fb
08
fb
fa
ff
02
fb
fa
03
fc
f8
05
08
ff
05
fe
07
ff
f7
f0
fb
fe
0a
fb
f9
01
01
01
04
ff
03
ec
06
09
f0
fa
00
f7
fd
04
f8
09
02
05
00
fd
00
fd
f9
01
ff
02
17
ff
05
03
06
0a
0d
f8
f8
f8
0b
f3
fb
f9
fe
fd
04
05
01
f7
00
fd
05
0c
fc
fd
06
e6
fc
ff
ed
03
ef
05
fd
fd
01
e0
fc
2f
01
ff
fa
03
02
fb
03
f1
09
05
fb
f5
f1
f9
06
03
11
fe
f2
fe
01
ff
fd
fa
01
00
05
f2
05
01
f5
d9
12
04
fe
08
06
ee
fe
09
fe
fd
0c
fa
04
fe
fd
04
fb
10
fc
08
fb
fa
02
e9
fc
ff
08
00
fd
22
03
05
fa
ff
0d
fe
fc
fa
f6
ff
ee
f6
0c
fc
06
06
04
fc
00
fb
fc
0a
07
fb
f5
f3
ee
fd
f8
fd
00
05
16
f3
03
fe
08
f6
06
f9
f2
15
08
06
08
05
f4
ff
fe
13
fe
02
00
f5
07
01
05
01
07
03
00
f3
fb
f4
ff
03
02
0a
f9
ff
03
f6
f7
fb
fb
f0
01
f5
00
fe
00
f9
05
02
fc
fe
01
f9
05
03
01
04
f8
07
ef
e9
f8
fb
01
f6
00
fb
12
fe
fb
fb
f6
04
02
e2
04
1e
fc
fd
ff
fd
03
0a
22
ff
08
09
ec
ff
fb
fc
03
fb
01
e2
03
fd
07
03
f7
06
00
fb
02
06
ef
fc
05
01
ff
fe
01
03
fb
f5
fd
03
05
f9
04
f9
02
04
fe
fd
fb
05
f3
00
f0
f8
fc
07
f2
04
f9
fd
01
02
fe
02
ff
09
fd
04
f8
07
f6
fd
05
04
05
02
03
05
f0
07
f7
01
fe
fe
00
ff
ff
00
ff
f3
00
0b
15
fc
ff
f7
03
f4
47
fb
01
f9
f9
fd
fd
fc
00
ff
14
0a
01
05
fa
fe
07
0a
06
02
ff
00
eb
0c
02
00
ef
05
f8
ff
01
fe
03
fc
00
fe
02
09
fd
fe
04
f9
04
00
fb
0b
fb
05
0a
02
fd
c2
00
02
03
04
f5
06
f7
ff
fc
f8
01
0e
fe
f3
05
01
fe
3e
01
f8
3a
05
f9
6a
fb
00
09
fd
fa
02
08
fb
fe
02
fc
0d
07
fa
00
fd
03
fe
fc
04
0b
10
fb
eb
fa
f8
ff
03
f7
fa
fa
ff
f6
fc
ff
00
05
fe
fc
fd
02
f7
07
03
fc
f1
01
fb
04
28
03
01
fd
03
00
0e
01
0a
ec
03
01
01
02
06
fc
09
02
00
fd
ff
fd
fe
00
04
03
f2
02
03
00
fa
03
02
ff
08
04
01
f9
fe
f6
fe
07
02
fe
ff
f8
07
02
03
ff
ff
01
f6
fd
09
f8
06
04
fc
f6
fc
07
07
f7
f5
04
fb
01
f5
f4
01
01
00
00
04
fa
f3
04
00
fa
03
fc
f5
f6
f9
fc
0c
ff
f8
05
fb
fd
00
f7
fb
ff
f6
fc
fe
10
f2
fa
04
08
00
01
fa
04
03
fd
f9
06
01
fa
00
e6
0a
05
03
fd
fb
0d
07
08
11
00
ff
01
03
fc
fe
f6
03
10
f9
02
fe
ef
07
fd
04
ff
ff
01
05
01
fd
02
01
08
00
03
f1
fd
03
08
f2
03
fc
00
00
02
04
ff
0e
07
00
f2
08
ff
08
04
fa
01
01
e9
fd
f1
04
f9
02
ff
00
03
fe
0a
02
00
ff
f9
03
00
05
08
06
05
fc
fe
fb
fc
fe
ff
f9
fe
02
e7
05
fb
09
05
06
07
f4
fa
07
ff
00
f0
03
03
fb
f4
f3
ff
04
0a
00
02
fe
01
02
01
fb
f8
fb
08
fe
ff
06
fc
0a
03
07
04
f9
05
fe
ff
f7
00
01
fd
fa
06
fa
fe
01
f4
07
02
fa
02
f8
08
04
00
fa
fc
f9
e5
01
00
fa
0c
09
00
00
ff
0a
0f
06
00
05
03
ff
02
f1
f4
03
fc
fb
02
f6
fc
f8
fc
01
f7
01
ff
03
09
fb
f6
f2
0d
fd
04
01
f7
01
07
f6
00
05
f9
07
f9
f8
03
fd
f9
07
fd
04
04
10
f5
04
04
fa
fe
02
ff
fd
fa
f8
fd
fc
00
04
fd
f7
02
fe
ef
fa
0b
ff
02
04
05
03
ff
fe
00
02
0b
01
fe
00
f9
fe
f9
fe
fd
07
ff
24
f4
fa
ff
fe
03
fb
02
fa
ea
04
fa
00
03
fc
ff
fd
01
fc
f9
02
03
ff
f8
ff
fd
05
fd
06
f8
f5
f9
ff
02
fe
01
02
fd
02
09
fe
f5
02
05
f8
0a
ff
06
fe
fe
fc
05
06
02
fc
07
fd
f1
fe
05
f8
04
06
fa
f2
fc
03
fd
02
f7
03
06
fd
0c
fc
fc
09
10
e3
f4
fa
07
eb
fd
fd
07
00
f1
fe
05
fb
eb
f4
f9
00
fa
ff
fe
f3
01
fc
02
f4
f6
00
04
06
d1
01
e7
ff
f8
f8
fb
fa
f6
f9
ef
f4
04
ff
f5
08
07
f7
fc
e2
04
00
fc
fa
f4
f7
f6
ed
05
00
fe
05
04
0d
03
07
f8
01
ef
f0
fb
fe
f1
ef
03
ee
fd
10
20
12
dc
01
23
07
07
fc
02
fd
ff
f0
e9
f3
fc
f7
f8
f4
e7
f1
fa
e5
f6
18
fa
f8
f2
f3
10
2c
e5
ee
02
f1
0a
f1
04
f3
f5
03
03
0e
12
fc
ed
e9
0e
0c
f7
f3
08
f8
02
f7
fc
13
0a
d3
f2
0a
f4
ff
fd
f1
0c
00
00
02
fd
f8
ff
0f
f6
fb
04
fc
fd
f5
f7
0c
f7
f4
03
f8
f8
08
fd
02
08
ef
f9
ed
02
ea
e8
08
fb
f8
fb
fd
fa
f4
f7
ef
07
06
f4
f1
04
00
f7
f7
ed
f3
fb
fb
01
f5
04
f5
03
e4
ec
05
fd
1f
fa
01
f7
00
0e
0c
1c
fe
f9
f4
f2
08
f8
f1
04
01
00
f7
f2
ea
1a
f5
da
fa
00
00
02
f2
e4
ee
ef
0d
ed
fe
fb
0b
03
e8
0e
03
05
ec
ff
f2
fd
00
03
fc
04
e8
00
05
ef
06
fb
f8
f0
00
09
00
fa
fc
f0
00
00
f8
fc
10
ee
00
f7
03
f3
f8
ee
f5
01
fc
ec
fc
e8
f0
f9
e9
ef
fa
f0
02
fa
fe
f3
01
fd
f8
02
ff
ed
fb
f2
f9
09
fd
f3
fc
11
25
e2
02
ef
ff
0b
e9
ed
e3
ef
fa
ff
04
e6
04
ed
ed
f4
08
f9
fd
f9
fb
f2
f5
0c
fe
f6
f5
01
dc
1b
0d
02
09
05
02
0b
19
f3
05
fb
09
f1
f5
05
ff
e5
fd
f8
f6
f4
08
20
06
f4
fa
13
03
f6
ee
00
f8
f3
fc
f0
08
f3
f0
fc
f3
ea
0b
ea
02
f4
03
e7
f0
06
fb
ff
f3
ed
f6
00
ff
00
eb
fd
f0
ee
f6
f8
fb
fc
f5
f2
f6
e6
01
fd
02
fe
02
01
f8
f9
f9
f4
ff
06
03
fa
fb
fc
f8
fe
f9
03
f3
04
f0
07
fb
10
fc
08
fa
f4
ec
fb
0f
fd
f7
16
f6
02
05
00
05
f8
fe
0b
fc
f5
ea
08
06
fa
fa
f8
f1
0b
fa
0c
fb
fa
01
f9
fd
02
ec
00
15
fe
ea
03
f9
f9
fb
f2
f9
f7
f4
1c
e6
fe
10
f0
f9
fb
f6
fb
f8
e6
0b
00
ff
f9
03
05
0a
fa
1e
f6
08
f4
02
f9
fa
f2
1b
ea
0f
0a
f5
07
ff
f9
f4
00
fb
ec
02
f6
0b
f7
ff
03
27
f2
0a
f6
f7
f5
0e
f9
f6
03
f7
fe
e1
ea
0a
ef
ec
05
fc
01
ff
02
fc
fb
fd
fd
f5
ea
fa
03
02
ff
fe
f5
f2
05
f6
04
04
eb
f8
04
fd
fd
01
06
09
fd
07
fe
08
01
f7
ef
fd
02
01
f7
fc
02
fb
15
f7
01
ed
f6
ff
05
f3
fc
ea
1b
0a
eb
fa
00
05
f9
e4
02
01
06
ec
01
ff
09
09
fd
ec
03
fe
09
00
fd
fd
f7
fc
ee
0a
fb
08
03
e5
f7
0a
06
f2
f2
f9
03
f6
e0
f1
1b
02
f6
f8
f9
17
f9
f1
05
fd
c7
06
0b
0d
f4
0a
0b
ef
e7
ef
03
02
0b
f6
04
ef
fa
12
11
04
19
04
ee
f9
03
09
03
04
03
ff
f8
ef
e6
05
f6
f1
07
04
f9
fd
05
09
01
00
08
0f
ea
fa
f3
ec
f4
ed
0f
fc
f7
03
02
fd
fd
fb
02
ed
f2
fd
fe
01
f4
fc
f4
f5
0d
02
08
06
fe
04
f4
fd
04
fa
08
1a
fb
fc
ff
fd
fe
03
08
fb
01
02
02
fc
02
f2
16
00
02
f7
fe
03
f3
ec
fe
02
05
04
03
f7
f2
e8
07
f8
06
f1
0c
ef
fc
f3
03
06
0c
ec
fa
fe
f0
05
f6
04
f5
f4
04
f5
17
03
f6
fa
06
12
f9
fb
ee
f5
12
f1
fa
f9
ff
fe
fa
fa
04
01
f3
eb
fc
f7
fc
09
00
13
0a
ed
07
fa
01
11
ff
fb
02
ff
03
f4
03
ff
fa
f7
1c
f8
27
fb
fd
09
01
0e
fa
ff
f7
06
04
fe
f0
07
01
fc
ff
0b
f1
00
fc
06
01
01
f9
03
08
04
f3
ee
f8
f2
03
fb
ee
fa
17
fe
fe
05
02
f8
e6
0a
08
01
fb
0a
ff
02
06
f5
e4
ee
ff
fc
ec
f8
02
05
f7
06
f8
f8
fb
f6
e9
0e
14
ff
02
03
fa
05
f9
0b
fe
07
fb
f7
07
e1
df
00
fe
f7
15
01
03
02
01
f9
02
f3
e9
0a
09
0f
02
00
fa
06
02
09
f9
03
ec
fa
fc
f0
fb
07
0d
fd
f5
fa
f4
f7
f5
f3
f9
01
f9
fe
f1
f7
ea
f6
fc
01
f6
f4
fb
04
01
0a
00
f9
07
06
ff
0b
fe
0e
fd
fd
f5
01
fd
01
fb
07
e5
e7
fc
fc
04
ee
02
f4
17
00
fb
fa
f9
fc
11
f9
fa
fe
04
06
f9
f6
f4
ef
04
fc
0d
fd
03
12
f3
05
fa
11
fb
ff
ff
02
fd
fb
f4
ff
f9
eb
ec
04
f7
e3
fa
10
f7
f1
f1
01
f8
06
01
08
ff
01
c9
fd
f7
f6
fa
02
fb
03
00
fa
f3
09
fb
00
f9
ff
f9
f7
f1
0e
f8
f5
f6
ff
fc
e8
ff
09
ff
eb
f5
f9
f8
01
ed
00
05
01
00
02
f7
05
00
fe
fd
fa
fe
fc
06
05
fe
fa
f9
04
04
fd
07
07
f5
fa
ef
fe
fa
ff
f8
0c
04
f7
f5
07
fa
fb
e6
fb
fc
f5
f7
f1
eb
fe
0e
fa
fa
ff
f9
fd
fd
fc
fb
00
fe
01
01
ec
fc
07
04
15
fd
f3
f9
fe
fd
0e
fd
f1
fd
03
04
04
fa
03
fc
f2
f4
ff
fa
0a
fc
f7
e9
f5
ea
f4
08
f8
02
fc
12
e5
04
f3
02
f9
fe
f8
01
fd
f7
06
00
f5
02
fe
f0
fc
fb
f2
02
01
f1
f6
fa
f3
05
03
f9
00
09
f9
ef
00
15
02
f9
fe
0b
f4
02
06
02
08
f7
dd
ff
fe
07
df
fa
f1
fc
f6
f4
07
f7
fb
ff
fa
0b
01
f4
fa
02
f4
01
01
00
f5
fe
f9
09
fa
de
0c
07
f6
f2
fb
fe
08
00
02
01
09
00
07
03
ed
04
09
f8
e8
fe
f2
ed
fc
fb
ef
00
01
f2
ec
f7
ff
04
f0
f8
01
04
f8
fc
0f
f3
02
fa
f4
ed
f3
02
fd
07
fd
fb
f5
fd
02
0c
1d
07
f9
fd
f7
f6
fc
f2
00
fc
f0
ed
fc
0e
08
fe
fb
e8
06
fe
f6
0a
03
f3
ff
e4
f4
fd
00
0c
e8
f0
ed
09
fb
2d
00
f3
f9
e9
f6
fb
f4
fd
ff
ee
fc
fb
fe
07
fd
12
fa
01
de
0a
0f
eb
ee
f9
f8
fe
fa
ff
e8
ff
02
ff
fc
01
fe
f7
fc
f5
03
e8
03
01
02
fb
06
08
01
f1
fd
fb
03
f5
01
f8
05
fe
f7
fe
05
f6
02
f1
fb
0b
ff
0d
05
04
ca
ff
fe
f8
09
f2
01
13
05
06
f8
f8
07
ff
02
04
f6
ec
d9
f9
fa
0b
06
ee
05
12
06
fd
f4
e8
0b
03
08
11
07
fe
00
03
05
e8
2d
fd
f4
fb
f3
f9
ff
05
01
fc
f5
fd
ef
0a
01
0c
fc
fb
15
09
fc
ff
f5
f2
fd
f9
0e
05
10
00
f5
09
02
fc
f8
f5
ee
f6
ea
f4
02
fb
f6
03
05
01
fe
f6
fa
0a
01
07
fa
fd
06
fe
03
fc
05
00
01
10
03
07
fd
03
f9
03
ff
fd
ff
f6
fe
ef
04
04
03
f6
06
05
04
f7
ff
00
ff
ea
0e
fa
f6
ed
f9
09
01
f8
15
05
04
18
ee
f9
f2
0c
0a
08
08
0e
1a
ff
02
fc
fa
05
03
fa
05
fc
f1
0a
09
f6
fd
00
f6
f0
07
f3
12
11
11
03
fa
f6
f4
fa
0e
04
01
04
e7
05
e5
fa
ff
0a
00
ee
f7
0f
fd
07
0b
08
ed
fe
10
f8
03
07
fe
fd
08
fd
f0
fa
07
f8
fa
f6
fd
fd
fb
fa
11
f1
0e
f1
f0
ee
da
ff
ff
04
f7
11
ff
08
f4
04
fb
09
05
02
f2
f7
ff
04
ff
e9
03
0a
07
ff
d8
f5
ed
0d
f5
ed
fd
f7
f0
ed
04
01
fe
fb
f0
09
05
2c
ff
f0
fc
06
06
f3
05
f3
f6
05
0c
03
13
f1
f5
f5
00
07
f9
fa
f7
fc
02
fc
fe
00
fb
fb
fc
fc
fd
f9
fa
fa
f9
fe
0e
04
f1
06
fb
f1
fa
f1
f1
fd
0f
01
0c
ff
02
40
00
f2
fd
01
f9
07
04
f2
05
fc
08
f4
12
f2
fa
00
f8
f1
fb
fb
f4
e7
01
13
fb
0b
fb
f8
f2
eb
e9
f3
f5
04
06
f6
0d
fd
06
f8
e6
09
fa
03
0d
07
f9
09
fd
0d
03
18
08
fe
fc
1e
0b
f2
f7
ed
fd
f7
0e
03
06
fe
fe
0a
ff
03
13
e5
ff
06
fb
04
0c
f6
17
07
ff
f8
f8
0c
ff
04
09
f9
07
fa
f9
ec
06
01
03
f6
e8
f8
e7
ee
01
0a
0a
10
fd
fc
0b
f6
fa
05
e8
f6
ff
05
f9
04
db
05
01
e7
fd
09
fa
04
05
ff
09
fe
ef
fe
f5
fa
ff
fb
0b
ff
06
05
0b
06
fe
09
fd
ff
fc
fd
0e
09
ff
05
f3
08
04
fc
02
0c
fa
f3
05
04
fc
ff
f9
00
f4
0d
f3
fe
ef
ff
03
1c
ff
06
fc
f2
01
05
f6
01
f6
f5
ee
fa
00
04
fd
08
06
0d
fb
fd
03
02
eb
f1
0a
01
03
01
03
e9
06
f8
06
f2
fe
08
04
ff
f7
f6
fd
00
fc
03
f3
ee
f8
00
e7
fc
ea
ff
0c
fd
fb
fb
fd
f3
fb
f7
11
f0
f1
f6
08
ff
04
06
0a
f4
f1
07
08
fe
f5
fe
08
01
07
03
08
1c
09
0b
08
fe
26
fd
f4
fd
07
db
ff
03
e4
e2
ff
ef
0b
0c
01
f1
ea
f7
f6
00
05
f2
12
f9
ee
00
0a
f6
ff
ff
e9
09
ff
c4
11
ed
f1
ef
02
f0
fe
16
f5
12
09
06
f8
0a
02
02
03
0a
d9
fe
07
f6
fa
09
02
05
fb
04
f7
03
f2
02
08
f9
fd
f6
01
03
f6
f0
01
0f
ff
fa
01
fc
d1
01
fc
f6
f6
f8
f3
05
fd
ff
0a
fd
00
f2
0c
0c
f2
fc
e6
f7
07
ff
eb
06
06
fe
08
fe
04
09
f7
06
fe
f9
fe
ff
ff
df
0a
08
fc
11
01
e7
00
04
00
06
f6
fb
04
f0
07
fd
01
05
fd
f7
fe
04
0b
0c
00
f7
0b
07
f6
f5
fb
03
ff
fd
f1
12
e1
04
08
0b
3c
00
04
fc
03
02
00
0c
f9
06
05
fb
05
07
0d
03
ff
0d
09
0c
ff
fa
1b
ee
f9
08
f2
08
00
06
0a
fc
e5
0a
06
f7
00
fc
00
fc
fe
00
03
08
ff
09
07
f9
f5
0b
00
fc
fe
fb
ff
05
05
0f
f8
04
fe
09
17
05
fd
fe
05
fc
fc
ff
fe
f5
2c
06
fa
01
05
03
fe
1a
09
fc
f6
04
f5
ff
02
03
06
fa
f9
09
fc
f5
fe
00
06
0f
f4
fe
00
ff
fc
10
1b
f9
fd
04
03
f9
f3
01
05
fc
f8
fb
06
00
f7
16
fe
fb
06
fe
0c
03
f6
08
09
fd
fc
07
02
04
04
02
fd
fd
f2
fd
01
fd
02
ff
07
06
fc
ff
f3
09
fb
01
ff
00
ff
fc
fa
02
f9
fe
fa
f6
f6
11
fe
e7
fc
fa
01
04
01
0b
fa
0b
04
01
f1
02
f8
09
00
fd
1e
0c
fa
04
02
15
ff
01
05
f8
03
07
f9
f2
fd
06
f0
11
05
fc
f9
04
0f
08
02
fb
11
09
01
fb
0a
01
0b
04
03
04
6f
f8
04
06
0e
fe
09
01
00
fd
09
14
f8
0b
f4
fd
09
02
08
f9
f1
fb
02
fc
03
1c
15
f8
fe
07
ff
f0
05
07
f4
04
f2
02
fb
ff
02
00
ff
fd
ed
03
04
01
08
f9
03
ff
00
fd
0f
d9
f6
fd
0d
03
03
f5
07
00
01
fd
06
04
f9
e9
09
f4
00
f9
0b
01
fe
f6
fd
04
11
02
06
03
06
fa
03
09
08
03
09
02
03
03
0b
09
01
fe
08
f8
02
04
06
09
01
09
f6
01
fe
1c
fb
07
08
00
fe
04
07
fb
04
fd
01
ff
00
01
09
01
01
f8
01
00
fc
07
04
ff
f6
ff
19
00
00
02
01
04
fb
09
04
fd
ff
fb
fa
10
03
f5
f9
00
00
fb
02
03
04
f9
07
05
08
00
ed
05
04
ff
fd
f2
fc
03
00
fd
f8
03
f8
fe
fd
ed
fd
fb
f7
0a
fb
07
fc
08
07
0b
fa
03
fd
ff
07
0d
01
13
07
1b
f9
fc
f4
0a
ff
04
00
03
05
ff
f3
ff
03
09
fc
fb
f7
03
fc
fe
fa
02
f1
00
01
f5
07
09
f2
f3
02
ea
02
03
04
0b
fe
06
04
fd
03
0b
f5
fd
fc
fc
0b
fd
fc
00
fb
03
0a
fe
fc
fc
f7
fa
e5
05
f4
bc
fa
03
0a
09
fe
00
0c
f5
06
fe
09
07
06
0d
09
06
0a
01
02
01
04
0a
0c
ff
fe
02
02
f7
fb
fc
0f
10
fd
05
f6
03
f7
fc
f9
f5
fb
f3
fd
06
ff
f6
07
f9
fe
08
fe
fa
02
00
fb
05
00
04
f6
fe
03
08
12
0a
f7
fc
07
f6
00
da
fc
fd
f7
0c
02
0a
fb
e9
ee
f6
fc
fb
f9
fd
06
13
09
0a
07
f5
06
f4
0a
ff
fa
0b
0c
08
08
0e
07
09
00
14
fc
03
02
fc
fc
07
04
fd
fc
05
fb
f3
00
fe
06
05
08
02
05
09
fb
04
fc
fa
f8
f4
fe
fd
f7
e5
fb
08
fb
0c
f1
09
00
09
02
ff
f8
06
02
05
ee
f7
fd
07
03
f1
1c
fe
ff
fc
0f
07
fb
02
fc
fe
f8
06
0a
0a
fa
12
fc
f6
05
fc
05
0c
04
07
fa
03
ff
f6
f6
0d
fe
ff
fe
0a
0a
01
03
02
fe
03
02
f8
06
f5
01
03
fa
f7
04
f6
03
04
00
f6
fa
01
07
fc
ff
03
06
08
07
f4
f3
06
00
03
0a
1e
fd
fb
0a
fc
08
fc
05
06
01
f9
ff
0b
09
07
01
08
04
00
00
fa
f7
02
fa
06
08
0d
02
05
01
fc
f5
04
f4
fe
01
f5
0a
ee
fb
f7
fe
ff
fe
04
fb
fe
fd
ed
f6
06
03
fa
fb
fe
f5
07
03
04
fd
02
03
fd
fd
07
f6
fc
04
0e
17
05
f3
ed
f3
fd
06
fc
fb
f7
11
fe
fc
fe
0c
00
06
04
f8
ef
ff
fd
0b
03
f5
0c
05
0a
0e
fd
05
fa
ff
fb
05
00
fb
0b
fd
fe
01
fe
08
00
05
fe
01
02
fa
f5
04
00
f9
07
fe
f7
ff
f8
fc
00
01
03
f1
fd
fe
04
fd
09
fd
07
fc
07
0e
0b
ff
fe
0b
0a
fd
fb
07
0b
01
fe
3d
0a
fa
04
0b
04
fe
00
ed
fb
f1
0b
09
f5
0c
0b
ff
fc
03
0b
09
07
06
02
02
05
f9
02
f9
0a
03
00
fd
fc
fe
fb
00
08
02
fc
f5
04
fb
02
f7
f7
02
15
06
06
fe
01
09
fb
11
fa
02
06
fe
ee
ec
f4
fe
ff
0f
fc
fc
02
0d
f7
03
ff
03
0c
02
f6
00
03
ea
03
f4
f1
fc
f7
02
06
fe
07
04
0b
07
02
02
ef
02
fb
f4
0b
f8
02
05
fc
fb
03
0a
03
00
fe
ff
07
fb
f9
09
03
f9
02
07
01
fe
05
04
06
05
fc
07
fc
01
fb
fe
06
06
ff
03
01
04
03
06
03
fb
ff
00
06
ff
fc
fb
0d
ff
f7
f2
fc
f5
04
ff
ff
f6
ff
01
07
02
09
09
e0
fe
f7
04
f6
00
12
09
00
fa
fe
f6
01
07
06
05
05
01
fd
fb
f7
0b
fa
15
00
03
08
06
00
04
f4
0c
06
f1
05
05
04
f7
08
f8
06
f6
04
0e
0b
02
06
fc
01
02
05
f8
fa
fd
08
07
06
03
fa
fe
fc
05
02
fc
09
09
06
01
02
f6
17
03
00
fc
fd
0a
f7
06
0b
fd
f8
f8
ff
01
01
ff
35
11
05
f3
08
04
00
06
07
f3
fc
05
0f
03
05
12
f7
f8
ea
04
f9
f3
f1
00
06
ff
f1
ff
00
f9
01
fe
f5
0a
eb
06
02
01
09
ff
fc
fd
0d
f3
02
ff
22
ed
0f
02
01
fb
f1
f9
f9
0f
f8
01
fd
04
f8
01
0a
03
fe
05
f6
01
ff
07
ab
d8
ff
0d
01
00
08
f6
0e
f3
ff
e9
f8
01
fe
15
fd
fe
07
f8
fc
07
fd
07
f9
0a
07
03
fe
01
0c
03
fc
0d
02
fc
ff
02
01
fe
06
f2
00
08
06
05
fd
06
08
fd
fd
06
07
ff
ff
01
09
f9
fe
01
07
fe
07
fe
ef
fc
fc
f9
f6
fb
00
ea
ff
0e
fc
0a
fe
f8
fd
ec
f8
04
05
fd
f2
f6
04
0a
00
0b
fe
01
03
f5
02
00
ff
fa
09
0e
fd
0a
08
07
01
f6
fd
fa
fa
02
fe
f8
f6
f6
fc
e2
f2
0a
00
f6
00
05
05
05
04
fb
f9
00
00
09
03
f8
fb
fd
f7
fe
fc
06
f9
ef
fc
04
04
01
fb
1d
01
ff
ed
07
fd
00
ff
10
0c
e3
04
0f
00
ff
ee
f8
22
04
fa
f1
f3
fc
f9
ff
08
01
ed
fe
f7
ff
f3
f1
fc
f8
06
02
f5
f2
fd
01
fd
fa
ff
06
fa
09
f6
f7
f0
fa
fd
f4
08
fc
0d
fb
04
f1
d7
08
f5
f6
f7
f7
f9
04
00
09
0f
fd
f7
02
f7
ec
fc
04
f7
ff
fd
f7
ff
03
05
06
ff
f5
ff
13
fa
fe
c8
0b
fc
00
fc
fb
fd
02
fb
f6
02
fd
04
12
ea
fd
f7
fd
ff
f0
07
ff
02
08
06
f1
04
ff
16
f5
17
0a
f4
f3
fd
03
fc
09
f5
08
04
ee
f5
f3
fb
01
f0
f8
ef
f8
f4
f9
fc
fd
04
00
f5
f6
ff
f6
fd
fc
05
e6
f9
ff
04
ff
f6
0a
f4
fe
fe
fd
02
ff
f5
01
f3
00
f6
f3
f0
fd
06
ff
f9
01
f1
dd
fc
00
f9
f9
01
17
f8
ff
01
ef
00
fe
09
09
14
06
f8
fa
17
04
02
ff
0d
f9
fb
05
fa
a5
f3
05
00
eb
ed
03
01
07
07
05
ec
03
ef
f3
fd
ff
ff
34
f1
fb
fd
0f
d4
f4
f1
e1
fe
00
f6
eb
f8
fa
fe
00
07
01
f4
04
03
ca
fb
f3
0e
fb
f6
eb
01
12
f4
fe
f5
f9
ef
14
fb
f6
02
01
ed
28
03
2d
f7
05
fa
01
e3
ed
f9
fd
01
f8
10
06
fe
fc
07
fb
f7
f8
0d
fa
f8
f4
f9
fd
fa
fb
fc
fd
f5
fc
ff
fb
07
00
fe
0a
06
f4
fb
02
f8
00
f7
f5
10
0c
07
00
06
f9
f8
f9
fd
eb
10
ec
09
0a
ff
06
f8
02
02
fb
04
ff
fa
fc
fe
f4
f6
04
fe
01
e9
00
09
02
fe
e8
00
0e
e9
0d
f0
06
00
fb
00
f2
0a
07
06
f4
fd
02
01
f8
f6
04
09
f7
fb
00
ff
fa
f9
fe
09
04
ff
18
01
12
01
ea
fe
f5
f8
10
01
f9
f9
11
fb
f7
ea
10
fd
fa
ff
ea
01
ef
f4
04
05
f9
fe
fb
04
fc
00
00
06
f5
04
f7
f7
04
f2
12
f2
01
08
fb
f8
ff
fb
14
ee
fe
dd
02
04
fd
fe
08
f8
ee
fa
02
f5
02
04
f8
fa
f8
ed
f6
06
02
f7
f3
e9
00
07
02
02
2b
04
f9
00
fa
ec
03
f6
00
f9
06
05
e1
ec
fc
f5
e8
f7
fa
07
03
fe
fe
f0
01
ff
ed
fb
f8
f3
f4
fe
eb
0e
f3
f7
f4
00
fa
ed
f4
f4
04
00
f1
fb
ff
01
fa
01
fc
03
fa
f6
f3
ee
f8
fe
fd
fb
06
fa
f5
05
f2
ec
11
ea
f3
fb
02
07
fa
00
fa
fc
f6
ef
e5
ff
f5
fa
ee
0c
19
fc
ff
f5
f9
f9
e1
dc
07
fb
03
f5
02
0b
07
f4
fd
f7
fd
f9
fc
04
fa
d2
18
f9
00
f9
fe
fb
0a
f5
0c
f5
02
f1
fc
07
df
fc
05
fe
ec
08
02
f9
01
fa
0a
ff
12
fa
f5
f7
fb
0d
02
08
df
02
09
f8
fd
04
f5
10
f8
04
0b
f7
02
f9
09
03
06
02
f2
09
10
fc
ff
fb
0e
ff
05
03
f6
fa
f6
fc
17
f8
fc
ff
f2
09
f9
01
07
f6
f4
05
fd
02
01
05
02
03
f6
08
ec
f9
09
0c
09
01
13
02
f6
e1
0c
11
07
05
ea
07
fd
f9
01
0b
07
0b
f7
02
07
02
ff
07
f0
05
f9
05
0b
f0
f7
fb
0a
fb
f0
f7
f1
fd
06
01
fa
04
ff
01
0a
f6
fc
e4
f2
09
01
fc
fd
07
04
09
00
f8
00
ee
03
f8
23
fa
13
04
fc
06
00
05
ff
e2
f5
f8
07
f9
e4
0f
02
fc
f9
fa
06
08
05
05
f7
ed
fa
ff
fd
fd
02
df
fd
07
07
e2
01
00
09
01
06
0a
ea
04
08
0c
0f
08
f1
e9
fb
02
fb
03
fd
f0
06
f0
02
08
f4
f3
f6
fd
f5
02
05
04
04
f9
ff
ee
f9
0d
ff
f5
03
08
15
01
f3
ea
ff
03
0c
06
fd
fa
cc
f5
ff
f8
11
18
ed
08
03
ee
03
0e
f0
09
07
df
08
02
00
f3
16
0b
f4
f3
fe
09
fd
ff
f8
07
05
0d
07
03
06
f9
09
f9
0b
fe
fa
f6
fd
0e
fd
f5
f2
0d
f8
0b
f9
fe
0a
fe
ff
ed
fc
01
04
01
00
08
e9
01
f3
05
09
02
16
fb
07
02
f3
0b
fd
12
fc
05
17
fd
fc
ef
fe
fa
ef
15
fb
00
ff
ff
0a
ff
0b
0e
f4
11
04
06
04
f1
05
f4
fa
14
f6
08
ff
15
f5
fe
04
fb
f8
f8
e8
f1
fb
f6
10
02
00
02
0e
f6
fd
12
0e
f7
f8
03
06
1c
f3
11
f0
f6
01
0c
05
f4
04
01
0d
fa
01
08
06
0c
0b
14
04
10
1f
04
e8
03
02
06
fa
f7
02
10
04
f8
0a
03
ff
f4
08
f6
08
03
f9
ff
fb
02
0b
37
03
03
0d
05
fe
01
05
01
10
02
fe
06
09
01
00
e4
06
f7
03
06
0e
0f
00
fe
fd
08
ff
ea
03
f6
fb
08
fb
06
06
01
f7
02
fe
ef
14
fe
fc
f1
f0
f9
02
01
08
0b
ee
fb
07
09
fa
16
0d
0a
0b
07
ff
fe
fc
17
f2
06
0c
fc
f4
00
0e
fb
07
10
fc
15
0a
02
0f
f2
06
01
f6
04
0d
f5
0a
fd
0d
08
02
38
05
0e
fe
06
f2
07
ed
03
13
f9
fa
07
f7
07
0a
fe
03
fc
ff
0f
f8
fd
09
ff
00
fe
09
0c
fe
04
02
03
f9
fd
f0
06
fd
01
f8
05
f1
f8
fd
f3
fc
0a
0a
09
15
fd
f0
e0
01
fc
01
fc
00
fd
0c
0a
ec
00
01
fb
fc
05
11
08
02
ef
01
f5
0a
03
fd
f8
06
fe
fa
fc
11
fb
fc
fc
00
19
10
0c
01
09
0a
fe
ea
ff
00
07
ff
e6
f1
e9
08
fc
01
fd
05
f3
01
08
05
06
02
f1
fa
f4
05
01
00
19
fe
01
fb
21
fa
f8
0d
09
06
f3
09
f5
fc
fc
e4
09
fa
11
f9
fc
00
0e
18
01
f4
f7
06
f6
07
10
05
f5
fa
fc
02
05
03
e8
f5
ee
fc
06
f6
05
09
0a
04
0b
fb
04
02
04
fc
f7
14
f9
f2
f3
f8
f5
06
f6
f7
05
ff
fa
02
fe
16
fb
0a
f9
f8
12
10
06
10
04
fc
03
07
ff
0f
01
fa
fd
ff
17
0e
03
fe
07
00
09
ff
fd
f8
ec
00
00
01
06
f6
e9
04
0a
f9
fb
00
e5
f6
f6
11
0c
02
fc
0b
0c
04
fc
f0
fe
17
e9
fc
08
0d
0e
f8
f8
11
eb
07
d3
06
e5
f8
f2
fc
fe
e3
03
13
16
ef
10
03
e2
20
03
22
00
f4
ff
fa
f7
0a
fc
0a
f6
03
fc
03
f7
eb
13
01
fd
f8
00
f2
fd
16
06
f3
16
f8
ee
0d
fc
fc
f5
f2
08
0a
01
09
13
10
fd
fb
f0
22
05
fb
09
eb
02
0e
ed
02
0e
fd
12
09
f8
f7
10
fa
f6
01
12
ff
13
f3
15
16
00
01
08
04
f8
09
19
f5
03
00
f7
f6
0c
15
06
0b
fd
fb
03
1b
0c
f9
08
fa
fa
0d
e8
00
fb
17
f4
08
10
fd
ff
f8
fa
04
10
ff
01
f6
1a
0a
16
03
05
25
f5
02
ef
ee
00
0e
f7
02
fa
1b
08
09
f1
fe
fd
0f
e1
1b
fd
1d
ff
02
f9
02
09
f0
fb
06
09
04
00
ea
00
ee
01
fb
09
1c
0c
03
08
04
f9
0d
02
f2
ef
01
f7
17
12
01
22
07
0b
ef
00
f9
f4
f6
fa
f0
fe
f8
08
fa
0e
08
e8
fc
f8
fc
0c
02
10
f0
10
0d
27
f8
0c
00
0c
01
13
04
03
02
f6
fa
ee
fc
10
06
1a
de
0e
04
0e
1a
04
e1
e6
08
ff
fd
f3
09
1c
24
0a
0e
f4
0f
12
f9
00
1e
f2
10
f4
f7
07
11
14
0c
fe
05
fc
fd
fe
14
e7
03
04
07
f4
16
f6
eb
fc
f2
03
ff
f9
0b
f8
f3
01
17
05
0d
12
04
e9
f6
ee
ff
ef
fd
0b
0a
f1
03
fa
fa
0e
03
09
09
11
fa
0a
ee
0d
00
f0
f7
f9
fb
00
fa
07
fb
0c
fe
ef
08
04
25
09
f9
02
16
ff
fb
f8
0a
00
1e
fe
03
fc
00
01
00
06
fb
12
17
0e
05
f3
07
04
19
04
18
09
fd
05
08
1b
f8
f7
0b
03
f7
0b
08
11
04
0d
fc
0a
fe
28
0d
07
05
0c
06
0f
13
07
fd
1a
ef
f7
01
01
14
00
01
fe
f2
e8
02
02
ec
fb
04
fe
11
16
00
10
13
11
0a
0f
0e
fb
19
fd
f0
f2
ff
06
08
19
0d
fc
0c
ec
14
15
03
f2
08
15
e5
fe
28
0c
f7
fb
02
06
02
01
f4
08
fb
04
eb
04
07
f9
fe
0d
20
01
00
1d
04
0c
f8
10
04
f6
04
00
f8
f5
09
f2
f9
e7
f8
05
09
09
fa
19
05
00
f8
fe
f8
fb
fd
05
09
0d
03
fe
06
0f
e6
03
0b
f3
0a
08
14
06
0b
f7
f9
f9
01
fc
12
fc
02
00
fe
f8
07
e9
ff
f6
07
1a
0c
f4
00
00
14
0f
eb
02
fc
e6
fc
f8
06
13
0b
0b
02
dd
fd
f8
f9
eb
f9
12
03
00
0f
f7
0e
19
17
fd
ed
02
28
10
f1
07
0c
f9
f8
fb
10
0e
f4
ff
0a
0a
ff
00
09
ef
19
03
02
f1
f5
f7
15
e6
05
07
fd
fb
ef
0d
f9
08
02
00
02
ec
f1
16
f4
00
2d
1e
06
0a
0b
1a
1a
fd
02
fc
f1
f6
fa
fb
e1
f9
fb
f8
fa
ff
f0
fa
f5
12
ff
f8
f6
ef
1b
f8
00
f5
fd
fe
04
f7
f5
f0
f7
f7
fc
fb
eb
fc
09
07
fa
f5
f8
08
f7
fa
03
fc
0c
f2
f2
f1
f6
fe
f7
fc
f7
ea
fc
fd
06
03
fa
0d
01
f3
fc
07
f2
13
e9
f5
08
fa
03
ef
f8
fb
ff
fb
e5
fe
02
fe
ff
14
fb
00
fb
16
0b
f5
ff
f6
f8
fd
f8
e4
fa
ef
f4
f9
ef
17
fb
03
fe
fb
04
4f
fe
09
eb
0f
00
04
01
f8
01
f0
ff
eb
01
fe
fb
f3
e9
ee
03
fd
ff
f0
f2
fd
02
e8
f9
fb
ff
f3
00
fe
f4
02
f6
fa
f2
05
e7
07
04
fe
fc
00
fd
05
ea
ef
f2
fb
e6
f4
fe
fd
de
f4
ff
ec
06
00
f3
fb
13
ef
f3
06
00
f5
0b
f9
f4
0c
f1
f8
2e
04
04
f6
f4
0d
02
f7
02
16
f0
05
fa
f9
fc
fc
05
f0
04
15
fc
f9
d8
09
0c
f5
fb
02
fb
f9
1d
0e
fb
02
f9
f7
0a
fd
05
f0
fb
f4
02
f0
f1
f8
fe
fc
0b
00
ed
f9
f9
05
f5
fd
f1
f5
d9
f8
f8
fd
f1
01
fd
0e
fe
f0
f8
ef
f6
08
fc
f7
f3
09
ea
f9
f2
f8
fa
fd
e9
ff
05
f9
08
0f
01
ff
f8
05
fd
f6
fd
05
f2
06
03
ff
01
f6
09
04
fc
f3
f0
03
fa
fa
fa
f4
27
03
09
f6
09
f9
f7
fe
fc
ef
05
fb
01
fa
13
fc
fb
fd
f1
0f
11
fc
f7
03
12
0d
01
ed
f9
00
fd
fb
03
fe
07
06
ea
00
22
ff
f3
f9
f8
fd
fd
05
f7
fe
ff
f5
fc
0c
f2
ef
f7
f8
f4
f6
07
f4
ed
01
07
fd
03
f7
07
fd
f5
0b
fa
00
03
0c
02
1c
fc
e9
fe
fd
fb
fc
05
fd
f6
fa
0a
00
f8
fb
f8
0c
04
f8
00
ff
00
ff
02
f7
05
fa
08
f5
fe
06
f9
f9
07
fb
1b
f5
f8
e4
f7
f4
fa
fb
00
0b
04
fe
f9
f3
fe
ff
03
fe
f6
fe
01
f8
f8
fa
fb
fa
f7
06
fc
f8
08
08
f4
01
f6
fd
00
f5
f3
f7
00
f5
07
fd
02
11
ff
ef
00
f9
f3
f7
03
f7
f3
01
ff
f6
fc
fe
07
01
f3
14
f3
02
06
fe
ff
f5
f1
01
fe
02
fc
f9
07
06
f4
f9
04
ff
07
fa
fa
06
fb
04
0d
fc
01
f9
04
fb
f8
f8
0a
0d
fb
fb
f4
f3
11
ff
ed
fd
fa
fb
f7
ff
05
fc
01
f6
0b
eb
f2
f6
07
07
ff
05
09
01
ff
f7
ed
04
f3
01
08
00
21
07
f4
ec
ef
0b
f9
f3
fe
02
02
e6
08
03
01
f8
07
0f
f8
00
f5
fb
ec
f2
f6
06
d6
fe
fa
fd
fb
01
e5
fc
ff
f2
f6
05
04
fa
f9
fe
07
fe
01
fd
fa
f1
01
fd
f7
08
ff
0c
fe
f7
f8
f1
fb
fa
f4
ef
11
08
09
0f
f0
02
f2
0a
f7
fc
07
f5
fc
00
f4
f4
fe
e5
02
f4
fb
00
f9
fa
05
f3
13
01
ff
fb
01
f7
f6
fa
f8
ee
03
0b
fa
fb
fd
05
f5
fd
f8
fd
03
ff
fa
02
03
fb
01
fc
ff
f0
fd
fd
f3
f1
0f
d6
f5
f6
e2
00
12
13
f6
fb
f9
02
fe
fd
f8
0d
0b
0e
fc
fe
d4
eb
e8
ed
fb
fd
f2
01
f6
ea
eb
f4
fb
07
ed
f9
fe
f3
f3
fa
00
f9
ef
f0
f4
f9
01
ef
ea
05
0a
0c
fd
fb
fb
f5
fa
f6
f3
ef
05
f9
e7
f1
ed
f6
ea
f5
03
f6
f7
f1
fb
eb
f4
08
04
f8
f9
f8
fe
f3
e6
f7
f3
fc
fc
fa
f2
f9
f4
04
f3
f2
fd
f2
fc
f0
ee
f3
fb
f4
02
ee
fc
f9
fa
03
f4
f7
ff
f9
f3
e7
f2
c7
f6
f8
f8
f1
f2
f6
ef
f8
ff
fa
e9
00
fc
f1
09
09
f3
f3
01
f6
fa
f9
01
f7
eb
03
02
ec
f4
f3
f2
ef
f2
04
f8
02
f2
f8
f8
f5
e4
ff
f1
ff
f0
ee
eb
02
f0
fa
f8
e7
02
f4
00
f8
f6
ee
fe
fe
e9
fb
f9
fb
f6
f1
ed
f6
0c
ea
01
08
fd
fc
cc
01
f1
fd
fb
fb
eb
fb
01
e9
09
e8
02
f1
fa
fe
f8
00
e2
fb
f3
f8
f4
f1
ff
f0
f0
fd
11
fa
00
f7
e7
fb
f7
ef
1d
f7
e8
e4
0a
f9
fb
f0
03
f7
f9
ec
fe
f2
eb
f3
f0
ed
07
09
dc
f8
eb
fa
d3
04
01
fa
f7
f1
f5
fb
ed
f0
f3
00
f5
f2
11
f9
ee
f7
f4
fc
f4
f0
f7
f2
0e
eb
01
fc
fe
07
00
f5
f9
ff
00
fb
f3
01
fc
fe
f9
fe
fb
f4
f7
f5
f7
fa
ff
03
ff
fd
fb
ec
f4
fb
f5
f1
0e
ed
f7
fe
f8
f0
ef
f6
ed
02
05
f4
ed
f9
ec
ea
f9
ee
f7
f4
e5
ee
ee
fe
ee
02
09
f0
01
fc
ec
dd
f3
ff
fd
f6
01
e9
02
fa
fb
f0
f8
00
f6
f1
f0
f2
fb
fe
07
f2
f5
e8
21
02
f3
f9
ff
06
fb
f9
f0
f6
f5
f2
f4
fc
fa
f9
f4
f8
f3
f6
f4
06
fe
fd
fa
f5
01
f7
f7
fe
f2
f9
00
f7
f3
05
00
04
f8
fd
f2
f0
f1
01
f2
fe
f5
f7
f3
fe
fe
fd
fc
fa
00
ee
d5
fd
f9
f4
fe
fe
f8
ef
fd
fc
f8
f0
ec
ee
fb
ec
fc
f3
00
0e
f1
f6
f5
f9
f6
e9
f8
fa
f9
f5
fb
03
f1
02
fe
f2
f7
f8
fe
fd
fa
f0
0f
f0
fe
fe
fa
f4
f6
f5
e3
fb
f2
01
f5
fe
fe
f4
fd
f7
f5
01
f9
f7
f5
02
14
f7
de
05
f1
f3
03
fd
f0
fd
00
f1
fd
e0
f4
fc
00
fe
fa
ef
fe
fe
01
fa
fb
03
f7
ed
f9
00
f5
ed
f6
f4
e5
fe
00
ff
e2
f4
f6
fc
f9
f9
fb
fb
f7
f6
fe
09
f9
f3
da
fa
f9
f1
f9
01
00
ef
fd
ef
fd
f8
f7
eb
f0
f3
f9
ec
db
01
04
01
fc
08
07
ed
fb
f9
ff
00
14
fd
f4
ef
f5
ef
00
06
f9
f3
06
f8
fa
ee
f4
fb
f6
f5
02
f5
02
fd
f6
fa
f2
f3
f4
07
f2
ea
f5
fa
f0
f3
f2
01
fe
fa
f2
04
f6
f2
06
00
ed
f5
04
f5
ed
01
fa
ff
fa
f8
fb
02
f9
f7
f6
f4
01
f2
f6
eb
f6
f5
f9
ee
fb
fd
f9
ff
ea
fc
f2
04
fb
02
ff
06
fe
fe
f8
f8
dc
fc
f0
01
f8
fc
fe
f3
f2
f5
f7
f6
f7
ef
fd
fe
fb
f7
f4
f6
fb
f8
00
f7
f6
f7
eb
0f
01
fc
04
f3
f6
ea
f7
fa
fc
fb
f3
ef
03
00
07
f8
f5
11
06
f2
fa
f7
fa
fe
05
01
fb
f2
01
ec
e8
f3
ee
f2
fc
f6
fe
f6
ec
ef
f8
ee
fa
ec
f7
f5
fa
f2
01
fb
f6
f6
02
f9
f0
f3
ec
ff
07
00
f0
f4
08
f2
ef
fc
ed
f9
f6
03
ff
fb
ff
fb
fb
fd
00
f8
ed
fe
fa
ec
fd
ea
f2
01
fb
f0
eb
12
f9
19
09
fc
02
f7
05
fa
fc
ec
03
ee
f0
f0
df
f1
e1
e3
05
0c
fb
07
ea
f7
15
f1
ea
f9
01
07
10
e5
f0
fc
f8
ff
ea
ff
f6
f4
03
f3
fc
f6
e7
f4
fc
ec
07
fc
f0
fe
f2
f9
f6
f6
00
02
e3
12
fe
fc
f6
fa
f8
0e
f3
fc
f2
f0
01
f7
e8
ed
fa
f2
01
f3
ff
f0
07
f8
f5
11
fb
ee
ff
05
f1
ec
fd
f4
f6
f9
03
eb
e8
fc
eb
00
f2
fc
e3
f3
ee
11
fe
f8
f3
1a
f3
f6
ef
fe
f2
f0
08
08
fb
0e
f3
f4
fd
0e
f7
e4
f3
f2
f1
ed
ef
fc
f8
1c
00
f7
f0
13
fa
e9
ee
f8
f8
fa
fb
f1
e3
11
ea
09
f0
fe
e9
00
ff
ee
e8
fa
00
08
f8
f4
02
f4
ed
ff
f6
f9
dd
f9
f0
ee
f1
f0
ee
f0
04
ee
f3
fc
ed
f1
ef
e2
fa
ff
0c
ff
01
ee
f8
01
fb
ff
0c
09
f2
01
f1
03
f5
f9
f8
f6
f5
f3
f6
f1
ea
e9
f8
f1
f1
eb
fd
ef
ee
fa
0e
0e
ef
fe
16
e8
04
f0
00
e9
f4
e6
ee
eb
10
fe
f2
00
f1
f9
03
e3
dc
ee
f5
e6
f0
ea
01
f7
e6
f3
ee
09
04
fb
fb
d8
f1
fb
f8
f0
05
fe
ea
16
f1
fb
fe
ff
f3
f4
ff
02
f0
f2
fd
f8
f5
fc
fb
e1
ee
0c
f3
f5
f9
22
fd
0b
f8
07
fb
eb
e5
f7
f3
01
fe
e6
f3
f1
f2
f5
f5
ec
f9
f3
00
02
f2
03
05
ff
f2
ff
fc
f0
e8
f5
f9
f3
df
f5
fd
ee
fc
02
f7
ed
f2
03
e9
0a
f6
eb
fb
f7
f3
f6
fb
ee
ec
f0
ff
fe
02
fe
f2
e4
eb
f6
fa
f2
07
f8
02
e9
f6
f9
0a
ea
fe
f5
ef
f8
de
f2
f9
e4
00
09
e7
e5
ee
00
e6
ec
fe
ea
02
f7
fa
f7
f2
fb
fb
00
f3
09
04
fc
ff
02
f4
ff
e7
f5
fd
eb
ec
f2
e7
e9
ef
02
e2
fb
f7
03
ea
f0
f8
f0
eb
f2
eb
06
ee
d9
05
fa
f0
ee
0b
04
e6
fc
10
00
f4
07
f7
fb
01
fb
01
f8
08
e9
f5
f3
f3
ff
eb
f4
f9
e9
08
f7
f1
f4
fe
ed
01
e4
04
f5
09
03
f6
04
09
f5
f1
fc
0f
ee
03
ef
03
f5
fe
f0
fd
eb
06
f0
fb
f9
f7
fb
00
f3
00
01
f8
f1
fd
ea
ed
fd
01
04
f4
fd
f2
fa
0d
f1
fa
fb
ed
fc
f9
f8
ee
ee
f3
fc
f2
04
f1
eb
f7
f6
00
08
ff
fc
f5
07
f0
f6
ed
1c
f9
05
ff
fa
f7
f7
e5
f8
f7
00
f4
ee
e5
f2
0d
f6
f7
f6
ee
f5
f7
f2
f5
fb
f7
ee
04
0a
dc
04
e2
ee
f9
fc
ef
f7
f6
0a
fe
d6
f4
27
f1
f6
f9
00
fa
fa
f6
f6
f9
3b
fd
02
06
ef
f4
f3
db
e6
fb
ee
f9
e4
ed
f1
fa
fc
03
ff
ef
fd
e6
e0
08
eb
e9
00
f5
ea
fb
08
fd
fc
fa
fd
fa
fa
fb
fc
f6
f9
e0
fb
00
ff
fa
f3
03
02
08
02
0f
01
fc
0c
04
f1
f7
fc
fd
e5
e1
f8
fa
fa
0b
f6
fb
f9
f2
f8
f5
ec
ee
fb
fd
ef
01
f7
ec
fd
f8
e7
f9
f7
f4
f4
06
fb
f2
08
f8
f6
04
f9
f5
fd
fe
f1
ef
e5
07
fe
eb
fb
03
fd
fa
f6
f1
f2
00
f7
04
f5
f1
15
f6
fe
f7
12
f0
f2
f8
04
fc
ef
ec
fe
00
f2
fb
0a
0e
f1
04
fa
ea
fa
00
fd
fd
fd
ea
0c
f2
fb
05
fe
03
f4
f6
f8
e3
00
09
ef
f9
f5
d7
f6
ed
e8
07
06
01
f3
13
fd
f3
07
fc
05
e8
fb
f7
fe
f4
06
f9
0c
fe
f4
fe
f4
e8
ff
f3
e8
ef
f1
0c
ff
f6
fe
fa
04
0e
f3
05
08
f4
ef
f1
f0
fe
ef
f1
f5
f8
f1
02
f8
fb
f9
fd
ed
eb
fd
0d
e9
01
02
ff
ed
fa
fc
ec
ee
02
f9
f6
fb
02
e9
fe
f8
f2
08
fb
f7
f7
f6
f9
e2
0a
f3
05
00
f6
fc
ed
fd
00
02
e9
f5
f7
f7
06
fb
ec
e3
fe
fb
00
f6
f5
fa
ff
01
05
f0
02
f3
f4
ea
fd
f0
fb
09
00
ec
00
ff
ee
f6
f9
ef
fe
ec
ed
07
f4
f3
02
f0
ff
f5
f6
00
08
11
fe
06
f2
fd
f8
f9
e2
fa
02
fd
f4
fb
f2
e6
03
00
f9
08
fa
f5
01
f1
e9
0e
f8
f5
f7
e7
f9
f8
f1
f0
fa
03
fb
fb
f2
ec
fc
fc
f2
0b
05
ff
fd
f7
ef
f8
05
f3
ff
f7
fe
ff
ed
00
05
fc
f1
fc
da
f3
03
e7
fd
0d
ed
fb
f9
00
fd
f6
05
fa
f7
f5
06
f1
f3
ee
f5
f3
f1
f6
f3
fc
03
f5
f7
11
f2
ff
f8
f4
01
f2
fd
03
f7
f3
fb
fa
fc
fd
ed
fc
fb
00
d9
ff
fa
fe
f9
01
01
f9
0e
fd
f5
00
ff
0e
f7
eb
eb
f3
fc
05
ee
05
f2
ee
f3
f1
f1
01
f2
f3
f9
00
fc
f3
03
f8
f5
fb
fc
05
00
ff
fe
f5
f7
eb
09
fd
01
f7
f4
fd
ff
ef
fa
07
02
fb
fd
fa
fa
f8
07
f6
f0
01
fb
fc
fe
fc
ea
fe
f0
f6
f3
f5
ed
01
04
f9
fd
f3
e7
f2
ff
f8
01
fd
f6
f6
f7
fd
f7
ff
03
f8
fa
02
fb
01
06
ee
fb
10
f3
f5
f7
f5
f2
fc
ed
04
fe
f9
05
f0
07
f4
fc
00
f0
f4
f4
f3
f8
f4
0d
f7
0a
fb
02
f6
04
fe
f2
01
fa
fa
f8
03
fc
03
04
fd
ff
e4
00
fb
00
09
f3
0a
f6
07
fc
fd
f7
08
fa
01
ee
f0
f4
f4
01
f2
09
f9
f9
ff
00
f8
0b
f6
f9
01
ea
f0
f0
f9
fa
00
fe
fe
f9
f3
fb
f6
f7
f4
00
fb
f8
07
05
f3
f6
02
f0
f7
fb
00
f4
f6
f3
e6
f8
fc
f1
ec
fb
f3
f6
fa
05
01
fd
ff
19
02
fe
f4
ff
09
fa
f8
01
f5
fc
fd
07
fb
fb
ec
f6
05
f8
ec
0c
f7
11
fa
f6
fe
fb
f9
fa
00
fe
fe
f1
f0
fb
f4
f8
f5
fb
fd
f6
f7
fd
d2
eb
e2
ff
ef
fa
0d
f0
03
0a
f3
f4
ea
ef
ed
01
05
ef
02
07
07
2e
f3
fc
f0
ff
ff
fc
01
02
1a
f9
06
00
f7
f5
02
03
fc
fe
fe
e8
03
fa
f7
03
00
ff
00
fd
fb
10
f9
0b
fb
08
02
ef
fe
f4
fe
05
fe
fc
ff
f8
04
fa
03
02
fc
04
00
fb
fa
fe
04
01
ff
fd
fe
09
0c
f7
00
fd
01
08
fd
fa
05
04
fd
f4
f5
08
f7
01
fe
02
0b
05
11
01
fc
08
02
fc
ff
ff
09
00
07
f9
fb
02
3a
fd
01
fd
ed
00
a9
06
fc
ff
ff
fd
0b
03
fa
07
08
f5
fe
05
fa
ff
fc
07
fb
fe
01
04
dd
fb
fb
03
f4
02
00
fd
09
03
00
f3
02
fb
02
06
f2
fc
fe
fe
00
f9
ff
06
fc
f9
fb
02
03
37
f3
0b
01
ed
02
01
cc
03
00
f7
f7
c0
f5
fd
03
f6
eb
07
fd
fb
ed
ff
07
04
f8
ff
ec
eb
f3
ff
f9
f6
fd
02
04
f9
fb
fa
00
fb
ff
04
01
fb
fc
0a
00
f2
fd
fb
08
fd
00
15
fd
00
02
fe
f9
02
03
0b
05
ff
fb
01
fb
f3
fb
03
02
fd
0b
f2
fa
04
02
1c
f9
01
04
ff
f8
04
00
f7
04
da
11
ff
02
08
fb
09
05
02
ff
fe
07
19
04
fe
06
ff
01
fd
fd
00
00
04
ff
fc
00
fd
09
ff
f8
fc
00
ff
02
f7
fe
fb
f8
00
fe
04
f5
02
ff
ff
fd
05
03
c3
f7
fc
fe
03
fc
fc
03
fd
02
00
04
05
04
0f
15
02
ff
02
03
08
f8
03
f9
0d
ed
fe
f6
02
fb
06
fe
08
00
01
f9
f6
f2
0e
f9
fe
fd
fe
08
fd
02
0a
f9
00
0b
05
fb
fd
ec
ef
00
04
f8
05
0c
f9
02
01
03
05
f8
ed
00
fd
04
ff
fc
0b
05
05
01
ff
00
ff
06
fc
fa
fc
f4
fa
02
04
05
fd
01
f1
02
02
03
ff
01
03
01
05
fc
f7
03
f8
08
fe
0d
fd
f4
04
fe
1f
f5
00
22
fb
ff
0c
f7
05
07
00
03
00
f5
fe
fb
fc
fd
04
08
02
e7
fd
06
fd
00
03
04
01
fd
f8
ff
fe
e6
01
fc
fe
02
06
fe
fe
fa
fd
05
02
13
04
f7
00
f9
07
00
06
0c
f8
fd
fe
03
ff
fe
01
f7
04
1d
fa
ff
f4
05
ff
f9
fb
ff
06
ff
05
fd
ff
01
fb
f9
fe
01
04
00
fc
fb
f8
00
04
00
07
00
01
fe
fc
03
00
03
fd
fe
e9
07
fe
01
f3
f8
00
02
fc
fa
02
02
fb
fc
ff
23
06
fa
fe
07
fe
03
ff
00
09
f8
ff
f6
06
0a
04
03
00
0c
fe
e8
ed
04
0b
01
07
ff
fb
f4
0a
fd
fc
fd
fa
0f
09
03
03
00
fd
e1
fa
05
01
fd
05
00
00
f7
fd
fd
03
07
fe
01
08
f4
01
f8
00
f7
fb
f6
ff
fd
fc
fb
01
0d
03
fc
0f
fc
02
f6
f6
04
fe
f5
fb
fb
17
13
f7
01
ff
00
00
04
f9
02
08
05
02
eb
f6
07
04
ff
04
00
fe
ff
07
e1
03
02
02
0e
f8
06
00
04
ff
f6
05
01
ef
03
0b
07
ff
fe
f3
fd
f1
f3
fd
fd
01
02
f9
fb
09
02
04
fe
07
fc
fd
f0
06
01
fc
06
06
fe
f9
fb
fa
01
03
01
0d
f4
02
f4
08
fc
fc
ea
fa
fa
f7
f8
fa
09
00
d6
14
ff
03
f2
f6
08
10
f9
f9
02
03
fc
0b
01
0c
01
01
fe
f0
12
08
ec
01
02
02
01
fd
f9
f3
fd
fc
fc
fd
fb
0b
fe
fe
01
03
03
0a
fd
09
02
ff
05
03
0c
05
fb
02
fa
f9
fe
f7
f9
06
fd
f9
f8
0b
ff
f6
f7
0b
f0
04
ff
ff
03
fe
10
12
f6
01
fe
01
00
08
0e
05
f8
f6
07
0b
1e
fa
fb
00
f1
f3
0e
0a
fd
d8
fb
fe
fa
00
ff
0c
ff
fa
01
fd
fd
00
fd
19
09
ec
1f
00
02
ff
02
00
fb
05
06
fb
08
01
ff
07
09
ff
f9
df
fe
fa
f3
02
fb
03
fb
03
dc
09
12
fc
f9
fd
0b
0a
fa
f5
f9
fb
0a
fd
fa
fa
07
09
06
f7
04
08
03
ea
06
08
e3
00
06
0c
01
fe
e9
0d
f8
03
01
f3
02
02
0d
f0
f9
fc
fc
fb
0b
0d
f0
f7
07
04
fb
ff
fe
fc
fa
ff
fe
02
ea
f8
f7
05
01
00
03
11
0b
fd
05
f9
00
f7
f5
0e
fe
07
ff
ef
0c
08
fa
f5
0c
01
06
04
03
fd
ff
1b
f8
0a
fc
fa
05
05
f7
f8
fb
fe
fe
07
04
09
00
12
03
fb
01
09
00
07
06
ff
0b
02
fa
f5
fc
02
f5
f8
f7
04
06
fa
fa
fd
f5
fb
0a
01
f5
fa
f2
00
02
05
06
21
e6
f7
fc
ff
ff
ee
07
fc
ff
f8
fd
dd
fc
f4
08
02
ff
07
f5
fb
fe
f4
f7
fc
f6
f7
f2
03
f9
fa
fa
0b
04
05
02
11
fa
1f
00
09
fd
f8
08
09
ef
10
fc
01
f7
0c
f7
f5
01
00
10
02
fa
ff
0d
02
09
f2
02
06
0f
f2
08
fe
fd
fd
06
e7
fc
fd
09
ff
04
00
fc
fa
fb
04
02
fe
fe
0b
02
f8
fb
17
fe
f6
0c
fc
ff
fa
08
03
fc
01
fe
01
00
02
02
fd
06
0e
09
44
00
0a
e5
17
ef
e7
fe
f9
fb
08
fe
01
fc
04
ff
f9
fe
0a
03
01
0b
fd
00
02
0a
fd
fd
fe
ff
06
04
00
f3
07
f8
07
03
ff
01
fa
f8
0d
fe
0c
10
01
f7
06
03
ec
08
07
fb
f8
02
f6
05
04
fd
00
02
02
3a
fc
f7
e0
01
fc
fe
f8
f9
0f
f7
f0
fc
f6
fc
0e
ed
f4
f6
f9
fb
02
ec
02
fa
05
07
0e
01
08
fc
05
09
fa
0c
02
fe
e3
fa
ff
03
f3
03
00
0b
07
02
f1
04
fd
02
01
f5
09
09
f2
fa
fb
ff
f8
07
fe
ff
ff
fb
02
0c
09
02
f4
e9
fe
fc
03
06
06
08
02
02
08
07
f4
00
02
f6
f9
f6
06
00
0a
fe
f6
ff
00
00
12
ff
ff
fc
03
02
fe
f9
fd
ed
0e
03
f9
07
06
f3
ff
d9
fe
01
03
0f
fd
04
fa
f2
03
f1
11
f8
04
f1
fa
05
02
fc
fd
dd
f2
fa
fd
03
0a
f5
fd
01
fd
09
04
fe
07
f9
08
0f
fa
01
f8
ec
01
ff
fd
0a
dd
f5
ff
06
f8
fc
f8
00
fb
f7
fa
f7
f8
01
03
0d
05
f7
fd
06
e8
ff
02
f7
f7
f6
f8
05
02
fe
04
fd
02
0d
f9
13
ff
ff
00
fa
0b
00
f3
fc
0c
f7
fc
f1
fa
e2
ec
fc
f0
f2
f3
eb
08
05
ef
04
03
08
fb
0c
e0
f9
00
f4
06
06
fe
07
04
09
02
fb
07
fb
1e
fe
12
00
03
07
0c
09
fc
f9
0a
04
f0
05
0c
f7
fb
f9
06
fe
f3
f6
00
03
00
03
0e
02
ff
0a
05
04
01
f2
f9
00
01
f3
01
fe
08
ff
07
ff
0e
fe
fc
f8
10
00
f7
f4
fc
fe
ee
0b
f6
2b
fb
00
02
fa
fc
03
f2
f9
03
ff
fd
0b
fd
06
f9
ff
03
07
e7
05
fe
07
f6
04
fe
f0
02
fe
fa
fd
1a
00
04
04
05
06
fc
fa
fa
f7
ee
0b
13
03
04
01
02
fa
09
0d
f5
ff
13
0a
00
f9
01
fd
ee
f4
f3
ff
02
f9
15
09
08
1c
0c
f6
f8
fa
0e
ff
fd
0b
f5
ee
03
03
01
fb
f3
05
06
14
0a
02
ef
0b
fd
fc
04
f2
fa
f5
fa
f2
fc
fe
f8
f6
ff
fe
01
f8
06
0d
fd
fe
02
f4
0d
05
fa
fd
04
08
fa
f8
f5
fb
02
01
f8
fb
07
f5
00
f7
0a
00
00
f9
f3
fe
03
f9
02
fc
fb
03
0d
dc
eb
0e
08
f9
ff
03
0a
ff
fb
00
fe
f0
f8
fb
f3
ff
fa
08
16
ff
fe
01
f7
05
02
03
04
ff
f0
fb
f9
04
00
0d
0f
04
04
fd
01
ff
00
0b
ff
e9
06
0f
00
0b
f2
fa
f5
08
e3
08
13
0e
f0
f0
fb
02
03
0b
f5
18
00
fd
f3
07
f6
0f
fc
04
08
06
ee
f6
ff
f0
fa
08
fc
0a
01
07
f8
f2
16
f2
f9
18
02
00
fb
07
fa
12
02
03
11
07
fe
04
04
fa
fd
ff
fe
fd
da
06
02
03
17
1d
0d
00
f4
02
00
11
fc
f6
fc
0a
02
01
00
05
fe
fa
fb
fc
0d
f5
df
fc
fe
05
03
fb
05
05
f9
03
f3
03
fd
05
06
00
ff
fa
fc
fd
f8
09
fa
fd
02
06
02
f7
00
ef
fb
00
f8
12
00
02
f7
05
fa
03
01
02
0e
ee
f7
f3
fb
fb
04
00
01
fc
01
f5
f7
fd
05
04
ff
01
03
05
fe
06
ff
08
03
03
11
f0
fb
00
00
fb
07
04
0d
fb
f6
04
e5
fe
12
f8
0c
ee
fc
f0
fd
fd
01
fe
f8
f4
f8
03
05
08
09
fb
00
12
00
f0
2d
04
0e
03
f9
02
fe
15
f6
ff
05
f7
08
04
fd
fa
f8
06
f3
00
1a
00
03
07
ff
fa
11
07
fd
01
00
0f
09
02
ea
0b
0a
02
04
f7
00
09
ff
fe
10
07
f8
0b
f6
eb
fd
f9
ff
f4
fc
f2
f5
06
ff
03
fe
03
01
fd
0e
17
fc
0a
f6
db
fb
ff
fa
06
f5
12
0a
f7
04
0f
ec
fe
fe
fc
f9
fc
f7
02
ff
05
fd
fc
fc
01
ff
07
03
ff
df
e3
f1
05
00
02
f8
f8
00
04
01
02
f7
0a
fb
05
fc
fe
02
ec
fe
18
0d
fd
ff
fa
fb
f1
13
fe
f6
fc
e8
20
02
02
09
06
fb
07
07
06
12
02
03
f1
f6
0d
00
fc
01
ff
fc
08
0e
1b
14
03
04
fd
fb
05
fa
02
ed
02
07
06
06
ff
fe
03
fc
ef
00
f5
05
0b
fb
05
00
f9
f8
04
f7
fb
04
fe
f7
0c
fe
f8
f9
fa
fd
0e
f2
ff
0e
fe
05
ef
f8
08
05
0b
06
08
fe
fd
fd
03
00
07
fc
ff
0b
04
00
50
ff
f1
01
fe
06
04
f7
00
fc
03
ed
01
fb
f9
08
05
08
fb
06
01
f1
ef
01
fa
fc
fe
fb
fe
f6
03
09
fb
f6
01
f9
07
fe
ff
f1
f3
05
f8
f1
f0
fc
01
00
e8
01
ff
0b
15
01
fb
08
04
05
fd
fd
fe
fd
03
fd
fd
00
00
02
08
f5
06
fc
ea
0b
fa
00
01
03
02
fa
f8
f7
03
ff
fd
03
da
01
05
f8
fd
f5
ee
fe
f3
01
07
07
ed
ff
fe
fd
02
f7
f8
f7
ff
f4
02
f1
ea
07
fb
f2
e9
ef
02
f9
09
fd
fd
02
0e
03
0c
f3
ff
f6
14
ec
03
ff
fc
f6
00
f9
fe
fa
2b
fe
04
ff
f9
17
fc
05
f7
f3
fb
fd
06
f8
09
f6
fc
02
ff
02
00
ea
0b
f5
fe
fc
df
fd
e1
fc
08
f8
07
ff
01
0a
01
ec
fc
0a
01
f2
fc
fa
00
09
02
fb
03
0d
f7
ea
fd
f2
f8
01
02
fb
fd
f9
1c
01
01
fd
fa
09
05
02
07
f6
fc
0b
0b
04
fa
ff
02
06
08
fe
02
07
f9
d7
f3
fc
f9
03
f8
fb
02
e2
05
02
0a
00
05
00
fc
03
ff
fd
09
fc
fc
eb
01
f7
f1
03
05
03
f7
04
00
f8
04
fa
fe
0a
fd
00
fe
ff
fe
0d
ed
fc
ff
f2
f4
fb
ff
09
f4
05
f3
fe
f5
02
00
10
f2
fb
fa
fc
f9
f9
06
06
f5
f5
f6
59
f6
01
fc
05
fc
02
0d
08
fd
fb
eb
01
e9
f6
f2
00
fb
ff
ee
02
ff
08
04
fa
ff
09
01
06
05
03
fe
ff
f8
f9
04
00
06
00
00
07
14
11
01
09
ff
07
0f
fe
06
14
f7
02
ee
3c
fe
00
f8
fc
fc
0f
04
01
0e
fd
01
05
02
f5
f4
02
fb
ff
03
03
fd
f8
fc
fb
f4
08
fd
e7
ea
12
fb
02
07
07
fc
e5
ff
fb
eb
ff
fe
ff
01
c1
fd
fd
07
e1
01
ff
03
fb
ff
fd
02
fd
f9
fe
01
fb
fd
07
09
ff
08
03
02
03
03
fe
00
ff
05
f3
fe
fe
f5
f9
fc
00
00
00
05
01
fa
0c
ff
f7
f6
ff
f1
03
01
f6
fc
ff
f9
01
fb
f5
f9
05
fa
f9
f7
f6
c5
01
01
08
07
0b
0a
fb
fc
f0
08
ff
05
00
01
06
fe
ff
fe
ff
07
01
03
08
03
ff
fe
0b
f9
00
f5
05
fc
05
00
01
03
f6
0b
ff
ff
02
02
fd
f7
05
00
10
ff
fb
02
fb
07
03
01
00
0f
fc
09
01
09
f9
fa
ff
03
02
fa
fc
fa
03
28
fd
04
04
0f
fa
06
f8
02
00
ef
01
04
f8
ff
f4
17
f3
fc
fe
02
fc
0d
f4
09
0d
00
ff
0f
01
ff
fd
fd
00
00
05
fc
fb
01
fb
14
ff
02
ff
08
fc
fd
04
fc
fa
03
06
0d
04
f7
01
03
ed
ff
04
fc
08
3f
00
0e
ff
02
05
04
fc
f8
f3
fe
0b
03
04
f4
02
f0
ff
fe
f6
fc
03
fe
fd
f4
f9
05
07
f5
fb
01
f6
f3
02
fa
05
fe
f7
fa
03
0a
02
f5
fe
ef
0e
f8
fa
0c
06
fa
00
f7
07
fe
ff
04
02
07
ff
0a
fc
ff
fc
ef
fc
01
f7
00
00
08
fc
06
f3
21
fe
06
05
fc
00
fc
f9
fe
02
1a
02
08
01
02
00
fe
0c
03
02
0a
ee
01
03
f4
04
01
07
fa
eb
07
ff
07
01
fa
f9
00
f7
f9
07
fe
fe
fc
03
f9
f9
04
ff
f6
f6
fc
05
00
f8
fd
fb
fc
fe
03
fd
fc
f1
fd
fb
07
3a
fc
01
01
0b
fb
09
01
f0
0b
fb
1f
05
fa
02
ff
03
04
39
03
04
05
fd
08
0d
09
f5
05
f7
fb
fd
10
02
0c
fc
03
06
fd
fa
fd
fb
07
fb
fe
f7
fd
fe
f8
09
fc
04
03
02
02
f7
01
0c
ff
09
07
fd
f5
fb
02
01
fe
f7
fe
e8
02
fd
fe
fe
ff
fd
fb
fc
fd
00
f6
fb
fe
07
01
00
0a
02
08
fb
e2
00
f8
00
ff
fd
01
fb
fc
f5
06
02
0c
05
ff
fe
f7
00
ff
ff
ff
04
0e
0e
fc
06
fe
04
f9
05
fa
fa
fb
f8
01
fe
07
fe
01
11
fd
ff
f9
03
f7
f7
0b
01
03
fa
01
fa
f6
0c
01
09
02
ff
00
f9
fd
f8
23
fe
fb
02
05
1c
f6
ff
04
05
ff
fd
ed
fd
f8
09
cc
ce
fd
fa
fc
ff
fd
08
fc
ff
fa
fc
fb
fe
fe
f3
02
f5
f1
03
02
0c
f7
ff
08
fa
01
02
f8
05
0b
09
f8
0e
0c
0b
fb
03
00
01
fa
21
fc
02
03
01
f7
fc
ff
0a
fc
6c
0a
0b
00
02
02
07
f3
f9
02
ff
fc
01
05
fb
fb
00
ff
02
fa
13
02
02
23
00
03
0f
08
09
00
f9
f9
f9
56
ff
f9
01
08
fc
f8
fe
0c
fa
fd
03
fe
fd
fa
08
ee
fd
02
f2
fa
09
f4
01
04
fd
08
02
04
0f
06
fd
02
f9
fe
f6
02
fc
02
fe
fa
fd
fb
f7
16
08
06
f7
00
01
08
fe
fd
1c
f7
fb
0e
11
f9
02
f7
01
0d
fe
0e
05
ff
ff
f9
f0
f4
02
fe
05
fe
01
fa
fb
fe
fe
02
ed
f8
02
fe
03
e2
fe
03
fb
fc
01
f8
00
02
05
f9
db
fd
0b
f8
0c
fe
ff
08
19
f9
02
05
f4
01
00
d6
00
ff
fc
fd
03
fd
f5
02
04
f3
07
0b
fe
fc
f9
04
f4
01
f9
07
04
fd
fd
fa
01
ff
db
fd
0a
12
f4
fe
04
fd
00
fa
03
05
fd
f0
09
fd
fc
fe
fb
08
fb
f2
ff
04
ff
01
fd
02
fc
03
05
07
f3
fc
f9
fc
05
0c
f1
fa
fe
fa
ff
fc
f7
01
05
05
fd
0b
fd
0e
00
00
00
03
01
03
fc
20
fc
fc
01
fc
fa
ff
fb
ff
01
08
f2
fd
07
0a
0d
ff
06
03
f9
ff
fc
04
fe
fc
04
01
f7
f8
fd
f9
f2
04
02
f5
57
fa
ff
ff
05
fc
ff
fe
f8
fc
f8
06
fd
0b
fe
02
04
05
f3
f6
00
f7
fa
f7
04
fd
03
01
f8
fc
03
03
fd
fa
ff
0c
fc
0b
06
00
ff
03
01
fb
fd
ee
fc
f3
03
fe
f6
ff
06
f4
fd
03
f6
fb
ff
fd
f6
05
fe
07
05
01
01
06
02
fa
fa
07
06
02
fe
0a
ff
0b
02
fa
fe
08
03
fb
b0
06
09
ff
01
fd
f6
50
fc
f8
fc
fa
03
05
06
fb
f8
f1
fb
f5
f8
00
05
f4
f2
fb
f6
08
03
f7
00
f6
0b
09
0a
0e
ff
02
fc
fa
fb
fe
03
03
fc
10
0b
fb
f5
f8
01
01
fd
f7
4b
f9
02
fd
fe
fe
0b
00
03
02
fe
00
ed
f9
09
ff
f6
0c
fa
01
fc
f9
0a
fb
04
fc
08
01
01
f9
0e
fd
00
00
ff
fe
fa
02
f6
fe
fa
f9
04
f5
ff
02
09
ec
ff
0b
f3
f6
fe
01
00
02
03
0f
ff
fe
01
fb
03
fb
f8
0b
0b
fe
04
01
ef
16
0b
ff
00
01
fe
01
01
f8
01
fd
01
02
00
01
fb
ff
03
f6
00
08
00
fe
f3
05
0b
04
fe
05
08
ff
18
fc
06
00
c0
08
f3
ea
0a
05
02
eb
f0
04
fb
f9
f8
08
08
02
fd
17
01
00
0d
00
19
f0
f3
06
f5
02
fc
ff
fc
02
04
03
00
01
05
fe
fa
06
e8
f7
04
08
ff
00
04
01
f6
fd
fb
03
0b
fd
f8
fd
f9
fc
fd
f7
02
05
03
05
f3
fa
05
02
fe
03
0c
08
07
fd
03
ff
01
f5
0a
0c
09
06
f4
fe
07
fa
fd
03
fa
fc
f7
02
fa
f5
0a
ff
17
fe
f9
fe
fa
fc
f7
03
f9
fc
07
e2
04
e9
fd
02
ff
00
fd
03
fb
03
fd
f5
01
03
f1
ff
0c
f3
fc
f7
01
fb
02
ff
fd
00
fa
ff
f3
fc
fc
fa
02
ff
fd
00
fd
07
f9
00
fc
08
fe
fd
fc
06
fc
02
0c
06
09
02
00
f2
fd
0c
03
ff
fc
f4
05
fc
00
fc
fd
f9
02
fd
07
fb
04
ff
f6
04
f6
fd
fe
03
f4
ff
00
f8
05
00
01
f7
0a
f4
01
f1
ff
09
f5
f8
fa
eb
f1
fc
f9
fc
00
f2
02
f2
01
05
06
12
fe
01
ef
05
fd
0e
06
06
00
f1
f2
0d
06
b2
f7
08
ff
e5
01
f0
07
f9
fa
08
02
0b
ff
15
03
02
04
00
03
f9
fd
ff
f4
04
08
fb
05
ff
09
0a
fa
f5
06
04
ff
03
04
ec
fa
ff
fb
06
04
4e
f7
fa
07
01
ff
fe
01
fe
ff
02
ff
f8
ee
f7
ef
09
07
fc
04
01
05
f2
02
02
05
03
00
f7
03
fb
fe
fe
0b
04
05
ff
fc
fc
0b
0b
f6
f5
08
02
f7
05
04
06
fd
fc
f9
fb
05
12
06
f6
06
07
03
00
f6
08
f2
01
f1
01
00
fc
04
fd
ef
01
06
02
15
fe
f3
f8
0e
01
09
02
09
05
05
fb
fc
f8
07
fc
00
0b
05
fe
0a
fd
06
02
fe
fa
f3
f8
05
13
ff
f2
fe
03
49
04
d0
f9
fd
03
ff
ff
f8
06
ec
f9
09
f6
01
ff
01
08
fd
08
09
e3
f8
0a
0a
ff
01
00
04
0d
e9
fd
02
fa
3b
e8
0b
07
f9
fb
3c
03
fa
fe
07
ff
fb
08
06
fb
f6
f5
fa
02
0a
f1
02
07
fc
00
01
f2
fd
05
0d
06
fd
03
06
f4
fa
f8
f6
00
03
f9
08
00
06
09
07
04
fb
06
0a
ff
00
03
fc
f7
fb
f9
04
f8
07
e6
e9
16
01
03
fb
f0
04
f3
07
01
fe
00
04
04
fd
fa
fc
01
f0
f9
06
02
03
fe
0d
fb
04
fa
f4
f5
0c
ed
f3
05
01
0b
d9
fa
06
09
05
fb
01
fd
04
f4
fe
ff
00
01
03
00
07
fd
fd
08
fe
ea
00
fd
f9
04
f4
00
02
08
05
00
f4
f5
04
09
04
f4
1e
03
