1c
08
f0
00
01
02
fd
fb
00
06
ff
07
0f
f9
f3
0a
ff
0a
fe
f5
ff
f7
00
ff
0f
ef
fd
00
02
fe
f2
ff
ff
02
dd
0f
03
27
f8
04
f4
23
fd
00
ff
02
fe
fe
03
ff
fd
0b
fb
f8
04
03
f2
fe
fe
07
08
0b
f7
09
06
fd
fe
fb
06
09
fd
01
03
02
02
02
09
f7
f2
ff
fb
04
07
fc
06
01
fd
fe
00
00
f8
02
01
09
fb
01
fe
f1
fe
0b
eb
0b
ff
f4
00
05
f0
f9
04
08
08
f8
fb
00
fc
ec
fb
ff
fd
f1
fb
02
02
f5
02
05
f8
fd
0b
fa
03
fe
fa
f1
fe
0f
ff
2e
fb
f1
f5
07
f8
ce
09
10
01
01
fb
f7
05
f9
fa
03
fa
05
f2
03
eb
08
03
ec
0b
14
fb
ed
00
ff
08
fb
f1
03
08
11
0c
fa
1d
0d
02
e8
fb
fd
de
05
03
f1
f9
01
06
01
f9
f8
ff
00
f7
05
fb
05
f9
01
e5
02
fb
fb
07
00
f0
f9
11
fe
06
03
0b
ff
06
ff
00
09
07
fa
fd
14
0b
00
ff
dc
04
01
fe
06
09
0d
fa
03
d3
03
0c
05
04
00
fd
07
10
0b
08
f3
fd
f9
03
06
f4
00
f3
04
f2
ef
04
06
ff
ff
fb
fc
0d
07
fe
fc
ff
02
fa
07
10
fc
f8
fc
01
07
08
fe
fd
08
ef
fc
15
fe
05
fc
f1
00
0a
f9
0d
f9
05
08
ef
04
12
fc
fe
02
e7
04
0b
fd
f1
ef
06
fe
fe
0b
fa
03
02
00
05
fc
fe
fa
fd
00
f7
f4
fd
f9
f5
f7
00
f0
01
e7
fd
ef
f1
06
02
00
04
fd
ff
ff
05
00
0e
02
07
fd
fa
06
fa
fc
00
ed
ff
f3
07
f7
01
01
fc
01
fb
08
09
fd
01
fb
f7
fb
08
f4
ff
fd
fa
09
ff
0a
fd
fd
04
08
fc
f9
15
09
fd
fd
fe
00
f8
0b
ff
fc
08
fe
05
24
05
03
f5
fe
fa
01
f6
04
fb
14
02
01
00
f3
f6
0d
02
04
04
f5
00
ff
fc
ff
f7
05
f8
fe
0c
01
ff
06
01
01
12
00
02
05
fc
f5
03
fc
08
0d
05
fe
00
05
22
0c
fc
fa
fe
01
fc
f4
f4
ff
f2
f6
f1
03
fd
08
06
09
f8
07
ff
fa
f9
01
f5
f9
f3
05
07
02
0d
06
04
ff
f4
09
f2
f6
fc
fc
00
f8
08
ff
ff
0e
fa
0a
fa
03
13
f0
f2
fd
0a
07
f2
09
ff
f6
04
05
18
ff
fc
11
01
fe
ff
01
04
08
02
f3
fc
0d
03
0a
f8
fa
f8
0c
f6
00
fe
11
fa
05
f9
08
fc
f8
03
02
01
07
f7
0d
06
fa
00
fc
03
0b
fa
06
fa
f6
fe
fd
0a
02
e9
f9
01
0d
06
f6
fd
de
fc
0c
06
00
fa
12
03
f5
fa
0d
f6
01
f6
f5
04
07
fc
fa
07
f9
03
fa
ff
07
f6
f9
fc
ff
f8
ee
02
08
05
00
e6
f8
08
fd
04
01
00
f7
01
fb
08
ff
0c
fb
ef
01
ff
f4
fa
0b
02
f1
ea
0d
04
01
f2
ff
06
ff
05
03
f8
ea
fc
0d
f2
f0
0c
0e
01
05
02
04
fe
18
07
ee
f8
fe
fc
f7
05
fb
03
0f
f7
02
f1
f3
05
09
f4
01
fb
f2
01
f4
f6
03
fd
f6
03
fd
e7
f6
02
07
16
d4
ed
ff
08
e9
0c
09
11
16
e2
f9
0f
03
16
f3
06
09
02
ec
03
ec
fa
f5
f9
14
f6
ff
fe
f7
17
1b
fe
03
ea
fe
06
ed
08
f2
f7
f5
0a
f7
ec
05
03
02
08
f4
04
fd
02
1f
07
03
fb
0e
02
10
f6
11
fd
00
fa
fb
06
03
06
07
04
06
03
f3
2a
f1
fe
05
02
f1
f5
08
1f
01
e7
0f
fb
f5
0a
ff
f7
0a
fa
f3
01
f0
fc
e5
04
f9
02
23
09
0d
fd
11
02
0b
f7
00
f7
0a
fa
02
f5
f8
06
00
04
0a
0f
04
07
fa
0c
08
08
ef
f2
16
04
0b
0a
00
04
10
f9
01
03
f5
f7
0b
04
1a
f4
ee
f0
ff
06
07
f8
18
03
04
13
09
18
f6
de
05
18
fa
02
06
00
fe
2b
eb
02
f4
04
f1
f6
1b
07
00
1e
02
ee
0f
fb
06
ee
ed
f0
19
fa
e8
f8
03
ee
f9
02
18
fb
f3
f3
d8
01
0d
fd
0f
ef
f7
0c
ee
ef
03
f9
25
09
07
e7
f4
07
06
de
fb
02
fc
f8
f6
07
05
07
e0
0d
f0
12
04
ff
fb
01
05
f9
f3
fc
04
fa
f2
04
f3
f4
f3
ee
fa
f0
09
05
f5
0d
04
ff
05
08
ec
ee
0a
04
01
ed
f2
0e
f9
0a
0d
06
02
0d
fd
de
f0
01
ff
f6
0b
f9
02
eb
05
f2
0f
f2
f2
f5
0e
16
f6
ea
f3
03
fc
06
10
ef
21
02
ff
02
08
f8
04
fe
10
06
17
09
09
07
f3
04
08
f8
f8
f1
eb
11
06
fe
04
04
f7
f2
f3
0f
1c
0d
0a
14
18
08
d8
f7
17
0b
f9
05
0d
f7
fd
05
fd
00
f6
07
f1
f8
e7
14
21
f7
09
f8
fc
03
01
fb
04
f0
05
00
f5
0b
fc
0b
fc
00
ee
09
01
f0
0e
02
14
fc
f9
f2
03
f1
0b
fa
02
21
f9
e1
f2
fc
01
06
f9
ff
fc
f4
11
05
f4
fc
00
18
0a
0a
fc
08
e6
f9
0e
f7
fb
fa
00
fe
da
fd
f4
f7
e4
0a
f9
1a
fc
f9
ff
f7
fe
0b
ec
0a
fd
0a
00
0d
18
fa
f8
fc
fa
03
08
f5
fc
f8
f7
03
f6
0a
fc
f5
f5
fc
05
f3
fe
00
0d
08
ff
2a
01
fc
0a
f2
03
fb
0f
e6
f3
fe
01
d2
ff
f9
06
25
f2
08
ed
04
f9
0d
f2
f6
fa
04
02
09
08
07
ef
0d
f9
f4
ee
14
fc
fe
01
fb
ef
10
e1
f9
00
ed
06
f5
f1
00
fe
0c
25
ff
f0
df
e8
ea
e7
06
f4
f3
01
f4
fe
ff
08
03
f6
0d
f2
17
f5
06
e2
f1
fb
00
f8
04
02
f7
0a
00
f6
01
fd
0b
f8
00
ec
fd
fa
fd
18
f0
f6
04
02
fd
24
0c
fa
d9
ef
01
dc
f9
0e
05
01
19
f7
04
f8
f5
fc
fb
02
f1
dd
e2
f0
f0
09
1c
f8
07
f4
0d
07
f2
fa
f6
fa
07
0f
17
fe
f3
fb
e5
f5
e2
17
fb
f9
02
0e
f2
0e
19
0e
01
0d
fe
fd
ef
07
fd
ea
f9
ff
01
05
10
14
ff
01
00
00
f5
f3
00
17
fb
f3
ed
ff
02
00
09
fa
f8
1e
0a
fb
08
01
05
ff
f2
ec
fd
fd
0a
16
f7
14
05
e9
17
00
eb
2c
f7
05
01
e9
f2
09
f3
f5
11
01
01
ff
fe
f1
f5
05
00
0a
02
03
d5
02
fc
f6
0a
eb
f9
38
fa
05
02
f9
f1
fa
00
ed
f3
f6
f8
03
03
04
fe
f3
f6
f7
f3
3c
04
f5
f3
05
ff
ee
fc
fe
fc
fa
16
01
00
f9
fa
ff
f9
e7
f2
00
01
f6
f6
fa
05
ec
03
fb
f2
f8
03
fd
fa
fc
00
05
ef
03
fd
fd
02
f4
f8
f9
09
ff
01
f7
fb
fc
12
fc
f8
f6
fc
02
f5
06
04
f1
f8
02
00
fe
07
fc
01
f8
f5
f7
f5
ff
01
01
fa
f3
f3
1d
f5
ff
fc
06
0d
f8
01
05
02
ff
09
fa
fb
eb
f8
f6
01
fb
fd
f7
f7
03
fc
f3
fb
12
fe
0f
fb
08
02
07
fd
ff
fb
fd
f6
fa
f8
f9
f5
02
ee
09
f9
4e
f8
fa
00
f9
ee
e9
e8
f6
05
0b
ee
ff
06
20
f6
f8
0c
09
ff
f4
0c
fb
f0
f5
f6
f8
fa
fe
f8
f9
00
00
07
00
f7
08
ff
ff
01
fc
f8
f8
f9
fb
f2
08
f7
fd
fa
f1
f3
01
00
f2
f2
f3
f8
f8
ea
08
fe
f7
02
fa
ec
05
f0
fe
04
06
0b
f6
fb
fa
fb
e9
f9
fd
fc
ed
02
09
f6
fa
ff
fd
05
ea
0c
f3
03
00
fa
f3
ff
fa
07
07
08
fd
ff
ea
f9
f4
02
fd
f8
fd
00
fc
f5
f5
02
ea
ee
f5
ff
06
fd
f5
02
f9
f5
f6
f2
e4
fc
09
f7
09
f8
ea
f7
fb
f7
ff
01
0e
00
02
00
05
f8
fd
fc
f8
f8
f6
ee
fc
fe
f6
f4
0e
fa
fd
00
e5
04
02
00
00
f7
03
fe
f8
f1
05
fb
f5
fb
e6
02
f4
f6
0a
02
ff
fb
f3
0c
03
fc
fe
ed
f9
03
fb
f3
fd
fd
f8
f4
fe
f8
f8
01
f9
fa
f3
fe
01
fd
fc
fc
06
f9
f2
fc
fa
fc
fd
fa
04
fb
f1
fe
f6
f5
f3
03
02
ff
f0
01
06
06
04
00
ea
f8
f5
f9
f6
00
f9
03
fe
02
01
fe
f4
f8
f8
f2
fb
fa
f8
03
e5
f6
f2
f4
f7
12
f6
f9
10
f5
f5
fd
fe
00
f6
07
e9
fb
00
f9
f5
02
f5
08
f6
03
ee
fc
02
f8
05
ff
fa
03
02
fa
01
e7
fb
01
0c
f9
01
fe
ff
00
0b
f9
04
f6
f3
ef
fd
01
01
ff
05
f7
06
03
f4
ff
02
07
ec
04
f8
01
06
e9
ff
fc
f5
00
01
ef
f7
03
fa
04
f5
f3
fd
f0
fc
f8
01
fd
ff
f9
02
f6
f1
f8
eb
f8
00
fa
fb
ff
f4
ff
fe
fe
f7
f5
08
f9
fd
f5
f2
f3
fa
f8
fe
fc
f7
fb
04
f8
08
f0
f8
fa
fb
ea
f9
f4
fc
fc
f3
fa
00
a0
f9
fd
03
f9
ea
02
f6
eb
00
f7
fc
03
f8
04
00
ef
0f
f5
03
f4
fc
f4
eb
02
fd
f1
06
ee
f0
f8
fe
05
ea
10
f8
f5
f5
fe
04
ef
f9
ee
07
fb
0d
fa
01
ff
fd
ff
fe
0f
f3
00
f4
ef
00
f6
f7
0a
f5
fb
fa
f5
f7
f7
ee
04
ed
0c
fc
fb
10
fe
06
07
f9
e8
00
df
fe
ef
ef
05
0e
f3
fa
03
fe
05
ff
fa
fe
05
08
f9
14
f7
03
f6
f4
fa
00
01
f8
ed
fe
ed
03
f7
fa
fb
00
fc
00
07
fb
08
f7
f4
02
f9
02
12
01
e9
e6
05
01
f1
f1
07
09
f5
05
01
0b
04
04
fe
00
11
fb
07
f0
fc
ff
09
ff
00
02
0c
05
f7
0c
01
06
0c
0a
ff
11
09
00
0a
14
0a
01
0e
0d
ff
01
ff
00
02
03
0e
07
04
fa
fe
00
05
fd
fb
0a
fe
f9
f6
ff
06
08
fd
07
02
06
1c
fe
0c
07
fc
01
06
f5
ef
fb
00
f8
f0
06
03
08
ff
fc
fd
06
01
06
f7
14
f5
fe
f9
13
fd
ff
06
fa
09
fc
03
0b
0d
f4
04
08
16
ff
00
0a
01
05
f5
03
fe
ff
fe
ef
11
02
fd
fa
f4
fd
ff
f1
0d
fe
04
11
fe
01
02
f6
f9
05
00
0e
08
05
02
02
fc
e9
02
f2
f4
00
03
04
19
0a
f7
ff
04
00
00
04
03
00
00
01
fd
f5
fa
06
1b
03
f8
fd
03
f8
07
06
fe
fd
08
0a
fd
0b
12
ee
0d
15
0f
fc
00
00
ff
fa
09
ff
f0
fe
00
09
06
0f
00
08
fd
06
f6
12
f7
f5
ff
12
01
02
fa
fc
fa
fd
0b
ed
fb
fe
04
fd
fe
00
fa
ea
fd
15
03
0c
ec
03
f7
02
fc
09
fe
e5
e8
f4
f9
12
0b
0e
02
ed
fd
07
01
fd
f5
05
03
05
fc
0e
fc
07
06
0b
05
f8
f5
f9
fd
00
02
08
ff
06
fe
ec
01
0e
03
0e
fc
fd
fe
da
0f
f9
04
00
fe
fe
f8
0d
12
00
ee
fc
0b
f9
03
d5
13
08
00
02
f5
f0
06
01
05
fb
05
01
00
01
fd
00
06
f7
ff
0e
fc
14
0c
03
f6
fa
0d
ff
08
08
f2
f2
07
ef
02
08
07
f1
09
05
02
fa
03
01
00
fc
07
04
fe
13
07
f9
13
0a
f9
f9
ff
09
0c
0a
02
0b
fd
ff
0d
fb
fb
0a
f8
06
f8
18
03
fa
15
f9
11
f5
01
fc
fb
04
02
03
fd
07
f7
05
f2
fb
0b
0b
fb
12
01
f0
f5
fd
f8
01
f8
08
07
0b
f8
13
fb
ed
09
00
0b
ec
fc
04
07
fd
13
f8
03
03
fc
f7
08
04
06
02
02
0b
00
f3
06
08
07
fb
1e
fd
05
ff
0b
07
06
0d
01
09
03
ee
fd
03
0b
08
0e
0e
12
05
fd
f2
0c
24
08
f8
f8
03
08
01
12
fe
0b
06
f1
05
03
07
fb
f6
0e
04
f7
f8
01
ec
04
0b
0c
fe
0d
0b
f9
08
03
fc
02
fc
ff
07
04
06
00
f6
f2
09
01
f5
17
e9
01
05
fd
0a
fe
f2
00
0a
05
f0
fa
02
04
fa
09
f3
02
fb
f9
f6
fa
f6
f6
0e
f7
fc
ea
11
08
04
05
00
e8
f9
07
fd
07
00
f4
08
00
01
0d
fa
04
f8
0e
f8
f7
2e
fd
06
fe
0a
02
05
fb
f3
ee
0a
12
f0
f3
fc
f6
04
03
f1
01
fe
03
01
f9
0b
ef
fd
fe
0e
fe
00
0a
00
f8
05
01
02
10
03
06
f8
fd
f8
f6
f7
fe
0d
1a
f7
0c
f1
0f
09
fa
06
0a
f7
e3
01
f9
04
06
09
05
0d
01
e9
fd
fd
00
0f
0d
01
07
08
0d
fb
fc
00
fa
05
f9
f2
03
02
07
fe
18
0a
f8
18
fd
f0
0a
f4
fe
03
ff
ff
03
f8
0e
01
03
fd
f8
f5
f1
eb
fb
19
05
ff
f3
fb
06
01
04
04
04
f3
0f
f2
0b
f9
f3
fa
03
16
fb
05
fd
f8
01
f7
fd
06
07
ec
00
e8
f7
f6
fe
f6
f9
fd
05
05
f6
fd
f9
f8
f5
f3
00
fd
0a
00
f1
eb
f5
fb
01
f3
f2
fb
f8
fc
00
0a
ef
eb
f9
0d
ff
09
f6
f9
fa
ff
f5
f7
f8
03
fb
fa
fb
f5
fe
00
01
fd
f4
05
05
00
03
04
f1
fb
09
08
f8
fa
08
fb
06
07
fc
f8
08
fc
fd
fa
fa
ee
f8
03
06
fc
f1
1a
00
17
e5
00
fc
0f
02
f8
f5
fb
f6
0a
fc
00
ec
14
05
ef
eb
d1
05
fc
0a
e6
ff
00
01
f9
f3
fd
f2
ee
f8
f8
02
fb
f0
f9
04
fd
f1
fe
05
00
f8
09
05
f5
13
f6
f6
f5
02
fb
17
f7
09
ed
e7
ef
fa
f7
01
f4
06
fd
f8
06
03
f7
fa
01
f3
f9
f6
04
f9
fc
fb
f9
fd
fa
f9
06
f7
0d
e8
da
fb
fd
03
01
fd
06
fa
f9
ff
f7
fd
fc
00
f4
f8
fa
02
f6
fd
f9
f1
fc
fb
f7
0b
fc
04
0a
01
fd
04
f4
f3
0b
ee
03
f7
fc
f6
04
0a
fd
0e
fd
ec
fc
f4
f8
f6
f4
02
ee
01
0e
fc
ff
05
fa
08
04
fe
f9
eb
06
f6
fa
fe
ff
03
01
02
fc
02
fa
06
07
f2
01
fa
00
06
06
f0
07
fc
03
df
21
02
e6
00
df
f9
19
f6
03
03
02
f5
e4
f2
f0
f8
fe
07
fe
f4
06
f0
f8
09
fe
f9
f9
f5
fc
05
02
01
01
02
0d
ff
f3
ee
06
f4
03
f9
fd
ff
e0
fa
fb
f9
11
f2
08
fe
fa
fe
09
04
f6
fc
1a
f6
f4
03
fb
fd
f5
fc
f3
f6
f6
f8
f0
ed
f7
fc
fd
fe
00
fa
04
ff
f9
01
f3
f6
03
f7
fa
fa
f3
05
f0
fb
2e
ff
f0
f4
fc
fa
15
ff
f9
ff
f7
06
fb
fc
00
0e
f6
f4
fa
fb
fe
02
f0
09
05
f7
02
03
05
fd
00
08
00
fb
f1
f4
fc
f6
17
f8
06
02
fb
fd
0a
0c
09
00
f4
ea
04
03
02
f6
fa
01
f6
fd
00
fc
02
fe
02
ec
f9
ef
06
f7
f1
fd
fa
f5
02
f8
05
f9
02
05
f5
f5
01
05
09
ee
08
e7
f7
fa
fb
05
fa
f9
f3
ed
ea
f9
ff
03
f1
02
f8
f2
01
01
00
0d
e3
f8
01
f4
04
fe
fc
07
e2
f6
f8
dc
fe
fa
fc
fb
f4
f9
f9
e7
06
05
ff
f1
fb
fa
f9
0c
13
f0
f4
01
02
f2
fa
00
0c
de
ea
ee
f7
fe
f7
00
f8
f9
fb
ed
ff
fa
f8
f5
fa
f1
f4
fd
f8
f4
fa
f2
ee
f1
f5
f7
06
03
f8
f2
00
03
fa
e7
e8
fb
00
fc
10
f7
0d
08
fb
00
08
01
0a
07
01
ef
e6
05
fa
ff
f4
f4
1a
02
ef
fd
fc
0f
02
04
fe
fe
fd
05
f0
00
f4
0b
00
02
f4
fa
ff
f8
fd
ff
fe
f7
fc
fa
e6
0b
f2
f4
ff
f7
fd
02
f7
f5
0e
02
ff
f8
0a
05
fd
f3
f9
07
0d
f4
fd
03
f0
f8
fc
33
01
0c
fa
f8
f9
ff
f7
f6
f2
00
f6
f5
04
fc
f4
ec
e6
0c
06
f0
ee
ef
09
fb
f0
f3
03
0c
06
fd
0a
02
01
0e
fe
00
fe
f7
09
ee
f8
03
fa
f3
fb
07
09
03
0a
08
fd
ff
0e
fc
ee
f7
03
05
01
fb
09
05
02
f7
00
00
f7
f1
07
fd
f7
f2
f7
00
00
15
03
fc
01
f0
03
01
03
08
ff
f6
f6
f4
05
ff
04
01
f3
00
08
00
fc
00
ff
ff
ff
ff
f7
fc
14
02
06
05
14
fc
fa
08
03
f1
fd
fc
ff
07
fe
fe
01
fe
03
fd
05
f4
fe
03
07
f4
fc
0b
02
fd
01
fc
fb
f4
fd
f8
f7
02
ff
f4
03
07
04
ff
00
fe
f8
27
f9
fb
02
fc
02
f5
f5
07
01
04
02
fc
ef
04
ff
07
04
fd
03
01
f9
04
f3
01
fe
fb
fe
09
fd
f7
05
00
f7
03
ef
f9
0d
01
01
00
02
fa
fb
02
0d
02
03
fe
00
44
fe
f3
02
fd
04
07
07
ff
fa
f5
02
f1
03
01
f9
0e
12
fd
fc
ae
fd
fc
f8
f9
04
10
07
03
08
f7
fc
01
f3
e6
03
00
01
ff
0d
07
0a
fb
05
f8
06
00
fc
02
fe
16
06
fb
07
08
f3
01
f7
f9
f9
ef
02
01
fc
ff
ff
fd
03
c2
06
09
05
0c
ff
fd
03
f5
fe
15
0a
f6
02
ff
01
f8
fb
0a
fb
fb
fd
fb
09
f7
08
f6
05
11
f8
00
f6
fc
fd
fb
f5
f8
03
01
fc
f4
01
fd
fd
ff
fc
fc
00
fe
fd
0a
07
06
fb
03
ec
f9
fa
02
ed
06
fd
f6
fa
00
f4
fa
10
06
02
fe
fa
09
f8
f4
07
f2
02
04
fc
f2
ff
f3
05
05
01
fe
ff
ff
fb
fa
fa
05
03
06
fb
fc
fd
00
09
f4
ff
fa
fd
07
02
fa
fd
f6
f6
fa
fc
fc
0c
03
fa
00
03
02
ff
02
06
e2
03
fe
02
f6
01
06
ff
13
fd
08
01
fe
02
00
fd
01
00
04
fc
05
fb
ff
03
f5
f8
03
08
04
f4
03
f2
fe
ff
01
f7
03
f3
0a
05
00
01
08
ff
02
01
10
01
04
d5
0f
ff
03
06
f8
04
06
0c
f9
10
02
fb
03
f8
f9
03
fd
fd
01
07
f4
fd
06
fe
09
0a
00
ec
12
f8
08
f8
fe
fe
f1
04
fd
ff
f8
07
fe
f9
01
03
fe
01
02
ed
fa
fd
03
01
02
04
fe
eb
fc
fe
ff
fd
f6
0c
00
fb
f7
ef
fd
02
0a
02
0a
fd
09
ff
01
15
0a
fd
02
0d
f7
06
ff
fd
eb
ff
fa
e8
06
fe
00
fe
f9
05
fe
ff
08
00
04
00
ff
05
f9
02
fb
ed
f2
05
fa
f7
03
03
04
0c
02
09
0c
00
ed
02
07
fa
01
fd
fd
03
f8
02
f0
ff
fe
ee
02
0e
ff
f8
ec
08
f7
fe
fa
04
08
0b
04
01
ed
f0
f9
0a
09
fb
05
fb
f7
0b
fc
f6
07
01
01
04
04
06
f9
fd
02
04
f9
f6
e9
fe
fc
f2
fb
f6
12
03
fe
13
46
fa
07
07
01
0a
ff
ef
f0
f6
04
f2
f7
0b
fb
03
fd
0c
0f
fb
fa
00
f7
fc
0a
f8
00
fd
06
fc
ff
03
ff
00
ff
e9
10
01
00
0c
fc
fd
fd
fe
fd
f5
0f
02
55
00
f7
06
01
fb
fc
fa
f7
09
01
fc
0c
0c
06
fe
00
0c
0c
08
fa
1a
06
fd
f0
f9
00
f2
ff
e1
fb
05
0f
fb
0a
0a
f5
02
fb
fb
fb
04
16
01
07
f4
08
f2
06
f9
ff
e3
ed
f8
f6
ec
01
06
04
03
f4
08
00
ff
01
03
f8
e6
fa
0a
fe
f5
fd
ef
f7
06
08
f2
08
fb
ff
fe
05
16
fd
e5
f3
04
ff
0b
f4
f8
f5
01
0a
0d
ee
fe
fb
f7
ff
f3
fb
f9
fe
00
f9
01
ff
f9
f5
02
02
02
fc
f1
f3
f9
fd
f7
0c
11
00
06
fa
f0
06
03
fb
f8
fa
f9
f7
fc
fe
03
fa
06
f1
00
fa
fd
f6
f3
06
0b
04
0b
0f
ec
f6
02
f7
fc
fc
e3
ff
fb
05
fa
03
fa
f9
eb
f9
f7
fb
e4
0f
f6
f6
02
fe
ff
fe
ff
f4
00
0c
00
ed
f6
fa
fa
f6
f2
fb
fa
ff
00
ff
12
13
06
01
fb
fc
f6
f7
e9
0c
e9
00
fe
fe
01
f7
00
fb
fa
e7
f6
f7
02
fd
0a
fb
04
06
f0
03
0c
fe
fb
f8
00
00
f6
02
fc
02
01
01
f5
06
11
01
fb
06
f3
05
fc
fe
fc
06
f7
fd
f3
e6
fa
01
03
fa
f5
ff
01
07
f4
dc
f7
fb
08
08
ff
f4
05
ff
f9
fa
f8
10
06
f5
ee
f7
0a
11
f3
05
09
00
fd
e5
07
fd
03
ff
fe
00
f6
ed
ff
ee
f8
04
fc
0e
05
fe
00
f6
f5
fb
f8
05
f7
f9
0d
09
fc
01
05
f9
02
02
fe
14
02
f9
0c
f9
ef
f2
f7
00
fe
fc
f2
01
f5
f8
0e
00
01
f1
fb
fe
03
03
f8
00
0c
f6
0b
0b
f9
0d
fc
03
f8
f8
03
f5
04
ff
f1
00
12
02
02
09
f9
f5
08
05
02
00
ff
fb
00
fa
1e
f8
f7
02
fe
f9
0c
0e
05
0f
01
fe
e7
f6
f9
00
07
04
09
00
fe
02
04
ef
f2
f2
f4
e7
eb
f9
f0
fc
0c
06
07
fd
fd
e0
fc
0d
fe
fc
01
f4
fa
fd
f4
0b
1a
08
ff
f3
dd
00
01
04
f4
06
fc
f2
04
f9
f0
f8
02
d4
f0
ef
04
f2
f7
16
f6
f9
07
f8
ef
fb
f7
fa
f1
f6
0f
e9
fa
fe
fa
fa
0e
0a
03
ff
ec
f2
13
fe
fd
0e
e3
e6
e2
03
fe
f7
01
fa
00
08
ff
f6
07
f7
0a
f2
09
fc
ea
fe
07
f3
0c
e9
01
fb
fe
ff
00
f3
00
f8
0a
f1
03
f7
f3
e9
e8
0a
00
f5
f4
fb
f5
ed
fc
ed
fb
f2
fc
f0
02
fa
03
09
f5
0b
fe
06
02
fa
01
0c
09
f9
00
ee
f8
02
f9
f3
f7
02
f1
f2
0e
05
0a
06
fe
f0
f5
01
fa
0c
f6
f9
fd
08
ef
ed
fc
02
f6
ee
f3
f3
e4
04
f0
00
0f
02
f5
fd
fb
0a
f4
f6
f1
05
f6
01
eb
f9
00
f6
f6
fd
f8
05
02
0d
fe
06
f8
04
08
e9
0e
f7
ee
02
fd
09
fd
04
03
f9
00
fc
f5
f5
00
00
f9
f2
0a
fc
fc
fa
fd
02
0c
f1
ed
06
fa
f4
f6
fd
0d
02
01
04
0a
0f
f4
fd
fd
04
f5
e5
f8
02
01
db
fd
14
fb
06
fd
e7
fb
23
fc
f6
f7
f3
0a
0a
e4
0b
00
01
f5
ff
08
ef
fb
fd
00
f5
ff
f3
0a
f4
fa
00
f3
07
f6
f3
01
ed
fc
04
fc
07
00
fd
f3
f9
f3
f8
f2
16
fa
01
f3
ff
ff
03
fb
07
05
f1
0d
ee
e6
01
03
01
f2
10
fa
00
f1
f9
05
e8
f0
fc
da
0c
fc
fc
01
07
d3
f9
06
fd
f2
e7
04
01
05
ee
05
01
ff
04
fd
f9
0c
0a
f7
fc
ff
01
f9
fc
fd
18
fe
f4
05
09
e9
fa
c0
ef
03
03
f8
fc
03
f6
ff
ff
fd
eb
06
fd
0f
05
e9
01
f4
f5
07
fa
f3
f2
02
0d
fc
0a
f0
08
fb
fb
f8
f6
ff
00
00
fd
02
02
f3
fd
ec
f4
02
f8
f8
f5
f1
05
f8
ec
f3
fa
f4
01
01
ff
fc
fa
f1
f9
0c
03
fd
15
fd
f9
f1
01
03
fd
f6
f8
f5
00
f8
10
f0
08
fd
00
06
03
02
f8
fb
02
ee
12
ff
ff
01
fc
df
04
09
ef
07
09
03
f0
e5
fe
f6
f8
0b
0c
f8
fc
f5
f8
04
fc
f6
f1
06
f9
ec
f9
09
fa
f6
ed
de
ff
00
e8
09
fb
e2
e5
cf
fe
f7
fb
f4
03
f9
f4
06
0c
08
fb
03
f7
0a
11
f4
ff
f5
f5
05
fd
01
00
ec
03
09
1b
06
f6
fd
01
fa
11
f0
0e
f6
f2
0e
fa
e8
ff
fc
0b
02
ff
f6
f6
e0
fa
01
e8
00
fc
01
0b
08
08
f8
fd
04
f7
05
ee
f8
f7
08
f9
f1
fa
f9
07
f4
f5
02
ee
1d
ec
ff
06
fd
01
0b
fd
fd
06
06
02
00
04
01
f9
fb
04
fa
f4
02
08
ff
05
06
fc
fe
fa
0d
07
18
11
fc
dd
ed
05
12
03
f9
ff
fc
f8
fc
09
02
fd
08
e7
04
fa
f7
ee
ff
fe
ef
06
02
06
fd
f4
fa
ef
f7
ff
fd
03
fb
00
ec
13
ef
fc
06
fd
fd
03
fb
f9
f9
f8
0b
0c
ec
fa
06
06
f1
03
fd
01
04
fc
11
06
01
1a
0d
f2
fb
e9
05
07
02
01
f5
fd
f4
00
03
fa
02
08
00
10
02
06
07
ed
f9
e7
fd
fc
09
f8
fa
fe
f1
0a
14
fe
fd
02
00
00
01
f8
01
ef
fe
01
fa
f1
ea
e8
05
fe
0a
0c
fe
ec
fd
02
03
f1
02
fd
e5
04
ff
fd
f9
0e
fe
00
ff
03
09
f9
f8
01
08
14
fe
fc
f8
00
fc
f4
01
0c
f6
10
fc
0e
f6
07
fb
f5
ff
03
f8
ff
f7
f5
fe
f8
fd
ff
fd
f5
01
f3
f4
03
06
ff
f3
0b
00
fe
f7
08
f7
fb
ff
f8
05
f9
fa
02
09
f8
04
0b
fc
06
05
f6
fa
fb
fc
08
fb
fc
fe
f9
f8
ff
f3
fb
fd
fc
06
fa
01
e2
f2
f4
ff
fb
fa
03
ec
01
fb
f8
f8
e9
02
ff
06
03
05
f0
fc
da
fc
07
03
fa
ef
00
fa
fb
09
0f
f1
0c
f0
f5
f1
0b
07
02
06
f8
06
05
01
f3
01
f2
fe
00
f2
fc
06
ff
fa
02
fd
fe
00
03
fe
f0
fa
f0
f3
ee
00
03
fd
f8
f8
0b
f3
fe
01
f9
e6
01
fe
00
00
05
06
f8
f5
fe
fd
dc
0e
ff
fc
fb
f8
fe
f9
fe
01
ef
fa
0c
eb
06
0d
01
eb
f6
fe
07
02
fe
f5
0a
03
01
f9
fc
01
08
f1
f7
f9
04
ff
f8
ff
fe
ea
0f
f3
f3
fc
ea
f7
f5
05
f2
fc
0c
26
0c
f7
18
08
f9
03
00
f9
09
ee
02
1c
0a
12
ff
f7
fe
f7
fe
fc
00
ee
ff
f4
01
0c
fa
fa
f7
fe
f6
fa
03
f4
1b
fc
f2
ee
07
02
03
0d
f3
09
f1
12
06
00
ef
0b
eb
f8
f7
f5
01
0a
fe
f2
f3
01
fb
f6
04
f1
fc
f8
04
09
fd
ff
00
f7
07
03
0f
ec
eb
07
ed
02
fa
e1
02
05
04
f0
fd
fc
00
04
f1
02
03
07
fc
04
ff
eb
00
07
09
fa
fd
f4
ff
f6
02
06
f5
f1
f6
f2
01
f2
02
00
f4
06
fa
01
f4
04
ed
f4
eb
fc
f0
05
10
e8
05
07
00
fb
05
f7
e2
05
03
f6
fb
01
05
f6
fb
f4
00
35
0c
00
fc
05
fe
fc
06
f3
06
fb
f2
fa
01
fa
fe
0e
fc
f8
f5
f4
f8
13
18
00
f5
ed
f7
fd
10
0f
f9
ff
fd
05
f2
0a
22
ef
ec
e9
fd
fe
fc
fc
f6
03
f8
e9
fc
04
fa
fe
ec
fd
0c
f6
f7
07
fb
00
ec
f7
f5
e7
05
e0
ef
16
f9
ff
fb
03
e9
07
03
13
00
fc
02
f8
07
07
f8
16
fc
f8
05
f5
f5
ee
f6
07
fd
02
ff
f3
fb
f2
fa
ec
04
00
14
fe
03
d9
fc
fd
08
fb
ff
fb
11
12
e6
f8
ff
fa
fd
01
f7
00
fe
f6
04
fd
fe
f3
f9
f5
12
ff
f8
05
06
13
03
f7
fe
04
02
1d
fa
fa
2a
08
ef
04
0b
03
ea
f9
01
f7
f0
f3
08
fc
0a
f9
fa
f5
fa
fd
e9
fc
10
02
f0
08
fa
26
f4
ff
01
09
f9
05
f4
fc
f0
e8
f1
28
0c
03
07
03
02
07
f1
e5
0f
ed
fe
f9
01
07
01
f1
fb
ea
f9
f2
f5
ff
f6
fa
ff
f7
02
fe
f2
02
f8
f8
f9
03
f1
f5
04
e8
ee
19
f1
e1
fc
0d
fd
ec
f6
fd
fa
16
f6
03
0b
f5
05
f2
f2
f0
f7
0d
ed
f4
f7
f9
ed
02
f3
00
f3
fd
0f
f3
f9
0e
fb
fe
e6
02
f3
f5
f3
02
fd
0a
01
f6
ee
ff
f9
03
10
ee
03
f3
e7
11
fa
fa
07
fb
f8
02
fc
0d
0d
ff
f8
f8
02
fe
ed
f0
f0
1a
03
17
04
fb
05
fa
05
fa
f7
f9
13
fb
f1
0b
fd
df
ff
fe
f4
01
0b
07
fa
fc
03
f3
fe
f7
f7
ed
ee
f0
f7
fe
f7
f7
fa
04
f0
f4
fb
f2
ef
fc
06
f9
f9
f7
05
06
fb
fb
0c
e6
df
f6
fc
ed
ea
06
07
f3
0a
fe
fa
fb
17
fd
02
fc
f2
19
fa
ef
02
fd
f3
05
03
f7
f8
f6
ff
05
f0
0d
f9
fe
fe
10
03
13
fb
00
fa
08
11
07
fc
0d
f0
0e
f5
08
13
00
04
d6
f1
06
0f
06
f8
08
fa
01
f6
f9
f2
04
ff
f5
fd
ff
f9
07
f4
ff
f6
0d
e5
fc
09
f7
fe
e4
05
f0
09
0a
fc
f0
ff
0f
fe
16
07
08
ef
db
00
fe
fa
03
fb
dc
04
02
0d
f5
07
09
02
00
fe
03
01
fe
fe
f8
fe
fa
0c
05
00
1a
0c
02
0a
f8
ea
fa
eb
ef
01
f5
fe
02
f0
f0
05
f2
fa
f3
e0
ef
08
ef
e7
eb
03
02
fe
f9
f1
02
ec
fd
07
f0
ff
0b
09
dc
f2
07
fa
f9
f5
f6
f8
f7
f6
e8
04
ff
0c
f1
fe
ee
fa
09
fc
f1
fd
f6
f0
f2
0c
0e
01
fe
03
fa
00
fc
08
ff
03
f5
fc
ea
0b
e6
f6
f4
03
f0
fe
f5
f3
e6
f9
03
00
f4
0b
f5
0f
fe
f8
01
03
fe
fc
08
f5
f4
05
ef
03
ee
00
f7
f9
11
f9
f8
02
e8
02
f0
0a
00
fb
f7
fc
f8
f8
fd
02
eb
f5
f0
e3
e9
f8
fa
f3
f0
fd
ec
fc
f4
05
fb
fb
fd
05
05
fa
00
f6
ef
ff
14
fa
00
f5
fe
f6
06
01
fe
f4
02
f9
f9
f5
fe
fe
f3
eb
08
0d
fe
ec
07
f3
f7
ea
f6
f2
f6
fc
01
fd
fc
09
ec
07
e4
e7
ff
03
f6
fd
f6
02
f1
f9
f0
fe
df
03
fc
08
04
f5
0a
fa
f7
fc
fb
ea
e4
ed
f7
f7
fd
f3
f5
ec
fc
03
f9
fa
fe
f9
f9
f7
f7
fe
0d
02
05
ea
f4
fe
f6
fb
f3
f9
01
01
00
f7
1a
fb
03
fc
f2
ff
e5
fb
03
00
07
0f
fc
ed
f8
fa
fa
f3
f7
f9
e8
f5
01
f1
f9
ef
f0
02
fe
fe
02
f2
fd
01
ed
01
fa
00
fd
fc
fd
eb
fe
f6
f4
ff
f8
fe
09
f2
fa
f7
f7
f5
f7
f9
fe
f2
05
09
f5
ee
fb
ff
f6
f3
f4
05
f2
01
eb
ec
f9
fc
00
f9
f2
00
fd
f0
f3
00
fa
02
0e
06
f7
00
f5
fe
08
f2
04
f7
ed
ff
ec
ed
13
ff
f7
d8
0b
e9
f6
f5
ff
fb
d3
f7
f6
ee
f4
03
f3
0a
ea
f9
fb
f0
f4
f4
02
ea
ef
eb
03
ef
27
f2
00
06
04
15
0b
fd
00
f3
f7
fd
f0
f0
f3
fb
fa
fd
fa
ec
ed
fa
00
f7
ed
ff
f0
02
ef
f1
e6
f5
f1
ee
e8
f8
f3
ff
f6
03
ff
f7
f6
fa
f1
03
05
fa
f2
f8
00
f1
f8
fe
ee
f1
04
f9
ee
01
ee
f8
f9
f3
f1
02
02
ec
f4
f1
eb
01
ef
ef
08
fb
f5
00
f9
fa
f6
fb
f7
03
fd
f1
f0
fe
f8
06
00
fc
df
f9
ed
f7
0b
f9
05
fe
f7
f7
fb
d6
f9
09
ea
ee
f4
01
ec
0b
06
fc
ff
e5
08
fa
f1
fe
ec
11
fc
fe
ea
e4
05
01
06
fd
0b
f0
04
f4
01
ee
ef
ee
eb
e0
fc
f9
14
f5
fd
ff
ff
f8
f6
06
ea
ed
09
f0
ea
f5
f2
fc
f2
ef
f9
f9
f9
01
ff
f4
ee
ea
f5
f8
ef
f3
f9
f2
ec
f6
00
ec
f9
f4
ef
fa
f7
05
04
f7
1e
0f
fe
e0
f2
e5
04
fc
00
f6
01
04
0a
f6
f7
fc
e5
f5
e9
fb
e6
00
f7
fb
fb
f6
fe
02
fa
ea
f1
30
0a
ef
ef
f6
fb
29
f0
fc
06
e9
f7
f7
f9
07
11
0f
fb
02
01
02
12
f1
02
ff
02
ff
e9
f8
f3
06
f8
f2
f8
04
f7
01
ff
eb
f2
ed
03
f1
fb
f8
f0
fc
f2
fc
f9
fa
ee
ef
09
fa
0b
03
00
fd
f4
fc
e8
f5
fe
f2
fc
0c
0a
04
02
01
f6
f4
fc
fb
d7
fe
fa
fb
e3
ea
f2
f9
f4
02
08
ee
fc
f1
ec
f4
04
fc
e7
e5
ee
f1
ff
e1
ec
07
fe
10
ec
3b
ec
fc
fc
e2
fa
f5
f2
08
fe
0f
ec
01
01
fe
fc
fe
02
ff
f2
14
02
ec
ee
fc
f6
fe
f7
0e
f5
fe
cd
f5
ee
04
f8
f1
04
f0
0b
00
ff
f9
eb
f6
f3
fb
07
f2
e7
f5
fd
fa
e2
fe
ec
f7
f6
ff
f9
00
fe
00
f8
fd
fd
fc
ee
f8
ea
fa
ee
f5
09
f8
16
fb
0e
fd
f7
00
01
f4
f5
fa
f1
01
01
fb
ff
07
fb
f6
f3
f4
fd
fa
06
00
fd
01
e9
03
f8
02
03
09
f5
ed
01
f5
f0
06
fe
f4
f4
01
fa
f1
01
02
fd
f7
fb
fe
e9
fa
f4
fc
09
f9
e9
07
05
f0
ee
fb
00
04
fb
01
fc
f0
f5
f9
fc
fe
f8
f9
04
fa
04
04
f8
e4
05
f9
f8
f7
f6
06
f0
01
ff
14
f8
fd
fb
f4
f2
f0
f3
03
fb
f7
0e
f4
f0
04
f1
0c
fe
f5
f8
f5
07
f7
f0
fd
ed
f4
f7
fb
f9
f5
f9
06
fc
e9
fa
f4
00
fd
00
f1
02
f4
fb
ee
de
f9
f2
f0
f2
f1
ed
19
f7
ec
ed
f4
ed
f1
f0
f8
f4
f5
f0
03
06
fa
f3
f9
fc
03
f6
f6
00
0b
fb
f7
fb
f9
f1
f1
00
fe
f8
fb
f4
ef
ff
ea
01
0a
02
f3
04
f4
03
01
f0
03
00
f4
fc
f4
ee
eb
f5
fa
f6
f6
df
f9
f1
02
fc
f6
f5
fe
e5
03
0c
fe
f6
f6
ff
f0
fc
f7
f9
05
f8
e7
f6
0a
0d
eb
08
f3
0c
01
f5
fe
04
eb
fe
05
f5
0f
fa
f8
04
ed
e9
e9
02
fd
f5
f0
ee
f0
ef
ea
fb
fb
f1
ff
00
ff
06
f6
f0
f5
f4
fa
12
fa
f8
fe
f4
f7
fb
05
0d
ee
ed
f0
ff
fa
f2
f6
f9
07
f0
fe
eb
e5
fb
e9
ec
f3
18
fc
f3
03
04
09
ee
02
f1
16
ef
f1
f6
f2
fb
02
08
f8
f1
08
ff
fc
f6
05
fa
fe
01
fd
e9
ee
f7
e9
0b
f2
fe
f4
f9
fd
f5
ee
f9
ed
07
ff
01
fa
f6
fb
0e
01
f9
f3
f5
f5
ff
07
fa
f5
f6
f9
02
fe
fb
ef
f5
e9
05
f8
fa
f1
f4
04
f3
f7
f6
0b
f8
f4
04
fe
01
e6
f6
f6
e5
f8
f7
e4
fb
05
fc
f8
eb
fb
f4
00
f4
f2
06
f9
f9
0d
f8
f8
fc
f6
08
fe
0b
fd
f6
f6
f7
f4
f3
f6
03
fa
fd
f9
02
08
f6
f2
05
05
f8
fe
ff
00
00
f3
f2
07
ff
fe
f8
f6
03
e4
f1
f3
f7
f2
e8
fc
ef
ec
01
ea
08
f5
f0
01
f9
f5
eb
ed
ef
e9
02
07
01
fd
f3
f8
fe
ff
f3
e5
f4
03
fe
ef
10
f7
fc
ef
fa
02
01
0a
02
f5
f7
03
f6
f6
fa
ff
00
ed
ee
fe
f4
fa
f6
f1
f8
06
f2
ff
04
fa
e6
f1
0d
fb
fb
fd
eb
f1
f8
f7
00
0d
00
f8
fd
06
00
01
e3
fe
06
fe
f2
03
ea
f1
f6
fb
eb
fb
f7
f9
f2
02
f2
04
f4
00
ec
f7
f8
05
f2
00
f4
04
03
f9
f5
ec
03
f2
e4
00
f3
01
f9
01
e0
fd
0b
f9
f4
06
0e
ef
e3
f1
ee
fb
01
f2
f7
08
fd
f5
10
0f
f3
ef
fc
f8
ed
f8
fb
f4
07
f0
f3
02
f1
f3
ff
f4
0a
08
fd
00
fd
f6
0c
02
e4
f3
03
03
02
eb
02
1a
00
f3
f7
f4
f3
00
ff
f5
03
09
ef
fe
01
f8
f2
fa
f6
f7
00
10
f6
ff
ef
ea
e1
05
ef
06
f7
fb
f4
f5
f2
f1
f8
fc
fe
fd
f2
00
ef
fc
03
fd
f8
fe
e6
f3
f2
f6
f5
01
f4
fa
ed
01
fa
f3
ff
f1
03
e0
f2
f8
eb
08
07
11
ea
01
0b
03
e0
fd
03
03
d9
04
05
04
0c
06
fd
13
07
0c
ed
09
f1
f3
f7
fa
ef
f7
f0
fc
fa
f4
fc
f4
0a
09
ee
01
06
f3
0d
ff
e8
01
ef
f1
fb
0a
f1
02
01
ff
08
f5
fa
0b
fd
ef
13
eb
e7
f6
11
07
ff
02
11
04
06
02
f2
01
f8
ff
01
fd
fe
03
ea
03
04
09
ee
01
06
15
eb
12
03
e4
1b
fb
09
12
fd
fb
06
01
f2
05
01
f8
fd
05
ff
f7
f9
08
0a
ed
fe
06
f8
08
f5
01
0b
ef
fc
fe
08
01
03
0c
01
03
01
09
07
07
fa
07
f7
fa
25
06
13
f5
e7
1c
f2
0e
ed
11
05
f7
0a
04
fe
e9
fd
03
03
ff
f7
06
0c
fd
ff
eb
09
11
04
f4
02
08
f7
f8
10
09
f8
01
02
ee
ed
f8
f7
04
03
0f
07
fd
ef
0f
02
02
f6
ff
f9
f2
fd
0a
f1
fd
00
f7
f6
04
14
ff
fc
f2
f5
07
03
05
ff
08
04
f9
f5
13
f6
01
14
04
fd
e9
06
09
0b
04
0f
0d
ff
f6
01
01
0e
05
ef
f6
fb
f7
04
01
05
07
fa
f6
fe
e5
03
03
01
00
f6
ee
fb
f7
fd
f6
0a
07
00
f8
02
00
02
fa
07
08
00
04
04
ee
05
09
ff
07
0d
ff
09
f9
e7
f2
f9
fa
08
fc
ef
f0
f9
fc
ff
ff
ed
fd
f4
f9
09
01
f5
0e
fa
fc
00
f9
04
04
fe
04
f4
f9
ff
f5
f8
0e
07
f8
05
fb
06
05
ff
fb
03
f9
f7
04
02
13
00
02
de
10
00
00
07
f8
f2
13
ee
02
01
0e
f8
fa
e5
0b
ec
fd
03
05
08
fe
05
fd
fa
08
f0
01
f5
06
16
f5
07
0c
06
01
07
12
f3
04
fb
07
ff
fc
0d
17
eb
fc
f2
02
04
fd
05
fd
ed
03
fb
08
e1
11
09
03
fe
15
07
ed
f1
ff
fa
03
fe
0f
f9
fb
fe
03
09
e8
fc
19
03
fc
02
f2
ef
05
f7
f3
fc
fe
ee
fe
f4
df
fb
f4
f4
08
22
fd
f4
0d
f9
ee
f3
ff
0f
f7
01
fd
02
15
13
00
03
09
f8
f1
05
05
0b
10
fe
f8
02
0e
09
fd
f8
1f
0d
f3
f9
03
ef
fc
f6
0c
25
10
00
09
f1
ed
01
fd
fe
ff
02
ee
fb
01
fd
05
f3
1b
fe
0a
f7
0a
01
fe
00
f9
f4
ff
03
02
fa
15
ff
02
ed
e6
f2
fd
fa
fe
fd
09
f2
ee
f3
da
fe
01
f8
f8
f0
f4
fb
fb
f9
ea
f5
04
f5
f3
ef
f0
f9
04
fb
ec
fa
00
f2
f9
f9
0b
f6
f8
f5
fe
e8
10
10
02
06
f6
fe
fd
07
0d
05
09
02
f2
00
05
fe
00
0c
f4
06
f5
f8
06
02
ef
f4
ef
0e
03
fd
0d
10
00
f8
fe
f2
08
03
f1
05
ef
08
f2
f5
e1
f1
f2
f4
0d
ed
0c
f5
f7
08
f3
f1
f8
1b
01
06
ee
03
f7
00
fd
00
fb
05
13
07
00
ef
0a
f6
0a
08
fd
0e
0c
fe
f7
10
f3
ee
fc
fc
f5
08
00
08
f8
02
fb
06
0c
fa
f5
0e
fb
ff
fd
0e
03
07
fe
fb
fd
f6
ff
f7
0a
02
fc
0e
03
e3
fd
f8
f2
09
fb
02
08
0b
fd
10
f8
fa
ff
f2
ff
fa
f2
f0
fd
09
10
14
0d
02
05
09
0b
08
0a
12
09
04
0f
0f
0e
0d
10
0b
12
04
0b
0f
18
02
03
07
08
fd
07
0d
07
0e
01
fe
01
05
10
08
0d
11
08
0d
04
06
15
02
05
10
05
07
1b
0a
0d
02
07
09
07
03
05
0b
0a
08
08
0d
0d
0e
08
0b
fe
09
02
1d
10
0c
1e
0e
03
18
0b
ff
12
12
0e
06
0f
18
0b
f8
14
13
fc
03
10
11
09
08
0d
17
0c
09
06
0b
18
0b
05
fa
16
09
0d
0b
05
fa
08
fe
0e
f9
04
09
08
0e
08
04
0a
0e
08
10
04
06
05
06
14
0d
0c
09
06
ff
0d
12
10
02
0b
f2
0f
08
16
03
06
07
04
15
03
0a
19
fc
0a
0e
06
02
0b
2a
0c
fc
12
0f
0c
0f
0a
07
04
f8
f6
08
0b
0c
fc
ff
0c
09
07
0c
fe
0b
0e
10
1d
02
0b
f9
08
0c
14
05
02
06
0c
0c
09
0e
06
01
11
03
05
04
0c
13
05
0e
07
09
13
01
0b
10
0b
0e
05
01
09
0c
0b
0a
05
09
0a
0f
0f
03
10
10
06
0d
0f
04
20
06
08
07
07
11
0c
09
04
01
10
0b
03
04
fe
13
07
09
07
02
fb
13
0f
0e
03
0a
0e
09
0c
04
03
22
0a
fe
19
0a
06
0e
00
0b
15
04
0f
0d
00
fe
09
16
0e
11
fd
08
09
07
01
09
13
f9
13
0c
26
f9
0a
10
08
08
0a
0f
12
1c
08
15
08
0f
0d
0d
0a
01
09
17
15
01
0b
10
03
14
06
fc
f7
12
03
ff
0e
0e
0c
0c
06
0a
05
10
00
00
07
14
01
08
0c
0f
09
12
07
09
03
15
04
0a
06
09
04
14
03
10
0f
0b
10
05
15
09
08
04
17
0d
02
0d
16
08
0d
02
0c
fa
10
1a
01
11
13
0d
0a
05
12
11
0f
0d
fe
0b
14
0c
00
18
09
06
fe
07
12
ff
12
0b
09
0b
0b
11
09
0a
06
0e
11
00
0a
06
0f
10
04
05
08
0c
0e
f5
06
08
16
0d
08
08
16
05
17
02
05
03
0f
00
00
10
06
0e
07
12
0f
04
04
06
04
03
12
07
0d
04
05
0b
00
15
0a
03
0c
09
fa
07
12
0e
0e
0c
09
0e
f9
0e
02
0e
14
0f
ff
0d
03
12
09
08
0a
12
06
fe
01
08
0e
09
00
05
12
15
0c
12
17
ff
18
0e
02
10
0f
01
05
fe
09
04
06
0d
09
fe
03
0f
08
00
fb
07
10
0d
13
06
02
10
04
08
12
fc
0e
0a
fe
16
0a
06
11
15
14
0b
06
0b
09
11
09
fe
07
09
0f
02
07
0e
f7
11
08
14
0c
f8
11
07
fe
05
16
15
05
0a
17
09
06
ff
0a
07
04
09
01
04
10
0a
0a
02
f8
03
05
07
fe
15
00
08
03
11
16
10
0e
02
0e
09
0c
12
02
06
0e
0d
0d
0e
0c
03
09
04
09
01
0a
07
09
0c
fb
0f
01
15
13
06
0f
02
0a
05
0c
14
17
0e
0e
10
0b
10
03
0f
15
0e
14
fe
15
0a
07
10
13
16
07
08
09
ee
0f
04
06
08
03
04
07
10
09
0e
0e
01
01
0f
18
0c
0c
09
03
0f
12
0b
09
ff
07
01
10
06
05
fa
0d
f2
f7
fa
01
fe
04
11
01
fd
f9
ff
05
fe
fa
00
fe
0c
ff
f7
fe
fa
ef
ff
f5
fe
fc
02
fa
f7
fd
02
03
ea
07
ef
10
ff
01
fc
01
03
07
02
ff
fa
0a
04
03
fe
f6
03
04
f6
01
f5
f7
f8
fa
ff
fa
fb
01
04
ff
f6
00
fb
02
03
00
f7
02
04
fd
01
01
06
01
fb
fd
05
ef
f8
f8
f8
f6
fb
f7
ff
f7
01
f1
fe
fb
ec
fa
fd
fb
fd
04
e7
01
ff
06
fd
fd
ff
03
ff
1e
04
f2
f4
ff
f9
fd
f6
f3
01
ff
fc
fb
01
01
fd
fe
fd
05
07
02
fd
fd
00
06
f6
f6
01
fc
ff
fa
f2
fc
fd
00
0b
00
01
01
ee
fd
01
04
fb
18
01
f9
02
09
01
f1
fd
fc
f1
fe
ff
ed
fa
fc
ef
ed
f8
f0
fb
09
00
fd
fc
06
0d
f6
02
fd
02
ff
f8
00
04
58
fb
fe
07
02
01
fd
fb
ec
fd
fc
f9
fb
fb
04
f8
f4
fd
01
04
07
f5
ed
fc
00
fe
f9
08
00
fa
03
02
fe
03
0f
04
f6
f6
fd
02
ff
f9
11
07
45
02
fa
f9
f5
00
d1
02
fb
ff
05
00
04
f1
f8
0a
f3
fe
f9
ff
fa
04
09
fc
01
ff
f9
09
ff
03
f9
fd
03
f8
fe
09
fd
03
fe
08
ff
fc
06
01
07
fa
04
1d
f6
0c
05
00
07
02
07
06
f8
ff
fc
01
fe
ff
fb
eb
ee
f7
0a
fa
fc
fa
2b
fe
fd
03
05
f8
04
fe
02
01
f9
f7
09
ed
fa
02
05
05
fa
e3
f4
fd
03
f8
f7
08
fd
fd
03
02
08
02
00
fc
05
05
00
03
fd
fa
f8
fa
01
06
01
05
04
06
fb
02
00
fe
03
f4
03
02
fb
fc
03
04
04
f8
ff
00
f6
09
04
0e
f9
f3
03
d8
03
0c
07
01
f6
fb
00
0a
fc
f7
00
0a
fd
fb
03
fc
08
fa
fb
be
06
03
f7
04
01
fa
fa
01
00
05
fe
fc
03
07
ff
f8
00
fe
01
06
00
07
00
ff
00
ee
03
d1
03
01
01
03
fe
fe
08
ea
05
07
fd
f6
ef
fe
00
00
fd
fc
01
f8
07
f8
fa
fe
fc
01
f8
f9
f2
fe
fc
fa
f9
f1
fb
fd
f6
fa
02
fc
f6
fb
09
04
f8
03
15
f8
fd
fc
fb
fc
ed
f2
02
ff
ff
fb
fc
f7
1f
fb
fd
f9
fe
04
0e
fd
f9
fe
fd
ff
f9
fd
05
fe
00
f4
f5
f9
00
03
fd
fe
f3
f8
05
ff
fa
06
fa
f5
f5
eb
f8
eb
fd
fd
fb
fd
05
03
06
09
06
f0
c5
01
f9
fa
fc
fc
00
fd
03
00
fc
f8
ff
f9
03
00
08
02
08
fe
09
fa
f4
e3
ee
fa
f6
06
f0
06
fd
08
04
07
02
ec
e1
02
f6
0a
fd
04
e8
04
fe
1c
fc
f2
2f
02
f9
eb
01
02
ef
fb
fd
07
04
f7
f9
fa
fc
ef
f7
f6
f6
05
fd
f5
0d
15
fc
f0
04
ff
f9
04
02
fe
f1
f8
19
fa
ff
ef
fd
00
fb
e6
0c
02
f3
fc
28
ff
f7
02
f2
06
00
fb
06
fe
02
f7
02
04
f2
fb
fd
02
06
11
06
0c
01
01
fc
01
02
f9
05
13
02
f7
14
fd
f9
07
ee
f1
fa
fc
04
03
fe
08
fe
f9
01
02
f4
ff
05
14
ff
f1
0c
11
fd
05
08
04
ea
fb
04
00
08
09
f1
00
fa
fa
fe
04
f8
0b
f4
fd
fd
00
ff
f6
fc
03
02
f9
0c
f7
f9
10
02
0b
00
fb
f8
f9
0b
04
ef
fa
fd
fc
03
00
02
00
fd
00
fd
f1
0c
03
00
11
fa
04
fb
0e
ff
07
ff
00
f6
08
fc
01
02
f7
f5
ef
f9
0d
02
f3
01
fd
f9
f7
f1
05
f6
f8
09
ff
05
ff
02
02
09
fe
ee
10
02
0d
fe
f9
06
f2
01
04
07
f8
f7
fd
00
f7
09
0a
ff
03
fe
02
05
09
fa
07
ed
ff
fe
0b
01
06
00
fc
fe
fd
01
0c
01
fa
fd
fe
09
dc
f4
00
05
0a
04
fd
f7
fb
fc
ff
01
ff
f0
fd
01
fa
07
fd
f9
f0
f6
09
f1
fe
f8
f8
0c
ff
02
02
ff
fc
03
fc
fd
07
0b
f9
0f
12
02
f2
fa
f9
e3
fc
04
00
01
ff
f9
00
0a
01
fb
fd
f8
f9
f8
fb
fd
ec
f4
f9
fe
ff
fb
fc
0b
02
fd
04
fa
00
05
04
fc
f6
0c
01
09
02
0b
fb
fb
f2
f3
fb
fd
ff
f6
01
01
f4
fe
00
fb
f5
f8
fd
f1
f3
fc
f6
f9
f6
f8
05
04
fd
ec
f5
04
fc
f6
00
04
fd
04
06
fc
02
f7
fa
0a
f9
f7
05
f0
fb
fe
02
fe
07
03
21
f2
04
f9
e5
f6
13
0e
0a
01
07
ef
09
05
fa
05
02
04
f9
ee
14
0d
ff
ff
f7
e5
f9
01
f0
fe
fa
f6
fe
0b
00
ff
fe
fe
fb
ec
00
05
fe
fc
1b
09
fc
f9
fc
01
08
0b
0a
fb
fe
f9
f5
f9
f4
f9
12
07
03
07
07
f7
f4
06
f9
ef
f4
04
fb
01
07
fb
fb
0e
01
03
06
07
ff
ff
08
04
fa
fd
fe
ff
f8
f0
ea
01
fc
fc
f1
f6
ec
08
ec
0b
fe
e7
f4
fe
02
01
02
f6
fa
02
0a
00
fd
00
ef
08
fe
03
e8
ec
01
0b
01
f8
0c
05
fa
00
43
14
f7
fb
ff
fd
ea
ec
03
01
f8
17
ff
fb
ef
0c
f8
fc
04
02
0e
f5
f6
fd
f0
fb
11
00
04
0c
01
fe
04
fd
ff
f1
ff
00
fd
01
04
fc
ee
ec
04
f5
fb
07
ea
0c
05
04
03
f1
ef
08
03
02
01
fa
fd
fc
00
f2
f9
f7
fb
f7
01
04
ef
05
f9
fe
04
f0
fa
01
00
f3
06
f9
01
f3
fe
f3
fd
fb
f7
fe
09
f4
f7
e1
f3
05
fd
14
0c
0a
fa
01
fd
f3
07
0b
fb
f6
00
f4
fb
fe
f9
fd
fe
26
f8
e7
f6
00
03
fe
fa
f8
fd
fe
fa
f6
02
fe
fd
f7
ee
f2
01
02
02
16
0b
e8
08
02
f5
f4
3a
16
f3
15
fa
01
fb
f9
fa
08
f6
f6
d8
ec
f8
0a
f3
fe
05
f1
fc
fe
f6
f3
00
f3
05
eb
f7
f2
fe
fe
fd
03
fa
01
03
f6
01
fb
16
f2
f2
00
08
01
f8
fc
f4
f8
fd
fd
f9
04
ff
fc
04
f5
f9
00
fc
fb
01
01
03
f0
07
f9
fc
06
e8
f9
fd
28
01
e3
01
ee
07
fd
e8
f3
08
0a
0b
ff
f9
03
0c
07
f2
fd
0c
02
f9
01
f9
01
03
f9
01
f2
03
09
07
08
06
f1
02
fd
f1
09
f0
ef
ff
12
04
fa
01
09
04
f4
f8
ec
15
0b
fc
f3
0c
d4
f1
f1
f2
07
0c
01
f6
f2
fd
f3
fe
f2
e9
02
10
01
13
03
db
0b
ff
04
00
f5
fa
fb
fe
1d
fc
07
0b
05
0a
fa
01
fd
01
f3
fb
fc
03
fa
fb
f7
14
fb
eb
05
f2
05
f8
f8
09
08
ee
08
f8
f6
02
ff
02
f1
f2
f4
fd
ff
f4
e7
ff
09
01
01
f8
08
04
e9
f1
0c
e4
fd
06
e5
ec
fc
f1
f4
ec
16
fd
f7
16
fd
f1
ea
f2
e7
e6
ff
06
f3
f4
f3
05
fa
ea
0c
f5
07
fa
e7
e9
f8
f6
f2
ee
fa
08
0a
fa
03
ff
02
e5
f8
f1
00
f7
02
f3
fe
05
ec
f8
f9
f4
f4
da
09
01
05
fb
01
e8
fa
eb
fe
ea
03
04
f2
fd
25
e3
e2
fe
fe
eb
f3
f7
ed
2b
fb
fc
fc
06
0d
f5
f4
11
ee
f2
ed
fc
ff
0f
ec
2a
19
f2
fb
2d
ed
06
11
00
f1
e1
f7
f2
08
12
f1
e7
f2
f2
01
05
f2
02
ee
00
f2
df
ff
f7
20
f4
0a
fa
1c
0f
e6
08
16
fa
f4
de
fe
0a
fa
fe
ee
f3
01
fb
03
fa
fe
06
fb
0e
fb
10
03
18
09
ea
ff
13
19
f5
ff
17
00
08
02
ff
ef
f7
f9
f0
f3
f2
07
08
0a
ff
fd
f9
fc
f5
ee
f5
0b
00
fc
f6
f1
f3
06
01
02
f8
03
f5
1a
09
f6
e4
e6
11
f0
f2
03
04
f8
e9
fe
ed
f1
01
02
fb
f5
00
ed
e6
ff
f3
ec
f4
fb
1a
e9
f9
02
0f
e0
f7
ea
f1
f4
f6
e7
f5
f7
1b
f2
00
ef
ee
f7
e9
07
23
fc
f1
ed
07
f8
fc
ff
e7
25
f5
fb
04
ed
0d
f6
0a
f1
dc
ff
eb
0b
00
f1
fa
ff
f8
08
01
f0
05
00
f4
ef
fb
f7
0f
f5
09
06
f3
08
f0
f8
01
0f
fc
f1
e2
02
f9
de
ee
2b
15
fb
01
fc
01
ea
fb
02
fd
ef
fb
f4
fe
e4
03
f1
f5
ed
0c
00
f3
e6
09
00
fc
f4
2d
19
0d
fb
19
fc
10
dd
f9
ff
06
fa
fb
f4
f9
04
fb
fd
f4
ff
d7
ff
fb
fb
ff
02
fc
f0
f2
eb
fc
f4
fe
f8
f4
e1
00
e1
eb
15
ec
f7
fc
0d
f8
da
d6
00
f4
f7
e6
ed
f3
08
00
ff
07
22
f4
07
fc
e7
08
ec
02
ea
fc
e5
f8
01
f3
01
fc
fb
fa
f3
03
03
fb
fd
f0
ef
f4
fa
f1
f6
04
f7
06
15
14
ed
02
f5
00
00
e2
f0
e7
f5
1b
1c
07
07
fc
f8
f8
0d
f7
f7
11
ea
ed
f2
f8
03
f1
f0
ec
f7
05
00
f5
f4
00
f9
04
0a
ec
01
f1
01
f6
fb
13
ef
00
04
f5
ff
e1
07
e3
0e
03
ef
e9
0b
fb
21
fd
f0
1c
fa
fd
f2
f7
f0
fa
ed
06
01
e3
00
0e
16
22
1d
f1
f9
fc
dc
0a
db
ec
f3
ec
fe
f1
f2
fc
f5
f6
e9
ed
fe
f2
03
f6
dd
f1
fe
00
f1
eb
f8
04
fa
ff
f3
e6
fa
fd
0c
e2
fc
0e
ee
f1
fb
f0
f8
f9
f9
fd
0f
f9
00
02
f6
d8
f8
04
f4
f3
f0
f7
e5
ff
f3
ff
fc
0e
f0
0c
fb
ed
fb
04
08
f4
06
dd
0c
f1
09
1d
ee
e4
fa
ee
ee
ee
e7
f7
04
f7
17
f8
fa
f0
fe
fa
fb
f8
0c
11
fc
05
f9
fb
ff
fd
0d
0e
17
e3
0d
03
fb
f6
fb
fc
ff
fe
ff
d9
03
fc
0d
fc
0e
09
00
ff
f8
12
08
db
ed
fa
f8
0b
06
0a
ea
0d
08
fa
f7
f2
fb
09
f5
1b
0a
06
f9
0c
f6
15
04
0b
ef
f1
fc
ed
f0
05
0b
f1
0d
0d
fc
f3
da
0a
19
fd
02
fe
e1
05
0c
0c
f0
05
e6
fe
11
05
f2
05
f9
f9
01
f9
f9
0c
12
0d
fc
eb
fd
f1
03
f1
f9
f3
ff
ed
f9
f7
f6
fc
04
d6
ee
fd
f8
03
02
0c
f2
fc
09
12
fb
02
02
16
f9
02
f0
08
03
f7
08
0b
06
f9
0d
01
10
00
fb
d7
eb
eb
ff
f0
ff
05
f8
f8
ef
0b
07
06
f4
f9
f4
f1
fe
07
f4
fa
f1
18
f5
f6
f2
f0
f9
01
f5
14
08
01
e9
03
02
fc
e2
07
07
fe
eb
f3
10
0b
15
0f
09
01
f5
f9
e5
f9
0a
01
02
fc
e8
fd
03
e9
09
04
09
00
06
ff
06
05
05
fb
ff
f0
f5
00
fa
e5
ef
f8
01
fe
0f
f4
ef
f9
fc
f8
f5
ea
0d
f4
12
eb
fd
f6
17
fa
09
e7
ef
fe
00
03
ed
ef
f6
fe
01
f9
f7
00
f3
0e
0f
17
f1
0c
fe
f9
08
fc
01
02
10
08
ee
ef
f9
f5
00
fe
10
ff
f1
02
fd
f7
07
0d
04
0b
fa
12
f8
03
f5
07
02
f2
0e
0b
e8
f6
fb
0b
fe
fe
fa
09
11
07
0f
fa
01
06
ff
00
fa
f4
ee
ef
0a
fe
f0
e0
f7
fe
f0
f2
ee
fc
f2
19
fd
f3
ff
ef
fd
e0
f7
0e
02
f8
f7
06
fc
fc
eb
03
e1
fb
e4
09
01
05
0d
08
00
ff
f3
0b
ff
fd
06
0d
fc
fc
00
f2
01
ff
06
10
f6
01
fe
f3
04
f3
0c
f6
01
00
e1
06
f6
fc
0a
fd
13
13
f9
f5
f7
f1
fa
05
fc
fb
fd
03
18
0a
0f
17
fb
0b
ec
fe
fa
ef
07
ff
f5
04
fa
f0
01
03
07
f4
1c
10
e8
0f
02
ff
06
ff
0b
ee
ff
f1
0e
ff
f6
f5
f7
02
f3
ff
06
f9
d9
ff
02
dd
f9
ef
08
f5
e7
f2
e8
0e
fe
01
03
ff
f6
0d
f6
f9
09
eb
00
f5
ef
fd
04
02
fd
f9
f5
fc
0e
00
f3
07
f3
ee
ee
15
01
ea
0b
04
fb
e7
f8
08
f5
03
fa
fa
03
eb
d0
f7
04
0c
0a
fd
dc
fc
f7
f8
15
fb
f4
0d
00
f0
ed
e8
05
10
f1
ff
02
f0
07
0b
38
0b
0b
fc
22
fa
08
ee
f5
f9
07
ee
0b
f1
e5
e9
02
10
f8
0a
09
f6
f7
01
03
06
09
f6
f0
02
ff
ed
f9
02
11
06
07
03
e3
09
f9
e5
00
0c
f1
f4
04
10
08
01
00
f3
fe
f1
fe
ef
02
07
04
fe
f8
f4
ff
09
ff
02
05
08
16
ff
f3
08
00
e1
f5
08
d5
fa
0a
06
ea
e9
fe
e9
0a
fb
f7
eb
fa
06
f2
fb
fb
ff
ef
03
f0
f6
ea
e6
f1
10
eb
0a
df
fa
f6
00
f1
f1
09
03
fe
fd
f8
e9
f6
09
01
04
f0
eb
02
f3
00
e5
16
05
f9
ee
f1
f1
06
fe
01
f8
f9
09
e8
f0
f9
f1
f7
ee
e6
12
fb
f8
06
09
f3
10
00
01
f6
0a
f7
05
06
fb
f6
01
ff
06
1a
f6
0a
fd
14
fe
f2
08
f7
f6
f6
08
05
f7
08
fe
02
0d
01
fe
f9
fb
02
03
06
f7
fd
0b
08
01
11
01
f5
f9
fa
03
04
06
03
01
04
fe
0f
f9
09
f7
ff
07
0b
0e
f8
00
02
fb
0b
fd
03
fe
05
01
00
ff
06
fc
ea
03
02
0a
fe
05
f4
08
01
02
01
08
00
fd
02
00
0d
06
fc
f4
f0
00
f3
07
09
ed
04
fe
f5
f3
07
f9
01
05
f1
01
f0
10
06
fe
01
0a
00
fb
07
05
08
05
0c
f8
fc
f4
04
fb
01
fa
17
08
09
f5
ff
0a
fb
f7
05
0e
f5
00
fa
fa
04
ff
ff
01
01
01
0a
00
bd
f8
0d
03
0b
03
fc
03
04
0a
fd
fe
05
08
01
11
09
06
ef
02
2d
fc
01
1a
ff
09
f0
fc
00
07
f8
f3
03
05
11
f5
fe
07
08
0a
fa
00
05
0a
04
f9
03
03
0b
01
fb
1c
22
fb
03
ff
ee
00
02
f9
03
fb
fa
0e
f6
01
fb
05
24
01
06
03
0e
fa
f8
03
11
03
10
06
f4
06
f9
04
19
00
fa
f0
fd
10
07
f5
03
f4
05
0b
f7
00
fd
e5
08
06
05
fe
03
01
fe
ff
0a
f9
10
fd
f7
fd
f8
09
05
fe
01
f9
04
09
10
fb
fe
f3
05
f3
04
fe
fa
f9
f9
f9
fc
fb
06
fb
f3
fb
09
f2
fa
fb
fd
06
f3
fd
f5
04
fe
fe
05
fd
0b
03
04
06
0b
f6
ff
00
f7
09
01
fb
04
13
0b
02
f6
fc
fa
05
f8
1d
01
f7
ff
00
05
03
08
fa
f5
fe
fe
f4
f4
0c
ee
00
ff
02
05
f5
01
00
0c
ff
ff
fa
06
fd
f0
03
02
fb
ff
f8
fe
fd
f2
f6
f6
f8
07
05
09
fe
09
fe
fd
fa
f1
06
fe
01
0b
00
04
f9
05
08
09
0c
09
ff
00
35
0a
02
ff
04
01
05
03
04
ff
0a
fd
fb
04
f5
f8
f7
f9
04
02
0a
0c
fa
08
fe
0e
fb
04
f3
0c
fe
00
fd
0c
0b
e9
1c
f9
06
06
00
ff
f5
05
0e
ff
fb
ef
0a
fc
f1
04
00
0d
ff
04
16
e2
f8
06
fa
fc
16
f9
02
fd
f9
02
fc
04
02
08
06
ee
04
de
07
fb
07
01
02
0c
01
0a
e5
ff
0b
fc
0e
f6
00
01
04
fb
01
f8
04
ff
03
08
0f
03
fc
fe
fe
09
29
f4
f8
07
f9
f0
02
06
e9
fa
0c
fb
0e
eb
fb
fd
fa
ed
06
01
f8
f7
fd
f7
fa
fa
06
f8
ff
16
0d
06
fc
00
05
fb
07
00
00
fb
f2
f4
fa
f7
02
0b
f5
f5
eb
04
0e
fd
e4
07
0e
fb
0f
f2
ff
f9
08
f6
ea
f9
ef
20
05
f9
03
f5
f1
eb
fc
01
f9
db
f2
18
10
04
fa
fd
0c
f8
03
ff
03
01
f7
03
f7
02
06
03
00
0c
fd
0a
03
f9
0c
f8
e6
07
fc
f7
03
05
05
fd
fd
ec
fa
06
ff
04
fa
ff
11
03
0b
08
00
d2
fd
fd
0b
df
fb
ff
fe
ff
fe
00
fa
fe
ff
fa
f9
04
f4
0a
08
fa
f6
02
fc
ee
fe
fd
ff
fd
fe
fe
f9
f4
fc
fb
00
06
04
04
05
0a
0e
f8
ff
04
fd
05
16
06
f6
ec
fc
f9
f9
f4
fb
0c
fb
ff
fc
ff
00
f8
f5
ff
fa
eb
fc
fe
02
f3
fe
03
fb
f8
05
06
f6
01
ec
03
03
fe
e8
05
0e
04
f7
01
fa
fc
09
04
01
01
fb
fe
fb
06
fc
f3
f4
fd
f8
02
fa
0a
e2
13
06
05
05
fd
03
08
00
fa
ff
06
f4
f9
09
05
04
fa
fb
02
00
f7
ff
04
fd
22
0c
f4
f8
07
0a
f3
f4
eb
f7
02
fd
05
f9
e8
fc
ef
f2
01
ff
05
f1
fa
f4
fd
f8
f5
06
e8
f5
f7
ed
04
f5
04
e6
08
fa
07
fc
f9
01
04
fd
09
fb
0a
f8
f2
ff
0a
01
fb
f5
f4
fb
0b
06
08
0d
f0
f6
01
10
f9
f8
f8
f4
00
fd
03
05
fa
05
01
03
f9
01
04
f3
05
f2
f3
01
fa
0c
ed
15
0c
0b
01
f6
e7
04
00
ff
0f
04
e1
00
fd
03
f6
00
06
f4
d8
ff
06
07
f6
01
06
f7
f4
05
fc
e7
f9
fc
f6
f7
05
00
12
fe
0b
f9
fb
05
05
00
fe
00
0e
01
fd
0d
0a
0a
fe
f2
0a
f6
fe
02
f8
fa
01
02
20
f7
f1
03
02
fc
03
06
00
e4
fc
fc
07
03
fc
0b
f9
05
fa
fb
f9
03
06
07
06
06
09
03
fd
fe
03
f9
f4
0f
0a
fc
f8
05
15
ef
f4
00
08
0f
fd
f2
05
ec
eb
f5
fc
f2
fe
fd
fc
01
f7
f7
00
fc
fd
04
ff
fc
fc
03
f8
00
fc
f1
12
f4
f5
f3
06
f6
f5
06
04
f3
fe
ff
ff
f9
18
ed
06
02
07
01
f6
fa
05
01
03
ff
f4
03
fa
00
fa
06
08
0a
01
f3
f5
08
04
fa
0b
04
09
01
f4
f7
ea
f8
fd
02
00
02
10
fd
fb
ff
e4
00
05
09
fb
06
fc
03
ea
f5
fc
ed
0b
09
f5
1a
05
ef
fe
05
fe
07
10
11
ff
ff
f9
f9
ef
05
f7
f6
0c
f4
ff
f1
f5
fe
f9
fc
f1
f8
02
ff
f3
07
fa
fa
00
f5
05
ff
f9
04
02
fe
f9
01
17
05
0c
f8
fb
36
04
04
f6
0d
fb
12
0c
f9
fc
f4
fe
08
f6
05
f5
00
f3
f6
f9
fe
10
f8
f5
05
03
03
fe
fe
01
03
f2
f8
fd
ff
07
fd
09
01
05
f7
ed
f1
fc
ff
03
fa
0c
01
02
06
fd
09
08
f7
04
fa
00
f4
ff
f5
eb
09
04
00
f2
fc
0a
01
ef
fe
f8
fe
fa
f5
07
fb
04
f3
04
f8
f6
fb
fc
04
01
ef
ec
ff
f2
03
10
f2
03
f5
fb
01
05
e8
e9
00
fc
00
eb
f1
fe
f9
06
f7
0c
03
0f
03
ea
0f
00
fc
06
f1
02
05
05
01
0a
f9
00
f4
f0
fe
f8
ed
fa
03
f6
f7
ed
04
f0
01
06
07
02
f1
01
05
fa
f9
ed
11
0e
02
07
ea
ef
f4
0a
f6
f3
05
f5
0c
fe
0b
fe
ff
01
00
08
f6
08
07
fe
14
fa
fb
eb
03
18
11
fa
fb
07
fc
01
fc
f5
0e
0b
0e
f4
e7
f6
f5
07
fa
f0
05
f6
08
02
fe
f6
f9
fe
07
f3
03
fe
13
f6
f2
fb
f9
f7
f5
fd
06
04
ef
f0
10
05
0b
06
ff
ef
f6
fd
f6
f8
05
03
08
f3
f5
fd
04
00
f1
fe
02
f1
f7
e9
00
fb
fe
fc
f7
f3
01
04
0c
15
e7
f4
08
02
07
06
0e
1e
06
00
f4
0d
01
03
e8
f1
e5
fa
fe
fa
e7
f7
f1
0c
fc
f0
04
fe
07
f8
16
00
08
f4
01
ff
d9
07
f3
f8
02
fb
fd
f9
05
fd
0e
f4
fb
04
01
f7
08
04
f4
15
00
08
04
01
06
ed
01
02
fa
fd
04
00
0a
00
f8
0f
f4
f3
fa
fd
f4
14
13
ed
01
0e
0d
ea
fe
f7
ff
01
06
0c
0c
04
0e
f3
00
ff
0c
02
1d
02
15
ff
fd
ff
01
0c
fc
f8
f8
f7
01
fa
0d
04
f6
03
07
0d
fd
05
06
fc
01
ff
0a
f5
f7
00
0c
13
f3
00
f4
ff
f7
f5
fd
03
0d
fb
13
10
01
dd
dc
fc
f7
0a
f6
03
07
f9
08
ff
f2
0d
f8
ea
fb
f9
fb
fa
0d
0b
fc
ff
f0
ef
e4
04
fe
07
02
00
fe
02
f6
00
0d
0b
f5
f5
08
dc
fd
fa
f5
0b
fc
f8
01
04
11
11
ff
f6
ff
0e
07
07
f5
ef
05
ff
e8
cf
00
0d
19
0e
00
f0
08
ff
fc
fa
fc
06
fa
fb
08
12
11
f0
fb
ff
fe
f2
06
fc
f9
01
f7
f7
03
fe
ed
f8
fe
0c
ec
f6
fa
02
19
ed
0c
fd
fb
f0
0d
07
fa
05
f5
04
0b
11
0f
ef
f9
19
fc
01
04
09
06
0b
09
f7
fc
08
0e
d9
f7
fb
f9
fd
06
f7
f4
fa
f0
ff
09
e9
fb
15
0c
ef
02
0b
11
fd
fd
02
ff
01
02
f7
fe
0d
07
01
0b
fe
09
fa
00
fa
fa
fe
f6
fd
fd
03
00
eb
06
f6
fe
f5
ea
04
08
0f
ef
fd
1a
0e
eb
fd
ff
f9
07
00
f6
0a
16
0a
f6
f7
04
f5
f9
f0
ff
02
03
00
ff
06
0d
fa
00
0c
02
f6
09
07
fc
fb
fc
0c
f8
fb
fc
04
f8
fd
f8
fe
e9
0e
05
04
09
f7
0a
f8
08
04
02
06
05
f8
f9
08
00
0b
f5
fd
05
04
f9
f4
fd
02
05
03
00
f4
04
fb
ec
07
07
05
f9
f7
07
f3
f9
fb
ee
f5
f9
ff
fc
fb
01
03
06
01
f0
0c
01
00
eb
01
0e
14
ff
0e
03
04
06
fe
03
0c
fe
00
f3
0a
fb
f6
fe
fe
0b
fd
16
02
00
ff
0b
0e
17
ff
fa
f6
fa
ff
03
0d
00
f7
ff
e2
01
05
f8
07
ef
04
ee
03
05
03
fc
f4
04
f9
f6
04
08
f6
fe
01
00
0b
ed
d9
fa
eb
11
f3
ef
f8
fd
f5
f6
20
01
0e
1b
f2
e9
f7
0e
20
f2
df
ee
03
f4
fc
01
e5
0d
f2
0d
07
07
13
fc
f0
fd
13
f9
02
e9
fb
f7
07
09
fc
06
f6
f4
ea
07
0c
06
0a
05
f3
36
fc
f0
04
0f
eb
10
06
00
05
11
f1
f2
e7
f6
f6
f1
f9
e7
0b
01
06
fc
fe
ff
00
03
f0
0c
f8
e5
00
e8
08
02
1d
01
fd
fe
04
14
fa
15
01
f6
00
0c
fd
f3
11
ed
ef
e7
f1
15
01
f9
f8
fe
ff
07
f3
00
0d
10
ea
0d
00
f9
ee
f3
21
03
f5
0c
ef
fd
fd
05
fd
0c
fa
03
04
17
fb
01
fb
07
0b
0c
02
fe
02
f5
ff
e1
fd
f6
02
06
ff
09
08
1f
ff
0a
f8
1e
03
f1
f4
00
f8
01
f3
05
09
f0
fd
05
eb
01
f3
09
f7
0d
fd
01
ec
f3
fb
0a
eb
ff
07
11
06
f7
fb
f8
f3
f7
07
f3
00
fe
04
fa
fa
f8
00
fe
f9
02
f1
0a
01
f4
ee
f0
f9
f6
f6
08
fc
ef
f4
ea
f1
06
ff
0c
f5
01
01
02
f5
f4
f1
05
ff
04
f2
fd
01
fc
fe
f9
f0
03
f6
00
fa
f5
f8
fc
fe
fc
02
f8
fb
ef
01
f1
57
f8
f4
f1
00
fe
fc
fa
05
fb
f2
fc
f9
10
f3
ff
00
fd
fb
f8
f7
ef
03
e9
fa
f8
f8
04
00
f5
fc
fc
fd
09
04
dd
ec
03
ec
fa
01
0d
f2
07
09
f3
08
fd
07
ea
fa
fe
f1
00
f1
fb
f5
08
f5
12
07
f8
f7
0e
14
fc
f4
f8
fa
00
f9
00
f9
08
08
ff
de
fd
0b
19
fb
f8
07
e9
02
03
fd
f8
f2
07
01
06
ec
fb
02
ef
fa
fe
f7
01
f1
06
05
fc
0e
fb
02
03
fd
04
02
03
ed
09
08
fd
16
06
f2
ee
fe
01
12
f2
fd
ff
05
01
f3
f0
f8
04
fb
06
06
f2
fd
1e
f8
fd
f8
d7
f8
f8
fc
00
0b
fc
02
00
fb
fc
0e
07
fd
00
f4
10
0e
f7
08
f3
03
ff
fa
f9
02
f6
03
f4
f0
ed
f7
f7
08
f7
ff
fe
08
fa
fd
05
04
f7
f6
f2
02
f3
fb
0d
fe
00
ff
ff
f2
fd
fe
05
08
fb
07
f4
f6
f7
f6
f8
fa
ec
fb
00
06
ff
06
f2
f1
ee
f6
02
f0
f8
f2
f3
f9
03
fb
ff
fd
fa
f5
f6
f7
fa
05
fe
0c
0a
f2
ff
f6
e8
e9
05
fb
f4
f8
03
fe
02
f4
f0
fe
fd
0c
ff
03
fc
f3
02
01
03
f3
fd
f1
12
f2
fa
fc
05
f0
ef
fc
fc
f8
f6
01
fe
0e
03
fc
09
04
fd
04
f5
fd
05
09
f4
f4
fe
0a
ff
01
02
f4
16
03
fb
ec
ed
f9
f5
f8
f6
fd
f8
f3
f8
f5
fe
fd
fd
fe
07
06
10
0b
fb
07
f8
f6
07
fd
09
ff
ef
f6
10
fb
13
03
fa
06
ee
12
ff
ef
fb
f1
eb
fc
09
fd
05
03
3d
e9
ea
fb
fe
fc
e6
f4
fc
01
08
fe
fb
fd
fb
ff
f9
ff
f9
f6
01
f0
f7
f2
f9
fa
06
ee
00
0c
fe
ec
ed
fa
03
fd
07
03
fb
fb
07
fd
06
09
f8
f8
0b
0b
ff
f3
10
01
f9
f0
0a
08
f5
fd
08
fb
fb
1e
ff
f8
01
02
f4
f1
f5
19
ff
03
02
ec
03
07
fd
ff
f4
00
f0
f4
fd
09
f5
d4
04
f8
05
fb
08
13
fd
ff
00
09
06
06
00
f2
06
02
05
06
01
02
f5
00
fc
ff
01
f3
06
f8
03
0c
ff
03
ff
f9
01
0a
1e
fe
f2
01
0a
f2
f8
00
03
07
fa
fc
0c
00
e9
f4
fb
05
05
f4
3f
fd
ff
fb
f0
01
01
01
07
06
12
18
f9
ff
fd
fc
ff
eb
e9
ee
02
0a
01
e5
1e
f7
f8
f8
fc
ec
f6
f7
f9
2f
fb
f0
fb
fb
fe
00
01
f6
04
f9
ef
02
ff
06
ee
fb
12
f4
11
00
f7
f2
07
fd
06
fc
fb
f7
37
f9
02
02
fc
02
fd
fa
01
f1
f5
12
02
0a
fd
f4
07
06
f9
fe
f2
fd
f1
0f
fa
f3
f4
02
03
fe
f5
ff
05
0d
06
eb
0b
03
f7
ee
03
03
fe
04
12
07
f9
01
0f
11
00
05
0d
01
f9
03
12
00
04
03
04
02
03
04
02
00
ff
f5
f8
fa
01
fd
fe
f3
fc
09
fe
f6
12
fd
e2
05
04
0c
0b
08
fd
fc
fc
05
f4
ea
06
08
03
fe
08
ff
ed
01
0a
08
04
fc
04
01
fa
09
f8
fb
01
18
fc
07
01
01
01
04
04
f6
fa
0a
0c
0e
fd
04
04
08
0c
02
f5
f8
fc
07
ee
09
0d
06
01
08
f1
09
0d
04
07
f8
ec
f9
f0
02
01
f2
03
07
00
00
ff
fc
01
04
ff
03
fc
04
fd
01
f8
f8
04
0b
06
f8
15
03
0b
f9
fd
06
f7
fb
ec
02
0a
0d
fd
01
00
e9
f5
03
fa
fa
03
08
fc
ff
00
0d
04
08
ff
04
fa
f9
fb
f6
02
16
ff
fe
f3
f5
f0
0e
01
12
0c
01
f0
0c
05
12
fc
01
00
f7
fa
00
02
0a
10
15
00
fb
13
00
ff
fb
08
00
14
08
0a
fd
f5
e8
fc
04
fe
06
08
fc
0b
06
06
fd
01
fc
04
17
12
00
05
fc
f4
00
04
0d
ff
02
fc
0b
06
fd
15
03
00
0e
0a
f7
11
07
ee
ff
fa
00
11
03
02
f8
fd
f5
fa
15
fe
0c
03
07
0f
f4
07
05
0b
ff
f3
f2
03
01
fa
fd
06
07
02
02
09
02
02
11
f0
ea
02
01
f1
1b
fa
f0
f8
fd
02
0c
00
12
fc
f3
00
f4
02
00
10
f0
fd
fd
0c
00
fd
f5
f5
fd
fc
02
03
11
fb
0b
fa
00
01
f5
f6
08
04
02
f1
00
f9
00
00
10
fe
04
02
15
08
0a
15
fa
f7
01
05
05
0e
01
ff
05
f7
f6
fb
fe
fd
f1
e8
00
05
1a
ff
03
05
fe
04
ff
f6
fe
09
00
01
fc
fe
01
fd
08
0f
0a
fd
fa
02
0c
f3
15
01
f6
00
25
00
00
02
06
08
03
07
00
00
08
fb
06
05
02
01
fc
f7
fb
f6
fc
fd
0a
07
02
fd
fc
00
f8
f3
00
f7
09
0e
03
fc
f7
08
fa
fd
ff
12
00
03
fe
f7
0f
ff
03
ed
fd
ed
f8
0b
02
03
06
fd
fd
fb
11
f9
e9
fb
0a
07
01
09
f9
f5
e3
0d
01
fd
08
0f
ff
04
fc
06
10
ff
0f
06
03
04
fc
0c
06
06
0c
fe
fa
06
08
02
04
eb
fa
0b
05
07
ff
0b
0b
ff
01
0b
09
04
f9
07
05
fe
e5
fb
04
fc
fa
fa
07
07
0b
f8
0c
fd
fb
18
e7
f4
f7
fe
0f
04
07
f8
07
03
f7
f7
f6
03
0b
04
f1
f9
fd
fd
f0
04
fb
09
f4
02
00
01
f6
03
0a
f7
18
f6
0a
00
06
f9
fa
f7
fe
e6
fe
e7
fe
f7
e8
f8
f1
01
f9
08
fa
0c
13
f6
09
0e
f6
16
fc
10
08
f9
0a
16
f7
f6
f4
fd
fb
0e
18
15
03
fe
fc
01
ff
f2
f9
0b
f7
04
e7
ed
f6
15
f8
05
e9
fc
0f
fb
f9
06
fe
f7
04
fc
fb
f5
02
f5
0b
02
f9
fe
01
f5
f5
e4
fa
06
00
07
e7
fc
0d
04
ff
05
f6
05
ff
06
08
ff
07
0b
0b
0d
fc
f5
14
ee
06
0e
0c
fc
04
ee
02
15
f6
04
f8
01
07
00
01
ee
02
f9
f4
fa
f5
06
05
f9
06
07
07
f8
f3
f9
02
f7
fe
fc
04
0f
04
ff
00
03
ef
fc
01
07
05
f9
05
08
f7
fe
fd
f3
fe
ff
06
ff
03
00
08
f9
ef
d8
03
15
ff
04
02
f9
06
fd
0d
0f
fd
f5
fe
ff
03
f3
fd
01
04
f8
fd
ff
0a
e9
f8
06
06
ff
fb
ff
f6
03
19
05
f5
02
ef
0a
05
06
fc
fd
f8
fa
f7
fe
ff
0e
fb
06
04
00
f6
fc
f3
02
f0
f6
e6
f6
01
f9
ff
fa
f1
02
06
0a
fc
fa
07
0c
02
07
02
06
f9
fc
ff
fe
fc
02
f7
f7
ef
04
03
02
0c
f9
01
00
04
fd
03
fd
01
fb
01
0a
10
ee
05
fb
f3
08
ff
f6
fa
01
fd
f7
fb
fb
08
06
fa
fe
01
fc
14
01
fb
fa
04
f5
f2
f6
02
13
fa
fd
ff
fa
01
06
0d
ff
fc
01
ed
f5
fd
10
06
0b
08
02
fe
00
0c
03
fa
02
f1
0c
f9
04
fb
02
f8
02
fd
fc
08
f7
fe
04
ff
fc
fd
0a
08
fe
17
fe
fa
12
00
00
fb
03
0b
0b
08
0b
ff
00
f6
1d
0a
fc
fc
07
01
f9
00
04
e1
ee
f7
fb
fc
04
f7
0a
fd
ef
fd
10
01
08
03
fb
08
02
02
fd
0f
ff
02
00
01
f3
f1
f9
fd
fd
fa
ff
fe
05
05
fd
fe
fe
01
02
01
fb
fe
04
0a
f2
06
ef
09
0d
ff
f1
03
ff
f9
07
0b
fe
04
fb
f4
fc
fa
ff
ff
0b
02
04
fe
0f
05
f7
f8
fe
05
fb
00
01
05
fc
f3
fc
04
00
ff
fc
02
05
ff
f1
f7
02
fe
0c
06
ea
f4
09
08
f2
0c
06
fa
08
00
f8
fb
02
fe
ff
f4
fb
d1
fc
ff
04
f8
fd
fa
05
f3
02
05
ff
04
03
0b
09
f7
f2
05
fe
f0
03
ee
05
fc
fc
00
f5
03
f1
fb
f5
01
09
fa
ff
12
ff
fb
02
ff
fc
02
0c
02
02
20
04
fb
33
ff
fb
06
f6
f3
f8
fa
08
01
0a
ff
f5
04
05
f9
ff
fa
08
04
fe
04
f6
fc
f6
fc
ff
08
bb
fa
fa
ff
ff
ff
f5
11
32
fe
ff
f6
fc
01
fe
01
ff
04
fc
06
ef
f2
f6
fe
fe
00
03
01
fe
ff
fe
03
ec
12
ff
fa
05
fa
00
06
02
f6
fc
06
01
02
03
ce
fc
fa
f6
fd
fa
09
02
ff
f5
0a
01
02
f0
fc
0c
02
fb
f8
f8
f7
fc
f9
fd
f3
f7
ea
f0
f8
06
02
fe
21
fe
f7
03
f4
fe
fb
f4
f1
fd
e2
08
06
f2
00
04
ff
f9
02
f6
e9
fc
f1
02
f6
0d
f7
fa
ff
06
0e
fe
0f
fd
fa
fa
06
fd
0a
f7
fe
04
fb
01
05
00
fd
05
04
e7
f8
08
f9
e9
0c
fe
00
02
fd
05
02
ed
fc
f4
05
fb
f9
0b
f0
f9
ef
04
fe
18
21
fd
fd
04
03
f8
0c
03
f9
0e
f3
ed
fc
f7
08
e6
02
07
e9
fe
f5
f8
ed
f4
02
ff
fd
04
f1
0a
e9
fd
f5
03
fe
07
03
f9
f7
07
fc
f1
ff
ed
f9
07
fe
f9
1f
05
00
04
fb
fa
fb
0f
ea
ff
f7
f2
fe
fa
06
04
02
f9
ef
05
ff
e1
02
f8
f3
fc
01
0b
ff
e9
fb
01
f4
ed
01
f6
0b
0b
03
f4
fb
fc
00
f5
01
fc
00
fe
ee
fc
10
ef
fa
0b
f4
fa
f1
03
06
f8
04
fc
20
06
02
fc
07
f8
f9
c4
f7
f7
01
f6
f7
f0
fe
f0
fb
fe
f1
fa
06
0b
f9
fa
05
f6
05
ff
fc
01
ed
fa
01
f1
f9
0b
f8
f4
fa
f8
fe
f8
04
fd
ec
d9
ec
02
fd
ea
f8
fe
fd
f0
f7
fe
09
fa
f1
f3
f6
f1
00
ed
fb
07
f5
f9
fc
01
01
f0
03
fd
ff
fd
f5
15
06
01
f4
f8
f7
fc
fd
fc
03
f6
04
ef
05
f9
ea
f8
f1
00
f4
eb
f2
fa
fd
08
fd
fb
f4
17
f4
0c
fd
ef
05
03
ff
ff
fb
f9
f8
fe
ff
fb
03
fb
fa
00
fb
f2
f9
fe
ff
f8
f1
01
fd
f8
f4
07
05
f9
f8
fb
01
05
f0
f9
02
fc
fe
f9
f5
f9
fc
de
ff
f9
03
ea
fe
ef
15
05
ec
ea
f1
ff
02
f0
02
00
02
05
f9
f8
01
f1
02
f9
ef
fd
ff
f3
05
ec
f8
09
04
f2
1b
ff
fd
02
fe
ee
0e
ff
e6
ed
fb
f8
02
f7
fa
f7
f6
fc
f6
f9
f5
fa
01
fa
f5
e9
03
f9
fc
08
fe
fb
e9
00
02
fe
fb
fb
f3
fc
13
01
f8
f7
fd
f5
f8
f4
ff
ff
e7
ff
ee
ea
06
f8
07
fb
ff
04
fd
05
fe
01
f3
f9
ff
0b
f8
fb
ff
03
f9
f5
01
00
fd
f5
00
f7
f6
03
0a
01
ff
06
f1
e6
fb
f8
f4
15
05
01
08
fe
03
fd
f0
fd
0a
fb
fd
08
03
07
06
01
f4
ff
fa
f5
07
f7
02
fa
02
f3
e2
10
03
fa
f7
fb
fa
ff
f6
ef
f1
fd
06
28
0d
05
07
01
f8
01
00
ee
02
fc
ff
fe
f1
f6
0f
03
fb
f8
ec
fe
02
fe
e5
0d
fe
fd
f5
ff
04
f9
08
02
0b
e4
f4
fe
0e
f8
ff
17
fd
05
03
0e
fa
12
fb
f4
02
f7
e4
05
fb
fb
fe
f5
0a
02
fe
f4
0d
00
06
05
fd
f2
f9
0d
f2
00
00
00
01
fe
f9
f8
fc
fb
f1
f6
02
f0
02
fa
f9
ee
ff
f2
0a
07
f3
0c
fb
05
f5
ff
ee
ed
09
ff
02
00
ec
f8
f2
fb
01
f3
fd
fc
fd
04
f4
0b
04
f2
fb
00
fc
09
20
f6
f3
05
fe
f4
f8
fd
08
07
05
f9
03
01
f0
fa
09
06
09
09
01
03
f5
ff
0a
f8
07
e1
09
f4
fe
05
00
04
fd
fe
f8
08
f1
fd
09
01
08
f0
f2
fa
f7
fd
01
f5
05
02
ff
f2
fd
ee
fb
11
fe
e9
fb
fa
06
06
ff
02
fb
f0
ef
fc
f1
f9
ff
f4
fb
fc
f6
fd
0c
fc
fe
fc
f0
f9
0d
03
02
ff
0b
04
f3
fa
f3
f5
f7
04
42
0a
f5
ef
ed
18
ff
fd
e7
0b
fb
00
01
ff
f1
fd
01
ed
00
f2
f7
00
00
ee
fd
e8
f7
e9
0b
f3
ea
05
e3
01
06
04
f2
f0
09
fd
fd
f7
fc
fb
03
f7
fb
00
fc
05
f4
07
0d
0f
f8
03
f5
02
f3
ff
01
ef
f8
eb
fe
f3
f5
f4
ff
f5
08
e9
ff
0c
f9
fa
f2
f2
f3
ff
f8
03
ef
ec
04
e0
04
08
f8
0a
fb
fd
f4
0c
05
fd
f4
00
f5
ec
ff
01
f8
f6
00
1e
f0
f2
e8
fd
fb
f3
ea
0f
fb
fb
f3
01
04
02
fb
fc
fb
0a
ee
fe
00
09
f7
ef
f4
f3
06
f7
ff
00
ff
05
1f
fb
03
f3
fb
ff
f3
e7
ff
00
f9
ff
00
f8
fe
fe
f6
00
f6
fb
ff
ed
ee
f0
d9
ef
00
f9
f0
f9
fd
fa
00
05
da
00
ff
f9
f2
f3
01
f6
01
f8
fe
0b
fe
f8
01
fa
01
fb
fe
fb
f7
fe
cd
f6
01
f8
fd
ff
fa
f6
0a
0a
ff
fa
fa
fc
03
fc
ff
03
f6
fd
f9
07
fd
f6
01
04
fe
fd
f9
ff
fd
ed
02
41
fc
ee
05
04
fc
f6
f3
fa
f3
fa
fe
f8
01
0b
f5
ee
fc
01
fe
f4
f8
01
fa
03
07
f8
09
03
fc
f6
fe
02
f4
f9
f6
fd
ff
fd
fc
03
f8
03
fb
02
02
09
01
f8
f0
00
f5
e7
ef
fd
f8
ff
ff
06
f4
fa
0a
f8
09
fb
ee
fd
01
0c
fb
08
f0
fd
13
fb
04
b7
ee
fb
f2
01
fe
02
fc
ff
ec
f7
fe
02
fa
02
fa
f8
04
00
fb
f7
fa
fb
02
01
f6
f7
02
02
06
f5
0a
fa
f4
f7
f9
fa
f0
02
0d
01
e7
09
fb
fe
00
03
06
e8
fa
fb
f0
fc
fb
fe
f5
ff
e8
f7
f6
01
ee
f8
ee
fa
f7
00
fe
08
fc
04
fa
ff
fa
07
0e
f5
fb
fd
05
f6
09
fc
f9
f9
ee
05
fd
08
03
02
f8
f7
fb
fb
01
01
07
01
fd
df
f7
ea
f1
f4
fd
f2
fb
fb
f9
f1
0a
f1
fc
f6
0a
fd
ff
1d
f7
27
fe
02
f7
08
f8
ff
f6
fe
03
fa
fc
f5
f9
f6
fd
f7
f8
f2
07
0a
07
fa
fd
01
f8
06
ff
f9
0a
00
f8
d5
e5
05
fa
ec
fb
06
fa
df
ff
02
03
f9
ff
fa
00
fa
ff
08
f7
fd
08
02
fa
fb
fb
fa
01
fd
f7
03
08
00
03
f7
01
ff
04
03
fb
f2
fe
f1
fd
f8
02
fa
f9
fa
04
fd
06
fa
f6
02
03
00
f2
fb
07
fc
0c
04
f8
02
fe
f3
ff
f6
fb
ff
f9
01
fb
05
02
05
fc
f6
00
f6
f7
fd
00
e7
05
f7
f9
f0
c7
f6
01
05
04
fc
fc
fa
ff
f5
fd
f6
04
f9
01
fb
02
f7
05
fc
f9
fb
fc
fe
fd
fa
02
fe
04
02
f9
f7
20
fb
fe
f8
06
00
fc
f4
ea
0a
01
0a
f8
f4
06
02
0d
fb
f2
02
00
08
08
0e
01
ef
02
fa
09
f1
fb
f6
eb
01
00
03
08
fa
fa
fb
03
fa
ff
fd
00
fa
f3
fd
fb
f9
03
f3
f6
05
f0
f9
fb
05
01
02
f4
f5
ef
f0
01
f5
f9
fa
fd
f4
fd
fc
f4
f9
01
00
f8
02
f2
06
05
00
fc
03
0d
09
fe
fc
02
f3
10
fc
f8
fd
fe
f7
17
01
0b
ee
f7
fb
fa
fe
f4
0e
f9
05
fd
f8
04
f7
f7
06
06
f8
f7
04
eb
ea
f5
f2
f8
f7
e9
f9
fb
f9
f4
f0
f2
fd
f5
f9
04
03
ff
fb
fc
f9
fc
0e
02
04
f9
fd
f6
04
19
f0
fc
07
f5
fe
f6
fd
ff
fb
f6
fd
04
ff
f9
07
02
e4
ff
f6
08
11
fe
03
f2
f7
02
03
23
fe
f3
f7
00
fa
f6
09
fc
03
05
f7
05
00
04
fd
fb
01
f9
ef
f1
f4
f8
f8
08
03
ff
01
fe
02
fe
fd
f9
05
fe
08
f9
fc
fb
f4
f3
fb
fe
e8
f5
ef
fe
17
01
f4
f7
f7
08
06
10
ff
04
03
04
03
07
12
f1
f0
02
01
f6
03
01
f3
ff
00
02
fe
f1
fd
00
fc
ed
ee
08
09
04
07
07
2a
f8
03
02
0b
06
fb
e6
0b
fa
09
f8
f9
07
08
f0
08
06
e7
e6
03
08
ec
fd
05
fb
02
09
05
fc
fd
f7
fa
03
04
fd
ef
01
06
f6
04
06
00
eb
09
f9
05
fe
0c
f9
f7
e5
f8
07
09
07
f7
f9
02
09
00
03
f0
ff
02
00
ee
f5
f8
00
f5
0b
f5
fe
fb
fc
03
f6
07
fc
f0
05
ff
ff
08
0e
09
f7
0d
f6
f5
0b
fe
01
f7
fc
f7
10
fa
0c
03
11
f1
e4
f6
01
01
f9
09
f5
f8
fd
f4
ff
03
21
fd
05
04
0a
f2
f3
01
01
f9
e8
12
0a
00
06
f6
0c
0d
0b
fd
13
05
0a
f6
08
02
05
fd
17
fc
0a
ec
09
00
07
eb
13
fc
01
f7
fd
01
f6
0e
10
f6
07
03
02
00
02
05
f6
fd
0c
fd
ff
15
04
07
f0
f6
ff
0b
f8
fe
09
07
07
ef
09
f9
07
f1
f4
ff
fd
fe
e9
f8
0f
05
f5
f4
ed
fe
0b
f6
0c
06
02
f9
06
00
f5
05
f0
fe
fb
fc
f9
fb
f4
fd
01
07
02
02
01
01
12
10
20
ff
f8
06
0c
08
e5
fa
01
03
ff
f2
f8
ff
ea
f2
f6
e5
06
f1
ff
0c
ff
ed
fd
fb
f8
02
f5
f3
fb
0b
ff
02
01
0d
f6
06
f6
07
10
fc
05
fb
0a
07
fe
07
fd
fe
f9
00
10
04
08
dc
f5
fd
01
fd
04
00
f4
fb
00
1a
00
f2
04
08
00
04
f8
f9
02
04
ea
f1
06
02
fd
f6
f0
e9
f9
04
01
fb
08
f3
fc
fc
ed
fb
fa
0c
f7
f4
07
fe
f6
07
02
0a
14
fe
06
fa
ff
f3
01
fe
00
ee
e5
0a
00
01
02
fe
07
ff
04
06
f1
f7
08
09
f1
fc
08
fa
08
00
0a
fc
04
03
f2
f7
fd
e7
00
01
01
fc
01
00
f8
04
f4
04
06
f3
01
f3
fa
02
02
09
0d
f7
ec
f3
04
f8
f8
11
fc
04
f8
00
00
0a
fd
00
ef
ea
ff
ff
08
fe
f7
0c
13
f4
f9
f4
fd
21
0a
02
19
fb
0e
f9
f1
fa
04
0e
fc
08
0f
00
ec
04
06
f3
f9
f7
06
f0
fd
09
fe
e4
06
07
00
04
04
fc
f0
01
09
fc
22
00
fa
eb
f2
f4
ff
f1
f1
f2
ee
ed
e0
03
07
f9
f5
0f
fd
17
d8
fa
ec
f9
f7
06
fc
f2
1b
04
0e
fb
05
f8
fb
06
00
f8
02
00
fe
fd
02
07
05
08
04
07
00
05
08
01
ff
02
0d
fc
fb
07
05
11
f8
f8
ec
0e
06
f4
fe
16
f3
fc
fc
f6
f4
f3
ff
fb
f6
f2
03
08
01
09
0e
fe
ed
fe
00
02
00
f6
f3
04
0e
f9
0f
fb
0a
1b
01
ed
ff
e8
04
19
ee
14
f0
0b
fb
03
eb
fe
0b
03
fe
0a
03
fb
01
fb
f7
0d
03
0d
f6
30
fc
09
12
f8
06
0f
e7
01
fc
0d
f0
0e
f9
f6
f3
08
f6
f9
f9
07
f5
f0
f9
eb
05
f4
00
f6
01
f0
01
fd
02
25
01
ff
f8
0f
ff
11
fa
05
fd
18
f4
fa
00
05
0f
f7
f4
1f
ee
00
fa
06
0b
02
04
06
00
f7
0a
01
11
06
02
ff
00
11
fe
07
f9
f8
ee
fb
fb
ef
03
0a
fe
02
ef
fa
f8
fd
f9
ea
08
f3
ee
00
00
ff
f2
f6
07
fe
ff
09
07
03
00
06
02
04
03
f1
01
f9
ff
e6
ff
f5
07
fb
01
fd
f8
02
10
10
0c
04
f4
10
f9
fc
fd
0c
fe
00
02
00
05
fe
e9
02
f2
ff
01
f6
fb
ef
f7
f6
03
f6
0c
05
f7
0a
ff
fa
fe
04
fd
03
06
00
00
f9
f7
00
ee
ed
fa
04
fc
0d
f8
fd
f1
03
fb
f7
03
fa
06
0a
0b
07
f7
03
04
f3
f9
ee
fa
eb
fe
f3
03
06
f6
18
f8
12
00
f1
0d
06
17
0a
ed
f4
fd
02
fc
02
ff
fb
fe
fb
15
0b
f3
0c
02
05
00
fa
fa
f8
f6
17
08
06
03
f6
f9
01
00
f9
10
f2
00
fd
fc
fe
02
04
06
05
01
02
0d
00
f0
f4
09
0b
0a
fd
02
fd
fb
08
02
05
f1
fc
10
f8
f3
f8
fe
f1
fc
fe
06
f8
08
0c
08
fa
ff
37
fd
eb
ff
19
f6
0a
07
02
1b
ff
0b
0b
01
0c
e0
09
1a
ed
fd
0e
06
07
07
fb
fc
fe
12
fe
f5
f4
08
fe
f9
e3
03
f8
fd
fb
0e
ef
fb
f8
ff
f5
0c
fb
07
fe
fa
0c
03
fb
fe
36
f4
fd
09
e9
fe
37
f0
02
fb
fb
0c
e5
01
fd
fe
03
0b
f1
05
04
f2
0b
01
fc
fc
ef
f9
fe
fd
06
04
03
fe
f2
f0
02
03
0a
f9
07
fb
fe
fc
3a
16
04
f5
0c
fc
f1
f6
f8
01
10
fd
0e
0e
13
ff
eb
fe
f9
00
fb
fd
0f
0e
fc
ea
ee
fb
fe
fc
ec
05
08
fd
f4
04
fe
06
fe
fe
fa
fc
08
04
fc
fb
fa
06
f2
fb
f7
03
fe
00
43
01
03
0b
e8
28
fd
00
01
f0
f6
13
07
02
02
fe
f9
fd
06
fb
09
02
f6
0d
fe
f6
ff
13
f8
f4
fe
fc
18
03
01
f9
13
05
fa
11
ea
ea
f7
ee
15
fd
0e
f0
fd
fd
04
08
ea
fb
02
f1
eb
fc
f5
fd
fe
f9
f6
05
ff
ff
ff
e6
f6
05
fd
fc
03
06
05
0f
f6
09
03
ec
06
e9
08
09
fd
f8
0c
fa
f6
00
fb
0e
fe
ee
0f
18
01
05
07
f8
17
f7
d2
03
02
f8
ff
f3
ee
04
0e
06
03
e9
11
07
0b
07
02
0c
f9
00
fa
00
fe
10
06
02
03
e1
ff
fc
01
f8
08
01
ff
06
fc
04
fe
20
2a
12
ff
f2
07
e6
07
07
ff
f0
1b
e6
00
04
03
fb
07
1d
03
fa
07
fd
fe
f5
fa
02
0b
02
07
fb
f8
0a
f0
06
f2
08
f6
18
f2
e9
fa
09
00
01
17
04
2f
f4
0b
f5
fd
f8
ee
05
ff
01
09
fc
fe
0d
05
ff
04
0e
08
02
ff
03
01
06
f7
f4
01
05
05
da
ea
f9
07
ec
f8
e0
fd
03
fc
e0
03
f3
f7
f8
01
08
f4
f6
00
f2
f5
fe
f7
fd
f4
ee
07
02
f3
f6
04
04
ff
f6
09
fd
05
f7
f3
fa
f2
00
fc
09
07
ff
ec
f9
f8
0c
01
01
10
f6
f3
f3
01
fe
05
fd
f7
fe
02
17
00
f6
11
04
f9
f6
fa
0c
fb
ff
0b
04
ee
fb
03
f1
f8
0e
fb
e8
04
fc
10
04
00
f4
01
fa
01
0e
01
ee
f6
09
ed
13
00
f5
03
ee
fa
00
ff
07
fe
0e
fe
02
e6
f7
f5
09
02
02
f6
09
f3
f4
13
f9
f6
fb
07
f9
fc
00
03
08
f9
ef
fc
fd
10
f7
05
fd
0b
02
02
f3
06
01
fe
03
10
f9
fc
00
fb
f7
f0
f5
f4
14
0b
f7
0b
ea
fa
f8
06
f2
fe
fe
f6
e0
0b
fd
ef
00
0a
0c
f7
fb
f3
fb
04
02
0d
ef
f0
f2
0c
16
fa
ee
fb
0a
fe
06
fd
fd
e7
fa
04
f9
fb
0c
ff
04
f3
07
08
03
0b
f1
e4
01
fd
ff
0a
fa
00
fd
0f
f5
0e
02
05
fd
f7
0e
09
ff
fa
f3
01
01
f4
ec
08
06
04
f7
03
01
0a
03
fa
fe
05
05
ff
fc
cf
f3
e9
fa
fe
09
f4
04
01
fe
0b
e0
fd
f9
f5
09
f3
ff
fd
fc
fd
f0
ff
f5
06
f5
10
01
f7
07
fb
06
f8
02
ee
09
05
e0
ff
13
0d
1b
fa
fc
0c
07
fd
fc
09
01
e9
f3
00
06
fa
fc
16
fb
ff
02
f2
f9
08
09
fd
04
04
fa
00
02
03
fe
2d
03
ed
ed
13
fe
06
fe
02
de
f2
0e
03
f8
fd
f2
0f
f2
fa
01
01
f3
f7
f6
f8
fb
f7
0a
fe
e8
0b
f7
f7
f8
0a
04
f3
f2
04
f0
12
fd
f7
f7
f5
f5
f8
f8
06
fe
f6
fb
0b
e9
f1
05
02
05
ff
f0
fe
ef
ef
15
07
f7
fa
00
fc
f5
f2
05
f3
fa
02
fd
05
00
01
fe
0c
f6
ff
fa
ee
f1
01
ff
f9
02
fa
fb
fd
fb
fb
fd
f8
03
09
07
03
f5
fe
f8
f9
f9
ef
07
00
f5
05
05
fb
fd
05
01
09
19
09
ef
02
08
f7
fb
fa
ef
fd
fb
0d
fd
fb
f9
f8
02
e5
ec
f8
fd
00
1a
fe
fa
03
ff
06
04
f6
f9
fe
03
04
0e
f2
f9
f9
05
f4
fe
02
09
04
09
06
fe
03
fb
ff
13
f6
fe
12
01
00
df
00
e8
ff
f6
07
06
17
fa
fd
fd
0b
0a
ef
f7
e0
0a
f7
fb
0a
00
f8
05
ec
08
08
01
f3
e2
07
04
fe
07
04
f0
e8
e7
00
f9
fe
17
0b
02
fa
f0
ee
f4
ff
fb
fe
ea
fe
e8
04
06
03
00
fb
f5
fe
fa
f4
00
f1
ee
01
fc
02
03
09
05
04
fc
06
f2
0d
09
ff
fd
f6
f4
06
0c
09
f2
f6
ee
f1
f4
f8
f6
08
fe
fc
0d
ea
01
fd
f6
fd
03
f2
ff
fd
15
18
f3
01
fa
09
0e
05
fd
fb
00
09
05
f4
00
f1
df
f0
f6
fe
02
fc
05
07
03
04
09
01
ff
11
fa
eb
06
f0
09
0a
f4
05
18
f8
07
fc
f5
f5
fb
f7
f6
fc
fd
11
fe
ee
fc
13
fd
ed
f0
fb
14
0e
f9
01
04
e8
08
02
ed
fb
fd
18
01
fc
f0
f8
f0
ea
fc
f1
ff
fb
12
05
08
06
fd
03
fc
fc
04
f2
fe
fe
fa
13
01
fe
f4
07
fc
11
f9
08
f5
09
e7
07
f2
0b
04
ec
fb
00
fe
fe
03
fe
07
05
0c
f4
02
0a
f1
09
04
fb
01
f6
f8
10
0a
0f
05
20
f9
fb
fb
05
f9
02
f9
fd
fb
e9
08
f9
11
0e
01
f2
f5
fe
