f8
e1
d0
fb
f3
00
f2
10
ef
f7
fb
18
ee
f9
01
0d
f4
f4
02
f1
11
0c
e2
03
f5
e9
0b
15
f8
e6
1b
20
ee
f8
04
22
fc
0f
1b
fb
04
07
14
ee
f7
27
e2
f5
f3
10
06
ec
f4
1b
ff
f1
17
dd
07
df
f1
04
0d
00
16
39
f3
e8
1b
f1
f0
23
f1
0f
09
12
01
ff
e6
fc
f1
0f
f3
09
07
0c
f6
33
ef
ef
ff
f3
13
14
01
e8
d0
f5
06
e8
0d
14
00
13
d9
cf
f3
f2
f8
fe
fd
6f
e9
e5
06
07
fc
0c
fe
1b
0c
ed
f1
04
f2
16
11
3a
fa
e0
07
ed
0b
05
08
15
f1
0d
12
00
d6
f0
0c
12
08
fa
f3
f3
0c
33
f4
ea
19
f9
1d
0f
f1
f3
fb
14
10
05
04
0d
f3
11
1c
ec
fd
f5
06
f7
f4
04
14
0e
13
e7
f1
04
0b
07
fc
44
1f
01
d3
f5
11
f3
f5
f3
ec
f2
04
0d
f1
fb
ee
1c
05
f9
03
06
eb
1f
01
f4
00
0b
ee
ed
16
f5
fd
05
ee
0c
fb
f4
f3
12
e1
fa
fd
ec
0b
e7
04
1a
da
04
00
e9
d3
fc
eb
ef
23
f9
ee
f9
f1
03
18
08
d5
dc
0c
e9
04
e3
fa
eb
00
e9
0f
fd
f7
02
12
0c
f0
14
fe
f1
33
f4
fe
e9
0b
0f
10
12
f7
eb
0d
f3
0b
12
10
fa
e7
d3
f8
ee
0f
04
d0
1a
f3
e1
fa
21
02
ee
30
f0
f8
0c
10
10
ef
e7
c6
0f
f6
f8
03
18
10
03
d2
fa
cf
e9
17
13
0c
00
0c
f1
d1
17
f4
fa
f5
f1
b6
f0
20
09
15
f2
ed
28
f6
f6
11
f3
0c
0b
19
e7
16
16
f1
ed
f3
ea
f9
08
0f
f6
fd
de
1b
0d
04
2c
f6
ff
01
d2
d9
e7
f0
fa
eb
12
01
1b
00
09
13
01
17
e0
0f
ee
f1
f6
0d
09
