02
ff
06
11
f8
07
0f
f7
fa
fe
fb
11
fe
f2
03
fc
04
f5
02
f1
f9
05
05
0c
01
fa
0a
ec
f4
f5
0d
02
13
f5
0b
07
fd
06
0e
03
02
08
08
e8
eb
09
11
01
fa
00
fb
fd
01
00
ef
05
0b
ff
06
f6
fc
03
1d
fe
f0
ec
f8
f3
06
0c
f5
fd
ff
fe
06
03
f3
22
fd
fe
fc
ee
fc
e7
15
07
01
06
fb
f9
08
02
fb
02
0b
18
f7
fd
fe
f0
05
f3
f7
f2
e0
03
f9
03
06
fd
ff
fe
f3
fb
1e
fa
f4
f2
fe
fd
0a
fe
00
03
0d
f6
18
f6
fc
f3
06
f9
04
04
fb
fa
fc
0c
ff
05
03
fc
f0
06
03
08
07
fe
fe
f9
21
02
0c
fb
e9
0d
fc
f5
00
ef
18
ff
09
03
01
24
11
f3
fa
10
de
f0
0d
03
ff
e7
01
0a
e7
0e
0e
12
39
11
fb
fd
03
09
f0
fc
f5
07
01
03
f7
09
05
08
fb
f3
09
0e
f2
0c
08
e7
fa
f7
f6
04
01
00
02
04
07
fc
fe
fb
f6
01
07
ff
fc
fd
09
01
05
0c
fe
05
05
fe
06
0a
10
08
fd
fe
06
fa
e9
12
02
15
e9
e7
e1
0a
16
f3
0c
05
11
17
05
1f
f4
ee
ff
1a
11
f6
eb
f3
ff
fc
06
e3
f0
07
0e
f4
fe
1d
07
0a
12
f9
ff
fb
05
05
fd
e2
05
fe
0e
1c
00
16
09
f9
08
07
e9
f4
05
0e
f1
f3
f6
fa
fd
ee
02
08
ef
fe
0c
06
0c
fd
fd
01
23
f4
f8
0f
13
03
f9
f9
ef
04
13
18
07
02
f6
17
11
e4
ea
f9
fe
0a
0a
02
02
f7
f2
14
fb
22
e7
e7
f9
fe
fc
08
fc
f7
f9
f5
fb
fd
12
fc
f9
f0
e9
08
fb
f2
e4
16
13
16
0e
0e
2f
f2
f0
15
f5
f5
00
02
06
eb
f4
ef
fb
f0
03
02
fd
05
f0
0e
12
fe
e9
f7
eb
19
15
f9
0c
e4
21
11
f8
e8
01
0f
ce
ee
1c
f9
18
f2
fb
f2
f2
08
20
f6
fe
16
09
ec
fb
f7
02
f9
0b
0f
e3
00
f0
29
0a
01
13
03
e1
fa
1c
ff
07
fb
f2
f9
17
fc
ff
0d
02
10
f6
f8
07
f2
0e
03
f6
f3
02
09
ef
07
f0
f2
f4
0c
0a
15
00
19
f6
0c
ef
f9
f3
04
16
fc
0d
0c
e6
04
12
f8
f7
08
0f
12
08
f7
f0
02
07
fa
ff
12
08
0a
08
f3
f4
f0
03
e6
06
03
08
f1
f3
02
28
ee
09
20
eb
f8
15
f8
0e
01
05
06
06
0e
fc
f9
eb
0f
db
02
f2
10
26
ee
f6
eb
d5
e4
e6
ea
38
11
0c
22
ee
00
dd
fe
0c
f4
fa
f0
18
f9
f2
fb
1d
ea
0a
fa
ff
0d
19
0c
05
1c
0f
00
f4
f1
f6
0e
eb
fc
f5
2a
f8
03
ff
0b
f4
f2
f6
12
ee
f2
09
f4
eb
fe
f8
f3
f9
f3
f4
fe
fc
f9
fe
f2
ef
02
0e
03
f3
0b
15
f4
1d
0d
07
12
02
f9
ff
0c
2e
ff
02
07
e9
05
e3
0f
fa
09
06
fb
ee
12
f9
e8
f3
15
05
eb
03
f3
07
ec
07
f3
fd
0f
ef
03
16
ef
f3
f8
09
11
f6
ed
04
ed
f0
fe
12
f2
0b
04
f9
f5
0e
e6
06
18
1c
f4
fd
f4
df
06
07
fc
06
10
0b
06
f6
12
e2
f9
e0
f5
fd
ff
05
f4
f6
fa
f1
7e
f9
e2
fb
05
ff
eb
ef
0e
f1
e2
fb
09
23
1b
19
03
eb
0a
0f
fa
18
e8
f9
fe
f6
07
e8
f5
ee
01
0f
f2
f6
f7
fc
e4
ef
0c
fa
0b
eb
ed
1c
01
10
f9
03
01
f6
07
f4
f8
f2
f1
02
1c
15
09
0a
2c
02
03
05
10
06
04
fd
0e
e1
f4
e9
f3
e6
0e
05
ff
f7
f8
fe
fa
f8
12
0f
04
0b
0a
ff
f7
fb
03
02
1b
f1
04
f3
f5
06
f3
f2
fb
fd
f7
fa
04
2d
05
06
fc
09
f9
fb
f1
05
ef
06
f6
06
05
f6
f9
e6
f1
ef
00
0b
0b
f7
d1
fa
15
f6
f8
07
ef
11
27
14
f8
fe
f7
f5
17
11
06
ee
fa
e3
05
fb
4b
05
07
dd
f6
12
f1
15
ea
25
f7
ff
fe
15
f4
f8
e0
1b
fd
f3
28
0c
06
06
fb
09
ef
f3
fd
13
fc
f6
ff
17
05
11
f9
fb
f8
0a
f7
07
0d
0e
f1
0d
fa
f4
22
fe
08
f4
f8
11
03
fd
09
0f
f6
ff
fa
fb
01
03
05
07
03
06
f5
05
fa
0f
0b
f1
0e
04
19
04
eb
f6
07
fb
fa
03
02
0a
00
01
fd
f1
eb
04
fd
fd
fc
f0
17
ef
ec
1e
fd
00
04
fd
f8
f8
04
23
ee
0f
f5
03
14
15
0b
f8
ed
07
f9
ff
03
f6
0a
10
02
ed
fa
00
fa
ff
01
03
f0
09
0a
fa
01
f6
0b
ef
f7
05
ed
0d
fa
f2
06
f2
ef
13
f4
f6
f2
0b
fb
fa
f4
f5
03
fd
13
0b
fa
01
32
00
ff
04
0c
f7
fe
fc
01
f6
01
05
fd
f8
00
03
03
fa
fd
ff
ff
f8
00
04
fc
fc
ff
0a
ff
fc
f7
00
00
07
01
f8
01
03
01
00
fc
04
fe
03
fc
ee
fe
04
f5
02
ec
f9
fe
0e
ff
1c
01
ed
dc
0a
1e
f9
e3
01
08
0a
f0
25
0d
39
02
ff
1f
0f
03
01
02
11
f3
3e
e1
12
ef
f0
23
f8
d8
11
4a
da
d1
5e
f7
03
ba
fd
11
01
09
f9
e8
f3
ef
e6
ea
e6
e1
f8
1c
fb
02
fb
f6
f9
ff
07
02
12
0d
26
05
ed
fe
08
fc
f8
f6
f9
23
ea
12
06
05
f0
fe
f7
0b
04
fd
0d
07
fb
1e
01
f6
05
fb
f7
01
ec
fe
ee
fe
15
ff
10
05
f1
ed
03
01
f7
e9
ee
f0
fd
03
09
f0
15
04
fa
ed
f7
ef
fe
f8
00
05
04
0a
fa
f9
f5
f4
0d
f5
06
fb
e2
ec
05
f3
f0
02
fb
14
1b
0a
f2
05
f8
06
01
11
fe
06
f9
e9
10
0e
00
f9
e3
01
df
10
0f
f0
01
ef
f6
04
f6
05
15
fc
0a
fa
1b
fe
fb
00
ff
fd
20
f0
fb
e4
0a
0a
ea
dd
17
05
01
00
fa
f1
f5
26
f3
19
ea
05
e5
00
08
06
1c
f7
f1
ef
02
0e
0a
0e
fe
0c
1c
0b
ed
f1
f1
fd
0c
1d
12
05
fc
f4
03
fb
fb
00
fa
ff
0b
ef
07
03
fc
0a
05
f6
fd
f7
05
0d
f8
01
fc
14
0b
02
f8
0e
f9
08
fd
fb
01
08
ff
00
f4
fb
ec
00
fe
00
0e
14
fe
00
06
02
f8
02
04
f9
0f
04
f9
ff
ff
ff
fc
fb
f5
02
f8
ef
0e
00
ef
fc
f8
f9
1c
04
15
11
07
0b
f3
fd
ff
06
ff
f7
02
07
09
fe
f5
00
ff
f1
0c
12
fb
f1
04
ff
15
07
05
ee
f9
f4
12
03
f4
07
f8
05
08
ef
06
fb
fc
06
18
03
f7
f6
f4
f2
fe
e0
fd
0d
ef
2f
ee
0a
09
e4
f0
fc
13
f0
0f
0c
d8
01
f0
f9
08
ef
f5
ff
02
06
09
11
00
fb
0f
f9
f6
09
e8
0d
f1
f9
0a
f7
07
f9
01
00
08
0e
08
f5
06
f3
06
e9
fb
0c
f6
0a
00
06
f7
f9
08
f1
0d
08
ff
f4
fc
07
f0
fc
fe
fb
00
0a
11
04
ff
03
fd
fd
14
0c
13
f9
eb
01
e9
14
08
fb
e0
fb
02
01
1e
15
e3
f0
03
0e
ff
0b
e2
05
0b
fd
05
0f
0d
08
e9
ee
fa
f4
f2
f1
00
f2
17
21
16
05
df
0a
0d
f7
03
04
14
0d
11
f0
cc
13
e3
e7
0d
f6
16
02
e5
f9
10
f0
15
fb
26
f1
f8
0f
07
f5
1a
15
fb
ee
d4
f7
01
f2
02
fe
dd
11
f4
ec
0a
ff
fa
f9
25
f0
e8
10
f4
ed
3d
ff
eb
0b
17
e3
01
15
0a
08
ef
ee
ed
f9
f3
07
00
11
f1
e2
1d
17
08
ea
0c
f6
05
f4
de
00
06
e7
f9
0b
13
f6
f0
02
05
31
f1
11
f2
ec
21
d8
ee
e8
df
18
02
10
fc
fd
02
08
12
00
09
fb
08
f3
05
f9
10
ff
02
f5
f8
f7
05
00
ff
0f
0d
fa
0f
fa
f8
f8
0b
f5
12
ed
fc
f5
03
f5
fe
f6
f5
fe
f7
f8
06
05
fe
fa
0d
fb
fc
02
09
f7
06
03
0c
03
02
07
03
f7
00
02
fd
fd
fb
f7
05
05
fc
f8
01
04
f2
07
00
01
03
f9
06
fe
04
fb
03
fe
0a
fb
04
01
01
fd
f5
fd
0c
fc
f3
0c
08
00
fd
ff
03
02
f6
0e
0a
f9
fa
f8
05
f8
05
0a
f9
fe
05
fc
09
fc
01
04
fe
02
fa
fa
11
f9
ff
fd
04
05
f2
06
f9
05
07
01
15
06
fc
03
05
ff
f8
f7
f9
13
fd
0a
fd
fd
ff
0d
ff
fb
fc
f8
f9
f8
fd
03
ec
11
f9
fe
02
0c
01
02
09
fb
02
f4
f2
fe
f6
f7
02
fa
00
fb
fc
07
04
04
10
0d
00
07
0b
08
05
04
fe
fd
08
f6
06
fd
f9
05
06
f8
05
08
08
06
0a
05
fa
fe
05
0a
02
03
ff
09
f6
03
0a
f8
ff
00
04
02
fd
08
fd
09
fb
ff
00
03
07
02
03
0a
00
05
f1
0e
09
17
0c
b7
f4
ff
16
f4
e4
f3
f6
09
0f
fb
f8
df
0d
fa
e8
f7
f1
0c
f8
04
f5
11
f7
05
fc
03
1b
ee
fb
f3
04
00
fb
0b
ff
06
0c
f0
fd
05
00
01
0d
f4
ee
ec
01
05
f9
d0
fd
fe
02
26
02
14
09
05
18
03
ee
e6
14
fe
01
e7
ee
ff
d8
fd
2d
f7
d3
15
25
09
2c
0f
e0
07
10
03
f2
f3
ff
f8
01
df
ec
24
01
07
f2
10
03
01
fd
00
02
08
f7
0a
fc
04
ff
0f
09
0a
f6
f9
f1
fb
04
18
03
fd
f3
08
07
f1
f9
02
fc
fe
fd
f0
f6
02
09
fb
f9
f9
04
fd
03
04
ff
04
0e
ec
04
ef
08
ef
0c
05
f0
08
fc
01
0d
0b
f6
fc
07
0d
18
02
0b
0d
f3
20
ec
04
ec
f0
ef
ef
ef
f7
f1
08
fa
06
00
fc
09
05
fc
f2
f5
0a
12
f1
15
fc
fa
08
03
0e
f7
01
fc
fe
00
fd
01
fe
f0
f5
ed
04
f8
04
0c
f6
04
fa
fc
0b
f6
fb
ed
02
08
ff
0e
0d
0b
01
09
09
f6
ff
02
00
03
ed
08
04
f3
02
e6
f8
05
01
f7
0e
0b
08
f3
ff
13
02
fb
03
fc
06
00
0f
f8
ff
f6
09
03
f8
01
fa
0b
08
02
0f
ff
09
fa
ff
f4
07
ea
fd
fd
f2
07
fd
fd
0d
e9
f9
fd
f3
0c
f4
fe
04
ff
fc
12
0b
fa
15
f9
0a
f5
06
04
f4
fc
01
fd
dc
f9
f7
08
f8
0f
00
fb
08
fb
0b
f4
03
0a
08
f4
08
fe
04
0a
0a
10
f6
fe
0a
09
02
00
f5
fc
ff
fc
00
ef
f7
fc
04
f2
f7
0d
05
05
f5
fd
01
eb
f7
f4
08
16
00
ed
ff
01
f8
f9
ff
f3
01
03
f7
0c
fe
fe
f7
fe
f4
f8
08
03
fa
fe
03
00
0a
00
f8
03
fb
04
0b
07
12
f4
11
fc
0d
fe
f8
01
0c
05
f9
12
fe
fe
ec
f9
08
eb
fd
00
01
0a
1c
ef
f7
f3
f9
f3
e8
f6
04
0d
fb
00
0e
f6
0d
05
0b
0b
0f
f8
01
f0
03
ea
f1
0a
06
07
0a
ea
09
d3
36
e6
37
04
1e
ff
e8
1d
ea
1c
ea
02
fd
da
f6
fd
fb
f9
21
1d
1e
f4
ff
04
08
01
fd
18
ff
01
10
f4
f8
ef
f4
ff
fa
f5
07
0b
07
f5
07
03
07
f3
00
1a
ee
0b
f1
0c
07
29
02
f0
ff
f9
f0
0f
01
fe
f4
ed
17
0c
08
0c
02
0c
f9
f4
10
f8
f9
06
f6
fe
08
ee
f2
fe
e5
2e
0b
10
04
fa
00
ef
ec
f6
01
02
ee
f8
f1
ef
f7
15
05
fb
13
eb
e9
0f
fd
f8
00
fa
f5
fc
00
e3
03
0f
02
ef
fd
fd
16
11
f5
00
0b
0f
12
eb
ec
04
01
00
07
e7
20
e8
04
ed
01
fe
fd
22
f2
e6
f1
fa
f9
0f
f7
fc
fc
13
ff
f9
fc
00
0d
f8
f7
ee
e6
f5
f9
00
f2
e7
fe
f4
f8
ff
02
24
26
03
f6
1d
f3
04
18
0a
f1
e1
12
0c
fa
12
00
ec
fa
ff
0f
dc
e7
eb
0f
02
f0
05
01
fa
f7
0a
ea
fa
fe
07
f9
fa
fd
00
04
04
f7
01
f6
34
ee
f7
00
01
06
f9
f9
fe
04
02
09
fe
05
fd
2a
ff
03
0b
02
03
fa
00
f0
fa
f7
f2
f9
28
fd
12
0d
ef
fb
05
0f
05
19
0f
06
fd
0c
f6
18
e1
1a
fa
fb
f7
08
e8
ee
14
f9
09
f8
f3
04
02
0a
03
09
f5
13
01
0c
03
ec
03
06
21
0a
e3
fe
fa
f6
0f
02
f0
e9
fc
0e
1a
f1
fb
fd
f9
de
f5
ff
0d
06
e3
1c
f6
ea
fc
f8
24
13
05
00
f2
ef
13
f3
06
09
1a
fc
01
f1
d3
10
c7
fd
03
0a
ea
09
e3
f2
0c
06
19
d0
75
ea
f8
03
c7
e7
ef
fe
da
ef
ff
09
e4
0a
14
24
06
04
db
0a
17
20
fa
25
0a
14
eb
24
0d
27
d6
f5
f2
1a
f6
02
fd
fe
10
f0
f7
0c
08
0b
0d
e9
fa
f5
fe
0d
0c
0b
08
02
06
01
09
fe
03
fb
02
03
fd
06
e9
fe
03
0b
ef
10
0f
e7
05
ea
f1
20
16
fe
f1
04
0a
f8
0a
fa
06
0a
08
00
f7
f2
05
f7
f3
08
f3
0e
0a
03
fb
fb
13
fd
f5
07
02
ff
02
ff
e5
f9
04
11
fc
fb
09
f4
01
03
f7
02
f3
f5
11
f7
0a
fd
01
f4
0a
0d
13
04
0d
26
04
07
e9
04
03
11
f1
f3
f2
fe
0d
01
f8
0a
05
02
f4
f9
02
0b
00
fc
f4
08
11
1f
f7
17
0e
06
0c
f3
02
08
09
fd
0a
0c
0a
f4
fd
ff
f9
11
f0
ff
07
05
12
15
f5
f0
ed
f8
f0
0a
0c
ec
2b
1f
fa
f0
dd
f1
0d
ee
ea
17
11
0a
04
17
f8
e6
fc
00
09
01
f0
ee
00
fe
02
f3
ec
08
07
f1
01
fd
fd
f0
13
fa
11
13
f0
0b
0c
f1
fb
ef
08
0f
f9
f7
db
f4
01
09
24
02
00
12
fd
0b
fb
f8
01
06
f6
10
00
fe
14
05
f7
14
e8
19
ed
e8
f8
01
f4
17
13
00
d9
24
fd
01
06
10
13
f9
f4
06
ff
02
f3
0c
08
ef
0b
f2
fa
fd
f1
f9
fa
fb
0b
03
f3
10
08
0c
fb
f4
03
fd
02
07
eb
15
f1
f3
fa
f3
e8
0a
ff
fd
f7
09
f9
0b
f1
02
03
11
0a
02
03
f7
03
14
fd
f3
05
04
01
08
fc
12
f4
39
04
6c
00
f8
0b
f5
12
14
ee
f0
18
0c
e4
02
03
fa
f9
11
23
05
07
00
0a
05
f6
f9
0e
fc
fa
01
de
ea
f9
fa
ef
f7
fe
00
1f
fa
03
f6
12
0b
fc
f4
13
d0
18
e7
f8
f9
0d
f5
30
ff
0e
f9
ee
fc
fa
ee
04
e0
17
e0
4d
ec
05
04
f9
02
06
00
04
0b
e4
47
e0
ff
0f
ff
f6
17
0e
e1
d2
d8
20
ea
2d
27
f2
1d
f7
f3
16
fb
b8
e0
fe
f7
0b
f0
0b
08
14
10
f1
18
e9
0f
f3
0c
13
0f
01
02
00
07
12
52
09
03
fb
e9
f6
05
09
f5
03
fc
04
fc
f3
fb
02
04
f9
00
04
0d
f5
fe
f8
f6
01
fc
ff
03
ea
08
12
06
f8
f8
eb
f9
06
f9
fd
fe
f7
02
f7
ef
01
f1
01
f8
08
06
0e
04
f8
0f
01
e4
01
1c
08
e4
05
ff
fe
d7
34
f1
eb
13
eb
08
f6
f4
06
e1
03
00
fc
d5
f7
fe
c4
fa
0b
1a
ec
ef
f8
05
f5
06
0f
05
f8
53
02
13
f7
06
fe
fd
fd
01
00
f2
f3
fa
04
00
0d
f1
06
01
04
f8
03
03
fc
ff
11
f6
ff
fc
fe
f2
00
04
00
f5
f5
00
14
00
fe
f2
fc
05
f9
0e
19
0c
06
20
f8
fd
fb
0b
10
02
ea
fc
f9
f2
00
f5
00
fb
fb
fa
04
f8
fb
f9
08
06
00
fe
ff
f8
0b
0c
fd
02
ec
0a
01
ef
f4
fd
02
05
0e
06
15
fa
0a
0d
00
fd
e8
0d
00
f7
11
fc
f2
03
13
08
07
07
26
09
fa
07
f5
0b
07
ec
fe
fe
f7
05
f7
04
f8
f8
06
f1
ff
fb
14
03
07
fa
17
f8
fe
ed
04
04
f3
fc
01
09
0a
1e
fe
ff
f6
08
14
0d
f2
00
f9
f1
fd
f9
09
f9
f9
f9
f4
0d
f1
f4
ef
fa
00
04
fb
fa
08
ff
fb
e8
61
02
0b
03
01
f4
fe
f4
f6
13
f3
02
ef
04
ff
02
fd
08
f5
ff
02
1b
05
ee
15
e9
03
07
06
07
e7
19
f9
06
f8
2b
1f
e6
0c
fe
cc
03
f4
00
ea
ff
ec
19
e4
0e
e6
03
fe
0e
eb
f1
e2
05
08
f8
01
0a
f7
30
27
6a
ee
fe
f3
eb
e8
e5
13
06
00
f3
f6
01
fc
14
df
01
ef
04
fc
f3
ee
03
08
f8
03
06
ef
07
00
fb
f8
04
27
02
fd
fd
f3
fb
04
0b
f9
1f
fc
07
f4
22
fe
03
fb
ea
f1
0e
ee
f4
f3
ea
ff
16
03
01
fc
fa
03
0e
0d
0b
0c
ff
03
fd
13
f6
f0
02
f8
f3
e7
12
0a
fb
fc
12
01
fc
e1
f3
f0
f1
07
ed
fc
ee
fd
fe
f9
f3
f7
f3
19
f7
18
09
08
ec
fb
02
13
f9
f0
0a
26
e7
fc
f7
f2
fe
f5
ec
01
e5
1c
28
fa
fc
fd
ee
fe
1e
fe
f0
15
06
10
fb
fb
eb
f7
0c
f1
14
33
f5
f5
f8
05
f0
f9
10
00
fa
00
04
fa
fa
02
01
0b
fd
02
fd
ff
04
fe
00
f7
03
05
05
ff
01
fd
08
fa
0c
01
fe
fa
01
04
00
fd
fa
f9
fb
f9
fa
ff
f6
05
fd
fd
fc
fa
fd
05
ff
fa
05
0a
18
e8
ec
fe
05
08
0c
14
04
08
01
08
e4
e6
eb
0d
18
0a
f8
13
0e
00
fe
02
07
16
10
f7
02
f5
03
10
e3
ee
10
0d
08
f7
03
05
ef
03
f8
03
ef
10
fc
07
fd
fb
fc
f6
f5
fc
06
f2
fd
f5
0d
03
07
0a
e7
fb
ee
07
fb
f8
f7
f7
f5
f5
03
13
05
f6
03
fc
06
f7
01
0c
f5
0e
f5
fa
fc
00
0b
fb
0f
0b
fa
04
06
02
04
02
03
fa
09
04
fe
f0
04
09
ff
f5
fa
00
fe
00
00
04
fa
f5
02
11
02
fa
f9
04
ee
10
ee
0d
ee
0d
f5
fe
10
fb
0a
fa
10
0c
0b
07
ff
07
07
fd
06
0d
fb
07
f1
f7
e0
f6
ff
00
14
f6
f6
1f
f9
f7
0b
0c
12
f6
f6
ff
f4
00
fc
f6
f3
16
18
1a
f4
db
fd
fe
e0
fc
f4
fb
08
0c
07
10
07
f2
ed
04
f3
fd
07
f1
0b
f8
0c
f8
02
f9
06
08
fc
06
09
08
ff
06
0c
00
03
f2
f4
f3
fd
05
07
1e
f6
fb
04
1d
f1
fc
07
f3
11
f1
f7
f4
fd
ef
ef
05
f6
05
02
ea
f6
f6
fe
06
10
f2
19
12
e7
02
dd
e2
f4
f8
e1
1c
15
fc
f5
f7
f6
1b
03
01
49
e4
ed
f6
fe
17
00
01
05
07
09
21
20
df
11
fd
10
f8
1c
01
0e
ed
fa
de
01
0b
e8
02
00
08
09
f6
fc
00
ff
f7
09
fe
05
02
00
f7
f9
fa
05
01
00
f3
05
fb
fe
04
02
07
ff
13
ff
f4
00
07
05
08
fb
02
fc
08
fc
00
f7
0e
f9
e8
04
00
f4
24
21
f3
f8
0e
dc
2c
20
ef
e7
fb
df
06
df
12
1a
1a
fa
db
18
06
f9
19
fe
ff
22
01
26
f4
14
f1
00
f7
18
ec
0e
f8
f9
13
08
09
f9
e9
fc
02
08
02
f2
f5
06
f9
12
01
dd
04
00
06
02
f3
ff
fb
07
0a
04
09
fb
ee
07
06
05
04
18
27
f9
ff
04
07
f4
fd
fe
13
01
00
fd
13
0b
fb
fe
06
f6
f8
f6
fb
0e
ff
09
f7
f7
09
08
07
01
09
00
12
09
03
f8
f8
0c
f7
10
09
ff
f5
04
00
04
04
0a
01
f3
f8
02
17
05
f1
01
f3
ff
08
f8
f3
fc
00
01
fe
fe
f6
f1
05
fc
0c
ff
fe
0b
14
02
02
fa
ff
fa
fc
06
0b
10
01
fc
05
f7
03
02
00
02
f1
02
08
f9
ee
00
fb
00
ff
f9
fc
fb
fc
0d
0a
00
fb
0b
07
03
04
00
e8
ff
05
05
05
fc
fb
fb
f4
f4
0b
00
fa
05
09
ef
17
fa
fe
fb
13
0b
04
10
ec
ec
ff
07
f9
f9
0a
02
f5
fe
fd
fa
ee
fe
08
0d
f3
f4
06
0f
0d
fd
02
00
fc
05
f5
05
0d
0d
e8
0c
2c
0a
03
05
b6
07
b7
f8
f7
0a
f0
42
16
c7
f8
27
0d
16
f6
01
e9
23
11
06
0f
05
0b
16
fe
0a
24
de
fe
0f
0e
f5
0e
fc
06
e9
fa
fb
08
f7
fc
cb
0d
06
eb
02
0c
e0
fe
e5
1a
19
f2
f8
16
11
fd
03
06
e6
08
fb
e8
05
1a
05
ea
11
fb
fe
dd
00
f5
04
f5
eb
fd
02
fe
e8
03
19
fe
02
fe
0a
14
00
04
ec
ec
00
07
0a
09
f5
0b
01
fe
ff
1b
fd
ff
fd
f6
05
03
ff
f1
fd
f2
03
09
04
04
fb
00
f2
fa
f5
0b
0a
04
18
f4
06
12
02
01
fc
0e
fe
05
f6
f2
08
10
f4
f3
f9
f7
0a
0b
fe
fa
fe
10
05
0d
f5
01
0b
0a
0c
fb
f0
1a
01
01
03
fb
03
05
fe
df
f6
04
02
f6
f7
12
1b
07
ef
03
fb
10
f4
04
f7
ff
09
fa
fe
f5
00
f1
ed
0b
17
fc
0b
e2
08
ff
11
f4
13
fa
0d
08
06
fb
0d
18
f4
00
1e
e9
31
f8
f4
10
fc
fe
fa
06
0b
13
12
08
03
11
00
23
fd
0c
0a
04
e3
fd
ff
0b
01
ee
fb
f1
dc
03
fc
ea
f4
e5
0a
0b
ed
0b
ec
ff
0b
d2
da
07
5b
08
fb
fb
f1
f9
0b
06
14
1e
0c
e8
f2
11
04
1f
fd
f9
ef
0f
0e
00
05
f7
09
fc
17
ed
f9
f4
f4
f2
17
fd
f8
f8
16
fa
fd
0b
f3
01
08
00
07
14
f2
23
0d
fb
fe
1f
12
f7
f3
03
f1
f9
14
10
34
ec
2c
15
ee
01
fa
03
0b
e4
de
fe
f2
1b
04
f5
fe
fd
0b
f6
ee
f5
0b
03
fc
0a
fc
fd
ef
f8
04
ed
10
07
0a
f9
f8
f9
0a
0b
f7
0b
06
01
f9
35
0d
1c
d3
f3
e7
e7
12
fd
1e
f8
13
fb
0a
f0
fa
01
fe
0a
f6
18
0f
0c
04
05
f2
02
00
f7
fe
09
ff
f7
07
01
f2
0b
f1
03
fe
eb
04
07
fc
ff
12
0c
0c
ff
09
0e
fb
1f
f9
01
0f
f5
09
ff
08
f8
fc
03
f7
fc
04
fc
eb
05
fc
fe
05
06
fc
03
0c
fb
fc
03
fe
fa
0a
02
05
ff
fd
ff
f6
00
fe
0b
fb
01
07
05
01
1e
06
00
01
f0
ff
01
00
f7
02
04
01
00
09
0a
06
0a
08
03
0c
e3
fe
04
30
0e
16
fb
ea
08
0a
fe
01
fe
00
f9
f5
0a
13
16
09
0b
ef
ed
fc
f3
fd
07
f4
11
f3
09
0c
06
06
04
0a
ff
0c
16
f7
12
00
0e
fe
f7
fc
f1
e8
14
09
fa
f6
12
e9
0a
07
10
0b
09
fc
0d
0e
08
f8
ff
06
09
0d
0c
15
03
fb
fe
0a
1c
03
f7
0b
02
ff
f7
f6
08
f5
09
06
01
01
f1
04
09
fc
fb
00
0b
ff
10
f9
12
f4
0a
f7
f6
e3
f2
18
03
0b
0c
1b
13
ff
09
03
f8
ff
ee
07
17
05
f3
fa
06
08
07
ed
f2
0e
00
11
fc
0a
f4
df
03
f7
02
03
fc
e5
f0
1d
e2
1f
14
18
01
10
f7
e5
e8
03
0b
ff
07
ef
fb
17
ea
1d
04
fe
ff
00
f6
fa
ff
fe
ff
fb
01
05
ff
f7
05
f2
11
ee
fa
ee
f6
05
f8
06
f3
13
09
f5
f5
fb
f3
0d
ed
00
f7
1e
ec
ee
e1
03
de
04
19
04
09
03
26
99
3b
02
f3
14
f4
00
00
e2
1b
ec
ff
fb
09
06
08
08
1b
ec
02
f1
05
0b
e7
f0
08
04
e4
18
f3
09
f9
5c
09
f5
fd
fc
fa
f8
1b
03
fa
f6
ed
0f
fa
f6
2b
06
02
ee
e6
ea
08
0e
0a
f5
fb
f0
df
03
02
05
ea
f0
16
0d
f7
09
09
00
06
17
fb
00
03
07
00
ff
0f
fe
dc
0b
f3
f4
04
1e
09
fd
37
25
01
20
03
cf
e3
45
03
30
cf
e3
e9
f5
fd
2f
02
fd
db
fb
06
f7
00
ff
eb
fe
e0
f6
f8
f8
03
01
f6
f8
00
ef
f1
e1
06
fa
f2
fe
01
fc
09
fb
fb
08
f2
07
13
f7
04
06
04
fc
fe
04
02
f4
01
07
f3
ff
01
00
09
f8
f8
f3
06
07
0f
f8
06
f1
f1
12
0d
fb
0f
05
fc
08
ff
02
f3
0f
00
f9
e6
04
13
07
09
01
ea
05
ee
55
12
14
10
10
0b
f2
0b
1b
15
f3
ec
20
e7
0e
07
fa
1a
08
2e
f8
fd
ee
0e
0f
fd
de
01
d2
ea
0e
05
f6
ea
1f
ec
13
01
f5
06
ee
f7
06
00
0f
fd
f4
00
09
f8
0c
fd
fe
ee
19
21
f5
10
ef
fc
f0
fb
05
f1
fa
ef
f3
fd
09
12
20
02
e6
08
19
f5
f4
0c
00
1a
09
e6
0b
12
f4
04
03
00
fb
00
fd
06
0a
10
0d
00
fb
06
01
07
0f
fb
fb
fd
09
0a
06
01
fd
01
03
fb
11
f9
02
01
f3
03
ff
00
ff
01
06
08
07
05
00
07
fe
07
05
01
05
fd
0c
fe
0f
07
02
01
fb
f9
0c
02
f6
02
06
05
10
f2
0d
0a
03
04
03
fd
09
03
06
09
04
00
fa
f7
f5
fe
0b
fa
fe
f4
02
0b
0c
fa
01
02
fd
01
04
ff
f9
dc
06
f6
0d
f6
0b
05
15
26
19
d8
dc
e3
df
25
06
ef
29
c7
4b
e9
f0
ef
e1
1c
e4
00
eb
fe
ec
c8
fb
2b
0a
e7
e6
f4
f4
fb
f9
0e
20
0c
13
f1
d6
fb
10
ff
04
03
fc
00
05
03
05
09
ff
fe
00
01
fe
04
0d
04
06
fb
ff
f4
03
01
fc
01
09
fd
fc
01
02
04
fe
0c
f1
0e
02
06
02
05
05
0a
04
06
03
02
fa
05
02
ec
fd
fe
05
f0
0e
f9
f4
02
fe
fa
01
f5
00
ed
17
fe
05
09
f5
ff
04
ff
01
01
fe
02
e9
21
eb
0a
03
04
ec
07
0a
fd
fb
06
00
01
08
fd
f2
f9
ec
ff
ed
ff
05
08
f5
0f
fc
0c
0e
f3
0e
0d
ff
09
04
07
14
06
f9
e8
03
13
0a
f4
09
01
0f
07
07
08
f3
06
fd
fc
f5
fa
0a
0e
09
0b
fa
f2
06
fd
01
11
05
0d
fd
03
f5
e5
0b
f7
01
ff
0b
09
00
10
04
19
fc
ff
08
fb
0a
01
03
ff
ff
e7
05
fd
f3
00
08
12
fb
ed
07
04
18
f1
ff
fe
f9
0f
f5
fe
0f
0d
f7
03
fc
01
0c
f9
f8
08
02
f6
f6
02
02
0e
11
fb
fb
f8
16
f6
01
03
0a
f7
03
fa
0a
01
fb
ff
eb
fc
fa
0e
fc
04
f1
f5
f3
fe
f9
f6
02
01
02
fc
f4
f4
08
fe
ff
fa
f8
ee
f8
0b
00
09
f1
f6
0f
15
0b
f9
05
0d
09
fb
f3
fa
06
f7
0a
f4
0d
fd
0c
f6
f2
f8
0e
09
0c
f5
02
03
01
04
00
e6
08
05
fe
fb
fa
f7
00
fd
0b
02
0d
10
fd
f4
07
ec
10
ee
09
0a
fb
17
13
14
06
fb
01
f7
fe
f4
03
04
f9
01
fe
08
0b
08
fe
fa
08
ff
f2
14
f3
02
e5
0b
fa
fc
f5
09
0b
0b
f8
fe
0b
11
24
fd
0a
ed
01
fd
fe
ff
fe
07
03
fc
0b
fb
fc
f9
04
01
00
fb
03
f6
05
f6
17
07
fb
07
fc
0b
f8
0a
ff
08
fc
15
fc
04
01
fa
ff
ff
fc
07
0d
fc
f7
f7
f1
00
01
0e
0a
f5
10
04
f7
03
07
10
f9
fd
f4
f8
f3
f1
00
11
1e
f6
f7
fc
fb
02
f9
01
ec
ee
0a
03
23
0f
09
f9
05
00
e1
22
fa
ee
fd
f3
fe
f5
fd
fe
07
14
00
11
0e
ef
0f
03
02
fb
09
fc
fb
f3
fe
ef
fe
ef
0a
29
e3
fd
fe
ff
fa
fe
0d
fc
ee
05
f6
0c
fd
0a
02
2d
f6
f3
08
07
f5
ec
0e
f7
fe
f9
08
02
f5
06
0c
08
06
f9
fd
02
07
02
08
ff
f4
f7
03
0a
fa
05
fa
f5
03
f9
00
07
02
f6
fb
01
f3
12
f7
02
f4
01
ff
ef
f3
0b
f5
04
08
ff
fe
0f
0a
fd
fb
f6
f9
24
fb
fd
00
09
05
28
fe
ea
ec
fe
fb
0c
ee
05
ee
f9
0a
fd
00
f9
05
08
f7
21
f7
f9
ff
f7
fc
01
f5
f5
02
f0
fc
21
f4
12
00
04
f7
ed
00
f4
f9
1a
ee
11
0e
11
04
01
fe
f9
f3
b8
d5
fb
02
2a
dd
14
0d
e5
f5
d8
13
fc
01
0e
e2
0d
fc
1b
15
1e
dd
f4
0c
00
fc
f1
01
f3
e8
1e
0c
d3
08
fb
2f
1d
04
f9
5f
17
f7
f2
02
ea
ed
f3
0c
f2
04
f6
f7
eb
ff
09
07
06
f9
f6
06
e5
0a
fd
0c
02
03
ff
16
fc
02
15
ed
eb
f3
e4
f5
f1
0d
ec
02
fb
ed
04
ec
fb
f9
f1
1f
fe
25
ec
0d
fd
f3
16
0c
10
32
e7
14
fd
ff
ff
ec
fe
08
25
02
dd
16
08
3e
03
f3
03
fa
0b
f7
e0
fa
03
04
0e
f7
0c
06
28
0a
04
fc
e7
02
0c
0d
09
f5
05
11
f2
fe
00
09
fb
f8
f9
fb
08
f8
fb
fb
e8
fb
f2
eb
ff
f9
0e
01
04
0b
01
10
13
f9
06
02
09
0d
fc
08
17
0c
00
fc
13
12
f9
f9
01
f8
08
f4
f8
10
fe
fc
fc
03
ef
d7
14
f5
1b
14
f5
09
04
ec
f3
f1
f5
11
0d
11
e6
f4
fd
27
f5
12
08
0d
e6
fe
03
19
16
2d
11
e2
fc
e9
0e
f4
f6
09
1c
ed
ee
12
fc
fb
fa
0c
f9
ec
fc
03
fc
09
ee
11
16
08
18
f7
fd
00
ea
f5
e2
02
02
19
0c
fd
03
05
0a
f5
f9
e6
f5
0c
eb
f3
05
11
f1
0b
05
05
fd
0a
f0
e3
12
e8
13
f3
07
0e
f0
09
fe
07
0d
0e
0c
f6
fc
15
02
0b
f3
fb
0d
00
05
00
04
10
01
19
ff
f7
0e
00
fb
ff
ff
1c
04
08
09
0e
fb
02
0c
f2
f6
08
07
f5
f6
07
fa
ea
f0
0d
e9
fd
0b
0a
f1
04
f5
fc
12
ec
0d
15
14
f9
09
fa
0a
00
13
0d
fe
1c
07
f5
fc
1d
e8
f8
02
f8
13
0d
f6
ee
ec
fb
fb
39
f4
e4
00
f3
02
f8
00
ea
fc
0b
fb
04
02
fb
fc
02
f4
06
0b
fa
08
f7
fb
0a
ff
01
09
fe
09
07
f5
0f
f9
fb
fa
19
01
f3
06
f4
06
f6
fd
fc
04
00
f4
fe
0b
10
07
09
01
01
00
f2
ee
1e
04
26
0f
0c
f2
f6
f9
0d
05
f7
00
27
18
f0
fc
03
f3
17
f9
f5
0a
12
f7
0a
f4
f1
10
06
08
11
0b
1c
f0
f0
f9
ef
0d
f5
05
eb
02
09
ea
00
e8
07
0d
0b
11
0f
0d
e0
11
f2
da
f4
fc
12
1d
06
ec
10
fc
0a
07
fe
07
f7
0c
f2
f3
e9
06
28
08
e4
fa
0b
06
09
f5
f7
10
f3
1c
05
0e
00
fb
10
04
eb
12
00
00
06
fa
03
fd
f7
f5
0f
f0
03
f8
fb
f7
04
fc
f2
ff
ef
fd
f7
0a
ec
18
f4
f2
fb
19
00
f2
06
02
18
01
0d
fc
0a
11
f1
ff
f8
f8
0f
05
e8
f2
10
07
04
ed
0f
0a
fd
f5
1f
ff
05
01
32
f1
10
07
df
fd
25
e0
08
ef
1c
2b
05
f6
01
f8
17
e2
0c
e1
f9
e5
f7
f1
f7
f6
0a
07
10
07
25
ff
14
0a
f4
02
09
06
de
f4
0f
11
16
f3
12
f1
19
18
15
ee
0b
e8
1f
ff
ee
ee
06
fa
fc
f8
fe
fa
08
0e
0f
f4
f2
ee
11
05
f0
e8
f8
15
fc
00
ff
f4
de
f6
15
25
f5
e4
14
e7
e7
ee
f9
09
03
0b
f5
0f
05
f0
f6
08
fa
f0
00
ff
fd
f9
ff
05
02
fb
06
fb
ff
fe
f6
04
06
0a
02
02
fb
0e
f3
11
11
fd
f5
00
14
f5
f6
f8
f8
f0
01
fa
04
fd
fd
03
08
02
06
01
00
fb
fc
01
f3
0a
fb
0b
0b
02
05
ef
fd
f0
07
f6
02
f3
01
fb
04
fb
f7
fc
fc
09
fc
07
fd
04
01
09
0e
00
02
0a
f7
0a
fc
05
00
09
00
f7
0d
08
06
0a
09
0b
ff
0c
0a
00
01
fe
0d
02
00
fd
fb
09
00
09
ff
06
00
fa
ff
0d
f7
fe
01
ff
06
0b
03
ec
0a
05
f3
05
fa
0a
0b
fa
05
08
05
18
0a
f9
00
00
f9
0d
f6
e9
00
17
eb
fc
09
f7
01
ee
06
ff
fc
14
03
07
12
01
0c
f8
0d
e0
fc
0a
0a
e5
fe
02
05
0e
f6
eb
f7
0a
04
f0
e7
0e
fd
10
ec
f5
1f
01
fd
fa
fd
07
09
fc
f7
06
f4
f4
00
f6
f0
0f
0a
01
f8
05
09
f9
02
fa
14
05
fd
f8
ed
05
f2
00
0d
02
12
08
06
0d
00
01
ef
fe
fc
07
fc
ee
0b
fa
0f
08
f1
05
09
e1
db
ef
07
19
fd
1d
f6
ec
d5
fd
dd
2f
f0
19
05
95
db
08
e9
11
0c
15
ce
04
f8
ff
d1
ef
0a
0a
18
08
ff
1a
07
2b
19
fd
09
04
e7
f8
ff
fd
ed
fe
0b
f9
f5
15
ff
fd
36
f3
e1
fe
13
27
26
fb
07
18
07
16
11
ea
0d
fe
18
04
05
02
ff
1a
04
01
fd
0d
1b
0d
11
e7
05
f2
f8
1a
fc
08
0e
00
08
08
06
fe
05
07
fa
ec
fb
0e
fc
fc
02
fa
05
09
fa
08
f3
ff
09
fb
00
fa
fb
02
fb
21
fc
f6
08
00
02
02
03
f8
0d
04
fb
f6
0f
06
06
fe
f8
20
ff
11
0d
e8
0b
fa
16
03
03
f8
ff
fc
e0
0c
ee
ea
0f
0d
19
f1
fb
03
07
21
d3
23
fb
15
0e
fb
0a
ff
0b
f0
f9
19
f2
ee
f7
1c
e5
f5
f0
22
fe
0c
02
0f
fd
f0
00
ff
f5
07
07
fc
fa
22
f6
08
f4
00
19
f7
f9
0b
f3
00
11
ef
ff
23
18
0a
0d
f8
eb
dd
26
0f
fb
17
ed
01
00
f9
01
06
07
f4
fe
f5
ff
fb
fc
f5
d7
0d
f6
0a
02
e8
12
1d
e3
54
01
ef
f6
12
ed
e4
e9
f7
fc
03
f9
ef
ec
04
04
15
04
13
08
05
e7
08
09
e8
01
f3
1b
0c
fc
ed
ee
e2
ff
fa
03
19
00
0b
f9
db
fd
05
22
1e
00
f3
e4
e9
fb
fa
f3
f1
fc
2a
50
0d
fe
f9
f0
f6
fc
0d
01
17
08
17
f6
f3
ec
01
0d
ee
07
fd
fc
04
e9
f4
ee
f5
f0
10
f9
05
ea
ef
f0
f9
09
00
e7
06
f8
1d
21
e9
e1
04
ed
0f
00
08
16
1a
06
f6
0a
01
fa
f1
09
f7
30
00
08
ff
e6
ef
03
18
01
ea
fc
06
12
fe
eb
fe
09
0f
fa
1f
05
f6
0a
fe
07
f6
05
e8
f9
f3
f8
05
f0
07
14
f8
fc
fc
07
04
03
0e
19
05
08
f6
15
fc
02
f9
f9
07
fb
07
04
fd
07
ee
09
fc
09
10
ee
ee
08
0a
e5
fc
00
08
fc
0d
19
e6
20
09
1b
eb
00
ed
11
0c
e0
f5
d2
fe
ec
e5
18
f4
2d
0b
f0
08
ef
fb
f2
14
ee
fe
eb
10
10
ec
f9
1b
f4
fc
04
0d
ec
fb
eb
19
f8
ef
0a
06
fd
0b
f3
00
fd
f4
fd
f8
f4
00
fb
0c
fa
07
f9
f4
f6
ff
ff
fa
fd
f4
07
0a
fe
fe
fb
fc
fb
07
fe
01
fb
fd
f2
06
04
05
16
f8
fc
07
f2
fc
09
0a
ff
06
06
f3
fe
15
12
05
fe
00
fd
1d
fb
06
06
fb
fa
f7
07
fa
f5
e9
f6
fe
04
18
f4
ed
f8
f5
1d
06
1c
14
fc
f2
ff
f7
18
f6
f7
08
ea
f7
08
de
ff
10
0a
02
09
04
31
16
04
f4
0d
1a
06
1f
0f
00
e3
ee
fe
f5
0b
07
04
04
ec
f3
01
ed
17
01
ee
03
f6
f5
ef
14
f0
fa
eb
02
ec
f9
12
ef
0a
07
ee
e5
05
21
e9
f6
fa
f9
f8
08
08
fd
07
f6
09
0e
0d
fc
06
fd
08
fd
06
ff
02
f8
fb
ff
fa
00
00
03
fe
f2
04
06
0a
f1
f8
f9
fb
02
fb
03
f7
02
fb
fa
f4
ff
01
07
00
f7
f9
00
fd
06
0e
f1
df
11
27
ee
f2
fc
03
de
ec
fe
07
0c
fd
f6
f2
0b
05
fc
04
00
e7
f8
0c
37
f9
04
eb
fd
17
06
f4
f7
e7
f6
ec
12
fd
07
0c
0a
fe
02
1c
0d
ee
10
f2
03
01
f2
0a
f6
13
f0
1d
00
5b
13
e9
f5
08
07
0e
06
f4
e7
31
f4
da
08
04
f7
ee
e8
fe
0a
ff
e2
0c
09
ec
0e
01
f1
ef
fb
00
fd
f2
ff
f9
fc
f7
05
10
31
14
05
0f
fa
e3
0e
07
f8
f0
fd
48
de
11
01
11
e9
e7
eb
df
f7
0d
eb
01
2f
f8
fb
0c
09
ff
e2
f5
00
0f
1e
fb
f3
f3
fa
ef
f4
0c
22
23
f7
f6
11
f7
10
1b
ef
f4
f7
ef
03
08
10
01
07
04
f0
04
04
07
fa
f2
ff
0d
fe
0c
fd
16
fa
fd
f5
e9
19
f6
09
f3
e9
04
05
fc
eb
06
0e
f5
00
17
06
ff
10
0a
00
f1
02
1f
0b
fe
22
ec
f0
e7
04
ff
dc
0b
f7
00
01
05
f8
01
04
05
fe
13
f4
3c
f7
0a
fd
ee
0a
06
f6
f0
e0
00
0d
f7
df
fc
06
f8
05
07
f8
f7
ef
ed
fb
10
04
f1
fd
fc
fb
f0
ef
eb
f5
cb
18
05
23
dc
14
03
34
00
03
e5
f5
0d
f4
06
03
fc
fa
e7
01
ff
ef
26
03
0a
f3
f7
f5
0e
10
00
f7
03
fb
1f
fe
01
0e
02
17
f8
07
f0
f1
f7
ff
f9
09
02
06
02
ff
06
02
0c
f8
0c
0a
fa
01
05
f9
fe
f1
0f
fd
06
04
02
03
03
02
fb
02
01
fb
01
fd
05
0c
fb
fe
06
0d
00
00
16
ff
f5
ee
f6
02
0b
02
00
fd
fa
fb
12
00
12
f7
f1
16
f2
1b
10
0a
0e
0c
0b
f9
f9
01
02
02
16
04
07
08
00
12
0f
04
13
f2
00
fb
fa
0a
00
f0
f8
ff
32
f8
fd
06
f7
1b
f5
fb
05
fb
ed
f9
07
fd
15
f4
fb
ec
f8
05
04
fb
1c
fd
15
f6
03
fc
f8
0f
0c
ed
01
ec
ec
04
f9
0a
0e
ef
f7
f3
fa
e8
0c
10
0f
fd
f6
18
f8
0f
04
0b
0d
12
14
f6
02
f7
12
ee
00
ff
ee
f0
f5
fc
f9
f0
00
16
13
f5
f6
f9
16
04
12
f4
11
09
ed
18
09
e3
f6
fb
f2
f9
02
0a
13
17
12
1d
f6
ed
0a
1e
09
fa
bc
e4
c6
0e
15
f5
f0
02
16
ca
0d
d7
e8
e1
61
f2
fe
f8
15
1d
e2
fa
0a
16
e0
19
db
20
24
02
ff
e7
09
39
f1
eb
ee
f1
e0
17
0e
ec
eb
0a
f1
3a
f9
28
ef
12
02
13
ea
ce
1b
f0
05
ec
fe
fb
03
fc
fe
ff
f1
fe
1d
08
e3
00
07
e8
01
da
28
fd
f5
05
00
d3
ea
d9
1f
01
0c
44
d6
db
fd
36
f6
6e
c9
de
09
e2
26
0d
fa
25
00
d9
b7
f6
3e
2d
19
1d
0f
d7
2a
02
fc
fe
13
f0
f6
f8
fc
f1
0d
0b
f1
f3
03
f9
0e
ff
05
f9
de
15
fa
08
e3
fb
ef
fe
0f
ed
fe
f9
0f
ef
26
02
fb
09
fb
0f
02
07
fd
00
f2
fd
fe
0b
0d
09
f9
f8
f4
05
f0
13
fa
0e
e5
05
05
fb
0a
00
ea
18
f2
f5
1d
00
2c
fd
04
02
fe
f9
fb
ff
04
07
fc
01
06
01
fd
00
ff
fb
fc
07
07
00
10
f2
02
fb
07
04
fe
ff
ff
08
fe
f7
fc
fe
f3
fc
fd
0a
fc
fd
f8
01
fa
10
fa
fe
f6
01
03
ff
fd
e2
16
e4
ea
f7
fe
34
e9
28
1a
22
dd
04
f8
ea
16
17
e1
4e
fe
e0
fa
c9
1a
e6
2f
fa
fc
d8
e5
f1
03
dc
d5
2f
e2
fd
2a
ea
f2
fd
d1
ce
06
e9
eb
04
45
fe
ed
0b
00
f1
f2
09
08
12
fd
0a
e8
16
0d
f3
07
fa
0c
09
03
0a
ee
04
2a
03
06
0e
0b
f9
0a
05
ff
23
fb
f6
10
f4
f8
02
26
fd
fd
08
06
ff
fd
08
00
09
1c
ff
01
01
0e
df
05
0b
0a
f9
1f
fa
ec
ff
03
08
fe
fc
f0
04
08
fa
fb
0b
f5
1a
f5
f9
23
1a
f8
08
fa
1b
17
05
19
08
04
fd
03
09
fe
06
03
29
13
fb
fc
08
13
13
ef
f8
f1
08
dc
fd
04
0a
1e
e8
07
f2
e8
08
f6
07
e0
fd
0e
fb
f1
03
28
0c
f9
f9
0c
14
fc
00
01
05
fe
05
04
16
f1
20
0b
fd
08
e7
fd
fa
05
f7
08
fa
f1
00
fd
0b
f8
04
e6
fc
05
05
f8
fd
fd
03
01
03
08
f7
fa
04
fc
fe
fe
04
ea
06
05
08
f4
09
0b
0d
0a
0c
ec
fe
0e
fa
f9
ed
f2
08
07
fd
05
f6
04
f9
fa
fd
f9
fc
06
00
02
00
04
01
0a
0b
fb
f2
fb
03
02
f8
01
ff
00
0d
0e
04
04
07
fb
fc
f7
0c
0d
02
0a
fd
04
00
01
f8
08
f8
09
f6
05
fe
f1
0a
fe
fc
f8
ef
0d
fb
fa
15
f7
1f
14
e4
12
dd
16
1e
05
02
05
0b
01
e7
fa
06
d8
f6
12
17
00
f3
07
fc
f3
00
ff
e7
09
fd
f6
ef
11
01
1e
fd
05
00
07
ea
0f
f6
ff
14
06
12
0a
f5
10
ec
05
ef
fa
07
06
f4
ef
f1
fa
05
e9
08
fe
f4
00
21
00
f1
f4
18
ea
0e
10
00
fd
05
09
f1
06
f9
fa
0f
ea
fd
f8
03
09
00
09
06
04
09
fc
02
0f
0c
f7
03
16
fb
06
f2
fa
fe
08
07
f9
fd
f8
fb
0c
21
08
fa
f4
fe
0c
07
05
f6
16
f7
02
fb
07
0c
f5
f8
04
06
12
00
00
f9
ff
00
f2
07
0c
03
06
01
03
02
fd
0a
0a
fd
00
fe
06
f7
fc
03
06
ff
01
01
0a
f4
f4
01
02
fd
f3
fb
fa
fd
02
fd
f9
11
fa
00
fb
04
01
00
02
0a
fd
f6
fa
ed
fb
05
05
f4
f4
05
0f
f9
ff
01
0a
02
f6
fe
03
03
09
fd
0c
f5
06
f4
f5
11
f2
fb
e7
f8
01
ff
ed
f0
f9
ed
f6
08
07
05
12
fd
0d
02
07
33
fd
fc
fb
16
fd
0e
03
dc
f7
07
f4
ee
f5
04
07
03
05
fa
02
fa
0d
19
0a
0f
0e
fb
08
fb
ff
fc
09
fd
11
ef
f8
ff
05
fe
f6
fb
f7
fa
fb
e9
f5
ff
f2
f4
fc
f8
06
fe
03
fe
0d
fc
08
f9
06
0c
01
0a
ff
00
ea
05
0a
09
fe
01
07
ff
0b
fb
04
ec
fc
02
fd
05
16
fc
fa
f6
03
02
03
07
09
f7
0b
05
fc
06
fe
f7
21
f9
01
f3
f4
f9
19
f1
eb
19
06
fa
f0
23
ef
eb
e3
df
fd
0a
03
fa
13
05
f7
00
02
06
f4
f7
02
01
0d
ea
0e
f0
30
fb
03
fd
f7
f7
21
1e
1b
01
03
f3
f6
0b
0c
ee
09
f8
02
ef
f9
f6
08
ea
04
02
f2
08
fd
0b
f9
fe
f1
df
07
1b
15
13
03
f4
f0
04
00
06
06
f2
eb
f7
07
07
f1
f9
14
1b
f1
e9
f9
01
f3
15
e0
03
fa
fb
f5
00
05
1a
f8
05
03
fb
f2
f7
02
f9
01
fa
f2
fe
fd
09
ee
f2
f7
f1
fd
fd
fd
0d
f1
06
02
ea
02
07
04
fd
ff
01
fc
e3
ff
fa
0f
fd
f9
fa
fc
f6
fe
00
f4
ff
03
02
f6
05
f4
0d
01
01
10
f5
05
f9
00
06
05
f7
ee
05
fe
f5
03
00
fc
00
0a
ec
0d
04
f2
ef
02
07
04
fb
f0
fa
f8
06
f5
fe
12
f1
f1
f3
f5
00
0a
1d
e3
0f
2d
fc
2e
04
ed
b7
0e
1a
26
fe
f9
fa
00
01
fc
f9
e4
ff
0c
04
0d
10
10
dd
f7
19
30
f2
f7
e4
e9
ec
ef
07
f9
fa
f5
03
29
11
13
eb
f0
e5
fc
03
f9
00
0a
f6
fa
1a
0e
e4
05
31
1d
f7
14
1a
f6
fa
1b
f3
09
06
02
03
e4
ef
f6
fc
1e
d4
0f
fc
0f
10
0a
0b
ee
e9
13
13
f7
f2
dc
0b
0a
f2
f9
25
fc
12
0e
f9
15
fd
ee
0d
1c
f7
f6
10
f5
fb
1b
fc
1b
0a
0f
07
32
f7
de
11
ec
f5
0a
09
02
e3
f3
f7
04
ef
07
ec
0a
f0
f8
e0
05
f5
0b
fe
fe
00
21
04
fc
fe
05
26
fe
fc
09
f9
07
fd
0b
f0
f7
00
07
ee
f1
fa
13
07
f8
f9
0c
04
18
fe
fd
f5
13
f3
0b
01
0b
ff
f9
0e
16
01
fe
fb
01
00
fc
09
f2
e5
07
08
0e
0d
00
e0
eb
0d
04
ec
f2
f6
e6
f4
09
06
f9
f4
eb
fe
05
ea
fb
01
09
f8
0d
fd
f0
04
f9
3a
0c
0a
19
09
1a
eb
11
f0
fe
01
06
16
ee
fd
09
07
02
f3
fa
04
1b
0a
f3
f6
04
00
fe
02
04
f7
0c
ef
01
03
fa
03
fc
fc
0c
f4
1d
0c
ff
fb
f3
03
0b
0a
fc
01
ff
07
fc
05
0d
f5
0b
06
f4
06
08
07
f1
f0
fe
02
f7
fd
02
ec
f8
f5
1e
01
15
e3
f1
16
0c
f4
f3
f2
fd
f6
0b
02
06
06
fb
04
17
00
05
1d
e3
f7
df
15
1f
19
fe
e8
01
01
dd
03
fb
07
5d
ff
e6
05
fa
05
d3
07
00
fc
f4
12
04
01
f2
fa
fd
f3
14
03
05
f9
03
f9
fc
06
0a
f0
04
fa
ea
06
fa
08
01
fa
f6
f8
fb
01
f9
f3
ff
10
f7
ff
03
fc
0f
06
01
f6
0b
fc
1b
fa
03
c9
f9
07
0b
11
fe
fe
ea
ff
f0
fd
06
04
04
f4
f8
07
fe
f6
f3
f8
dc
ff
06
09
17
fa
1b
06
09
00
f6
18
03
f9
16
fa
00
f5
0d
f7
03
11
07
02
fa
ef
04
df
fc
14
ee
03
05
fd
f7
0c
e7
00
fa
25
02
07
19
ed
e4
23
05
ef
f6
04
08
02
12
fe
f2
1b
ee
08
16
19
00
fd
05
10
06
1e
fb
ef
0f
1c
1f
0b
27
1d
f4
2d
02
e9
00
ee
db
f6
2e
df
03
10
fe
12
f7
d5
02
f8
0a
09
ff
f7
e9
f3
0b
fb
f6
09
f9
e9
0a
ff
f7
29
ef
01
e7
f4
fa
f8
b1
fc
0b
fd
01
05
02
04
04
fc
03
f7
0a
00
ff
fa
01
02
fc
01
08
02
fd
0d
00
fb
03
fc
09
fd
03
f8
0b
03
f5
09
01
14
fe
09
fa
ff
02
01
03
08
f7
03
f0
fb
f7
f8
f0
07
15
11
11
29
f6
02
32
f3
07
ed
e6
f7
05
13
f2
d9
f2
0b
ef
01
db
d4
f0
0a
0b
13
fd
17
fa
f8
26
f9
f9
f1
fa
07
13
fd
fc
eb
ed
04
e7
00
0f
12
e9
00
f5
ff
e7
f2
fb
fd
00
0d
ff
fc
03
e8
f3
11
f4
0c
17
03
04
ec
e9
f5
18
06
f5
ec
0b
0f
f6
17
ec
ec
ff
03
0e
f8
11
f5
e6
fa
0c
07
f8
f8
06
ff
f8
06
f2
0c
f8
09
ff
f5
fc
0a
06
0b
14
fb
fa
ff
13
1b
21
f6
f0
0c
ff
1c
1f
f5
0e
0d
ec
e9
fe
f1
f1
1b
f3
ea
ff
fa
0a
ef
05
05
00
fa
08
0c
0a
04
04
0a
01
03
f5
1c
22
f6
ef
24
03
ff
e7
03
0d
07
0a
fd
06
14
f4
f7
12
ee
1e
10
14
07
00
f2
00
02
f5
16
f9
f7
1b
ee
1c
03
f6
0a
03
0c
fd
fb
f9
f5
07
f2
fb
fd
f6
02
09
06
f1
1a
f7
06
ff
fa
f4
ff
01
f3
00
01
f7
f4
fd
fc
00
f4
04
0a
e8
fe
fd
fb
fd
03
fb
fc
15
fc
12
ea
04
05
09
03
fd
f6
f9
07
fa
f9
06
fb
fd
02
05
01
f4
fe
01
f2
00
f7
01
10
0e
f9
0b
f5
f9
0a
0a
f3
f7
0d
fd
0b
f7
f6
f9
04
ff
0a
0b
14
05
04
fd
fe
01
01
f7
fe
fb
00
fe
f5
20
fb
04
03
fc
05
0d
11
02
f9
fc
01
02
f7
12
f3
04
fd
05
03
01
fc
fa
fe
fa
0a
fe
ec
fa
f1
fa
0a
fb
fe
00
fd
f9
06
fe
13
f8
fe
ee
1a
0c
fe
05
f1
1a
0b
02
fd
10
18
02
30
e8
13
fd
fa
0b
fb
fe
ee
f1
0a
fc
f6
ff
11
01
09
01
03
09
ff
f6
07
09
03
01
11
1d
08
fc
1e
fb
f4
f6
ee
01
08
03
f0
00
fb
fb
04
00
04
02
f1
06
0b
0d
e9
00
08
02
fb
05
00
ee
13
07
ff
02
fa
fa
0a
10
fb
f9
fa
00
fd
0a
1a
14
f5
06
fb
f8
07
fe
f0
0d
00
fe
fb
ff
07
eb
f3
f8
07
ff
11
e3
1c
11
f7
02
f6
e6
30
fc
08
12
ed
ec
1c
05
0f
ed
f8
1c
f4
12
e5
00
ee
f1
f4
05
06
02
fb
16
04
f9
fd
f0
e8
f2
e9
07
06
0d
fd
fc
18
ee
00
ed
ec
f2
18
0f
45
de
1d
f2
d3
e1
f2
12
f8
fd
09
fe
26
e6
e8
f1
f5
0d
f6
06
57
05
f1
29
f0
d4
f5
38
f4
eb
04
09
ee
eb
fa
f1
e7
d6
fe
fc
e7
16
ff
cc
08
19
d2
1f
18
fb
1a
3a
ea
0d
12
06
e0
0a
14
01
d1
06
fe
f7
ea
e8
0a
d8
e8
fa
37
fe
1a
e5
08
02
ec
03
02
f8
19
08
e2
0b
00
05
f4
ff
17
12
01
08
0d
fc
06
f5
f3
ec
f2
f7
06
13
f2
15
d9
f1
09
81
e9
02
e6
15
05
fe
f9
df
07
fe
f1
02
0b
fe
04
04
07
fb
04
f4
ee
12
07
ff
ed
09
02
06
e4
0b
f8
e9
f8
04
e9
ee
fa
f8
01
f1
f3
f2
dc
11
eb
21
fd
ea
1a
05
fb
fc
0d
f1
ff
f6
f8
0f
f9
f1
16
f8
03
fc
04
02
fb
13
0a
04
fb
05
f3
fd
ef
16
09
fc
f9
1a
f3
03
ef
fa
f4
06
04
16
f1
03
f9
fa
15
fa
f5
05
0d
fc
00
f4
f7
fc
f8
ff
04
03
f2
07
07
0c
0c
01
ff
fd
0e
09
10
09
e9
f5
f0
e9
e8
f8
01
f7
fb
09
fd
ec
dc
09
11
f1
0a
05
fa
f1
0e
14
14
f0
f8
f8
e7
02
0c
03
f4
fe
12
d3
05
fc
07
f2
ff
17
04
f5
fb
fe
27
01
07
0c
e2
fa
e9
0a
00
17
16
ee
09
03
04
e9
06
ff
f5
e7
f2
f7
03
04
ea
1c
d5
ec
f6
f6
d2
dc
07
0a
f3
df
ec
f8
22
f5
d8
31
03
05
09
02
f3
1c
f3
16
0a
14
fb
15
00
2f
06
05
fc
15
fa
fc
fa
f9
18
04
07
0f
05
f9
f5
02
fd
04
f6
07
f7
fd
fb
f6
0a
ff
06
0c
f4
06
ff
fb
0a
fe
01
0d
0b
f3
09
f0
01
f7
fa
fb
fe
08
17
e1
29
fa
0b
05
08
0a
ee
f8
03
ea
f2
0b
ed
01
10
03
f3
fb
0d
f3
02
0b
0f
ea
ee
f7
f8
09
06
01
f9
0c
1a
f8
02
fe
fa
00
08
f7
05
fa
fd
10
0b
0f
0e
ec
f8
dc
03
00
09
fe
0b
fe
05
fe
f8
0a
fe
13
fb
f9
f9
0b
0c
fd
ed
04
07
f9
ec
e3
e3
0a
00
f7
f7
01
ff
09
ff
fd
f2
06
fa
ff
0e
fc
ef
02
0a
09
ff
fc
08
fa
f8
fb
fe
f8
f5
fd
f7
f3
11
fb
f2
0b
02
f1
f3
04
14
f1
13
08
fa
00
e6
ee
eb
fe
fb
0c
e0
fb
fa
05
f9
ff
f1
0b
f2
ef
f2
01
0c
fa
fb
04
0c
f5
19
e4
f4
ed
f8
dd
fa
0b
ed
f9
18
1c
ec
f5
e3
db
23
ee
ec
f7
fe
01
0d
ef
23
f3
e8
27
ec
ff
00
f3
00
ee
ff
23
f5
21
01
02
fb
f2
e4
1e
19
fd
ff
12
f7
ff
11
fc
fc
06
ef
05
09
00
04
f6
fb
04
16
00
07
fa
01
09
f7
f0
f5
fd
fa
05
f4
05
fe
13
f2
ff
fc
00
f8
fa
f6
fe
08
f0
f8
fa
f1
09
05
02
ff
12
fc
fc
f5
fa
02
f4
fe
0d
fe
dd
17
0b
f8
f5
f6
00
0c
fb
f1
ff
fb
fc
00
fd
0a
02
fe
12
e4
fb
f1
fc
f4
0a
fc
08
00
ed
03
f8
f9
fb
00
09
07
f9
fe
05
19
0a
0b
1a
ed
f5
09
04
e9
0a
f3
05
f1
fe
f9
ea
fc
0b
07
fd
ef
08
f7
0f
f3
fc
0d
f0
0f
f6
ff
fe
0d
f6
01
06
fc
f9
fd
f7
06
fc
09
fd
f0
fb
f9
05
01
05
09
e3
07
0d
f6
05
f9
f9
02
ff
ff
01
f4
06
06
fe
07
08
05
fb
08
f6
f9
04
fa
09
09
fc
fb
f9
fc
07
fa
f7
f7
fe
fb
f9
06
07
06
15
0f
f1
fe
00
00
10
2e
f3
fb
0b
ec
05
fc
f3
e6
0d
09
0b
16
f9
0d
08
35
ce
1b
0b
ff
f6
04
20
07
f0
0d
05
fc
0f
22
16
fc
f7
ed
ea
18
0e
fd
f7
01
f4
03
f1
ee
f9
15
ec
e2
fa
02
08
d6
05
15
0b
fa
00
09
07
e8
f8
17
04
e1
f1
fc
e7
00
f5
f6
01
e3
16
07
1d
fd
12
0e
ef
0e
fd
fd
fd
18
15
05
03
fe
ff
07
d1
f7
e8
f8
0e
1b
f1
05
08
09
07
fb
f1
e9
fe
30
12
c5
f2
1e
e6
26
03
f3
ed
11
fb
f6
e9
e1
f3
09
10
e0
fa
f8
07
f3
10
f5
07
06
10
e6
0a
11
0b
e1
10
e7
2f
00
06
0f
f6
0a
11
f6
f8
f8
ff
02
f9
04
05
f8
05
f9
f0
11
ff
04
f9
0c
f6
05
09
fe
ef
06
01
fc
05
05
10
12
05
01
18
fd
03
03
15
fe
f8
ed
f1
fe
f3
e8
fc
ea
08
ea
e2
18
e7
38
0b
e5
ed
fe
fc
f4
fc
e2
f8
01
02
00
ee
03
2e
41
fa
f3
1f
1b
ec
06
ee
08
23
e1
e7
7d
f7
09
f5
e3
03
d1
e1
df
0f
e9
f2
fd
ef
04
02
09
00
01
f8
03
02
f4
f5
f3
09
fb
06
fa
f9
fd
01
fd
fb
f4
01
00
ff
fe
f7
1a
06
0d
03
f5
0b
f9
0d
f9
fa
f9
04
fe
f3
ff
f7
fb
05
f7
04
e0
ee
11
f0
01
14
f2
0a
f4
0a
ed
0b
ee
e2
f6
06
fa
0a
0f
fd
08
f8
f0
ff
00
f2
07
f2
ff
fa
fb
0e
04
fa
fe
08
1a
f7
17
0e
fe
18
ed
0b
f1
f5
f2
f7
f4
11
00
04
ff
fc
f6
05
fd
05
fe
03
fd
e8
0c
f3
ff
01
f0
f8
06
f8
f7
fa
fd
ea
0b
0a
02
ff
fa
01
fc
ec
1d
03
19
f8
05
f6
16
fd
04
f8
09
00
fc
05
05
02
14
04
17
1a
04
e9
fc
0d
04
fc
f2
02
22
00
05
16
12
1a
fc
09
fc
0d
02
f1
15
f9
35
07
05
1b
ff
cb
fc
05
24
2d
13
16
0c
10
08
06
ff
07
f3
ef
fb
f5
f9
f6
08
f2
09
f9
0d
ff
f7
05
f8
f5
f6
fd
00
05
00
fe
f2
11
fe
ed
00
13
1a
fd
fd
f5
fe
f8
f0
ff
ec
ff
07
f9
f2
fe
01
ef
f6
00
fa
fd
fe
f5
f3
0c
f8
10
11
0b
04
fc
e1
0b
0b
e1
e9
e2
fd
01
f3
f8
11
2b
d3
16
e9
0b
f6
f3
f8
f5
05
04
f1
0d
03
f3
30
ec
06
0d
11
01
06
18
ee
02
f5
03
01
fe
03
04
05
0e
f0
ef
fd
f8
f7
ff
08
08
f3
ec
fa
06
fd
0e
ed
fa
fd
05
09
da
07
f5
08
f1
e9
f5
06
04
09
e5
09
06
f6
0c
f5
f7
f3
06
08
f1
fe
12
ed
fb
f3
f4
00
02
09
0e
07
de
0a
05
f3
ee
19
f6
0b
08
02
ef
ea
07
eb
24
0d
e2
fa
db
01
0d
ef
f8
f8
f0
fe
01
f2
05
fb
05
07
07
13
ea
f3
12
11
0f
03
05
ff
f6
fd
10
08
08
fe
f7
f4
08
08
08
00
15
10
01
fe
05
10
0c
e9
16
fa
10
11
14
02
01
ef
fd
06
f4
19
0d
11
f4
03
09
12
00
fd
02
01
fe
f8
03
fa
03
f7
fc
ff
fd
f0
00
02
01
01
00
0a
00
fe
02
f9
dd
f9
fa
f6
f5
fd
f3
04
fd
e5
f5
11
f3
e5
08
0c
f8
fb
f3
09
0a
25
0a
0c
0c
1f
fb
f9
11
16
fb
f9
f0
0b
f6
fb
f9
ee
0d
f4
ee
07
f2
11
18
ed
f9
0e
10
09
03
07
f2
f4
05
16
05
02
11
0f
fc
e8
11
eb
fc
00
ff
06
ef
12
f0
f7
04
09
f5
0c
0b
f3
f5
0c
fc
08
f8
05
fa
ff
f6
07
f8
0a
ff
fa
fe
01
fd
f9
fd
ff
02
fb
f8
f7
04
f5
01
f7
fc
00
04
f4
0f
05
02
05
00
0a
04
f4
00
04
07
00
05
02
fc
09
f6
03
fb
23
fa
f3
00
f3
a0
0c
02
36
e6
0a
fc
24
f2
c2
b7
fe
12
e2
01
01
06
e0
13
10
1c
00
ef
13
f1
14
17
06
e4
08
00
f4
0f
f3
f8
eb
16
f2
f3
f6
04
0c
5d
04
fb
fc
04
ea
0a
0a
0a
ec
ef
04
08
fe
0a
03
02
16
09
f0
f2
fe
fc
02
e7
fd
ef
02
fe
0c
f2
12
07
12
01
fe
0e
eb
f3
26
eb
f1
f4
0a
f3
e4
01
f6
1a
10
fa
f6
f7
fe
f0
fa
0b
fb
05
01
04
04
f5
fc
07
00
fe
fe
f5
fd
fe
0b
f2
05
f8
f8
08
15
f4
0a
f4
0b
fe
08
f7
fb
0b
f5
f5
06
03
02
fd
fc
ff
00
06
02
f2
ff
07
08
fe
f2
fc
00
f8
f8
fd
06
09
10
04
fe
fe
fc
06
ff
04
fd
f6
fd
00
fb
11
0f
0f
f9
f6
08
02
ef
07
ff
ff
0e
f7
f3
fd
fe
0a
03
08
03
19
02
15
06
fa
f8
00
f3
06
11
13
24
ef
f1
ec
00
f2
e4
ff
11
da
fa
15
00
0c
f0
04
e6
07
1b
09
fc
f1
2f
00
0d
e4
fc
f1
2e
06
f5
f9
00
01
fd
e2
00
ed
04
01
02
05
06
1a
fd
05
09
03
05
01
0b
04
fa
02
fd
04
07
07
04
07
06
0c
03
0e
fc
0c
00
10
03
f9
02
0f
fd
00
07
09
0a
04
fc
05
06
fd
01
07
06
02
ee
2f
f7
17
e4
07
01
00
09
10
ee
ff
f1
f9
fe
fb
f5
03
f8
fb
fe
01
04
ed
08
f6
fb
fc
fa
1e
05
fb
02
f1
ff
fd
fd
f2
e9
fa
fd
cb
fe
03
f6
07
04
07
e2
fd
0b
13
fb
0c
f3
06
ef
e8
fc
00
f4
fc
0f
19
1b
07
02
16
fc
fc
ec
e4
f4
ee
f5
13
13
10
03
d8
fc
00
16
f8
e6
24
27
00
f8
13
f0
0a
21
1b
f7
0b
00
02
fb
05
07
f6
03
05
1a
07
0b
fd
08
ef
02
06
0b
e5
00
f9
05
fc
04
fd
02
fd
fc
0d
00
fe
f6
fe
0c
09
fb
07
07
f3
12
f2
fb
0a
f6
ff
0d
ff
fe
04
0b
fb
10
f9
ff
fd
07
f6
0f
ec
fc
ef
fa
ff
f5
04
f5
fb
0e
00
f2
f9
13
f0
03
ef
03
07
14
0c
04
04
01
03
f9
1b
fa
09
05
f4
fb
02
f3
03
ef
02
f9
fe
11
f8
f8
fc
0f
f1
08
00
f8
fa
fe
07
09
ff
fd
0c
00
f9
04
fc
fb
09
04
10
03
04
e8
f1
0c
00
f3
08
f9
17
00
fe
ff
fb
fd
02
0f
ff
02
15
f6
fd
06
14
00
03
11
13
15
0b
fe
ed
df
f1
06
04
fb
f9
01
f8
f2
f2
17
fd
00
08
f6
fd
fc
e6
ed
0c
2e
ff
06
21
1c
04
fb
f0
ef
0e
0e
f3
fa
f8
06
07
03
01
f1
02
0a
ff
0e
f4
ee
06
fe
f3
02
17
ff
0a
1b
fa
11
f6
ff
08
fd
05
fa
e9
01
09
00
f1
14
0a
f8
01
05
f1
03
fa
f5
f6
18
04
08
f6
fe
f6
04
01
01
04
00
f5
0f
01
ea
05
0f
f5
d6
f9
0c
00
fc
fa
0a
22
ee
f5
f3
0b
0d
fb
04
07
ea
2d
0b
eb
09
07
07
ee
fb
0c
13
03
0f
03
34
ec
0c
05
fc
10
08
ed
10
e6
04
f4
04
f9
f9
00
08
ee
03
00
09
07
fe
fe
0d
07
01
01
08
03
eb
02
fc
ff
06
02
00
0b
e8
10
03
fe
f8
fb
e7
13
e9
ff
02
fb
f2
08
f8
fc
00
07
0a
08
0b
fe
ee
f5
01
0a
0e
fd
f2
f9
36
07
fc
07
03
f0
f4
07
f3
fa
ed
f6
fc
f2
18
ea
fc
02
f7
16
fe
17
13
05
e5
fc
02
f7
fa
08
01
f9
eb
f6
ee
fc
f9
0a
f6
06
08
03
ea
16
d7
de
43
f7
ee
e4
0a
f7
36
e4
2b
16
12
10
e9
fd
07
10
f7
fe
0e
02
f7
fd
01
ee
04
ee
d2
09
ff
e9
e8
e5
f6
ff
2e
e6
07
22
04
fc
06
05
09
07
f6
e0
f4
f1
04
fc
f6
f5
08
ec
03
fc
da
02
f6
00
f1
fe
ef
fd
10
0b
01
fd
01
05
10
03
02
0c
01
1d
e5
01
f0
ff
fa
04
fb
f8
fe
04
09
fc
01
0b
f1
04
fa
06
27
15
f4
f3
04
f7
05
fd
07
ff
e8
02
07
02
f3
f3
fb
00
09
f8
f8
f0
ea
f2
e8
f6
04
f6
13
fe
fa
fb
f6
fc
01
f4
fe
05
04
15
f5
08
17
e1
1b
02
f6
05
18
df
06
06
ed
f0
f6
0d
f2
f5
f2
0a
fa
05
07
00
f9
fc
f9
ff
0e
f5
10
fe
00
f3
04
ff
0b
e3
f0
fd
12
08
fb
10
f8
f9
f4
f0
fc
fc
1a
f2
31
eb
0a
13
15
2f
15
fc
c8
02
07
13
ee
0b
00
01
e2
00
fa
03
f0
08
02
f4
05
f2
07
fe
4c
09
ef
24
e9
ed
eb
e3
f8
33
f8
fb
f4
f4
17
d2
eb
1d
04
07
f2
01
1f
06
04
25
ef
03
cd
ff
18
0e
11
11
10
e5
f0
f8
f5
0d
f2
0d
00
e4
07
fb
03
08
01
03
fd
f2
26
fa
fe
0a
02
18
ed
03
06
f4
f4
02
fe
0f
f9
fa
0e
1b
ff
08
f9
14
e7
f6
1b
0b
14
f4
08
f4
05
08
f9
00
18
fc
f9
00
f2
ff
01
03
1b
1c
02
01
ea
f0
12
03
07
e8
0c
f8
f2
f7
fa
fc
f8
fe
f9
e8
02
f7
fa
f5
0f
06
f1
29
de
f6
eb
ef
e7
01
19
09
f2
d6
eb
08
df
11
ef
f1
f9
0d
02
f1
1d
fa
06
08
f5
05
f2
d7
5f
fc
0c
20
38
fd
f4
ea
11
f9
f6
fc
06
ea
fc
06
01
18
03
f2
00
0a
0a
0d
f1
10
03
04
15
07
07
0b
0e
fd
04
ff
f8
01
13
1a
fe
20
fb
08
f0
07
1c
13
f3
ff
f8
07
f2
ef
ff
f3
0e
f7
ef
fd
fc
fd
00
f8
07
f8
f8
fb
05
00
06
ff
fb
03
f3
fe
f3
05
fe
fd
f4
fa
fc
f0
fe
f7
02
fc
0c
03
fd
0d
03
02
fe
03
0b
00
fd
f8
16
03
04
f5
f6
05
0a
f5
fc
02
0b
0b
19
fe
01
07
ff
f4
f9
fc
fc
ff
06
05
ef
fa
da
0a
1e
21
f8
0e
fd
fd
f8
fd
f8
ff
09
1f
f3
0e
f4
17
0b
05
04
18
f3
12
ed
17
0b
f9
fb
1f
10
0e
eb
11
04
fa
06
18
00
f0
eb
fc
f3
fc
0a
fe
04
fa
f4
04
fc
05
05
f4
fc
f4
f7
03
02
f5
10
03
16
13
0d
0e
ef
f8
0e
f2
01
0d
04
0a
fb
fd
fd
0d
f1
fd
f4
ff
04
0f
fc
fd
fc
fa
f2
09
fc
fe
03
fd
05
ea
fa
ed
0a
03
f3
01
f7
fb
02
01
0f
f8
07
08
fc
f9
f8
fc
0e
f2
0a
04
f4
09
16
0a
ff
fc
fd
06
01
09
f4
fe
f0
03
fb
fb
fa
03
00
03
fd
f3
01
08
f4
03
0e
06
03
f9
f8
fd
02
ff
f6
03
ff
fb
07
05
0f
f7
00
fb
fb
04
0a
fe
ff
03
f6
04
02
fc
02
fc
f8
fd
0b
07
05
f9
0c
09
01
f8
09
f6
0d
04
0d
0c
f8
04
f9
00
02
01
f2
0b
fb
fe
06
f9
f6
04
04
09
fa
ff
f2
fe
fc
09
f3
1b
ff
05
01
02
f3
00
00
0b
0e
ff
f4
f6
f6
f8
05
04
f9
ff
09
04
ff
f8
07
08
19
fb
fd
ef
f7
10
f1
01
ee
f3
ed
ea
04
13
f5
fc
f6
ff
10
f1
01
de
01
07
ec
12
07
02
05
04
10
f7
ec
fa
12
03
14
fb
f5
11
f6
e9
fc
0d
05
0a
ed
ff
fe
0d
ef
07
f7
04
04
0e
06
01
00
15
09
eb
04
fe
f4
f8
ee
0a
fd
02
f8
0d
ff
05
fc
fc
ff
0a
fc
06
fc
00
07
13
0b
f9
04
f7
08
00
0c
f9
0d
fb
ed
02
ee
ee
02
0a
f5
f9
e8
ed
05
04
01
ef
22
f3
f9
08
f8
0b
fa
0e
12
02
f4
f2
0c
de
f2
04
0d
f6
ff
1f
02
fe
09
fe
04
04
00
e6
04
fb
ea
01
00
09
fc
fc
0e
00
0d
04
00
01
04
04
fa
06
fd
ff
fd
01
08
ee
f7
0b
0c
f1
fe
f9
f9
10
f6
fb
fe
12
00
fc
fb
09
01
0c
f3
16
28
14
d5
f8
ef
09
04
f2
f8
fd
06
0b
e5
f8
13
38
fc
13
f9
02
d0
f8
04
06
09
f0
0e
f9
04
18
ff
fa
03
f5
12
0c
f9
12
f4
e8
fb
fe
f5
17
05
fb
06
03
05
f8
f6
05
0a
f2
f8
f4
07
f4
00
08
0d
06
0e
01
e6
e9
ff
e3
08
fa
04
2b
f7
f3
10
0b
fc
08
fb
03
13
fe
03
f4
07
fe
f6
f7
f7
df
14
08
fb
27
02
0b
fe
03
f8
f4
0a
fd
f9
ff
fe
06
ff
03
fd
f3
01
fe
fd
03
10
ff
08
08
0a
06
fe
05
fc
01
ff
f9
12
0a
f7
fb
16
fa
f1
17
00
03
02
f8
fb
fb
fa
05
39
05
fd
f9
ed
fd
fb
02
0e
0e
04
f0
03
db
de
00
31
d9
f5
f5
06
02
20
d4
1f
fc
14
ec
1b
ea
19
f4
f3
0a
f6
07
0d
de
ff
0b
fd
0e
ff
01
00
13
f8
fb
fc
05
f0
00
08
05
37
f5
08
05
f2
02
03
ef
eb
f6
f9
00
ed
f4
03
ee
f1
02
05
f1
11
fb
ff
e6
00
0a
fd
12
f9
1e
fa
eb
fa
f2
e8
f2
e6
00
12
04
f6
ed
04
f9
f9
11
f3
0e
03
03
f8
ef
06
e4
03
04
f2
fc
02
f8
01
05
f4
f9
06
13
06
fb
06
16
0f
06
00
f4
f1
00
01
05
06
ef
f9
2c
01
f8
0d
00
0d
eb
04
fd
e2
07
28
0b
f3
01
f4
05
20
f6
1d
0b
f1
00
f2
f1
13
fd
0c
0f
fe
fc
e3
e0
fa
05
f0
f0
0f
10
24
f4
14
f9
21
e2
eb
00
07
fd
29
01
eb
e6
f2
16
16
e2
15
08
1a
2c
10
ff
fb
37
ed
f1
ef
ed
04
e6
fb
e8
15
08
dd
06
01
fb
fd
fc
ff
25
02
f4
ff
0a
17
08
05
14
e5
0c
f9
02
03
07
f4
03
e7
f8
e1
ff
fd
ec
07
18
f5
f2
02
00
05
fa
0f
f4
02
ff
0d
00
0d
ff
00
08
f1
05
f6
fe
f5
ff
02
ef
f2
01
06
ec
dc
04
00
0f
0a
01
0f
07
18
f9
fb
ee
02
06
f5
f7
01
fe
0f
08
fa
06
10
09
02
ec
06
11
f3
1a
eb
f5
0d
f9
06
ff
f6
f6
08
fa
08
11
f5
0a
07
fc
14
f3
10
f9
05
13
03
08
09
f8
05
09
f8
03
06
f0
f7
f6
f3
00
08
ee
ff
f8
fa
0e
ec
39
07
0c
0a
12
16
1d
04
f3
f9
f7
f3
09
ec
e8
01
02
ff
02
14
e1
08
0c
0c
26
0b
1c
07
01
fb
ed
04
f9
f4
da
27
0b
f7
f5
df
e6
17
f2
f9
f9
f1
ef
fb
ec
35
02
33
ec
f9
f7
d4
f1
0a
00
fe
ed
ff
06
1b
d9
ed
0c
20
09
04
ea
ec
fb
eb
05
11
eb
02
ee
e5
f7
e6
3e
f7
12
fe
f5
11
e7
05
fd
f1
03
f0
f6
05
f8
01
0d
fe
1a
ea
e9
19
e1
f7
ed
f5
fa
fd
f5
fe
e9
f5
f7
4d
ed
01
f9
f4
04
ee
0a
10
16
09
fa
1c
18
ee
34
07
e6
f1
0b
f3
07
04
01
03
f9
17
fc
02
f8
2a
06
00
00
0d
01
f7
09
f4
0a
f2
fc
01
04
03
f0
02
f4
fd
16
fe
0d
09
ed
fd
ec
fb
18
f7
03
f7
06
09
00
f8
fa
ff
0c
13
fa
00
fd
00
00
eb
fb
fb
f5
f6
f2
ff
04
f8
fe
f5
01
02
f8
fe
f7
01
0f
00
03
f6
ff
07
03
01
ff
07
f6
0c
f3
11
fe
f7
fe
07
fc
f5
04
06
03
f7
ff
f9
f7
01
ee
06
fe
14
ff
ff
03
08
ef
f0
f8
f3
12
05
fe
f0
04
f9
04
f5
ee
fa
ff
f6
ff
f0
18
f0
fc
f7
11
fc
f8
02
ff
fc
01
04
02
02
fd
ed
fd
03
f9
13
fe
ed
01
ee
09
ff
fa
f4
0b
07
11
11
06
01
0d
12
0e
f4
f1
07
fc
0f
03
eb
08
00
05
00
fe
1a
f8
f3
fc
0e
01
0d
04
f5
07
03
f4
f3
f2
0f
f8
f7
07
f6
01
f8
0a
ea
00
f5
f9
10
fa
f0
f6
e8
fd
ee
ee
ec
1d
fe
19
2b
11
ef
09
f2
20
0d
e3
12
f8
f7
1e
f5
08
0a
00
05
f9
f6
fb
11
14
fd
08
e8
fe
fc
f5
13
1f
e3
f7
0e
f4
11
06
ff
04
fb
f9
13
f8
02
00
0a
fc
03
f3
0a
02
f4
07
f7
03
02
06
fa
01
0b
fd
03
fb
0c
ff
00
fc
f6
02
0e
ff
1a
0b
04
0a
f7
f9
05
f9
ef
f7
f7
ff
0e
04
fa
12
09
eb
fa
fc
15
fd
2c
1d
13
05
fd
f4
f3
f3
f5
12
0d
03
f6
fa
f6
02
f9
fe
12
f9
fa
ec
f9
f5
f9
f3
f6
09
0a
f6
13
fa
06
fe
fa
f9
f3
00
01
ff
06
07
f9
0d
10
fc
f1
06
0a
04
fd
ed
03
14
20
0c
f2
f6
ff
f9
18
19
f4
00
0e
03
02
0e
f6
0c
0b
f9
14
01
f8
fb
ff
01
fe
0c
fb
02
f6
25
05
f1
ff
f4
0f
0c
fe
ed
0a
ea
f5
f8
ef
08
05
f3
04
fb
1b
0c
15
f4
fe
08
26
fb
00
07
e8
04
eb
13
07
f3
fb
ec
15
f5
eb
fb
0d
fd
05
13
1a
fb
ff
fa
f9
08
05
0a
fd
f7
06
fe
04
03
1c
f3
0d
f9
09
07
fd
f4
0f
f5
09
08
09
f2
04
fe
ff
0a
f9
fb
00
0e
fd
09
fb
07
05
fe
09
00
f4
fd
05
00
15
0d
f0
10
0c
f8
00
f4
fe
18
01
e8
fb
13
1c
f9
03
fc
0a
fd
f3
f7
f1
f9
0f
f0
05
07
04
f8
ea
fb
01
fa
07
f1
20
fd
f4
f5
fd
0e
0c
11
fb
eb
0c
e8
0e
09
f9
0f
f1
0d
07
f6
0c
fe
02
ee
09
fe
f8
11
06
0e
0e
fa
fd
02
f2
01
0e
0c
07
fb
f2
fc
0e
17
ff
fc
e2
f5
03
e6
03
01
09
02
07
f5
03
03
0a
fe
f7
eb
07
f5
ed
f3
05
05
f9
f0
08
fb
0c
03
fc
11
fb
e3
f2
fd
29
03
f7
02
f7
f2
fe
17
03
f9
06
eb
ff
16
f7
1f
1c
fe
0c
fc
01
0d
0b
18
09
fa
f0
f9
f3
fe
09
04
07
f2
02
fc
04
fc
ef
07
03
ff
02
fe
09
f8
08
0a
fd
04
06
05
03
f9
0b
f9
0a
07
10
f1
02
f9
fd
06
01
07
01
03
fc
fe
09
03
00
0a
00
05
ff
0a
f0
02
ec
03
ec
f1
08
0f
07
18
0e
fc
fc
03
15
00
0d
eb
f7
0e
f8
02
f4
00
ff
f5
0e
fb
f5
07
fe
ea
16
fb
fb
ed
09
0a
09
f0
02
ed
e2
04
ff
fc
05
fe
df
06
ea
07
e8
14
2b
fa
ef
11
e0
07
0e
01
01
06
13
14
f5
03
f7
fe
f9
f7
f7
e7
ed
0f
e8
df
ff
f4
fc
f9
fb
0b
16
01
ef
07
2c
08
18
3b
10
f3
ee
19
13
02
ff
f7
09
f7
03
f3
0e
05
fa
ff
15
ff
f9
e7
02
fb
ef
00
f4
0c
f8
fe
e7
f3
03
08
f8
f5
09
f7
fe
00
07
04
05
f9
f9
07
ee
fd
fe
03
00
08
01
fe
e4
ea
e0
13
16
03
fc
f7
0e
fb
13
fb
07
05
0a
0d
2f
f7
07
fd
fe
08
0b
06
f5
13
02
fd
0c
fe
ee
f1
05
05
ef
f2
04
f8
fb
df
fe
3a
15
fb
07
f9
21
04
07
ba
08
0a
08
fe
13
ed
f8
1b
1a
02
f1
ed
01
0a
ee
f2
f8
f6
29
05
0e
0f
02
0f
09
08
21
ec
22
fc
04
f1
ff
10
02
f9
0a
10
ed
e7
2f
09
fa
14
10
fb
02
04
ff
f6
02
20
f0
f6
eb
09
f5
fa
0c
f8
01
f7
02
0d
f7
0b
fa
f3
16
f3
09
fe
16
0f
f8
0c
fc
fb
0d
fa
f9
04
03
f2
14
03
f9
ff
05
04
ff
0d
e9
ee
21
00
ef
ec
f3
1b
10
15
e4
ea
e4
17
e2
f0
fa
18
20
fe
fc
f9
ef
f6
02
f5
04
f5
fb
25
f4
f7
f5
f7
04
24
e7
0f
f4
fa
00
10
fd
f7
f3
2d
08
e9
fb
0a
f4
1d
f1
08
05
08
f8
05
f5
f0
f1
f1
1d
fb
0c
ee
f1
e0
13
00
00
f0
13
f4
05
06
de
01
2c
0a
00
25
0e
08
f8
ef
10
eb
0b
f1
fc
f8
0b
fd
07
17
09
0b
0b
f6
45
05
19
05
f5
ef
04
e7
e8
f5
fd
f2
ee
ef
fc
07
0d
fb
f1
ff
1c
f8
f6
fe
cd
f8
0b
fb
f8
0b
fe
0e
fb
ed
02
06
0a
f9
12
f4
fe
fa
f9
fe
1e
fc
ee
12
fe
fc
13
1d
fa
e8
e4
05
fe
ee
05
f3
08
e3
e7
f1
f7
f3
fc
09
f0
f1
06
09
06
14
f7
0d
f7
f9
f6
13
16
03
f7
10
f9
07
0e
15
05
09
19
0a
fc
13
03
06
f3
fb
fb
00
06
19
ef
0b
02
e4
f5
ff
06
fe
f6
fd
08
05
01
03
f8
fc
f6
00
fe
00
14
ec
fb
0b
16
14
03
09
02
06
1a
f6
f3
06
00
f9
f7
02
02
fc
07
fe
fa
00
fc
c6
07
09
e7
fb
f4
00
00
03
14
f9
0a
fc
fa
0c
09
02
f9
04
f5
fa
00
1c
ec
f4
f1
05
0a
f9
f4
f8
02
03
f8
04
ff
04
fa
04
15
01
fc
07
20
00
06
26
fe
03
fd
f3
fb
f1
f4
03
14
d2
f5
f1
0b
0a
f8
09
0a
01
00
fa
f7
01
e4
f7
df
fb
07
f3
f5
22
e4
13
1b
27
39
02
20
f3
f4
2a
f5
14
f2
fa
00
00
00
0b
02
06
0a
02
fd
f9
fe
09
ff
f7
f6
01
f7
02
04
0d
0c
01
06
ed
f1
02
04
01
fa
05
f2
fe
04
0d
1e
03
24
06
2a
11
18
ee
06
08
07
fc
f9
fa
2d
08
fe
e4
f1
f2
f6
0f
fd
02
e7
12
f9
07
ea
05
f0
0a
f5
fb
03
1e
f4
f9
0a
0c
e3
06
0a
f6
f4
f7
f6
21
09
f4
03
08
fd
f0
ff
f8
fb
17
00
09
0f
02
0a
05
fe
16
fe
f7
f8
f3
0b
07
02
fa
0a
01
ed
fd
04
09
f9
fd
01
fb
0e
f4
05
fc
f9
0c
07
05
ea
00
f9
09
f2
03
07
ee
00
02
ff
fb
01
01
06
09
16
f6
14
fc
03
fa
07
f2
00
12
fd
05
f9
fc
17
05
f4
04
fc
f1
f8
0d
1f
ff
0d
f7
0d
12
0b
f7
f4
0b
12
02
14
0d
f8
15
0f
fc
0d
19
08
0e
dc
f3
fa
eb
fe
fc
02
f4
06
0d
13
01
0b
0a
f8
08
0e
0d
f8
ed
0e
f2
e5
07
03
fa
09
ed
0c
09
05
f9
fc
f0
01
01
08
13
fc
fc
0b
06
fb
f2
17
01
f7
ef
0a
02
f7
08
02
02
f4
01
f7
12
fb
ff
00
09
00
f9
fc
fb
f0
e3
00
10
f9
e4
ed
0e
f9
fd
f7
f4
f6
fd
18
f8
f6
01
fb
10
15
08
06
06
09
0a
0a
08
fd
f7
01
14
ee
f4
00
08
01
fe
f6
0f
ef
f0
0e
07
f3
fe
21
f4
f3
e4
0a
08
01
13
e5
0b
07
31
fa
f5
01
0e
fd
07
f2
dc
05
38
06
13
ef
0b
f8
ed
0e
0b
05
c8
ec
ff
f9
07
eb
f6
00
1a
12
15
02
09
04
03
ff
13
07
ea
f3
f1
fd
0b
fb
05
f3
0a
f8
00
0e
00
1c
ff
01
ee
ef
0c
fe
0c
04
02
01
04
07
fa
27
05
f8
1c
05
f6
ef
fd
05
17
f9
e8
ef
0e
ff
02
15
20
07
f0
15
ea
fd
f5
ef
fe
fe
fc
11
09
0e
f8
0a
e2
e0
e6
14
eb
13
00
e7
fb
01
11
04
f6
f1
f9
f5
63
fc
51
1b
12
ec
de
05
fd
29
fe
e0
ef
d6
ed
29
fc
f0
06
2b
df
0f
ef
c6
0a
f8
04
e0
09
0b
e5
ce
0a
ed
f8
0e
f3
fc
db
e6
ff
f1
fb
00
00
14
06
ef
10
0c
0a
0b
0c
15
12
f4
05
f0
04
f0
f0
08
0f
ed
e3
ef
e7
e6
0a
f3
f7
37
13
f8
1a
09
0d
f4
f2
f2
ee
fd
11
14
02
1a
f7
02
13
fa
07
ec
07
f1
fe
f4
f9
1b
00
f2
f7
09
01
18
f2
fc
07
2f
12
23
03
eb
ef
db
06
0c
f7
17
3b
f4
d7
ee
4e
3e
fc
05
0f
d1
08
01
f0
f8
0d
0f
09
10
02
e4
0e
03
e5
fd
f7
07
ff
df
17
f9
f1
19
09
05
0d
13
01
02
02
00
01
fb
ff
f1
f1
08
04
03
ed
fe
f9
07
09
0b
06
fd
f6
0f
ed
e8
f7
0a
ec
08
00
0e
14
05
01
1b
04
13
f1
14
11
ee
fa
08
f9
16
fd
04
06
43
f6
d6
0a
f2
34
e9
01
ef
24
05
07
06
ef
06
09
f7
10
cc
0d
f8
fe
0d
f5
41
19
07
06
e5
e8
f2
10
14
e7
e8
ec
08
fb
fa
fd
fe
fb
fc
de
d9
09
f7
e3
05
05
03
05
fb
f4
f3
ea
f6
f1
fc
17
f7
0e
15
03
14
fb
f1
e3
05
02
f3
02
fa
f6
03
0c
f3
e0
f9
ee
0a
ee
05
f9
06
fe
0e
fe
00
f4
13
f1
08
fb
f8
19
f6
05
ef
fd
fa
00
eb
db
ef
0c
fa
dc
e4
f4
32
1e
21
02
fe
f0
ec
df
1c
0c
f3
0f
f5
f6
ff
f3
18
0e
fe
05
1f
00
f2
f9
0d
f0
05
28
0a
f9
fc
fa
ff
fe
da
f8
fd
2d
e8
1b
e3
fa
ca
e6
fb
ef
10
fc
06
0f
ec
22
e5
fc
ec
fe
fe
ea
55
ec
13
f3
f9
db
ff
13
01
f4
56
ec
0f
fe
01
02
ea
0e
f2
f4
f7
16
f1
f1
0d
f1
15
e9
02
01
ec
0d
08
07
02
f1
0e
ea
02
03
e9
11
f0
06
ff
09
02
f6
fa
00
f6
f1
fa
f8
0c
0f
02
f2
fb
f3
0f
e4
0d
05
fe
fc
f3
fa
ff
fd
f6
0a
08
06
08
02
f7
dd
07
09
07
03
08
f8
f7
05
fa
fe
f8
01
f7
0f
f6
fd
02
10
11
1b
04
06
f9
e9
01
ff
0c
07
08
fd
22
f3
f5
0b
f7
15
11
fa
eb
f6
fd
fb
02
11
f8
ef
01
fb
10
e9
19
10
e1
07
07
f0
f7
e6
dd
18
0c
00
11
f4
0f
06
00
f9
28
09
14
07
38
00
29
fe
11
25
f2
f1
f7
17
cb
e2
df
17
07
fc
10
fc
ff
fc
fe
1e
fa
04
fd
ff
09
fe
01
02
07
fa
f0
fe
03
04
04
fa
f6
fb
0b
fb
f8
09
01
1a
f7
02
f8
ff
f4
07
f9
02
fa
fc
fe
fb
fb
05
01
f6
f6
02
0f
e5
0a
fe
07
1c
0e
03
fb
08
f9
ff
08
05
03
ff
09
1a
eb
1f
ff
01
fd
0a
fb
ed
0a
f9
f2
01
fe
f7
fd
f7
04
21
0e
fb
ee
07
fc
e4
03
0a
f2
f6
f1
00
ee
fa
f5
f3
02
03
fe
fa
fb
00
fc
02
f5
04
01
0a
00
19
f6
04
fc
05
f7
11
0a
10
ff
f8
06
05
10
02
f3
00
f6
fc
f7
f6
f5
04
fd
03
05
fd
0d
02
fc
02
12
07
1d
f4
eb
0a
eb
fa
e9
02
05
fe
03
dd
0f
e9
e8
14
f2
e1
13
07
20
f8
04
16
f6
d2
f9
04
f7
0a
3d
e2
09
ef
02
dd
3d
e7
dd
f5
09
02
e8
11
22
f7
0c
00
ff
08
04
10
f2
1b
ed
f7
03
08
08
07
0f
10
fe
ea
f4
f6
f8
08
f0
ec
0e
0d
04
0b
06
fc
f8
f9
0d
02
0e
08
10
ff
f7
f5
ef
00
03
fd
0e
fa
fb
01
fa
03
17
f4
fb
06
ee
0c
0e
ff
f7
f3
09
0e
f9
f7
fb
00
09
fd
f6
f8
01
03
07
f5
fe
fb
06
0e
0f
ea
fe
f8
01
14
04
06
fc
00
08
03
06
02
0a
01
fa
02
0c
ff
12
05
11
1c
df
15
d6
ee
e2
ed
10
ff
e5
1c
1b
e2
0d
e7
ee
1e
00
02
0e
04
f7
e8
0d
05
0f
2c
fb
0e
fb
f4
fa
f7
1d
1f
ff
09
02
fe
25
01
0c
1a
f8
1c
f7
03
f5
fa
06
0e
04
03
02
02
f5
00
06
02
f3
03
fa
02
09
ff
ff
f9
f7
07
fd
fd
fc
03
f6
fd
0e
01
ff
07
fd
00
ff
fe
f0
fc
01
f6
f7
02
0b
fc
fa
f8
f8
f3
04
1c
f8
f9
0a
fb
1d
07
fe
fe
f1
fb
ee
00
04
0a
00
f0
fb
ee
05
f9
16
00
fa
fd
16
0b
1b
fa
f8
fc
fd
05
ef
f2
fb
00
fa
fc
fe
fb
00
14
0b
f4
18
ec
11
25
05
18
fe
0c
ef
f6
02
03
f1
ef
f2
f6
01
e2
e6
ec
08
ee
03
fc
fb
08
f8
e4
ee
fe
21
20
1f
e5
fb
ee
1a
24
f1
0f
0a
05
ed
e4
f3
fb
f0
f3
08
08
00
0e
01
02
f9
f6
2c
e0
fb
15
ef
ef
ea
eb
e3
ec
e6
f6
12
0a
03
fe
0f
f3
37
ef
e7
0a
05
21
09
14
fd
2c
09
f3
02
01
09
f8
fe
f6
03
03
14
fb
07
0f
fc
fd
f8
13
04
02
00
f6
0c
f3
03
03
15
07
00
07
01
0a
01
02
0c
07
f9
01
04
fb
05
11
fd
fe
13
00
00
f2
ff
07
fd
0e
04
ff
f9
04
06
13
01
04
fe
00
01
05
08
dd
f9
22
e9
1a
fb
0c
4c
15
08
fc
20
ef
dd
f4
1b
01
fd
18
ed
35
d5
0d
0e
07
fa
e3
06
11
da
f3
07
f7
01
f7
02
1e
f8
02
34
fa
f4
1b
ec
05
13
f9
01
fb
fb
fc
f1
08
f7
f6
02
f2
04
ee
04
f1
f6
0c
fa
ff
01
f9
fa
fa
f5
04
06
02
01
ff
03
fe
0a
ec
e8
11
f8
ff
2e
fc
f5
08
f5
02
ed
f8
01
03
01
12
11
fe
ee
1e
01
06
ec
0f
fc
04
e8
f4
0f
01
12
eb
04
ec
fd
fd
f4
1c
fd
f8
fe
25
02
ff
f4
fd
fd
18
ef
06
08
07
07
f4
07
0a
ff
f1
f4
e6
f0
f6
fd
13
1e
ea
fe
0a
f0
ec
f7
0b
e9
f1
1f
dd
28
f4
1e
ed
fd
f7
e6
e6
09
e7
0c
f4
16
08
fc
01
19
f5
ea
f2
03
0d
18
06
10
fb
1a
21
ed
ef
00
21
0a
f9
ff
14
fe
ee
f9
03
ec
fe
ff
ff
fd
04
0b
f5
fd
07
f9
05
ec
fe
fe
09
0c
fa
0b
12
23
f7
f7
03
11
06
fb
fb
04
02
fc
f9
05
ed
15
ff
df
03
fc
03
06
13
0b
f5
12
0c
fd
01
17
01
ee
0e
04
ea
06
f2
0a
fb
e4
04
02
0d
f5
11
14
f9
e8
fe
26
f8
02
00
06
f6
0f
1b
32
15
07
fa
23
fb
09
ff
df
fd
07
fc
ed
f8
fe
18
e6
fd
f1
04
f4
fd
f6
f7
f4
f4
16
ec
e5
5f
01
00
f7
0e
b0
f4
ff
f8
08
1f
fc
ff
04
e5
11
06
d9
ec
11
09
10
16
f3
f6
01
db
f9
0c
04
d0
fa
01
f6
ed
07
ec
49
fe
0b
e9
fb
04
ff
f1
07
14
08
f6
08
f6
f2
fc
13
ff
0a
0c
0f
2c
f7
f5
05
ef
fb
19
f0
0b
f3
05
0b
f9
fa
00
ed
08
21
01
0b
ea
0e
fc
e9
f1
fd
fd
17
0e
0d
fa
f8
1f
f9
03
ee
0b
fe
ff
fe
ee
01
f7
e1
04
04
fc
04
0a
fa
0c
0d
11
07
ef
f4
01
fc
f1
fd
03
f1
f3
01
00
05
f8
e9
0c
fb
f8
ff
0d
02
04
ff
f9
03
f2
f6
05
08
01
0a
f8
07
05
03
ef
ed
f7
02
0e
04
f8
f8
01
fa
ff
05
fd
08
ff
f4
f8
0f
01
09
f0
f0
1f
0a
f0
f6
ff
10
07
ff
eb
11
f7
fb
fc
25
f1
03
16
ee
0a
f9
08
0c
fd
fb
00
16
00
0a
f4
f1
f6
f4
fc
fc
de
eb
f6
17
07
05
fd
00
e3
18
0d
f8
1e
f5
f8
0f
e3
f5
ea
02
0c
ff
fd
ef
f6
09
e9
fb
05
03
f0
fb
f4
f3
10
e8
04
00
00
04
0a
08
fb
11
09
1e
0f
f1
ea
15
f5
fd
0a
fb
19
1d
f2
07
01
07
0a
f7
f7
f8
00
17
fc
ff
fe
03
ff
f7
fb
04
c6
03
08
19
07
04
fd
0b
00
fd
1a
03
10
fb
09
ff
0f
02
23
fc
16
f8
3b
0a
13
fa
fa
f9
1a
e2
f6
00
11
f0
ed
f4
07
12
d9
ef
0a
ff
f9
e8
05
09
f9
f8
02
f1
09
fa
ec
1a
01
f9
fe
0b
e6
16
02
08
13
0e
21
26
08
fd
0e
04
00
07
07
fa
1a
f3
fc
19
fe
0e
eb
ff
fc
10
ff
0d
02
01
0b
0d
e4
04
ff
06
0a
0a
1e
e8
02
24
09
f6
00
11
ff
00
f6
01
07
00
0e
f3
01
f6
02
1c
f8
08
07
f9
0c
fe
f3
09
20
fb
f7
02
f9
04
04
f2
09
0a
07
02
04
05
f9
fb
f7
fa
08
ff
06
08
03
05
02
05
02
f4
f5
f9
02
fd
00
fd
02
04
fd
fb
00
ff
fd
00
f3
04
03
fb
f7
00
f7
fc
02
0c
f7
fe
fe
00
09
fc
fd
06
fb
09
fa
fe
f0
fc
fa
04
14
df
07
10
fd
0a
09
f7
08
fd
f2
04
ef
2b
04
ff
01
f6
fb
07
29
fb
02
e9
0f
ef
ef
fb
02
f8
fa
fe
f6
0b
0f
fe
0f
f1
f9
ff
ef
0f
f6
0c
10
e9
11
01
16
2f
00
11
15
1c
fd
0c
f7
02
f4
fc
fa
fb
03
12
00
02
f6
f5
0b
16
1d
14
02
fc
0b
0d
0b
fd
21
0c
04
fc
06
03
01
f6
04
fa
ea
f2
06
11
f8
0b
1b
e2
00
f0
fe
02
fa
f6
01
06
e5
e4
f3
ff
fa
0d
fa
fc
04
17
05
07
01
0d
f8
24
ff
17
ee
07
ea
06
ee
fb
14
08
ff
f6
03
04
fc
f5
ec
ff
f7
13
03
fa
11
0c
05
0a
16
0c
ff
fc
f8
ee
02
02
13
e3
15
fd
f1
fd
04
f1
01
fc
01
e9
fe
f6
06
f0
1e
fc
16
10
f6
11
f2
19
11
ee
fa
0b
f8
06
f8
06
01
ea
16
0a
00
fa
02
f7
04
f7
11
f6
fd
08
ff
f6
dd
1c
f0
fa
e7
fc
e4
f4
00
f7
0d
09
06
00
04
00
0d
fe
16
ed
ec
fb
0e
09
11
e8
f6
f6
11
15
06
ef
18
ea
0a
23
f9
f2
08
e7
00
ef
f0
fb
fc
10
08
09
0c
fa
f9
11
f1
09
05
46
f5
f0
e8
f4
f4
f8
e5
ff
16
f9
f8
f9
11
fe
04
f8
08
06
09
fe
f6
f0
20
04
fb
ef
05
14
02
0d
09
18
f6
00
f0
f1
00
f7
f6
0c
ff
04
12
fd
09
eb
04
fa
13
06
06
fe
fe
0a
f4
0c
13
05
06
f3
e9
ee
ee
f8
fe
ea
f5
ff
fe
ef
f0
f3
09
f2
04
1a
13
fe
fb
e6
07
06
fa
16
f1
fa
ff
0f
f2
f3
ff
00
fd
f2
fd
fb
11
f9
fd
14
0e
fd
09
fe
00
11
df
0a
02
f9
fa
0a
04
09
08
05
f7
03
04
10
16
ff
f6
db
0d
04
0c
1e
04
05
f0
d3
2c
13
f0
f0
fd
15
1d
f7
06
10
ea
e6
09
fb
fe
ef
02
f2
11
1e
05
f8
ff
fb
02
04
f6
14
fa
f0
13
06
00
f8
f6
f6
22
05
fa
fe
02
01
09
06
0d
f3
11
f6
10
f5
f9
fe
ef
05
ff
07
f4
e6
0d
f3
f2
0b
ec
ff
fd
f8
fc
fe
16
10
09
1f
fd
f5
01
fd
26
0a
ef
f7
ff
f2
fc
f8
f5
fc
0b
05
10
f6
fd
02
06
03
05
f4
0f
ed
06
f8
ff
f2
ff
05
06
fd
fd
fe
01
f5
ee
fc
02
0e
ff
06
f5
fa
12
04
fd
f3
fe
fa
f8
fc
f6
10
02
e6
f0
f9
ff
f0
f8
ec
fc
f3
10
06
00
10
14
ee
f5
01
f8
f2
02
f3
fc
fc
19
ea
0a
fe
19
fb
f7
f9
0e
f4
f6
0b
03
f7
01
f5
f3
f9
02
f5
04
f8
f0
f3
0a
ff
f2
ff
fb
05
f2
fa
01
f4
11
fe
00
11
fb
14
f4
f8
fd
00
fe
e8
03
fd
f7
0d
03
f9
0d
f6
12
f6
00
17
00
12
eb
df
f7
11
2c
01
fb
02
ee
e3
fa
07
e1
10
f1
30
fb
f4
ee
dc
01
22
fa
0d
30
0e
09
04
1a
02
12
13
f1
0b
0b
05
19
f3
f8
fa
0b
f2
00
00
03
eb
03
f4
2a
ea
09
e9
f5
00
f4
fa
f8
e8
0f
fb
fb
08
f5
ef
09
f2
06
03
03
f3
09
1b
e6
4a
fb
fd
f7
ff
ff
d5
0b
05
12
01
ec
fb
1f
15
f8
f0
fd
01
0f
02
f1
0b
1b
e7
05
f8
f3
f7
14
05
12
fb
06
ea
0a
fb
ee
e9
f1
10
fc
fe
fb
00
2d
06
f7
f1
eb
ff
16
12
ed
ec
f5
fb
f7
07
f6
05
ff
0b
fa
fc
07
05
fd
00
ff
00
f3
ee
14
fb
10
f9
0d
00
03
f8
fa
f7
06
14
f1
15
13
f4
0e
06
0e
0a
01
04
00
f1
f6
10
00
03
00
ed
f9
00
fe
ef
fd
05
08
ee
00
16
f6
0c
ec
f4
fc
01
f8
0d
fb
04
fd
fb
fb
0c
fc
09
fc
ec
f8
03
fb
01
f0
02
05
05
05
06
05
f1
f0
0c
fd
fb
f5
0b
f8
fa
01
0c
0f
fa
06
f9
ff
0d
fc
ff
03
fe
fc
fd
0b
0e
0f
f6
fd
fd
f6
05
e7
0c
fb
ec
0a
07
f0
f3
08
04
f4
0c
09
f3
eb
fc
01
f9
fa
ef
f0
13
fe
fb
fe
08
02
ea
f6
07
07
00
03
fc
f6
0e
06
13
12
16
0a
f9
11
fd
04
f9
00
fd
00
06
0a
00
07
f0
f0
f6
fd
08
06
f4
f8
fa
f9
f0
f5
f9
0b
05
14
0f
12
f7
f3
ff
f7
f1
e8
10
fc
02
f9
f4
09
02
f9
28
f7
08
f9
00
1c
01
16
02
07
05
03
0d
fc
ea
12
fa
fb
fe
06
f8
fb
08
06
17
1b
0a
03
e7
05
de
fc
fb
f7
f9
05
1d
f0
f9
e3
f8
0d
12
0d
21
00
25
fd
f1
17
16
10
0c
13
ec
e8
f7
ec
10
00
f7
04
02
0c
f6
e7
f5
e8
36
14
00
00
f4
0a
03
02
f9
f8
12
09
13
06
08
00
0a
0a
02
00
f9
f5
00
f6
fc
e2
00
0d
f7
f3
fe
12
ff
0c
06
ff
03
06
f4
02
08
09
02
e7
ea
fc
01
ed
03
f0
f0
fa
fa
f9
12
0a
08
f9
02
08
08
00
fd
09
f0
09
00
02
0b
fe
ff
05
08
04
fe
fb
fe
fa
f9
fd
fa
f8
08
e8
ff
fd
01
0c
05
04
03
05
0a
f6
f5
fb
fc
01
0a
01
ff
11
02
f9
15
f6
ff
04
e2
1e
15
ff
05
00
04
0c
00
03
13
01
0b
f6
ed
fc
0e
f9
fe
10
ed
fd
06
02
0c
ef
fb
fe
05
17
fe
f9
f2
0f
e9
f1
f3
02
fc
0a
0d
f1
19
ff
f0
f4
fb
1c
04
f9
04
f1
0a
01
f4
00
0d
16
f1
00
06
00
ff
d6
e3
01
0c
00
f6
0d
11
fc
f8
ea
ff
18
09
fa
00
ff
0d
eb
fc
0c
ff
fb
f9
f9
f1
2f
fe
f2
01
01
07
ff
fb
01
08
00
0c
fa
fe
f5
04
fa
fd
01
f5
14
fc
04
fc
15
03
15
fc
04
0d
fc
07
13
07
07
f4
12
18
f0
e9
e7
f3
f4
f9
04
04
02
f5
fb
ee
ec
fa
f7
09
09
f8
14
02
12
0b
01
17
0c
f6
04
fc
12
fe
05
07
00
fd
ff
fb
f4
01
f0
01
0b
e7
16
08
fa
ff
eb
ef
06
f4
ff
ff
f3
ee
0b
02
02
01
ef
f8
0a
0f
0f
14
f0
fb
06
03
01
fc
0b
09
06
f4
fc
f8
ff
05
01
fb
04
f2
06
f7
23
f7
00
0a
f3
0c
09
fd
f6
0e
f3
fb
01
f7
00
f7
ef
ff
14
06
0d
fb
0e
fd
20
f9
fb
0c
f9
04
05
0a
08
01
f5
f9
ff
fc
0a
ec
f0
02
f5
2e
05
fd
09
08
0d
09
ec
ed
06
f8
02
f8
fc
fa
09
03
1c
14
f3
fb
14
01
f4
ec
f2
ff
2b
0f
fc
06
f7
04
06
13
0a
0f
f5
11
0f
f3
f0
f4
fb
18
fb
ee
e7
ec
12
fb
04
fb
f1
e7
03
e5
f9
02
da
1e
11
11
02
26
d6
f5
db
f0
06
e1
14
05
f0
fb
f0
0a
ed
0c
f5
f1
f9
fc
fb
0b
fb
15
00
fd
02
ff
0d
ef
ff
0c
ff
06
e7
00
f9
f7
e3
01
fa
2b
f8
ed
14
10
0f
15
0b
0b
05
0c
19
0a
00
f1
02
31
ee
fb
e6
db
f9
fc
0a
14
f3
f4
16
16
fc
e6
eb
03
11
ee
f9
08
11
0b
0d
1d
fe
f7
07
2a
fd
09
00
fc
21
ff
09
e7
21
fa
09
08
f6
f5
f3
f8
f8
ef
f9
05
f7
1b
03
03
f6
08
0d
0e
03
f4
fa
01
04
fa
fe
fe
f5
02
ef
f8
12
f9
ed
fd
f1
08
03
11
fd
fc
e7
0f
02
06
06
07
0b
05
09
0e
02
02
f2
fa
fd
0d
fb
ee
04
10
05
03
fa
f6
ec
06
0b
10
f6
fc
f2
fc
f6
f9
02
f8
02
f4
0c
07
ff
fb
f8
fc
f9
06
02
0f
ee
fa
f0
fa
0e
0b
10
02
12
0d
00
06
ff
fc
05
11
fb
13
05
0b
fe
0c
f7
06
08
07
f4
09
0d
0f
10
0a
1d
ee
f7
09
f7
1e
12
0e
e8
f3
00
f9
0e
08
03
f2
eb
e8
16
ee
e0
07
02
0f
02
f7
07
f2
0c
1b
03
fd
1e
08
fc
f3
0b
f0
08
05
02
ef
ff
11
01
f4
fb
f5
f7
02
07
f2
f3
fe
fe
fe
f6
0f
f6
09
f5
0c
f6
0c
05
06
03
00
04
fb
0a
fc
00
01
03
01
03
f9
03
fd
ff
0d
01
f6
f3
15
00
f9
06
f1
05
e5
f6
fb
1a
03
10
f8
0a
f3
ef
00
ec
08
f4
fe
05
f5
f0
e6
ff
05
03
07
12
f8
ff
1d
1f
0a
0d
f8
23
09
ef
e6
06
ed
00
f2
f4
fe
05
04
f4
09
fe
f9
f8
0d
f0
07
05
2a
fc
fd
09
fb
f6
0a
fa
fb
04
fa
fa
fc
f0
fc
06
f8
04
fd
00
fe
08
0c
00
fa
f8
0d
0f
05
f1
07
10
00
0e
ea
05
f5
02
16
fc
f6
0e
ee
0f
02
ef
ef
06
06
0a
f2
01
fa
12
fd
f4
fb
0e
fc
09
07
08
08
0d
fd
fd
f1
05
ea
0b
05
04
f6
18
fe
04
01
04
08
19
ef
fe
fb
00
f8
ff
fa
f3
06
ff
04
fe
04
fb
02
0d
01
00
02
06
f8
04
fd
01
03
02
fa
f6
fb
fe
09
02
fd
fc
f9
fc
f4
f4
03
fd
00
02
f6
fd
05
fd
02
fd
ff
fd
00
fa
03
f7
01
05
f4
f2
01
fa
f4
ff
f7
fa
f9
fb
04
fd
fc
f5
01
f8
09
ef
07
18
02
f5
17
19
06
f3
f4
f7
02
06
f8
fc
f6
0c
f8
00
02
eb
f8
08
05
ff
e9
e6
31
fa
1c
f1
18
fd
09
03
eb
24
e1
f9
19
fe
0b
23
e8
0c
1a
e6
fa
0b
fe
f0
e9
f7
f3
f5
f7
02
f6
3e
f4
f0
fe
01
f6
fe
14
e4
f5
04
05
f7
0a
1c
f2
03
0d
02
fb
f4
f9
f0
fe
05
0d
0a
00
02
04
00
ff
05
0a
f7
f6
0a
ff
fa
ff
00
f9
00
04
02
0c
e7
fa
f0
fe
fb
01
fe
08
08
15
fa
03
0b
f7
fa
10
f1
0d
02
fc
f7
f2
16
10
fc
f8
fc
fa
07
0a
03
fd
06
02
f8
f8
f3
01
08
08
fa
08
f4
0b
05
fb
07
04
fd
09
04
f3
17
01
fd
fd
08
fb
f6
fa
fd
fc
ff
11
02
0e
fe
f0
06
f6
f4
08
fe
18
fc
fd
fa
0e
0e
fc
03
07
fc
03
01
fb
fd
00
07
fd
fe
f1
11
0b
01
f5
ef
f2
f6
03
01
fd
01
fd
fb
fb
fd
03
09
14
ef
05
00
f9
df
06
35
00
0c
12
09
4a
07
2b
ff
ef
d3
07
0c
06
fd
13
f8
fa
f1
fe
dc
ed
18
0a
0a
0d
0c
c3
1b
08
f4
ee
ed
e1
0d
db
04
06
23
e5
ff
fa
dc
e7
ec
0d
06
01
00
09
b0
03
00
10
f8
ff
08
fd
f0
f7
fe
07
01
02
09
fc
09
06
fa
f1
04
01
19
d5
09
ed
00
04
e0
fc
05
04
fa
04
fe
05
03
ff
08
28
ff
07
fa
0d
f6
f6
fa
e6
00
fe
f9
24
fe
f8
15
06
f2
ea
f8
03
f4
fc
ee
04
04
17
10
f5
02
f7
0e
e8
0f
09
f2
f5
f7
fd
0a
01
03
05
06
05
0c
f8
11
f4
f7
01
f6
e6
01
eb
08
0b
09
fd
0f
1c
f3
e5
05
fb
0e
06
0e
f6
01
f3
02
ee
f4
f6
06
f6
f5
f4
16
62
1f
11
f6
e3
34
f1
ed
11
eb
ff
e6
02
03
06
07
d8
ef
fb
03
e4
fc
ff
02
1f
04
fb
f7
2c
0e
00
f4
fb
f7
e6
14
f7
fb
07
14
f5
04
fc
1f
fc
14
ff
05
00
f2
f5
0d
ec
11
00
0c
00
02
00
f4
ed
07
f6
fc
02
f0
10
dd
f2
0f
10
0a
02
02
fb
f3
16
0f
0f
f4
f7
03
fd
fa
fe
0a
08
fe
0c
32
fb
f9
09
09
d9
f9
f5
19
07
fe
fc
06
ef
e9
29
ef
f2
23
f7
04
fa
df
fc
fa
03
f5
0a
06
f9
f8
df
02
1d
0a
e4
f7
01
fb
01
0e
04
07
fd
f1
f8
07
ee
07
fd
0a
f3
00
eb
0b
f8
f4
ef
ff
12
03
0b
03
e9
fb
fb
06
13
0d
fa
0a
fd
ef
f7
0e
f3
09
f9
fc
08
f6
04
e9
0d
ef
f8
f3
02
fe
31
fb
0c
07
f2
fb
00
fa
ff
f4
02
fd
0c
09
ff
0e
f5
03
f8
0a
fc
eb
0e
e4
11
f6
f8
0c
02
0b
fd
31
05
1f
f0
03
f7
fa
fe
06
fd
08
07
01
11
fe
ff
07
00
f9
07
05
08
ee
03
05
fb
fd
04
00
e8
fe
05
00
11
00
fd
03
09
0a
ff
f4
18
0c
05
f8
01
04
fd
f3
f7
ee
13
fa
0c
06
ef
fc
09
ff
f8
fb
f7
07
11
f0
12
f7
0d
f9
0c
f6
f8
fb
0a
f8
16
09
06
09
e9
00
05
e9
12
ea
0e
f9
f0
02
14
fd
f6
04
14
0d
f6
02
fb
43
0f
08
02
0e
0d
0e
05
ff
17
07
f0
ff
07
f7
03
e8
fe
08
04
f5
ec
f3
fd
03
0a
f2
0a
f9
e3
05
f0
10
05
14
1f
f1
fb
f6
05
00
10
08
0c
fa
f5
f3
19
fe
03
ff
0d
fd
08
03
f6
f8
f8
e8
fc
09
fc
f0
01
f1
fa
ff
02
f1
ed
ff
f7
06
fa
e7
06
10
02
03
00
f7
04
f6
12
04
1a
08
fe
09
09
10
09
fd
f4
fb
f2
fc
ff
01
ff
f2
ff
07
19
12
ee
02
04
01
1c
fd
06
18
0d
f9
f2
03
02
05
05
f7
fc
f8
04
16
05
e5
fb
eb
f3
1d
f2
02
ef
01
00
fe
13
06
f8
17
09
fc
fd
f0
ee
06
13
0d
08
e0
f0
f2
de
ea
00
ee
0f
0d
15
45
e5
f9
06
05
f3
0a
1e
ec
0f
0a
f4
f6
f8
20
04
0b
ee
e7
0c
02
1c
ef
08
09
f1
fb
fc
07
fe
03
01
ef
08
fa
12
f4
fd
ec
01
15
f3
fb
05
07
0c
06
07
fe
ef
03
fb
0a
ee
09
10
f8
03
08
e9
f3
f0
fd
0c
00
01
06
f8
fe
fb
0e
fe
04
08
f2
f0
02
00
01
0d
fa
f7
ec
02
09
17
0b
e8
00
04
1b
0b
fb
07
da
e9
24
fe
04
15
05
08
01
15
f1
11
06
09
0d
0e
03
e6
e1
05
1d
f2
05
f5
f6
0a
e3
04
08
22
11
10
de
fc
f4
ea
02
fc
03
1e
21
03
f7
1d
0d
20
00
1b
0c
f5
02
f0
f1
0a
fe
f5
f4
0d
ff
09
0a
f8
cf
e4
11
11
f4
35
12
27
f8
f4
10
06
e8
1a
fd
00
ee
de
00
f9
05
0f
0c
01
ed
fc
f6
20
07
e4
f1
fb
f7
03
f2
10
00
02
05
ef
f2
06
04
08
00
ff
0f
fa
2e
05
e4
f7
f3
f9
1e
f0
f1
f2
f0
fb
f1
f9
0c
08
f6
04
02
f7
fc
03
ea
0b
f3
04
01
17
06
05
fa
0d
04
00
e6
52
27
d3
f8
16
ef
fd
f7
f7
ff
0c
06
0f
0b
f4
ed
f4
ec
f7
02
04
f4
fe
09
0a
f2
ee
02
04
18
f7
05
fb
f5
04
f1
ee
fb
05
0d
08
fb
fa
fb
ee
18
17
f5
f4
fb
05
e7
fb
ee
00
f4
0a
07
09
fc
03
15
e8
ff
fe
f5
02
fa
f9
1c
fb
e8
06
00
e8
f9
f0
1d
03
f6
2a
e7
1c
03
01
18
e8
d2
ff
e4
00
e9
ee
fc
07
21
f6
ff
02
ed
0a
05
ee
e4
16
07
fb
19
0d
04
f1
0e
0f
f7
06
03
16
db
15
22
49
08
f1
18
07
08
fb
10
0a
10
01
11
ca
fc
e4
15
09
1f
f1
e6
11
ec
14
c6
08
c9
08
54
fe
ef
06
f2
d7
17
06
35
0f
f5
05
ff
20
1b
0f
ea
15
17
10
e5
0a
0e
f2
08
1b
06
f5
03
d7
e0
0c
01
f3
f4
eb
f6
09
ef
05
0a
f2
fa
01
06
fe
09
1a
06
fa
05
f6
03
f0
04
03
08
f0
ef
21
ff
f2
f7
ed
00
f4
fd
fa
f2
fb
06
0a
f1
ee
08
fe
fe
07
0e
ea
fa
e6
00
f4
ee
12
e9
d1
e4
1c
11
f7
ed
64
28
58
14
e9
ef
ec
e5
1a
c7
f1
19
fd
0e
f9
ed
e8
e5
0d
f5
14
e7
f8
1e
11
08
0a
01
11
08
ff
0a
09
f4
f2
01
08
0d
0e
fd
0e
fb
09
f8
f9
f7
0d
f9
0d
05
f1
0e
fd
02
01
fb
f1
f6
06
fc
08
07
eb
fc
e5
f5
05
f9
01
03
01
06
fd
07
10
f4
08
fe
fb
fe
02
fc
f9
f9
0b
0f
fc
0f
fc
fd
f9
f9
06
05
ff
f8
f6
ec
f9
03
f6
f1
fe
fa
f5
f7
f2
f4
06
f4
f6
08
0b
05
10
12
0e
1b
f8
fd
ff
05
fa
0b
04
f3
04
00
fa
03
10
10
f6
17
03
f5
f9
0e
01
fd
14
00
f5
f2
06
08
ff
00
fb
fe
04
f6
0e
fc
fe
f9
01
0c
0f
f9
00
e3
13
fc
f3
11
02
fe
f9
fd
ff
19
17
0e
f5
15
fd
07
ff
12
f6
fa
fe
fc
05
0b
0e
fe
09
f3
0a
0d
13
04
f7
01
fe
00
f4
0a
00
09
fb
06
f9
16
fc
ea
d7
f0
fe
ef
02
e8
f2
f4
f7
14
0c
00
04
13
01
eb
0d
f8
04
12
f5
0a
08
fa
fc
e0
f5
00
f0
03
e9
14
0a
02
f2
00
31
ef
18
fa
0f
f5
f6
05
07
f5
f8
05
19
fe
0a
0a
0c
02
f6
f8
11
f2
fa
1a
1b
f1
f2
02
07
02
f7
02
02
13
06
fb
f9
f9
f5
09
08
16
22
ff
09
eb
05
17
f7
07
ee
ef
fa
f9
0c
05
f6
01
0f
f5
03
fc
e9
fe
06
ef
f9
05
fb
fc
fa
fc
0e
00
03
fb
f1
1c
00
dd
0c
0c
04
0c
04
0e
ff
04
12
ca
03
dd
f8
e9
19
f2
e9
0f
20
05
27
ea
00
d7
f9
f6
12
fd
c6
f7
0a
16
f6
f3
ef
20
f3
f8
2d
e7
f1
08
ea
21
2d
f2
f8
f8
f8
ff
f3
fc
f7
0e
16
26
fe
fc
06
08
01
07
f1
fb
09
02
09
0a
01
08
f6
f8
0b
fe
12
06
02
fa
ec
f1
05
f3
13
02
07
f7
fb
e0
fa
0f
fb
21
fe
f0
fb
f8
0c
09
ee
01
00
06
05
ef
f8
01
01
f8
03
09
ff
00
00
1b
f9
f7
00
0b
f8
00
f9
fd
fb
11
f0
12
f2
12
17
ff
fe
f6
fc
04
fd
f8
fe
f5
0d
11
09
fe
f2
fc
22
f8
44
e1
f6
f5
f6
00
fd
ee
22
fc
04
f5
f6
fe
17
0a
07
11
f2
0d
08
01
08
0e
f0
ef
02
e9
fd
fa
04
07
fe
09
05
05
fd
05
f6
f0
16
fa
ff
0f
0a
0d
0d
fe
ec
ed
ff
01
ee
fa
f6
06
d0
f3
07
25
15
15
eb
0f
fb
02
fb
f5
00
f4
16
27
fb
ec
19
e1
ed
12
eb
f8
1b
17
f8
00
ff
da
21
20
fe
00
fb
0c
05
ff
fc
01
fd
08
02
f9
fe
f9
16
fa
fe
07
24
f4
f8
06
f7
07
f6
05
0d
ef
02
f0
09
01
06
03
f5
03
08
fd
f5
01
01
fa
fc
f6
16
f6
05
03
03
17
fd
ff
f8
1b
0f
0c
fd
f8
02
fe
08
06
0d
ff
03
fa
f6
08
ff
06
06
f8
f2
f7
f4
fb
03
f4
ff
00
12
11
fb
f6
fb
ec
0a
f6
f6
fd
f0
10
f9
f8
11
f5
f7
00
0d
02
fb
02
06
09
0c
06
02
0c
04
fd
0a
0e
ed
18
fb
fb
f9
f3
e9
0c
11
0b
11
1f
04
fe
0c
ea
f5
f8
f1
08
03
0c
f4
0a
ff
ef
0d
f5
f3
fa
0b
ef
e3
fd
eb
fd
ee
ed
ff
23
1c
ea
06
f9
df
ef
ff
e8
0e
e2
38
5e
00
1d
03
ed
f8
10
f8
02
0a
fd
f7
0f
0f
01
f6
f9
00
e3
00
e9
03
f3
fe
07
04
ee
18
08
e9
03
f0
f3
02
ff
fa
0d
ec
0a
e7
04
11
fa
02
fe
f8
02
e8
fc
fe
02
0c
f9
00
fa
09
0e
0d
0c
01
04
11
02
06
f4
02
ef
03
f4
f5
10
02
05
f2
f6
0c
ee
fc
f6
02
ef
ff
05
fe
ff
03
ef
f2
11
fc
eb
08
13
14
1b
13
fe
fa
00
06
f6
03
02
f3
f6
09
1f
fa
fe
fe
11
e8
f2
03
fc
09
08
0c
f1
ff
f7
09
06
0a
16
1f
02
fb
08
dd
18
c7
1d
01
fa
09
ff
03
f5
f3
2f
e0
f8
36
fc
ef
f4
d4
07
05
0f
e5
e9
09
e2
f0
06
00
00
e8
2b
16
e8
da
cf
0c
1c
f6
f8
10
02
00
53
e3
f4
e6
fb
f3
f4
10
fc
06
04
f2
f7
e5
1c
fe
02
08
fe
04
fc
fc
01
03
f6
00
06
fb
01
fa
16
07
f4
fe
12
fa
f3
0b
f0
00
ff
0b
f3
06
06
fd
00
fc
00
f8
f3
f8
0d
09
02
fd
06
f6
07
fa
f5
f1
05
0d
06
fe
fa
f4
f9
05
ff
f5
04
f9
ff
0a
fd
02
f3
04
f6
04
f3
fd
00
04
eb
fa
f1
fc
02
fe
01
f6
fb
00
f9
09
05
10
e8
e9
ea
0f
fb
fa
0d
e1
05
f2
17
0b
ec
fc
ff
e1
f0
d9
0e
26
fe
22
ec
fa
e6
fe
00
f6
f3
f5
ff
fc
0a
f9
1e
07
03
36
f5
0a
ec
f9
fc
e8
eb
e4
f9
0e
0c
fb
fd
ff
08
10
fd
01
f0
e7
f5
05
07
14
0a
0d
12
ee
06
f9
00
f7
0b
f2
f1
09
f4
ed
ff
f7
04
0f
f9
07
00
00
f6
01
ff
f4
0b
05
ed
f2
04
00
09
ff
f4
f8
0a
08
f2
ff
00
01
f8
11
00
00
05
05
f1
0d
fb
fc
01
fb
01
f0
fc
14
f8
09
ff
00
00
f7
0a
0c
06
f8
0c
09
fb
fd
f8
0f
03
03
04
00
ff
fb
04
fb
f2
ff
00
fd
1b
f3
f0
01
06
fe
08
f3
01
f4
04
fa
ff
fd
f5
01
f5
f8
fe
06
f9
06
ff
ff
22
1e
03
fe
05
e5
ff
e5
fa
05
fa
f8
00
04
f6
09
01
f5
ff
0e
ee
2c
02
db
f2
09
fb
13
fe
17
f3
09
e8
0e
d4
db
fd
0a
10
ec
fc
e0
26
fa
11
f2
f5
30
fe
09
02
e2
0c
20
ff
fc
00
f7
f6
ed
fd
db
f8
11
e8
eb
0c
ff
e3
0d
0f
fa
ff
0b
2c
08
03
23
ff
fc
ed
04
ee
f4
04
f9
f2
f3
ec
04
fe
05
0f
f9
0c
fa
0c
ff
10
fc
ef
ea
0b
fb
0d
09
07
fe
02
07
ff
f1
fa
ee
01
f1
ec
23
05
1a
07
08
e5
0d
eb
fa
08
04
d2
f6
f7
e8
06
ea
01
e4
1e
f1
ec
f8
ec
01
06
1b
e2
eb
ff
06
ea
f1
ff
0f
f2
e9
23
0d
15
c7
ec
e7
02
18
11
ff
7a
03
09
fe
1b
f5
f8
04
f4
fa
ff
0b
06
02
fc
02
f2
01
01
f9
fb
f1
ff
09
f9
f9
ff
01
f6
f8
f2
ee
fe
fa
f7
06
00
06
f6
03
03
06
fe
01
ff
fc
ff
12
f7
f8
fa
fa
07
08
e0
29
01
d1
dd
fb
f5
1d
ff
07
27
fe
17
0d
f5
ea
fa
f6
04
20
0a
f9
18
08
f7
05
e6
ed
f6
fe
e7
fe
09
0f
10
01
fa
03
0d
f2
f7
f9
14
07
0c
f3
0b
fa
e8
46
ff
00
00
06
f9
ee
f7
f1
0b
f3
f7
e0
17
ed
04
f4
f6
17
fe
d9
1e
d7
03
fb
f6
04
f6
fa
f2
f9
07
09
fb
fe
01
08
fe
0e
0a
0b
13
08
fb
f5
ff
fc
17
0b
06
f6
f6
e3
32
fd
16
f1
01
18
f8
0f
f6
01
03
f2
0d
05
fc
02
f8
f1
02
1b
04
07
02
f8
17
15
f4
15
17
fd
f5
00
04
f6
02
f4
dc
e2
ff
07
fc
0f
12
f7
f9
09
e0
0a
fc
ea
ff
14
06
f0
14
fa
0c
f2
ec
f8
fb
17
f3
06
0d
01
f3
e7
e8
18
09
14
0d
fe
05
0e
fe
08
ee
0a
08
fb
0a
f8
f8
ff
02
ea
0a
ee
ee
17
f4
de
e3
f4
f4
06
15
31
0e
ed
06
00
ee
02
0d
f6
ea
02
0c
24
f5
0c
1c
dd
f5
0c
f3
08
17
13
17
fa
f5
03
f6
02
0e
1c
13
e0
0b
14
f7
fe
f4
fd
1e
ff
f5
f9
fc
17
fc
06
28
f0
15
0e
0e
f7
09
01
01
23
ed
1a
f9
0a
fe
ec
26
00
ea
10
f6
01
fc
fd
fc
f8
0f
ed
f9
03
f6
15
15
ec
de
2e
09
e4
05
08
14
3c
1a
29
f1
15
c9
f7
d9
fe
fc
f8
01
d5
72
f6
00
e6
de
04
dd
df
f9
12
d4
f9
f3
11
fc
c1
ea
2d
f7
26
05
f5
07
11
fa
fc
17
f4
da
11
1a
f5
ec
03
ef
ee
04
11
08
01
f4
16
cc
e6
03
f0
e7
f3
04
09
08
1d
e2
0b
05
28
01
f5
fc
09
10
16
f1
0e
02
f8
09
fd
0e
fd
f1
f9
fb
0e
11
03
ee
12
0a
ee
e5
fb
47
f2
17
0c
f8
f4
00
fb
06
f7
25
fb
ef
0e
ed
06
10
30
0e
01
f5
f4
16
f2
04
fc
fb
e8
fa
fd
e6
e7
f7
10
12
0b
fb
0f
fe
1a
fd
14
08
f7
fe
01
f9
05
f7
fe
05
04
08
03
f7
0a
0b
ff
03
0a
0b
f2
03
03
fe
fa
00
fe
0c
e9
01
05
06
ed
f3
e8
03
e6
f9
05
fd
f6
08
01
f8
01
ff
15
06
06
00
15
03
11
0c
fa
fe
07
dd
cf
00
2c
04
06
02
df
f0
f8
12
f0
07
06
08
e2
fa
08
f9
f6
f5
e8
fe
fd
f7
1a
ec
06
13
0f
f4
07
fa
f3
08
0b
13
fe
ff
09
06
0d
7d
04
f8
f2
f7
0e
09
03
29
fa
1e
eb
f7
06
00
f4
07
de
ff
09
f2
fd
f9
eb
0f
23
fd
ff
0b
0a
f6
f9
00
24
ed
f5
2c
e1
b8
00
fb
c3
06
ff
25
f7
01
15
14
e6
f7
02
08
11
08
03
eb
12
fb
04
f1
08
02
01
f3
02
0a
04
f3
08
08
f7
04
0e
1d
08
fe
da
08
e3
f5
02
f9
f9
e6
fe
fa
13
e7
fd
ef
01
2d
07
e8
fe
fa
fe
06
02
dd
11
0c
07
f3
04
01
fb
f5
f8
06
03
02
06
12
05
fa
fe
fb
f7
0a
02
0b
f8
02
f7
fb
09
f5
f9
ff
17
f7
f7
f9
00
0b
0c
04
0b
fc
fa
fc
05
00
f7
fd
13
1d
fb
02
19
f8
02
e7
19
f7
06
f3
fc
0c
08
13
f7
fd
fc
fb
05
ff
06
10
e9
12
fd
eb
fb
0d
00
06
09
05
07
04
f0
08
09
fc
1d
01
08
f6
1c
fb
f2
0b
19
f0
ed
e7
0a
fd
ef
f8
09
fe
f7
f5
16
fe
11
fd
0c
fb
f9
04
06
ff
01
0f
03
fe
0c
06
05
09
fb
01
e9
02
02
0b
ea
0c
fa
ff
ef
03
03
0d
ee
f3
2c
05
1d
0c
fc
1a
ea
f3
1b
fb
d2
09
15
fe
0c
e3
03
ff
10
08
fa
f5
fc
fd
f8
16
fb
00
42
05
03
09
ed
ed
01
1f
f0
f7
ff
f4
f1
ea
f8
f6
03
f1
eb
03
05
02
16
10
fa
f5
36
00
01
e5
16
e2
f6
4a
f0
01
e4
05
03
f9
10
e4
10
0c
f9
07
0c
f8
1c
07
fa
10
fe
ea
f8
07
18
03
e9
13
f3
f3
fe
f6
13
fd
f2
ef
08
e3
36
4f
e1
ec
ee
e7
0c
eb
33
11
f9
ce
e0
25
f4
0e
21
0b
15
fd
02
fd
e8
18
fc
2c
ee
e7
f3
1e
15
ea
dd
0a
fd
ff
f9
fe
01
06
46
0d
f8
ed
05
f3
06
fe
ea
1f
fd
01
07
ef
01
f2
13
fd
03
f8
fe
f3
04
06
02
ea
fc
03
fc
06
1e
07
f7
f7
0b
e2
f4
09
f8
08
fa
ef
e5
f6
09
fa
08
fa
0d
f1
fa
f5
f8
28
00
fd
f6
0d
f8
f7
08
09
43
f9
12
f0
f1
0a
0d
fc
05
ea
f7
f5
17
f3
ed
19
01
00
fe
0f
e3
f6
e8
f8
06
0e
04
07
02
ea
36
f0
e0
0d
f7
fd
0e
04
00
f4
01
f1
0c
fb
0b
fb
07
fc
f4
05
01
f1
fb
ef
f8
0d
fb
0b
f4
0a
00
f5
01
f5
fc
06
ea
0f
02
06
02
ef
fd
01
f6
fc
ea
12
00
11
fa
09
0b
05
fe
02
12
06
fb
ff
ff
f4
0a
0a
fc
03
00
0a
0c
fc
08
fc
05
f2
f6
00
f9
03
04
0c
00
04
0e
04
05
ed
0e
f7
0f
08
ee
01
ff
f7
02
00
ff
01
f7
fc
04
13
fd
f8
04
f9
fd
00
f3
ef
f6
fe
1e
04
ff
05
fd
f8
09
04
0b
eb
fa
08
07
03
25
14
fe
10
00
04
ed
1c
06
13
0a
03
ff
f8
0c
0f
04
0a
fa
01
fe
fb
0f
0b
fc
eb
1a
ea
e4
04
f3
0d
04
13
f2
1e
f6
10
00
fc
ea
ed
0f
fe
e1
f8
e8
02
0a
18
e1
ec
13
fd
fe
de
f2
08
12
06
0a
f2
19
fb
05
f2
eb
fd
19
01
0b
ed
0b
ef
fc
fb
01
05
ff
fe
f9
04
01
01
03
08
fe
06
fe
01
0a
04
00
02
fe
03
06
00
fb
04
09
01
08
fe
08
04
f2
00
02
fe
f9
fd
fe
fa
fe
01
04
f9
fc
05
fa
f9
07
fc
04
fa
12
06
fc
f5
fc
f8
0f
ed
01
ef
0e
f9
0b
fc
f8
fc
f9
fb
f0
fd
01
fe
0b
ff
1a
f8
f5
ed
e2
0d
f8
21
0a
f8
01
fd
fc
00
00
f4
07
fd
04
18
03
f9
ef
f8
1f
00
06
02
ff
f9
f9
04
0b
10
00
1a
f5
fe
f0
fd
f8
fb
fd
fc
fa
f7
14
f8
fd
06
00
03
f8
f8
f2
07
03
f0
fe
0b
f7
fe
fa
fa
f7
0f
f3
fe
27
10
e6
fd
eb
25
f7
08
01
02
11
f7
fb
ec
09
0e
04
03
f6
12
f1
fe
f8
f5
1d
ef
11
fa
ff
d8
f8
0b
03
0a
fe
fb
00
f6
05
fa
00
fb
0a
ea
f1
08
e9
ff
10
01
ea
1d
ff
06
f1
e5
20
09
fe
20
1f
e3
e5
ed
07
f6
f4
09
fa
01
21
fb
01
fe
16
21
e6
09
f4
03
f1
e4
f6
07
18
f7
ff
09
e0
f5
f3
ff
06
0e
1f
d3
f0
0b
ff
fd
09
fc
02
05
09
f4
03
03
17
09
f1
07
fe
07
fa
fd
f7
07
fd
f9
02
fb
08
fb
ef
07
03
f8
06
f5
03
f6
eb
05
09
00
05
fe
ff
04
0a
ff
fd
01
07
07
07
09
f1
1c
ec
09
fe
fb
0d
01
f5
02
f1
f1
fa
06
0c
08
f5
02
ea
ff
ed
f2
f3
ec
00
0f
f6
0e
03
1a
20
f7
f9
03
03
ef
20
01
0c
03
fe
f1
fb
01
f2
25
05
df
0a
f9
fb
e5
04
ec
ed
fe
0b
f8
fb
02
fe
fa
f4
04
0a
00
11
ec
1b
00
01
0a
09
fb
f3
f7
0d
fc
ef
08
22
0c
01
08
11
02
ff
01
f5
e8
04
f7
f3
10
e8
00
f9
06
e7
0d
f2
12
0e
0d
f2
07
30
e2
f7
f4
f8
0a
f2
03
e9
04
08
ee
08
f0
ef
10
f4
fb
00
0c
f1
f8
0c
11
01
f4
f9
f3
1f
f9
1d
04
0b
e9
12
01
18
fd
0f
03
07
06
0a
fb
0c
e7
07
dc
01
0c
fa
15
fc
0c
ec
0a
f4
d7
01
ef
0f
ff
fb
f3
09
05
13
0a
f1
12
03
1f
03
0f
25
07
e9
0f
06
fe
15
14
02
ff
06
f7
05
fc
f9
fe
f4
fc
07
02
f6
01
0a
fa
05
fb
05
01
0e
0e
f0
f6
f7
02
14
f6
eb
07
f8
fc
0f
ff
f7
f7
ff
00
03
0f
f6
f9
fd
f8
eb
00
fd
06
06
fc
08
09
f7
fc
05
01
fe
fd
f5
14
04
06
00
e8
0a
fb
17
00
e7
05
08
06
06
23
0d
1f
fd
0f
ed
f2
f9
fc
02
ec
05
f9
21
00
f6
f7
00
fd
1d
07
15
04
f7
f6
f6
0b
04
08
eb
05
ef
0c
f4
f8
fa
1c
09
fa
01
f8
04
08
ff
f1
fc
fe
06
01
0b
18
23
01
f9
0d
eb
f9
f8
00
ff
ff
f7
01
f8
02
f4
02
09
07
f9
05
0a
04
f2
08
0e
0f
f5
06
df
09
1b
e4
e8
03
fb
25
fc
02
1a
12
0a
f5
e9
f8
f9
19
0c
f9
0a
10
e2
fb
eb
08
06
00
22
03
ef
12
f6
12
ec
ef
f0
12
f5
07
01
fa
f9
01
05
06
0f
04
08
0d
f7
1c
fe
04
f3
14
13
fe
e2
10
f4
f9
fa
1e
ef
00
0b
fd
f5
fb
09
f6
12
00
0a
f1
0b
f2
13
f5
f9
0b
03
01
04
e3
fe
ff
f5
fe
0c
06
fc
e9
01
f5
0a
15
0a
fe
0f
03
fb
25
ef
14
f7
f4
15
fd
fd
fe
fd
fe
09
05
f6
f0
08
fb
31
1f
14
fd
0b
f7
f7
ee
09
0d
0b
07
de
07
10
0c
f1
12
06
05
11
10
de
08
22
03
16
f8
ea
fb
10
17
00
ff
f6
00
00
18
02
00
f3
ec
07
0d
eb
24
04
ea
07
07
fd
01
1b
e8
07
f7
f9
f9
0a
fd
00
03
1b
00
f5
09
02
ff
f8
02
05
f4
ff
fe
0d
fb
14
08
0a
11
fe
0a
f9
11
fb
fe
f2
01
0d
f9
f7
ee
f0
fd
0c
01
23
f6
02
ef
fe
f5
04
f5
fa
08
01
f2
f6
fc
fc
f1
02
0d
1a
08
fd
05
04
f5
d5
0c
f0
01
ff
07
13
f4
02
04
fd
0f
fa
06
14
f4
11
f5
18
fd
06
ec
19
fa
1f
10
f8
f9
00
fe
07
00
06
f7
f5
fa
00
f7
04
e4
e7
f9
e9
f4
e5
f9
f8
11
01
fb
17
ef
09
f5
41
31
fa
13
ea
22
03
0a
f6
d5
e5
e9
ea
0b
0b
04
d3
f2
0c
06
eb
5a
14
19
fb
16
fc
fc
fb
06
fb
f4
f6
d8
21
0f
1d
ec
14
04
ee
12
1b
04
0b
e1
ef
0a
0e
f9
04
0b
f6
0a
f6
fb
0c
0e
ff
29
de
e5
22
f2
fe
08
fd
08
da
f8
00
f7
f9
00
08
f5
e2
0c
f0
f8
08
13
0a
13
0a
23
0a
ee
04
fb
08
f2
03
0a
e9
f7
fc
f7
0d
02
fc
fd
f5
04
09
06
f7
20
07
12
f4
0f
fb
f2
0b
09
e6
1a
fb
fa
05
f8
06
fc
fb
05
f5
00
e7
f5
0f
03
19
ee
ff
fc
f4
0f
18
00
fe
02
fb
f3
f8
f5
02
f6
00
01
f8
fe
1a
03
fb
f3
00
0f
fd
08
f4
fb
fe
02
0f
14
1a
04
07
07
00
01
fb
00
01
fa
0e
fa
03
fb
ee
fa
0e
0e
f5
00
ff
ff
ff
0c
09
f7
0e
f6
f8
f4
11
fa
ef
05
f0
09
ff
fc
01
0a
f8
03
f8
f8
0a
03
ff
04
00
fb
23
0d
02
ff
f8
00
ef
0b
f8
ff
eb
13
08
ef
3b
06
04
07
eb
20
f8
08
1b
ea
10
e3
01
0f
08
15
e7
05
e0
36
11
12
f4
01
ec
bf
ff
14
ea
03
f2
00
03
0a
04
0d
04
05
e2
f1
fb
fd
f9
06
fb
03
0e
fc
fa
f8
f9
f1
05
0f
07
fc
00
11
15
1e
fb
05
02
0a
08
00
03
1a
f7
10
07
f0
0a
07
0a
fa
f4
f6
fc
f7
f5
ef
fe
01
f9
0b
04
00
05
f8
e8
fc
e5
03
14
f5
e4
07
fb
09
04
fd
ef
08
ec
30
00
fb
09
0a
0b
df
e3
e8
09
eb
f7
0c
fe
27
05
08
f4
f1
17
f7
1f
de
f7
05
41
fd
f1
0a
02
ff
f0
05
0d
e4
ff
06
05
fb
01
f2
02
fa
e7
0d
fc
12
0d
fd
fe
f6
ff
05
09
02
fb
fe
fd
01
f8
00
01
f4
ea
f5
fe
fc
0c
e7
f8
fb
0e
fd
fc
02
fe
04
12
0e
ed
04
f5
f7
02
f9
14
08
ee
fa
1a
03
ed
10
f2
fa
f2
0b
fb
01
fd
fa
31
13
07
f6
f7
23
f4
02
f4
df
0c
07
fc
fd
f8
0e
03
ff
14
0d
f0
fc
f9
0d
09
02
f4
13
f5
0d
f2
07
f7
dd
ee
fe
f6
f8
ee
f0
e9
11
06
f9
0a
ed
02
06
1e
f9
0c
f7
03
de
fb
f1
00
f3
09
12
fa
03
03
18
db
1f
1d
3c
0d
16
e8
f3
13
fe
fa
fd
fa
14
fe
f5
16
f1
e8
ec
00
08
2b
0e
0f
06
0a
f9
b9
f3
f9
f7
fd
f5
f4
06
0d
fa
03
10
f7
01
07
21
15
fc
25
e3
15
06
f8
00
fe
02
f1
fc
06
f7
04
fe
21
08
13
e6
1f
0a
01
fb
07
0c
07
10
17
ec
02
03
e8
f6
fb
20
f0
10
f1
e0
ff
ee
fc
03
fa
f3
fd
0b
ff
fe
e8
10
09
17
e8
e9
0c
fe
03
ff
0c
0d
15
f4
fd
0c
03
f4
41
0c
23
04
e6
fa
3b
08
ef
f9
ef
e8
0a
d6
ed
f9
09
ef
0f
fe
14
f1
f9
08
09
eb
ff
2a
f2
03
0c
fc
10
01
23
05
ef
f7
eb
14
fc
05
02
0c
0e
da
eb
ed
f1
05
fd
0a
11
fc
15
19
f2
0c
09
10
05
0b
1a
07
09
f5
f4
00
0f
fb
f8
f4
01
08
04
00
15
e9
09
f8
06
f2
f0
0d
00
fe
f9
ea
08
04
fe
fa
f7
26
ed
15
ec
f6
03
f7
f7
04
fd
ee
01
f5
f2
fb
12
ff
00
ea
ed
0e
f2
09
0d
f8
f6
06
06
07
04
e8
00
fd
09
06
fb
ed
12
07
fc
0a
fb
0a
13
07
ff
d9
f7
fe
fb
06
0e
2c
f9
da
fe
ff
2c
d8
fa
de
06
08
e5
17
03
f3
e0
12
fe
f7
1a
22
00
1f
e8
fb
03
fd
f1
fa
1e
10
33
f0
23
12
1b
09
fd
09
eb
ff
03
09
f3
ff
f7
07
09
fb
fd
1b
f8
12
12
f4
07
f4
0d
fb
05
f7
e7
e8
03
09
f8
fc
0f
ff
f6
01
ec
02
eb
f9
03
fc
0f
09
f5
11
05
03
07
f6
1e
07
fb
e2
18
08
0a
f2
04
fc
16
fc
ef
0a
e8
08
ff
01
01
00
fb
fd
07
ee
06
ec
ff
fc
fa
f7
0b
ff
0a
0b
03
f5
ff
0f
02
f8
1e
f0
04
f6
08
fb
08
ef
fb
01
09
ff
fa
fb
f4
13
03
08
df
05
08
ea
0e
ff
0d
f1
14
e1
fb
f6
0f
08
f6
f8
12
f9
07
06
fb
02
ff
0a
13
00
f0
00
ec
1a
06
01
ee
00
fc
0a
0b
0b
e1
0a
10
06
2b
0b
0e
16
f8
18
02
1a
1c
0a
d8
04
04
f7
fc
bd
05
f0
10
19
cb
07
08
11
19
f7
f4
05
02
fc
ed
e6
0e
22
f0
ef
fe
01
0d
29
08
10
01
00
26
f7
e1
06
ee
fe
f4
fd
08
f9
01
16
00
d9
08
f9
e9
fc
fa
02
00
f9
fe
07
09
06
ee
f6
fc
06
06
fa
02
fa
f4
05
ef
f0
fd
f7
09
f1
04
16
01
fc
08
0a
fb
f9
f7
01
03
0e
00
18
13
08
01
10
0c
ff
f7
fa
0d
05
ff
01
f3
04
01
f9
ff
13
08
04
03
07
07
f7
04
06
f2
0c
eb
08
f8
06
fa
00
05
09
fa
ff
06
03
f1
fe
ff
fd
fa
f7
02
fb
14
f6
06
fa
fb
fc
03
0c
e8
f7
f7
fe
02
06
fa
06
03
0d
01
02
f3
00
02
f3
ff
04
14
02
08
fe
ff
04
09
08
fc
04
06
fe
0a
07
fe
fd
ff
fd
f4
f5
fc
0f
f6
e2
ef
ef
ec
f5
eb
01
19
07
05
19
f1
e8
20
2f
fb
0b
bd
0b
fb
0c
0f
06
04
fb
0e
fc
14
1e
0e
e6
fb
04
f1
0b
f8
fa
0c
16
0a
f5
f2
0a
01
f8
0b
fd
fb
fa
fb
03
ff
02
03
fe
fb
ff
05
00
fb
1a
fd
07
00
08
04
fe
f7
fc
f8
0e
03
fc
0a
f7
1c
01
fe
f8
ff
fe
ec
07
fc
17
08
f4
ff
ef
01
f6
f7
f9
00
ef
f4
0b
f9
f7
f8
dc
21
f1
e6
04
e5
00
12
e5
1e
fa
fe
07
00
f8
00
f4
fb
ff
05
fe
25
04
e2
ef
ea
19
14
f0
0a
ed
fa
03
08
f1
0e
13
27
ed
f1
17
f4
fb
06
e9
0b
fb
e9
f4
06
ff
f4
23
0b
ff
1b
06
f4
02
f8
fe
f9
06
f5
0f
00
f7
f5
03
ea
fe
ec
fe
22
fc
dd
f5
0b
e9
13
1c
0a
d1
08
f4
e5
02
00
0d
fc
fa
f2
01
06
fd
19
f5
10
06
14
e9
04
1a
f2
eb
04
fb
fb
f8
db
1c
f0
f2
09
fd
fb
ea
e3
07
ef
0f
02
04
09
18
e2
19
10
f5
2c
01
f6
04
f9
0a
06
02
23
25
0f
f5
f8
01
01
fb
fc
ec
12
f0
04
f1
06
f0
f4
00
01
02
0b
fe
03
21
ee
fe
f8
03
fc
10
fb
0a
fe
e9
0b
fb
fc
ff
fd
f9
0d
f3
f3
03
f3
02
fa
fb
03
0b
02
0b
f6
ff
fb
ec
f4
04
12
f3
f6
1c
fc
f4
01
07
fc
f5
02
08
08
00
ef
0f
06
fe
fe
fd
fe
05
01
00
03
f1
ec
f5
fd
fd
06
fb
1a
0b
fa
19
f5
01
f8
03
0f
16
10
17
00
f7
1b
fd
f5
05
08
fe
02
08
f7
f1
05
fc
0e
f7
0b
ef
1a
fd
00
fe
04
04
05
f4
09
0b
05
0e
1b
f9
fa
0f
07
fa
fa
f8
f6
f7
ed
0f
13
fc
f6
1a
ea
0f
f8
ff
0e
fd
08
02
fc
f9
02
f1
0b
0c
f9
07
eb
fa
f3
00
fc
01
09
fd
07
f9
19
f9
f1
f7
f5
17
f4
ef
f6
fa
04
09
03
fd
05
0c
fa
06
0c
f7
f6
04
09
f8
01
f5
ff
fa
0d
01
f3
02
0b
f7
f5
f2
f5
f3
f3
01
f0
0c
f7
ef
04
00
f5
ec
07
01
f9
00
17
07
fa
fa
00
f9
f9
00
1a
07
f4
00
fd
fd
07
11
03
fe
f9
05
02
07
07
fd
ec
05
13
fb
05
f6
0b
e7
12
03
02
07
fc
02
fd
0a
f6
fc
02
f0
02
f8
f7
f2
09
ff
ea
05
04
00
03
04
01
ff
07
ff
fa
fa
fa
fa
f2
f9
fc
02
01
11
01
00
fb
ff
05
fb
fe
10
0c
f1
0c
fc
fe
f9
ff
fb
10
06
03
fe
07
f3
21
04
01
fe
ff
f5
fc
0a
fd
fb
f6
07
fa
03
ea
e9
f3
02
00
fa
0e
f2
11
fb
e2
f8
e9
d6
05
0a
34
0f
ea
ec
dc
0b
f1
05
16
1a
ef
0a
e4
ef
02
10
02
f9
fa
ff
04
17
fc
2f
fa
00
ff
02
0b
00
0f
0a
f8
e5
f3
ef
fe
f2
14
03
0a
fe
08
d2
fe
02
fc
fe
ef
f7
17
07
fc
19
03
eb
ea
0a
fc
05
12
f3
fc
09
fc
25
09
03
00
f5
e8
f6
f0
00
ff
03
07
fc
ff
f8
02
f9
13
fd
04
14
05
0a
f7
25
f8
e7
0b
0d
11
02
fa
f7
03
f0
fc
06
fa
03
f7
f8
0b
fe
fe
04
12
f4
ff
05
1b
00
0e
f3
fb
24
f8
f9
13
f3
06
fa
ff
fe
0e
fb
e5
fa
03
09
10
fb
f9
09
f8
e6
f7
0b
08
08
fc
0b
01
ef
0b
f9
04
0e
fa
03
ef
fa
fb
0a
f6
fe
04
0a
fe
fa
00
fd
ff
0b
07
f3
fe
06
fb
fe
fe
fc
0a
fc
f4
02
06
01
0c
fc
ec
14
f6
07
ff
0c
00
02
fe
fe
fe
08
07
fa
0e
fa
fa
fd
f5
f7
02
06
02
f6
f8
08
1c
04
f9
fd
f6
ff
ed
02
f7
00
06
fb
01
fd
01
08
07
f3
09
ef
f2
f1
df
0c
ef
00
10
fd
13
fd
1c
ee
16
f8
f0
08
ff
01
1a
01
f5
02
fa
f3
0a
02
00
02
04
12
ed
f7
01
f0
02
fd
fd
15
f1
f4
00
f1
f1
fb
f8
05
0c
15
0a
f7
f5
fc
fb
f8
01
f9
f6
fc
01
ff
03
fd
02
fa
05
fd
f1
f8
02
04
06
ea
04
ef
05
1d
0c
f5
08
04
f0
14
f6
04
06
ff
fe
03
f9
00
03
fa
05
09
02
06
ff
f4
09
13
fb
fd
08
f6
0b
03
f5
f2
24
01
e9
f0
04
05
f8
fd
00
0c
01
02
f7
eb
fc
fd
06
08
f2
f9
fe
0e
f1
f5
0b
01
1a
f8
1d
f3
f9
e6
fc
03
03
0a
f2
e5
19
f4
f4
f4
fa
fd
f6
19
05
f5
08
e2
f5
f4
e5
f8
1c
0c
f5
ee
f1
f6
f5
3c
0b
f7
0c
0a
09
f8
fa
0c
e6
0e
0f
f0
13
f9
f1
fb
f9
f3
e4
09
02
08
fd
f7
06
0b
01
f6
f2
e4
f6
ff
fa
0b
01
07
ff
fc
03
fd
fd
14
fb
00
1c
f6
fa
f9
fd
fd
1e
f8
01
02
ff
03
fb
fa
06
ff
10
fe
f4
f8
0a
16
00
fe
05
07
02
03
03
0f
04
0f
06
0a
02
09
fe
f1
f5
f9
fe
0e
fd
09
fc
f5
ff
05
ea
03
07
fd
f9
12
09
fc
0b
f7
0b
fb
f4
01
fa
fc
fc
f3
f9
09
12
01
04
0b
ff
f9
14
05
f3
f9
03
f2
f4
ff
f3
f5
01
f8
fd
01
10
08
fc
f6
ff
08
02
0e
0b
f6
ef
0e
01
ff
eb
fd
f3
1f
f7
ff
fe
fa
eb
ef
fc
f3
fc
07
fa
f7
0a
0f
0a
f2
fd
13
00
03
ea
0e
01
f9
02
ff
04
fc
09
04
e9
e2
00
e4
13
0a
04
05
0b
f9
07
04
fd
fe
e9
02
1d
02
22
0b
19
00
03
15
ff
06
01
03
ea
01
ea
06
fa
f2
07
04
f1
15
f5
0a
f9
0b
f1
f3
f4
01
00
0e
0f
02
0a
f9
fc
ed
ee
06
04
11
fb
0b
fc
05
06
1f
e2
e9
06
07
fa
f2
eb
f4
0c
f8
ef
f1
f8
08
1a
fd
fd
f0
ec
07
00
14
f8
f4
ee
fb
f3
03
0f
13
01
10
02
fb
fb
05
0c
01
f9
f9
fc
00
f6
09
f9
f9
fc
ff
03
08
0d
0d
16
07
18
0c
fa
f9
0a
ee
16
f9
f4
f2
f4
fb
e4
08
fd
f4
05
00
0c
00
e7
03
15
ef
0b
2d
e7
ff
ff
13
e6
ea
ff
07
f2
ff
fd
0a
09
01
25
0d
09
13
10
fc
10
f5
fd
eb
01
f4
e5
21
02
fe
12
20
e8
0c
05
00
0c
3c
fb
0d
ff
f9
0a
fa
fc
09
0d
f4
f2
03
fe
f8
04
f6
f9
01
01
fa
03
ff
08
1f
fb
0d
06
fb
08
12
ee
05
01
f6
0b
0c
fe
fd
fe
f6
f1
03
11
e8
0f
03
f1
07
fb
f8
0a
17
00
f6
fa
ea
0f
00
e9
0a
09
fa
0b
fd
fa
00
fa
11
fd
03
04
1c
0e
08
02
fb
eb
08
f7
f5
10
f2
fb
38
f6
fe
1a
f6
1a
eb
05
09
04
f2
00
f8
10
03
03
fc
01
ff
04
00
fa
f6
ff
ff
f8
f5
08
01
04
03
0a
f8
f6
ee
02
fb
0d
0a
09
0b
fe
0b
f2
07
06
01
03
00
ff
fd
ef
06
21
f2
fa
00
f7
f2
fe
07
f4
08
04
00
20
22
02
ed
f4
f2
f1
f6
f8
ff
11
ed
f2
f1
f1
05
05
00
f5
0d
ef
10
1a
04
11
fe
0c
ed
0d
e7
ee
02
f7
f1
14
01
0f
f8
f8
03
06
02
fb
18
06
0e
01
0c
0f
fa
f9
fd
e9
fb
fe
0b
fa
04
0e
fe
16
f9
0d
fd
f9
07
00
01
f9
10
fc
1a
f4
10
fe
0c
09
00
13
fe
fe
f6
f3
01
08
0c
00
f0
da
0d
00
02
02
17
40
f2
d5
0f
ed
dd
fa
cb
df
1c
19
00
14
e2
e3
f5
ef
e6
08
06
f5
f3
02
ea
10
f0
e6
2d
fc
1d
0e
f1
0f
07
1a
05
05
27
01
ef
dd
14
e2
e5
fb
1a
ff
00
fc
0f
01
15
05
14
06
f2
2f
01
18
fb
fb
10
f4
f7
f9
14
fa
15
f1
fd
e4
e8
ec
f6
0a
0b
15
03
11
04
f7
1c
05
fc
0d
f7
fb
e8
f9
0d
fa
00
07
f7
fe
0b
f2
f7
ff
0d
06
fd
2a
00
20
1b
2f
fe
eb
00
f4
f4
ed
03
0d
f5
00
f5
07
d8
fd
f5
ef
23
fc
f7
01
13
ef
fd
fa
f0
f4
ee
0a
f0
f4
ef
1d
fe
f6
04
f7
04
0d
10
0f
f0
f4
fa
20
eb
f1
f4
ef
fd
01
01
13
ee
08
f2
fc
f8
18
f5
06
03
0d
06
0b
fe
00
2a
09
08
fa
f6
fd
01
00
fa
00
f7
ee
ed
04
fa
0e
f7
ff
ff
f6
ff
fc
09
f6
f5
e8
ee
05
fc
02
f2
ef
07
f0
1c
18
02
f1
fe
0e
ee
f5
fc
fe
09
f7
ee
1a
f5
06
17
05
01
04
07
f2
08
f9
ff
04
06
ee
f2
fe
2a
ea
0f
10
fb
e7
fc
ea
e5
fa
e9
0f
f6
03
fb
01
ee
0d
fd
f8
ea
07
09
25
e1
ee
fc
04
fa
1a
03
0f
07
06
fe
1d
05
fd
01
ee
e6
16
02
ea
1e
f3
0d
09
fa
ed
ff
0b
05
e6
f4
f7
0b
02
ee
02
07
15
fc
e2
00
ff
08
fb
f1
e7
02
f9
ff
12
02
0f
f5
12
05
f7
08
01
01
0b
f2
08
fc
f9
ee
09
00
f8
0a
09
03
f3
1b
fd
fc
f5
fb
f7
10
fd
08
00
13
fc
f3
f1
04
fa
ed
04
f7
06
0e
00
18
0e
05
06
1e
ec
ff
10
f6
f1
07
17
01
1f
0c
f1
fb
0b
f0
0e
08
fc
f8
f9
f6
0d
0b
03
f3
f7
09
08
0a
0a
03
f4
09
16
0b
ff
12
e6
02
ee
0e
08
ff
02
06
f0
f8
28
f0
f2
f9
f8
fb
f6
e9
02
f1
0a
fb
f8
f8
19
06
f1
fe
fb
27
fc
11
06
06
19
f2
0c
08
14
0d
f7
f9
07
0a
fc
03
05
ed
05
fb
08
0a
f1
00
03
05
18
0c
f6
11
fd
e9
17
fb
eb
f1
09
13
16
f1
f6
0b
10
0e
0a
0c
0a
fd
15
15
db
ea
ee
f6
e8
fd
f6
19
e8
0d
08
fa
ec
15
ef
0a
05
13
13
f2
1e
ed
18
ec
14
fd
0d
15
ec
fa
24
09
0a
ee
1d
f5
0d
10
ff
f6
ee
14
07
01
f0
f7
d5
f9
13
eb
43
0a
ef
e6
15
06
f6
ff
02
fb
f3
33
ea
15
05
06
05
fb
ee
f4
16
ee
07
fe
f4
03
05
09
1c
06
0d
fe
0a
eb
0a
08
d8
0a
e8
0a
f2
fb
19
df
12
01
04
f9
f7
f2
05
0f
f4
08
f6
02
f9
ff
01
04
01
00
04
03
fd
06
07
05
0b
f2
00
05
1d
fa
fd
04
fb
0d
fd
f3
fb
f3
fe
f8
14
fc
07
09
09
fd
02
02
09
fe
14
ee
f9
ed
00
0e
02
f3
0b
03
ef
09
00
ff
07
f1
15
fd
22
0c
ee
0b
e5
0a
e7
ed
05
16
fb
eb
03
01
13
07
f8
14
f9
07
18
02
f9
01
f3
0a
f7
eb
fa
19
f6
19
f4
fc
01
f8
f2
0b
fd
09
02
fe
f1
0b
ff
fa
0a
ee
f1
03
f6
f8
03
f6
0c
fc
09
fc
f7
08
04
ff
ff
05
03
f0
ff
ff
ff
0a
11
04
f3
fb
02
07
f4
05
00
01
fa
f2
ff
03
01
0f
fe
fc
fc
11
05
fa
01
02
f9
08
f8
01
0e
0e
0a
02
fe
f8
1c
04
0f
f1
04
f2
ef
fc
0c
09
f4
0b
02
ee
06
0c
f6
03
f8
f2
02
fa
00
fe
f5
f8
ff
06
f0
fa
fb
fb
07
04
0f
f2
02
f8
f0
e9
fe
ec
ff
f6
09
f6
f1
0b
12
02
0c
07
05
00
f5
fe
21
f2
0f
f1
f9
ff
08
f5
16
e9
ed
07
e2
31
ec
21
fd
fb
0d
0a
25
db
ee
f3
0a
01
e4
e9
fb
fc
3d
f6
19
03
e8
0d
08
0e
13
27
f9
ff
fb
06
06
12
04
f2
f0
ea
1e
0c
f1
01
32
f7
e7
06
ea
f2
01
ff
fa
0a
f6
0e
04
f3
02
0c
f9
f8
00
fa
ec
f2
fe
fb
01
f8
04
0e
fc
0f
03
04
fa
ed
14
00
02
fd
f9
fe
05
01
04
f3
00
02
fc
f9
0a
ff
f3
03
f7
f1
f7
10
fa
f6
0b
f4
19
02
fe
12
11
05
18
0d
08
03
fe
f8
0f
19
07
05
10
02
02
fd
fb
0c
f4
ea
03
02
0c
12
01
11
02
0f
03
ff
0f
f7
05
02
08
f2
ff
0b
02
fe
f3
ff
f1
f6
0c
0a
04
07
04
0c
09
ff
03
fc
0a
01
fe
f8
fc
08
0b
03
02
08
00
0a
0c
fc
f8
f7
f8
f5
fa
08
fe
11
03
04
02
f8
03
04
03
0a
04
f5
ec
ff
f6
0b
0a
11
01
fc
dd
11
01
16
f4
fd
eb
0a
f6
fc
01
01
f5
01
f9
10
09
06
02
fe
13
07
eb
03
fd
fb
f6
03
03
f8
fe
f1
02
09
0f
05
fa
f3
ff
fe
f3
f3
11
ee
01
fc
0f
03
04
f8
fb
f9
17
12
05
f8
11
e4
0f
08
02
f3
09
f4
ff
10
f6
04
e5
10
1f
04
1e
0a
de
fd
05
f9
11
02
f9
06
08
d5
08
f8
08
f7
ec
00
f7
1d
00
fa
f8
ff
fa
f8
f8
0d
f8
fb
fa
01
fa
fc
0a
00
f2
fa
f8
0f
05
04
ee
05
12
06
0d
04
ff
06
01
fc
03
04
f7
f6
ed
f4
05
f6
f7
07
f7
0e
09
ff
f2
02
09
ff
09
ff
0b
00
fc
0a
0b
fd
fc
05
02
fd
f9
04
f3
f9
08
fd
fd
02
fb
01
fa
00
f7
f8
04
ff
f9
f6
06
00
06
13
06
fd
fc
14
00
0b
01
04
ef
f2
0b
16
fe
05
22
0f
10
07
00
e2
13
09
0a
f6
f3
14
f1
fd
fc
f1
f9
f9
f9
ee
04
0b
f1
fa
f9
fa
00
fb
06
f8
f8
fb
fc
0a
0d
0f
fc
02
01
fe
fc
08
f3
f5
fe
fb
f5
fa
04
fd
ee
f0
e3
11
03
f1
fa
f1
0b
0f
f3
ff
f8
03
f1
e7
08
e8
03
f3
00
06
01
f8
08
08
f0
11
0b
00
f5
0f
fc
04
0c
0e
fb
eb
05
03
0c
98
16
f7
10
01
0c
f1
14
c4
02
05
fd
da
fa
e4
fc
fe
04
0d
07
14
03
fd
06
15
04
f1
f7
00
e1
ff
08
fe
f8
f7
0d
f2
f7
09
00
05
2a
fa
f2
cb
05
ec
18
09
04
06
ef
ed
0b
ed
04
07
10
f1
1b
df
eb
fb
fb
00
01
f1
fc
01
06
f0
07
f1
f6
11
0c
fd
32
ed
0f
09
0f
fc
f8
00
f1
f0
e2
06
ea
07
0e
eb
06
00
e9
08
f6
08
0d
ec
01
f9
2c
05
07
10
09
e0
03
7a
e7
0b
f9
0c
f1
ec
08
05
f5
fb
fd
0a
07
ec
09
f1
00
07
01
0a
f9
f5
06
08
05
16
ea
08
0c
ed
00
b6
f6
fa
f8
f6
18
f7
f7
ed
10
02
07
dc
01
02
06
f5
fb
fa
07
09
ee
1c
f2
fc
04
f8
03
f5
ff
e2
06
fc
00
ff
eb
fd
07
12
ff
03
03
f8
f6
ff
ed
fb
0c
f3
ff
04
ff
f0
eb
fa
0f
07
f4
04
fd
e7
ea
02
dd
fb
f2
14
00
fc
fb
f7
08
f5
04
fe
0d
0b
f1
ea
ff
f3
fa
0d
ff
ee
fc
04
00
fd
09
05
fa
f5
f7
0b
14
0f
f1
00
ee
18
fe
08
f6
0d
eb
fd
f7
f3
fc
09
ec
0b
ed
04
ff
00
e7
05
04
08
f9
ff
04
1b
1c
f9
01
05
fe
03
11
f9
17
05
18
10
f2
f5
04
00
f0
07
f9
f8
00
0b
f6
fa
fd
1d
05
0b
00
01
ff
f3
05
03
07
fe
ff
f5
f7
05
06
05
0f
01
0a
fc
0a
23
fe
06
03
f1
f9
13
e3
fd
f9
f6
ff
15
f8
fc
01
06
1d
02
f7
f9
fb
03
15
03
f8
0a
f0
f1
2b
08
16
01
09
fe
ea
0a
ff
f2
fa
f5
18
01
ed
f3
05
0c
e3
fc
fc
ef
fb
07
fa
04
16
01
0c
27
06
e6
1f
00
f9
d8
fa
f9
11
e1
f7
17
f4
06
02
17
ff
0b
f5
fe
08
e1
fe
f4
21
ff
e2
f8
fa
0f
fb
ea
00
00
f4
f5
37
16
f9
05
f5
eb
07
fe
f8
f4
ee
06
f7
12
f1
0d
e8
0a
0d
0e
fc
fb
ff
22
07
fe
07
06
0c
f8
10
04
fc
f7
fe
00
04
13
fa
07
0c
03
07
06
fe
0b
ff
07
0d
01
08
06
fa
fd
04
f8
f9
fe
f9
fe
fa
fc
00
08
00
07
09
ef
fb
f9
fe
0b
fe
fc
0a
ef
ff
04
f2
ed
f6
26
f2
04
0a
10
fd
04
0a
ef
07
f8
08
f1
09
e5
ef
ff
01
05
07
0c
f0
21
f8
14
f7
0d
03
f5
01
f8
eb
f7
f9
f0
ec
02
09
0a
f9
20
00
04
05
01
03
ee
fe
fc
01
fb
fb
fe
0c
f2
fa
20
f8
fa
0a
ff
f8
0f
f8
05
f9
05
03
f6
fd
12
e8
f7
08
06
10
0c
fe
fb
08
0d
00
03
02
ff
fc
07
0a
0b
08
13
f8
f0
1a
08
00
04
fc
02
ff
13
fe
01
fd
f5
01
f6
f4
02
0b
05
ff
fc
12
fc
0d
f3
f8
f6
0e
ea
ff
f8
0c
04
0b
fb
0a
ea
01
fc
0b
fc
0f
14
ff
0d
01
00
fa
08
f3
0a
f6
f6
02
dd
e0
de
fd
03
e6
f8
f7
ff
14
e3
e9
0c
12
fb
1d
05
39
f9
1e
03
f9
0a
09
ef
0b
fb
00
18
13
f6
1b
f7
07
e3
11
03
ff
05
fd
e9
18
01
f9
f3
fa
01
18
f5
e9
ee
f9
fb
07
ff
ff
ff
f2
f5
03
fa
f0
f1
f0
03
15
04
0f
04
fb
ea
0f
0f
f4
10
fb
0a
06
03
fa
0a
f0
31
1d
1c
ee
19
fa
cd
df
0a
ff
ff
09
fe
fe
0a
0a
dd
f6
ef
0e
30
0d
ef
fe
f7
1d
13
16
03
f2
f0
f9
e2
ea
0a
ff
fe
24
f6
07
09
f4
e2
18
f6
f1
fc
f6
f5
10
f0
02
04
00
fa
f1
fd
0e
f0
fc
04
f5
fe
f9
ea
f5
ff
fa
ee
ed
f8
06
08
fb
f9
fe
f7
00
05
fe
0a
f6
f5
fe
f6
00
06
f6
02
00
04
02
fc
f0
19
07
fe
f8
08
fa
05
f3
fc
01
08
0a
05
f9
f6
f6
fe
00
f8
fd
03
0a
f7
f9
0d
f6
ff
04
f4
ff
01
ff
00
07
fe
fb
05
00
fb
00
00
03
0b
01
ff
fe
05
09
ed
fe
f0
20
09
31
f4
1c
fe
f2
ff
d7
0e
e4
f4
1b
de
fd
e7
06
1a
ee
1e
1f
ee
00
00
03
15
11
12
01
5d
16
12
fb
04
14
cb
e8
d4
08
0b
6c
27
f5
ea
fb
f5
2d
ec
01
0b
fb
01
0e
00
fb
0b
f4
f2
10
0b
ed
0c
fa
0e
ff
fd
07
f9
04
fd
fa
09
00
05
04
01
f7
08
f0
00
0b
0f
f7
05
10
f4
02
f1
fa
08
ff
14
07
02
fa
f7
fe
f9
06
ff
08
08
fe
09
eb
03
11
fc
f8
00
ef
07
fe
e9
f9
09
0e
01
09
fa
fd
09
0a
f2
fe
fe
ff
02
09
08
ff
00
07
fd
1a
fa
0e
20
02
fa
f3
f4
01
04
ef
fe
e7
fb
0a
04
f5
05
e9
f5
ee
f6
f9
0e
f7
1c
e9
04
e2
07
f6
fd
04
01
fb
14
fa
f3
11
15
df
ff
fe
03
0f
00
00
2c
f9
fc
f6
07
f9
f6
18
13
f0
f8
f6
0f
fc
ff
02
f8
03
f9
1d
02
03
fe
02
07
ff
fc
02
fb
0a
07
fd
04
01
01
05
01
04
f9
07
fc
fe
f0
fc
f6
fc
f7
07
01
f6
0a
f5
fc
02
08
0f
f6
02
00
0e
fc
fa
03
00
05
01
fd
04
18
11
08
03
08
f4
0b
f3
05
07
07
fe
ff
ec
00
f8
fd
00
ff
0b
0c
1a
f3
f2
04
07
e9
03
fa
fd
f0
f2
ee
ef
02
05
f4
f8
06
f5
07
33
fe
ff
04
03
03
ff
f0
07
f8
fe
f1
f3
fe
ee
f1
14
23
f9
05
13
e5
0a
00
ec
fa
0e
f2
41
0a
25
f1
0f
fe
de
eb
12
ee
f3
29
00
e8
fb
e3
05
e4
00
fe
01
ea
1d
1a
2b
18
1c
0a
21
ef
fc
fe
e3
04
e3
23
f2
fe
15
0c
88
f1
f4
ed
0f
fd
06
fd
03
fa
f3
14
11
d5
ed
00
e9
ec
0d
f9
00
18
fb
f7
00
12
ed
25
01
03
0b
fd
f8
01
ff
f8
f9
e0
13
f7
22
e9
04
1b
05
16
f9
0b
e2
f7
13
0b
05
fb
18
ff
09
f6
f9
e3
f7
0c
f8
05
f0
fc
09
ff
05
f7
fb
ec
f4
f9
ec
01
11
fd
fa
eb
f6
23
ef
12
f6
04
f3
00
f2
fe
04
05
02
03
15
01
fc
f9
0b
f9
e5
f2
f2
05
04
07
03
11
f2
05
14
0b
23
f8
0a
25
fd
ed
04
e6
10
16
01
1a
0b
0e
16
06
15
f5
03
e7
f8
13
16
f3
d6
f7
ed
f7
f6
ee
e0
05
ff
01
16
fa
ee
fc
f6
17
1c
01
f1
fd
22
f5
ec
04
fa
1b
ef
1e
41
ed
e1
da
05
04
0a
fb
2b
f9
1b
ec
fa
dc
04
1a
f9
03
03
fe
fa
15
0c
e0
f6
ed
ee
f5
dc
07
12
07
f9
f3
ff
fa
1d
fd
0e
fc
0a
f7
fa
06
dc
0b
0d
06
f9
f0
f7
ed
1a
20
fc
fa
f2
f5
f7
ea
06
f1
02
ee
1a
f7
16
08
0d
07
fa
f2
16
03
09
fa
f8
fb
03
10
f3
f7
e9
f3
f4
fc
00
00
fd
e4
f7
fd
06
f2
f6
f0
08
fc
02
fc
02
0b
00
ee
0c
00
1d
0a
fa
e5
f5
f9
f3
07
fb
f9
08
f9
00
08
f5
ff
fb
fe
09
01
fb
07
1a
f9
0c
0a
2a
f0
08
fa
ea
14
f3
00
03
fe
fa
06
04
f8
0c
01
0a
f8
01
6a
f7
12
f4
18
10
f6
ed
2e
12
d9
05
04
fa
0e
e4
f9
cf
f1
05
e3
01
1f
f9
03
fd
00
0c
e0
ec
f8
15
e0
42
f4
0d
f6
17
0f
e1
17
e5
f2
f7
02
06
e9
08
13
ef
0d
02
e4
f8
06
04
08
00
29
ee
ea
1f
0a
01
05
fa
ef
ec
02
fa
ef
05
fa
20
03
f8
fb
14
fc
f7
e7
02
09
f5
ef
07
07
f9
02
f9
ef
fa
07
06
0d
05
05
02
01
02
fd
eb
02
0c
0c
06
fb
f8
07
fa
07
00
04
09
f7
fd
05
0b
00
0a
12
f9
fa
0e
04
06
ef
fd
e9
fe
f2
f3
17
fa
05
01
eb
08
08
02
07
f1
f6
fa
f0
07
09
f7
fd
e7
22
e6
fe
f9
0c
e7
eb
f7
ee
0c
04
fd
00
fe
f6
e2
07
04
e5
01
f9
e5
f9
e4
fb
1e
07
24
00
f9
04
04
15
3c
fb
ea
05
f4
ec
e1
e5
f8
09
fe
00
10
02
04
f5
05
fe
01
19
04
f0
12
f8
e2
28
05
f5
f5
fe
0b
ff
05
09
cc
ed
06
1d
12
09
04
0f
09
13
f8
06
11
f6
0a
ec
fe
06
06
f8
f6
0a
f4
fc
00
04
ff
f9
28
0a
09
03
e2
fa
fe
fe
de
f2
f5
fb
f7
f5
fd
e3
08
13
02
fa
f3
07
0f
f1
ff
06
f5
f3
01
16
02
e5
09
f6
0b
e9
15
03
13
f3
09
fd
ff
f0
c7
17
0b
fe
04
1c
ec
fc
e9
0b
ee
14
19
1a
03
03
dc
15
e9
0f
06
f3
f4
e0
fb
0c
eb
f5
0f
e3
25
0b
eb
10
f5
f2
13
fa
eb
13
04
0e
00
e1
ed
ff
0f
02
ef
fb
07
fa
04
06
09
07
0b
ff
15
02
fc
09
fc
0a
10
0c
17
07
0a
01
18
fe
fc
12
0e
fa
08
01
ee
fb
0b
f2
0a
0d
fa
0c
13
05
f8
0f
06
06
13
05
08
de
30
f3
0d
fa
f8
dd
26
16
d8
0b
e5
09
e6
e2
e8
02
05
03
05
fb
0a
f3
06
ec
ca
ed
0a
ef
28
09
08
01
ec
02
0f
04
ff
ec
13
e9
fa
45
11
0c
04
e6
f4
03
fd
05
0a
0e
05
07
fd
06
0c
06
00
07
ee
00
f8
f5
02
00
09
f7
04
04
f4
ff
03
ff
01
12
09
0e
0d
0a
06
00
f7
0c
fb
fa
01
07
fd
00
fe
f5
06
0a
16
0b
16
f6
ea
09
f9
ee
a5
f8
07
fb
0d
f9
f5
f5
fb
00
0f
f1
f4
f5
1e
f3
03
04
0a
0c
13
cc
1b
07
05
06
02
29
07
fa
fa
02
f3
09
0c
15
ea
04
0b
05
18
0a
0c
02
f8
f8
f5
08
04
03
0d
f6
09
0a
fe
01
f8
04
0d
f2
05
f9
14
07
0f
1a
0d
f9
19
02
1a
f1
09
f4
ec
04
fc
05
f9
08
06
fa
09
0e
02
09
fa
fc
09
13
f6
fb
0d
00
fa
09
03
fc
03
09
f9
05
06
f4
fe
03
09
0f
19
05
07
01
04
13
01
fb
f5
05
0d
0c
10
11
04
12
14
04
17
05
fa
16
08
ff
f5
04
ff
06
fd
f6
08
01
0e
fa
fc
f4
00
08
07
04
f8
08
f9
fe
02
ff
01
06
03
f6
00
0d
04
f5
09
fd
01
04
0c
0e
03
10
07
0f
f6
05
fd
08
12
01
fa
01
00
f5
fe
ea
fe
08
f4
de
11
14
04
ff
01
fb
f3
08
1e
f1
1d
1e
f8
ea
e2
06
29
12
fa
ee
fb
e9
03
1a
df
eb
e9
e7
1c
f9
de
e5
2c
fd
f0
ec
e1
e2
fb
19
16
e9
31
ea
00
f6
f0
f9
09
fa
00
11
fa
15
00
ff
ff
01
08
00
01
f8
f6
fc
01
04
fd
01
08
fa
f6
fa
04
fb
05
f3
08
07
f1
f8
0b
02
fc
0f
04
fc
fe
11
07
24
f5
01
ec
fc
fe
e9
ee
0e
f1
12
f8
fe
27
12
0a
21
f8
03
10
f9
03
08
f7
09
f5
f0
f6
01
f5
ef
fd
03
0c
1c
18
1b
f9
f8
15
ea
fb
ec
fe
01
00
d8
ec
fb
fd
f2
06
01
fa
f3
1f
f7
0b
1c
00
23
01
0b
e2
01
0a
fd
dc
28
e6
fe
1b
06
e6
ec
f5
03
0f
f3
f7
f8
05
f4
f4
08
ee
0f
22
f2
04
0f
f6
01
02
ee
18
08
f9
03
02
fe
08
0c
0d
f4
04
fe
0c
09
09
20
fd
fe
04
f4
0e
05
f6
05
f4
0a
09
f8
fe
08
fc
22
f3
05
0a
fc
fc
f6
f8
0c
11
01
fc
f2
fd
fa
00
03
03
01
04
05
ee
fd
14
10
11
22
f6
f9
08
ff
01
0a
11
fa
fb
f0
09
0a
04
fc
03
00
0e
0d
0e
11
f7
e8
f0
03
0d
fe
21
fd
09
11
f9
09
10
03
0b
01
f8
00
e9
ee
f4
03
10
0a
01
f5
20
04
0c
e9
df
14
f6
e8
e7
0a
de
0f
0b
f5
28
14
e5
ff
fd
ea
e6
f5
33
e5
fb
fe
08
ff
0d
ea
ff
fd
07
fc
fc
18
f4
27
09
07
12
ef
f4
f2
03
08
0a
1b
18
e9
02
07
f9
fe
fd
09
02
06
f5
fe
fc
00
fc
07
fe
fe
fa
f7
f9
01
0b
03
ed
ea
fe
08
0d
09
fe
0a
fa
f5
08
fb
e8
fd
05
f8
f5
04
1d
03
05
0b
fe
ff
09
02
f7
fa
f1
06
fb
04
09
01
04
02
f8
fe
fa
ff
fb
05
fd
03
f7
fb
ff
0b
12
06
10
ff
fc
fd
fe
f9
04
09
f4
ed
fc
fe
fe
fc
f9
fc
f8
0a
f6
03
f6
0c
05
0d
01
01
f4
ff
f9
07
f5
ef
e4
0c
0a
00
ec
02
fa
07
ff
02
f8
05
fb
04
17
12
0f
00
0c
f9
04
0a
11
15
12
15
0d
e7
f9
1e
ec
ff
f9
04
10
fc
02
0a
0c
06
ff
ed
21
0a
fc
fa
09
fb
e4
eb
f3
04
18
ff
00
fe
07
01
f6
ee
07
e6
03
0b
03
ee
f4
0b
02
06
fc
fc
16
f7
e7
ec
01
f7
f6
0b
02
01
fe
2f
f8
06
16
fa
0d
fa
fa
fb
ff
17
0f
f5
07
03
06
f8
13
17
ec
0a
00
0d
f7
02
08
12
f3
f4
0c
ed
fb
f1
01
ea
f5
fd
03
f6
f9
15
f9
12
0a
e6
fe
f3
e9
ef
00
0e
04
07
06
15
16
eb
f0
26
05
f6
01
11
23
12
05
18
eb
fa
e6
e8
f2
dc
e7
f6
e1
f7
e8
fa
e1
14
f1
09
07
0f
17
05
09
0d
13
07
12
16
fa
08
fe
f9
01
25
f6
f0
f3
f2
fb
03
09
f8
ee
fa
03
fb
07
05
04
00
f2
07
01
ff
00
ee
05
f4
f1
fb
07
08
13
f2
02
ef
00
00
06
f9
fb
fd
17
06
fc
06
ef
ec
17
fe
00
e9
ea
fd
fd
0e
e3
fb
2c
f7
0d
e9
ea
1a
0e
e8
15
f0
02
06
02
f4
11
f5
07
fe
04
27
f3
06
19
f3
f6
fc
08
04
e4
0a
07
f3
f6
f9
fa
07
09
11
11
16
03
1a
f3
dc
05
0a
e2
18
fd
fd
02
08
f4
f3
01
0d
0e
06
e6
f6
fd
01
00
f3
18
14
ff
fd
0a
02
17
ff
0d
fc
fd
ef
03
fe
18
02
0f
f1
f1
f8
fc
d5
ea
02
f7
fd
fe
01
08
fd
05
05
02
f7
06
00
0b
06
06
08
fe
fe
fd
01
f2
0b
02
fd
f6
fb
07
f9
f4
01
f9
04
fc
fb
fb
ff
fa
fa
0e
f3
05
05
fa
f4
f6
fa
06
fa
fb
14
13
13
f2
fd
ee
08
05
fc
fd
0d
00
19
f9
09
ec
ec
f8
f1
e3
18
06
0c
0e
fa
fa
ed
f7
13
11
03
0f
e7
f2
00
0d
e3
04
fc
fe
ee
ff
f6
01
0d
09
06
fc
f6
f2
fb
0d
fe
05
10
00
07
fa
05
fc
fc
0f
f9
f1
09
fc
01
fc
fa
07
f5
05
0a
0d
ed
fa
f2
f7
00
f8
04
fb
f8
f2
09
fe
01
f3
09
0b
fe
01
09
27
0d
f8
05
00
ee
03
ff
eb
00
f3
f8
1e
ee
08
01
12
0d
fb
f8
f4
f8
f0
f5
05
f4
00
14
04
03
fd
f4
0c
df
fd
06
fc
fa
f1
05
f2
02
05
fd
f0
09
f6
1a
01
ff
fd
f3
02
fe
fc
ff
f0
fa
f0
f5
07
01
00
fa
fd
01
0b
06
ff
fd
fe
ff
05
fd
fa
f7
e9
00
02
05
04
14
ff
ed
02
04
05
0a
f3
03
f9
07
f5
f0
ff
ff
fa
07
f8
e1
c4
10
ed
52
1e
0b
ff
fa
1f
a9
05
07
0b
17
ed
f8
d3
fd
fe
cc
20
05
fa
e4
06
32
03
f5
fc
f3
fb
fd
17
f2
f9
ee
f9
08
1b
e2
e1
de
06
e7
09
01
06
ff
05
fa
ec
0f
0d
0c
06
0c
f2
0b
08
fe
f7
03
ed
f9
10
ff
03
05
03
07
f3
06
08
f3
0f
01
fb
0e
0e
fe
00
07
05
fb
f5
11
02
0b
01
07
fc
00
f9
f8
00
fa
f4
1a
f8
04
f9
0b
02
fe
f5
fc
fe
01
02
01
fa
fd
fb
0a
fa
fa
00
fe
ff
02
0d
f5
0a
f4
04
f7
0a
ff
fe
f6
05
fe
05
fe
09
05
fb
fc
f6
e9
f5
00
0c
0b
0c
f5
08
f2
e4
f8
08
fe
11
13
0f
e6
0f
09
00
00
03
ff
02
f4
00
f0
07
f5
f1
f6
fc
fa
01
ec
f9
ff
ff
01
fb
0c
05
f8
0d
0e
fd
14
f9
1b
cd
ec
17
05
ed
01
04
e9
01
f7
fd
18
fb
e0
fb
12
28
fa
e0
15
19
01
1f
fd
08
f6
f9
dc
ff
e7
e2
03
0e
16
27
fc
02
16
ef
f9
fe
08
fd
11
f5
f1
fd
f6
e9
09
0d
0a
15
e3
1d
f6
01
f0
f9
ff
fd
0a
f7
0b
fc
f8
00
d9
02
f0
12
1d
10
01
01
e7
de
f3
09
07
2a
0a
0b
0a
fd
13
fb
f3
01
17
fa
f0
08
08
06
04
f6
fb
0f
13
fd
16
fb
f1
ff
ed
fc
00
01
fb
f3
e9
f4
0e
00
f2
1d
f4
f3
ec
fd
02
4e
f3
00
e6
fd
06
0e
11
20
1a
e7
e1
0b
0e
1c
fe
f6
e5
0b
ec
f6
f7
e3
16
04
ff
fd
31
fb
05
13
19
03
fa
04
07
fc
01
f9
fa
fc
ff
fe
00
02
01
11
13
f8
14
f4
02
ff
eb
f6
05
fe
09
f9
00
ef
02
f1
fe
ff
fa
06
fd
00
ea
f2
ef
28
ef
62
2d
d9
ec
ed
f3
17
f5
3b
0d
fc
de
eb
3e
0e
10
0d
fe
e3
09
08
0a
e6
0a
00
14
ef
e6
ef
12
02
ef
fa
00
f4
f6
f0
fa
f8
fe
2a
fe
02
fe
f7
03
0d
fa
15
fa
0c
05
00
d8
07
fa
ed
0e
fc
fc
0d
fb
0c
09
06
ed
0d
0b
06
f0
f5
d6
e3
13
12
23
01
45
22
09
f9
eb
17
f5
1c
fe
f8
f7
ea
eb
fb
25
26
07
f2
08
f9
ff
ed
ee
0d
00
05
06
fa
fa
01
05
04
00
fc
ed
f7
0f
15
ff
f5
08
ee
10
f0
10
07
f4
f9
f3
fb
09
f8
01
e3
07
ee
07
04
f2
09
17
2a
ff
06
fe
fd
fc
f8
ee
07
0d
ea
fe
ff
08
0b
01
15
fc
0c
f7
fc
fe
06
03
fe
f5
fa
fe
fb
0c
f4
f2
fd
f5
09
f5
fc
09
07
fd
01
09
06
fb
fb
04
12
09
fa
12
fc
17
fb
02
f7
04
f6
05
0d
f6
0e
e7
06
ff
01
fd
04
05
fc
03
f3
02
fa
f8
f8
10
ff
05
02
07
fc
f4
fa
ed
05
09
09
0c
f4
f6
08
f5
03
09
0a
05
fb
03
09
e1
f8
02
f1
fd
09
02
1d
0c
fc
f5
fb
f4
05
09
00
f8
f3
ff
02
fb
e7
00
f0
ef
f9
06
eb
ff
ee
f6
09
0a
f9
0b
fc
06
fb
fe
02
d7
e5
04
1e
00
fe
04
0d
12
20
f8
1f
ff
fa
04
20
f8
0d
00
fb
e5
f0
f6
0e
fd
20
f5
0b
03
f8
fa
e4
fa
05
0d
f7
26
fa
0a
00
00
0b
02
17
11
19
ff
07
08
01
f9
0e
00
0e
0a
02
02
02
04
fd
fe
fe
01
f1
fe
07
01
fc
06
fa
fb
07
fe
05
f7
01
f9
0c
07
f9
06
03
fb
08
fb
fc
02
0c
05
05
02
ef
0f
fd
00
fb
07
04
f4
02
01
fe
04
f4
f8
07
e9
0f
ed
0f
f6
14
0b
04
f1
fb
ff
01
04
02
f7
10
fc
f8
01
11
06
0c
14
fd
ff
0e
00
0f
f8
fc
f1
f8
09
f0
0d
ee
fb
14
07
fc
07
fc
ff
fc
03
ed
ef
fa
e3
03
15
10
05
0d
ed
1f
dc
03
01
16
0d
01
e8
bb
ef
0b
15
13
2b
18
0a
e1
11
12
ea
d8
fa
0f
08
09
e9
f5
14
f9
43
ff
e3
28
e4
ff
d7
01
e9
f7
00
02
08
13
00
03
ff
12
f4
f6
09
fa
00
f7
0c
ff
f6
01
01
04
05
04
ef
09
f9
00
10
fd
ff
05
00
fd
06
ef
03
07
f3
10
12
fa
01
f5
fc
09
f9
fb
f9
00
fa
fb
22
05
f3
fc
02
00
eb
05
f5
20
1e
f4
19
16
11
0f
f3
ef
02
04
fb
04
1a
f4
47
32
12
e7
f3
e6
14
e3
03
19
ef
05
f5
fe
f4
f6
e3
08
fe
10
09
f3
1a
f7
ed
00
00
fa
df
00
fc
ff
ea
09
0c
4d
01
f3
fb
1b
dd
11
00
d9
f1
f2
00
f5
ef
0d
ea
e9
01
ed
fb
ff
0a
08
13
eb
1b
ef
fb
0b
ff
e3
2c
e5
2d
00
12
f3
15
ef
0b
f5
05
ec
0f
f2
02
23
1e
fe
0e
d9
1c
03
2d
08
01
f8
fa
0a
f1
f6
0b
09
ff
ee
fe
03
01
f0
0b
f6
00
f5
00
0e
fe
0c
fb
f3
0c
f4
d3
03
f3
fb
ef
f5
14
e8
0d
e8
fb
12
18
2b
05
03
da
0f
f0
ed
08
f2
f2
ea
f2
05
04
02
05
0b
fb
fc
00
0d
0c
f9
f5
f2
01
07
03
fd
ef
fd
fb
01
0c
fd
2e
f3
f3
0c
17
f5
0f
dd
f8
d8
ff
11
09
0a
12
f4
0c
f8
07
02
fa
e6
04
f8
28
fa
09
15
fd
00
07
ee
fb
05
f9
1c
0e
08
00
00
11
d9
01
10
f6
05
fe
ee
00
09
f2
01
ff
0d
1d
ff
07
ec
ff
f6
ff
0d
00
ff
f2
ff
ff
0c
fa
f0
f8
f7
03
f3
06
fd
25
f8
0a
06
e4
03
f1
09
09
f9
0a
0b
f7
0c
04
06
fe
ef
f5
ef
06
11
04
f2
f4
f6
16
0d
e9
11
00
1a
19
02
f7
0a
04
fc
06
e9
0d
09
fd
0f
ff
f6
0a
0b
0b
01
f5
fd
f8
05
ff
0a
f3
f8
fe
12
15
05
01
0d
13
0c
06
e4
fa
08
ff
f8
ff
03
03
fa
05
f0
07
f2
ff
0f
fd
0a
10
00
00
07
01
05
03
fc
f7
00
fe
09
11
0e
05
01
fb
03
0d
02
00
0a
0d
08
00
fa
13
06
0f
08
fb
f4
fc
02
e4
16
07
1c
02
05
13
0c
ff
eb
3e
f7
13
f5
fa
f4
1d
fe
f9
0b
ef
ee
fd
f6
f9
e0
e4
11
09
3d
f2
3a
1a
12
35
08
cf
f7
fa
07
03
08
f7
ed
08
f0
01
fd
0c
06
15
00
e7
e8
08
12
e2
0c
f0
0f
f1
12
f7
fc
f7
13
ec
08
06
16
02
00
fa
f2
ef
0c
e4
ec
00
fc
f5
0a
07
04
0d
f7
01
f4
13
ef
f6
ff
e9
f0
05
ec
fa
f3
f5
13
08
fd
f1
03
02
09
1b
13
10
02
f9
15
04
0a
f0
e4
00
f7
16
fa
1d
f5
f1
16
cd
fb
15
0a
0e
0b
eb
f4
09
14
0b
ef
0c
fa
fa
f5
fa
f9
e9
2c
e8
11
ef
eb
f9
19
bb
2b
04
2f
ce
18
fe
c3
0b
d1
13
de
e3
0c
0b
a8
e4
06
ec
0b
00
f8
09
f8
ed
ef
fd
08
1d
16
0e
fe
0b
fd
f1
1c
fa
15
09
18
2c
f8
f5
f9
fd
f9
fe
00
03
08
10
e8
21
fe
ef
22
01
f5
f0
f3
20
fd
f7
f6
0d
fb
01
0b
fa
e3
f4
ec
fd
f4
f1
fe
05
17
02
05
f3
05
06
f7
f9
f8
0e
f8
f0
f7
10
fe
f4
ff
fe
f9
09
13
ff
07
09
f9
f0
ff
08
fc
ec
14
09
0f
fe
fd
07
f8
f0
f9
0d
f8
f5
16
f3
fc
fc
16
00
15
07
f5
04
02
04
f1
1d
f4
fe
03
04
f1
f7
fe
08
0b
1a
fb
f1
fe
12
01
f4
00
fc
f7
00
f8
f7
02
fb
fc
03
f7
0f
02
fb
fa
f6
fb
08
01
f3
04
fa
0b
07
fb
01
01
0a
0b
ff
09
05
fa
02
fc
fe
fd
06
12
f1
f8
fb
fe
00
05
0c
05
02
05
f2
f4
ee
f7
f9
03
e8
ef
0b
fb
05
0c
04
04
f3
f8
ef
10
1d
14
f6
16
09
0d
0c
0f
f7
fc
ff
0b
fe
f2
05
f7
ff
0d
0c
02
f3
ff
f0
0a
f4
01
0e
ec
e6
fa
00
02
00
0f
fb
f7
f3
f4
fa
ff
d5
07
f8
d1
06
f5
f8
f6
ee
ea
0c
f4
00
0f
fd
03
ec
0a
f9
06
fa
08
f5
f2
00
11
f1
f7
08
00
17
f4
ec
1b
f7
fd
07
ff
f2
01
fa
e7
f4
01
f9
02
