f3
ca
f1
00
cd
19
30
e2
da
fd
f5
13
d8
ed
f9
31
03
ea
05
28
ec
03
fc
42
f8
e6
28
de
00
f4
ec
db
d6
01
0c
e2
c8
fe
1d
04
25
d5
02
fa
0c
d2
d5
09
f9
d1
f4
da
dd
1b
c6
0f
fd
07
df
c5
c8
fb
c9
18
0c
f0
f4
16
04
d6
01
e2
16
ec
01
eb
f9
fc
cc
1d
b7
06
e0
ce
09
bd
00
03
ff
f5
ec
17
27
0e
02
04
fd
1d
ef
f5
04
d7
d9
06
16
0b
1a
d6
b5
17
f1
0d
16
d8
c3
cb
15
0e
04
02
e3
02
bc
f3
f0
ce
cc
ce
d9
e9
0a
cd
00
e5
0d
f8
f5
db
cb
06
e2
f9
d6
04
ee
dc
12
d6
df
17
fd
ce
23
00
ca
01
03
1d
f0
38
cd
b8
17
f1
e0
df
2f
1f
0b
d4
dd
01
e3
07
fc
05
c8
ed
e9
01
f1
cf
fc
ee
08
fd
fa
11
16
f9
14
e8
e1
02
ee
f4
cb
06
f9
06
ee
36
ff
e2
2d
ec
bd
eb
f4
c8
ea
0b
06
43
ef
d2
c8
e0
d5
13
f9
cd
c9
1a
09
1c
f0
10
f3
10
f7
31
fb
f8
f5
ce
fd
01
c1
09
fe
11
15
da
0c
c9
04
d0
f8
00
eb
0e
32
25
19
e2
cb
00
03
f6
04
08
00
e3
02
e6
e6
fa
ee
ca
09
d4
fd
0d
cc
04
00
fe
e2
dd
f9
30
f3
c7
e5
d0
00
18
2c
ea
10
fa
de
e0
13
f4
e8
d8
03
00
ec
d9
f1
df
0a
f8
fe
d4
fc
07
11
33
d9
d4
0a
06
2f
04
cb
e9
03
f5
08
d1
ff
03
00
e3
d2
0a
d0
db
01
1a
0c
f3
15
12
d0
d1
09
11
cc
dd
f6
07
ff
ef
17
ef
f9
08
0c
39
05
fd
d2
f1
d7
f7
00
00
f8
20
09
0b
04
da
02
c8
f0
e8
cb
06
fc
da
fa
09
00
f0
ee
2b
0a
05
12
d4
f0
0b
d3
fa
07
ff
10
26
02
f1
fe
d7
ee
f3
cd
0a
f1
e1
17
21
fd
36
fc
02
d1
e2
d1
dc
db
fc
e2
ee
09
0a
d6
f1
fe
f8
d2
c7
f4
16
fa
21
35
fa
d9
eb
15
1a
ed
d5
0b
fd
d1
03
f9
f4
00
d2
f3
a4
00
e3
c2
ce
f2
ee
03
fd
f0
f2
27
ee
ef
ed
fb
cd
26
e1
ff
08
05
02
e3
37
be
20
dc
db
bb
f8
ce
08
08
ff
f9
f2
ef
d7
e5
d1
c8
f9
2e
0a
dc
0d
3f
f7
dc
08
e6
0b
ff
01
cf
ff
10
ea
04
05
29
fc
20
ea
ea
bd
11
20
d8
c5
ef
bc
f6
f5
07
1d
e2
f4
1d
f4
f5
d4
d8
16
14
d8
d6
d9
f9
03
f2
d6
fc
d9
e3
c4
10
26
0c
d7
06
14
dd
01
04
05
1a
22
3f
22
15
04
f7
00
06
d6
f3
bf
d5
dc
d2
14
ca
da
07
ce
03
d1
e7
1d
f4
05
04
10
01
e6
d9
37
fb
ff
07
db
00
05
e9
e2
c9
be
d8
0a
fb
fe
f5
00
01
fb
2d
24
14
cf
e4
fe
e6
1c
18
d7
3f
0d
1c
20
d8
00
06
01
df
fe
ef
f8
ea
e7
f6
cc
03
fc
05
ff
df
e3
df
d1
28
e1
f8
fc
fc
e1
05
ed
e6
f2
da
2f
e9
04
3e
17
1c
ff
17
e3
dd
f3
23
0e
ed
1c
fd
e3
0d
05
06
fc
dc
f3
