e2
8f
c2
f9
f9
8d
bb
e1
c2
b4
b3
e5
0b
88
a4
e9
6e
fe
81
88
85
ae
06
0b
99
e4
ba
b2
92
01
2f
b8
cc
ae
0b
f1
ef
c9
fd
b1
d5
cc
ae
90
56
ac
94
03
93
03
01
6c
ee
c6
a7
f9
1d
c1
fe
b4
a4
da
a6
dd
f8
f1
f4
bb
c9
bc
f7
9f
fa
d9
9e
e1
b6
b0
c6
b3
a3
c8
ba
d8
ad
f4
9b
a7
f6
cc
1a
ac
d4
35
07
98
03
af
0f
b8
99
ea
89
fb
c6
f7
f6
dd
ff
95
ea
88
d1
b9
9d
ec
d7
db
fe
b6
36
82
d1
80
e5
04
cb
16
b3
a6
93
17
9f
eb
d5
e4
cc
f5
ca
a2
ba
bd
39
dc
e2
bc
ad
20
3d
15
c7
a8
b1
90
32
0f
b4
e7
9e
af
bd
04
94
fd
ce
de
9e
81
b9
81
d4
92
d2
05
fa
87
c9
b0
20
f0
fe
a5
c3
c3
9d
b7
ff
db
e3
0c
23
cb
ec
e5
c8
03
b7
a8
ef
a1
e2
87
18
e8
f9
bf
ac
ae
d2
c0
c7
a2
da
03
8b
07
f2
86
f1
6a
98
da
c6
dc
0b
16
ce
12
c5
85
f7
94
58
81
fe
08
cc
c4
a9
47
6f
ac
ea
91
08
00
b5
c3
ba
07
b2
ea
bf
9d
00
1a
04
bc
e6
a1
d1
e6
b3
c7
9a
cb
f3
88
89
9f
b9
c8
a7
f7
f8
f1
20
ac
f7
21
ec
97
b0
46
cc
89
db
be
51
c5
e9
e9
ca
10
a5
b2
02
0c
f2
bd
fb
fc
09
be
06
ba
e5
06
b9
dc
04
22
c1
fd
9c
e1
00
d5
fe
02
91
e6
ef
96
02
01
9d
72
81
ff
f7
86
fc
fb
7d
92
d4
d0
af
c0
c0
a2
89
f3
a5
be
c2
db
97
9f
02
b6
62
d3
53
a6
98
d1
aa
5e
7e
d8
11
05
ee
e1
e3
ed
38
b6
d0
c2
dc
f0
ea
04
cd
b6
91
a3
fa
7b
bb
ce
98
0f
de
f8
8c
08
c4
bf
ff
ae
8e
20
00
c6
03
fc
a4
b2
8f
e7
cb
f5
e9
9e
ad
fb
f2
bf
b9
e4
e7
f8
bd
c3
b9
f5
2b
09
2d
a1
ec
8c
2b
bc
9b
c6
c1
d2
ed
08
f7
fd
a7
b3
f5
f9
07
b6
ef
de
e1
18
41
e5
99
e8
ba
1d
1b
f0
0b
85
ed
03
96
cf
f9
82
9d
c6
02
c4
e4
ec
6c
a5
b7
ea
0b
e0
b9
ff
dd
fa
ca
ab
1c
d0
06
e5
c7
d2
e3
0c
e2
18
ba
c0
26
06
18
78
ff
c5
97
f7
d6
ad
e9
87
f9
fe
6c
2e
bc
e9
97
f3
02
f7
c8
a3
c1
f1
e3
88
dc
da
eb
04
97
da
bd
ab
be
24
c0
17
ad
8b
1b
54
e7
ce
c6
e9
04
88
01
d8
cf
99
f2
f5
b9
ce
f3
db
ba
02
d4
a9
98
c2
22
79
c8
c2
fa
a5
be
c6
c1
d7
d5
9c
d7
fa
f6
d1
fa
bd
04
9b
df
9b
94
ba
f5
c6
d2
43
18
b8
bf
94
f1
ef
d9
d0
dc
fe
0f
ec
d7
bf
1d
ba
d6
e1
f6
9a
f1
b0
16
c6
a1
e9
cd
a8
03
e9
a2
08
b8
a2
c4
9e
a2
dd
b4
9a
a0
cf
b6
bf
55
e7
ff
34
03
26
f8
05
b4
6d
b8
ef
b0
a9
a3
7a
e8
b7
f3
a6
db
09
42
fd
bb
05
da
bb
d6
00
a7
93
f3
c0
c5
0b
b6
f8
aa
cb
ab
4f
f6
82
fa
a2
ea
db
a9
f9
ff
c6
ba
bc
b8
bb
b6
d9
4c
c0
fc
de
07
cd
06
9a
ec
06
a4
17
9c
3e
ad
c9
f7
e8
e8
07
c8
a0
e7
a8
d6
0a
d3
5e
da
f8
a8
dc
97
a4
c5
c2
c8
df
b9
ee
f5
ad
dc
b4
be
fe
05
a9
c1
c6
e8
02
b4
ea
14
25
e4
e0
2e
af
b7
ce
d9
91
d2
dd
95
d7
db
c8
d2
bd
03
b6
ed
f3
f8
ba
bf
b6
99
f5
01
13
db
bb
c5
7f
fc
b4
02
f1
da
97
f3
d8
dc
ff
7f
d1
83
df
91
b8
f4
be
bb
b7
b3
fd
83
dc
bf
b9
03
05
fd
fc
f9
e2
ab
ac
80
ee
fe
b8
ef
ef
c5
a5
00
be
d7
9f
01
c7
8b
01
f7
99
7c
ba
cc
c7
f3
c6
90
96
ef
a6
ec
c5
f9
d8
a5
de
f3
fa
81
01
87
fe
c0
33
cf
c1
23
ef
a4
0e
e6
1a
c7
e4
04
c3
da
ed
e9
13
fe
aa
fe
d0
f8
da
b1
9f
d2
d1
8f
0a
1b
14
c1
fa
7e
fd
05
01
69
0b
9c
0d
c5
c4
c0
b0
6a
ee
d4
fd
f3
c1
b7
01
b4
b9
0b
ef
01
02
00
ed
9c
00
93
ce
f3
e4
ff
d8
f4
b4
d9
f5
f8
0b
dd
b4
9e
3e
7c
31
9a
a5
01
97
d3
77
aa
3f
b3
d7
f5
8d
ac
e5
ea
eb
b2
dd
d5
ab
f8
df
d6
7d
10
06
97
dc
93
84
8c
5e
95
a0
e9
fb
f5
c3
f7
c8
be
a4
f9
02
02
f0
be
e9
03
ac
0c
c4
ae
34
fb
be
8a
01
e0
07
29
d3
e7
a4
07
99
cf
2f
f2
2c
d3
fb
d2
d8
b8
fc
33
00
ad
f9
c0
ea
81
e4
a3
bf
01
9e
e4
96
36
88
f3
9c
f3
9f
c6
d2
bd
92
f6
8f
00
9c
b7
99
04
bc
d6
de
e7
92
c2
e8
bc
b1
bc
2a
99
e7
ea
9d
fe
f2
d4
05
bb
cd
a9
8e
fb
da
01
ef
e4
dc
ab
b3
3d
ba
c1
6a
aa
de
b1
bd
85
7e
c5
37
a7
d6
e8
ca
08
79
cd
ea
a2
ef
3f
b1
9d
dc
a4
c0
e4
e3
95
19
cf
f7
ee
e9
f8
98
86
e0
12
f6
01
c6
18
05
8d
92
30
1e
e0
bc
04
ee
db
71
b1
84
d0
2f
10
13
ba
19
da
7d
9a
ff
ed
ac
80
a8
e1
f0
20
dd
94
8f
ab
e5
65
8f
